{
  "version": "1.0",
  "truncation": null,
  "padding": null,
  "added_tokens": [
    {
      "id": 0,
      "content": "<|pad|>",
      "single_word": false,
      "lstrip": false,
      "rstrip": false,
      "normalized": false,
      "special": true
    },
    {
      "id": 1,
      "content": "<|cls|>",
      "single_word": false,
      "lstrip": false,
      "rstrip": false,
      "normalized": false,
      "special": true
    },
    {
      "id": 2,
      "content": "<|sep|>",
      "single_word": false,
      "lstrip": false,
      "rstrip": false,
      "normalized": false,
      "special": true
    },
    {
      "id": 3,
      "content": "<|mask|>",
      "single_word": false,
      "lstrip": false,
      "rstrip": false,
      "normalized": false,
      "special": true
    },
    {
      "id": 4,
      "content": "<|endoftext|>",
      "single_word": false,
      "lstrip": false,
      "rstrip": false,
      "normalized": false,
      "special": true
    },
    {
      "id": 5,
      "content": "<|金庸-书剑恩仇录txt精校版|>",
      "single_word": false,
      "lstrip": false,
      "rstrip": false,
      "normalized": false,
      "special": true
    },
    {
      "id": 6,
      "content": "<|金庸-侠客行txt全本精校版|>",
      "single_word": false,
      "lstrip": false,
      "rstrip": false,
      "normalized": false,
      "special": true
    },
    {
      "id": 7,
      "content": "<|金庸-倚天屠龙记txt精校版|>",
      "single_word": false,
      "lstrip": false,
      "rstrip": false,
      "normalized": false,
      "special": true
    },
    {
      "id": 8,
      "content": "<|金庸-天龙八部txt精校版|>",
      "single_word": false,
      "lstrip": false,
      "rstrip": false,
      "normalized": false,
      "special": true
    },
    {
      "id": 9,
      "content": "<|金庸-射雕英雄传txt精校版|>",
      "single_word": false,
      "lstrip": false,
      "rstrip": false,
      "normalized": false,
      "special": true
    },
    {
      "id": 10,
      "content": "<|金庸-白马啸西风txt精校版|>",
      "single_word": false,
      "lstrip": false,
      "rstrip": false,
      "normalized": false,
      "special": true
    },
    {
      "id": 11,
      "content": "<|金庸-碧血剑txt精校版|>",
      "single_word": false,
      "lstrip": false,
      "rstrip": false,
      "normalized": false,
      "special": true
    },
    {
      "id": 12,
      "content": "<|金庸-神雕侠侣txt精校版|>",
      "single_word": false,
      "lstrip": false,
      "rstrip": false,
      "normalized": false,
      "special": true
    },
    {
      "id": 13,
      "content": "<|金庸-笑傲江湖txt精校版|>",
      "single_word": false,
      "lstrip": false,
      "rstrip": false,
      "normalized": false,
      "special": true
    },
    {
      "id": 14,
      "content": "<|金庸-越女剑txt精校版|>",
      "single_word": false,
      "lstrip": false,
      "rstrip": false,
      "normalized": false,
      "special": true
    },
    {
      "id": 15,
      "content": "<|金庸-连城诀txt精校版|>",
      "single_word": false,
      "lstrip": false,
      "rstrip": false,
      "normalized": false,
      "special": true
    },
    {
      "id": 16,
      "content": "<|金庸-雪山飞狐txt精校版|>",
      "single_word": false,
      "lstrip": false,
      "rstrip": false,
      "normalized": false,
      "special": true
    },
    {
      "id": 17,
      "content": "<|金庸-飞狐外传txt精校版|>",
      "single_word": false,
      "lstrip": false,
      "rstrip": false,
      "normalized": false,
      "special": true
    },
    {
      "id": 18,
      "content": "<|金庸-鸳鸯刀txt精校版|>",
      "single_word": false,
      "lstrip": false,
      "rstrip": false,
      "normalized": false,
      "special": true
    },
    {
      "id": 19,
      "content": "<|金庸-鹿鼎记txt精校版|>",
      "single_word": false,
      "lstrip": false,
      "rstrip": false,
      "normalized": false,
      "special": true
    },
    {
      "id": 20,
      "content": "<|七杀手|>",
      "single_word": false,
      "lstrip": false,
      "rstrip": false,
      "normalized": false,
      "special": true
    },
    {
      "id": 21,
      "content": "<|三少爷的剑|>",
      "single_word": false,
      "lstrip": false,
      "rstrip": false,
      "normalized": false,
      "special": true
    },
    {
      "id": 22,
      "content": "<|九月鹰飞|>",
      "single_word": false,
      "lstrip": false,
      "rstrip": false,
      "normalized": false,
      "special": true
    },
    {
      "id": 23,
      "content": "<|借尸还魂|>",
      "single_word": false,
      "lstrip": false,
      "rstrip": false,
      "normalized": false,
      "special": true
    },
    {
      "id": 24,
      "content": "<|凤舞九天|>",
      "single_word": false,
      "lstrip": false,
      "rstrip": false,
      "normalized": false,
      "special": true
    },
    {
      "id": 25,
      "content": "<|多情剑客无情剑|>",
      "single_word": false,
      "lstrip": false,
      "rstrip": false,
      "normalized": false,
      "special": true
    },
    {
      "id": 26,
      "content": "<|多情环|>",
      "single_word": false,
      "lstrip": false,
      "rstrip": false,
      "normalized": false,
      "special": true
    },
    {
      "id": 27,
      "content": "<|大地飞鹰|>",
      "single_word": false,
      "lstrip": false,
      "rstrip": false,
      "normalized": false,
      "special": true
    },
    {
      "id": 28,
      "content": "<|大旗英雄传|>",
      "single_word": false,
      "lstrip": false,
      "rstrip": false,
      "normalized": false,
      "special": true
    },
    {
      "id": 29,
      "content": "<|大沙漠|>",
      "single_word": false,
      "lstrip": false,
      "rstrip": false,
      "normalized": false,
      "special": true
    },
    {
      "id": 30,
      "content": "<|天涯·明月·刀|>",
      "single_word": false,
      "lstrip": false,
      "rstrip": false,
      "normalized": false,
      "special": true
    },
    {
      "id": 31,
      "content": "<|孔雀翎|>",
      "single_word": false,
      "lstrip": false,
      "rstrip": false,
      "normalized": false,
      "special": true
    },
    {
      "id": 32,
      "content": "<|护花铃|>",
      "single_word": false,
      "lstrip": false,
      "rstrip": false,
      "normalized": false,
      "special": true
    },
    {
      "id": 33,
      "content": "<|拳头|>",
      "single_word": false,
      "lstrip": false,
      "rstrip": false,
      "normalized": false,
      "special": true
    },
    {
      "id": 34,
      "content": "<|新月传奇|>",
      "single_word": false,
      "lstrip": false,
      "rstrip": false,
      "normalized": false,
      "special": true
    },
    {
      "id": 35,
      "content": "<|桃花传奇|>",
      "single_word": false,
      "lstrip": false,
      "rstrip": false,
      "normalized": false,
      "special": true
    },
    {
      "id": 36,
      "content": "<|武林外史|>",
      "single_word": false,
      "lstrip": false,
      "rstrip": false,
      "normalized": false,
      "special": true
    },
    {
      "id": 37,
      "content": "<|流星·蝴蝶·剑|>",
      "single_word": false,
      "lstrip": false,
      "rstrip": false,
      "normalized": false,
      "special": true
    },
    {
      "id": 38,
      "content": "<|浣花洗剑录|>",
      "single_word": false,
      "lstrip": false,
      "rstrip": false,
      "normalized": false,
      "special": true
    },
    {
      "id": 39,
      "content": "<|火并萧十一郎|>",
      "single_word": false,
      "lstrip": false,
      "rstrip": false,
      "normalized": false,
      "special": true
    },
    {
      "id": 40,
      "content": "<|画眉鸟|>",
      "single_word": false,
      "lstrip": false,
      "rstrip": false,
      "normalized": false,
      "special": true
    },
    {
      "id": 41,
      "content": "<|白玉老虎|>",
      "single_word": false,
      "lstrip": false,
      "rstrip": false,
      "normalized": false,
      "special": true
    },
    {
      "id": 42,
      "content": "<|碧玉刀|>",
      "single_word": false,
      "lstrip": false,
      "rstrip": false,
      "normalized": false,
      "special": true
    },
    {
      "id": 43,
      "content": "<|碧血洗银枪|>",
      "single_word": false,
      "lstrip": false,
      "rstrip": false,
      "normalized": false,
      "special": true
    },
    {
      "id": 44,
      "content": "<|离别钩|>",
      "single_word": false,
      "lstrip": false,
      "rstrip": false,
      "normalized": false,
      "special": true
    },
    {
      "id": 45,
      "content": "<|绝代双骄|>",
      "single_word": false,
      "lstrip": false,
      "rstrip": false,
      "normalized": false,
      "special": true
    },
    {
      "id": 46,
      "content": "<|英雄无泪|>",
      "single_word": false,
      "lstrip": false,
      "rstrip": false,
      "normalized": false,
      "special": true
    },
    {
      "id": 47,
      "content": "<|萧十一郎|>",
      "single_word": false,
      "lstrip": false,
      "rstrip": false,
      "normalized": false,
      "special": true
    },
    {
      "id": 48,
      "content": "<|蝙蝠传奇|>",
      "single_word": false,
      "lstrip": false,
      "rstrip": false,
      "normalized": false,
      "special": true
    },
    {
      "id": 49,
      "content": "<|血海飘香|>",
      "single_word": false,
      "lstrip": false,
      "rstrip": false,
      "normalized": false,
      "special": true
    },
    {
      "id": 50,
      "content": "<|边城浪子|>",
      "single_word": false,
      "lstrip": false,
      "rstrip": false,
      "normalized": false,
      "special": true
    },
    {
      "id": 51,
      "content": "<|长生剑|>",
      "single_word": false,
      "lstrip": false,
      "rstrip": false,
      "normalized": false,
      "special": true
    },
    {
      "id": 52,
      "content": "<|陆小凤传奇|>",
      "single_word": false,
      "lstrip": false,
      "rstrip": false,
      "normalized": false,
      "special": true
    },
    {
      "id": 53,
      "content": "<|霸王枪|>",
      "single_word": false,
      "lstrip": false,
      "rstrip": false,
      "normalized": false,
      "special": true
    },
    {
      "id": 54,
      "content": "<|风铃中的刀声|>",
      "single_word": false,
      "lstrip": false,
      "rstrip": false,
      "normalized": false,
      "special": true
    },
    {
      "id": 55,
      "content": "<|飞刀，又见飞刀|>",
      "single_word": false,
      "lstrip": false,
      "rstrip": false,
      "normalized": false,
      "special": true
    },
    {
      "id": 56,
      "content": "<|梁羽生-七剑下天山|>",
      "single_word": false,
      "lstrip": false,
      "rstrip": false,
      "normalized": false,
      "special": true
    },
    {
      "id": 57,
      "content": "<|梁羽生-冰河洗剑录|>",
      "single_word": false,
      "lstrip": false,
      "rstrip": false,
      "normalized": false,
      "special": true
    },
    {
      "id": 58,
      "content": "<|梁羽生-白发魔女传|>",
      "single_word": false,
      "lstrip": false,
      "rstrip": false,
      "normalized": false,
      "special": true
    },
    {
      "id": 59,
      "content": "<|亲吻指尖-人道纪元|>",
      "single_word": false,
      "lstrip": false,
      "rstrip": false,
      "normalized": false,
      "special": true
    },
    {
      "id": 60,
      "content": "<|亲吻指尖-黄庭|>",
      "single_word": false,
      "lstrip": false,
      "rstrip": false,
      "normalized": false,
      "special": true
    },
    {
      "id": 61,
      "content": "<|减肥专家-幽冥仙途|>",
      "single_word": false,
      "lstrip": false,
      "rstrip": false,
      "normalized": false,
      "special": true
    },
    {
      "id": 62,
      "content": "<|减肥专家-问镜|>",
      "single_word": false,
      "lstrip": false,
      "rstrip": false,
      "normalized": false,
      "special": true
    },
    {
      "id": 63,
      "content": "<|凤歌-昆仑|>",
      "single_word": false,
      "lstrip": false,
      "rstrip": false,
      "normalized": false,
      "special": true
    },
    {
      "id": 64,
      "content": "<|凤歌-沧海|>",
      "single_word": false,
      "lstrip": false,
      "rstrip": false,
      "normalized": false,
      "special": true
    },
    {
      "id": 65,
      "content": "<|小椴-杯雪|>",
      "single_word": false,
      "lstrip": false,
      "rstrip": false,
      "normalized": false,
      "special": true
    },
    {
      "id": 66,
      "content": "<|忘语-凡人修仙传|>",
      "single_word": false,
      "lstrip": false,
      "rstrip": false,
      "normalized": false,
      "special": true
    },
    {
      "id": 67,
      "content": "<|梦入神机-佛本是道|>",
      "single_word": false,
      "lstrip": false,
      "rstrip": false,
      "normalized": false,
      "special": true
    },
    {
      "id": 68,
      "content": "<|梦入神机-阳神|>",
      "single_word": false,
      "lstrip": false,
      "rstrip": false,
      "normalized": false,
      "special": true
    },
    {
      "id": 69,
      "content": "<|烽火戏诸侯-雪中悍刀行|>",
      "single_word": false,
      "lstrip": false,
      "rstrip": false,
      "normalized": false,
      "special": true
    },
    {
      "id": 70,
      "content": "<|爱潜水的乌贼-灭运图录|>",
      "single_word": false,
      "lstrip": false,
      "rstrip": false,
      "normalized": false,
      "special": true
    },
    {
      "id": 71,
      "content": "<|猫腻-将夜|>",
      "single_word": false,
      "lstrip": false,
      "rstrip": false,
      "normalized": false,
      "special": true
    },
    {
      "id": 72,
      "content": "<|猫腻-庆余年|>",
      "single_word": false,
      "lstrip": false,
      "rstrip": false,
      "normalized": false,
      "special": true
    },
    {
      "id": 73,
      "content": "<|管平潮-仙路烟尘|>",
      "single_word": false,
      "lstrip": false,
      "rstrip": false,
      "normalized": false,
      "special": true
    },
    {
      "id": 74,
      "content": "<|耳根-仙逆|>",
      "single_word": false,
      "lstrip": false,
      "rstrip": false,
      "normalized": false,
      "special": true
    },
    {
      "id": 75,
      "content": "<|萧鼎-诛仙|>",
      "single_word": false,
      "lstrip": false,
      "rstrip": false,
      "normalized": false,
      "special": true
    },
    {
      "id": 76,
      "content": "<|辰东-长生界|>",
      "single_word": false,
      "lstrip": false,
      "rstrip": false,
      "normalized": false,
      "special": true
    },
    {
      "id": 77,
      "content": "<|诸葛青云-一剑光寒十四州|>",
      "single_word": false,
      "lstrip": false,
      "rstrip": false,
      "normalized": false,
      "special": true
    },
    {
      "id": 78,
      "content": "<|诸葛青云-仙剑山庄|>",
      "single_word": false,
      "lstrip": false,
      "rstrip": false,
      "normalized": false,
      "special": true
    },
    {
      "id": 79,
      "content": "<|诸葛青云-江湖夜雨十年灯|>",
      "single_word": false,
      "lstrip": false,
      "rstrip": false,
      "normalized": false,
      "special": true
    },
    {
      "id": 80,
      "content": "<|诸葛青云-紫电青霜|>",
      "single_word": false,
      "lstrip": false,
      "rstrip": false,
      "normalized": false,
      "special": true
    },
    {
      "id": 81,
      "content": "<|诸葛青云-铁板铜琶|>",
      "single_word": false,
      "lstrip": false,
      "rstrip": false,
      "normalized": false,
      "special": true
    },
    {
      "id": 82,
      "content": "<|大唐双龙传|>",
      "single_word": false,
      "lstrip": false,
      "rstrip": false,
      "normalized": false,
      "special": true
    },
    {
      "id": 83,
      "content": "<|破碎虚空|>",
      "single_word": false,
      "lstrip": false,
      "rstrip": false,
      "normalized": false,
      "special": true
    }
  ],
  "normalizer": null,
  "pre_tokenizer": {
    "type": "ByteLevel",
    "add_prefix_space": false,
    "trim_offsets": true,
    "use_regex": true
  },
  "post_processor": null,
  "decoder": {
    "type": "ByteLevel",
    "add_prefix_space": true,
    "trim_offsets": true,
    "use_regex": true
  },
  "model": {
    "type": "BPE",
    "dropout": null,
    "unk_token": null,
    "continuing_subword_prefix": null,
    "end_of_word_suffix": null,
    "fuse_unk": false,
    "byte_fallback": false,
    "ignore_merges": false,
    "vocab": {
      "<|pad|>": 0,
      "<|cls|>": 1,
      "<|sep|>": 2,
      "<|mask|>": 3,
      "<|endoftext|>": 4,
      "<|金庸-书剑恩仇录txt精校版|>": 5,
      "<|金庸-侠客行txt全本精校版|>": 6,
      "<|金庸-倚天屠龙记txt精校版|>": 7,
      "<|金庸-天龙八部txt精校版|>": 8,
      "<|金庸-射雕英雄传txt精校版|>": 9,
      "<|金庸-白马啸西风txt精校版|>": 10,
      "<|金庸-碧血剑txt精校版|>": 11,
      "<|金庸-神雕侠侣txt精校版|>": 12,
      "<|金庸-笑傲江湖txt精校版|>": 13,
      "<|金庸-越女剑txt精校版|>": 14,
      "<|金庸-连城诀txt精校版|>": 15,
      "<|金庸-雪山飞狐txt精校版|>": 16,
      "<|金庸-飞狐外传txt精校版|>": 17,
      "<|金庸-鸳鸯刀txt精校版|>": 18,
      "<|金庸-鹿鼎记txt精校版|>": 19,
      "<|七杀手|>": 20,
      "<|三少爷的剑|>": 21,
      "<|九月鹰飞|>": 22,
      "<|借尸还魂|>": 23,
      "<|凤舞九天|>": 24,
      "<|多情剑客无情剑|>": 25,
      "<|多情环|>": 26,
      "<|大地飞鹰|>": 27,
      "<|大旗英雄传|>": 28,
      "<|大沙漠|>": 29,
      "<|天涯·明月·刀|>": 30,
      "<|孔雀翎|>": 31,
      "<|护花铃|>": 32,
      "<|拳头|>": 33,
      "<|新月传奇|>": 34,
      "<|桃花传奇|>": 35,
      "<|武林外史|>": 36,
      "<|流星·蝴蝶·剑|>": 37,
      "<|浣花洗剑录|>": 38,
      "<|火并萧十一郎|>": 39,
      "<|画眉鸟|>": 40,
      "<|白玉老虎|>": 41,
      "<|碧玉刀|>": 42,
      "<|碧血洗银枪|>": 43,
      "<|离别钩|>": 44,
      "<|绝代双骄|>": 45,
      "<|英雄无泪|>": 46,
      "<|萧十一郎|>": 47,
      "<|蝙蝠传奇|>": 48,
      "<|血海飘香|>": 49,
      "<|边城浪子|>": 50,
      "<|长生剑|>": 51,
      "<|陆小凤传奇|>": 52,
      "<|霸王枪|>": 53,
      "<|风铃中的刀声|>": 54,
      "<|飞刀，又见飞刀|>": 55,
      "<|梁羽生-七剑下天山|>": 56,
      "<|梁羽生-冰河洗剑录|>": 57,
      "<|梁羽生-白发魔女传|>": 58,
      "<|亲吻指尖-人道纪元|>": 59,
      "<|亲吻指尖-黄庭|>": 60,
      "<|减肥专家-幽冥仙途|>": 61,
      "<|减肥专家-问镜|>": 62,
      "<|凤歌-昆仑|>": 63,
      "<|凤歌-沧海|>": 64,
      "<|小椴-杯雪|>": 65,
      "<|忘语-凡人修仙传|>": 66,
      "<|梦入神机-佛本是道|>": 67,
      "<|梦入神机-阳神|>": 68,
      "<|烽火戏诸侯-雪中悍刀行|>": 69,
      "<|爱潜水的乌贼-灭运图录|>": 70,
      "<|猫腻-将夜|>": 71,
      "<|猫腻-庆余年|>": 72,
      "<|管平潮-仙路烟尘|>": 73,
      "<|耳根-仙逆|>": 74,
      "<|萧鼎-诛仙|>": 75,
      "<|辰东-长生界|>": 76,
      "<|诸葛青云-一剑光寒十四州|>": 77,
      "<|诸葛青云-仙剑山庄|>": 78,
      "<|诸葛青云-江湖夜雨十年灯|>": 79,
      "<|诸葛青云-紫电青霜|>": 80,
      "<|诸葛青云-铁板铜琶|>": 81,
      "<|大唐双龙传|>": 82,
      "<|破碎虚空|>": 83,
      "!": 84,
      "\"": 85,
      "#": 86,
      "$": 87,
      "%": 88,
      "&": 89,
      "'": 90,
      "(": 91,
      ")": 92,
      "*": 93,
      "+": 94,
      ",": 95,
      "-": 96,
      ".": 97,
      "/": 98,
      "0": 99,
      "1": 100,
      "2": 101,
      "3": 102,
      "4": 103,
      "5": 104,
      "6": 105,
      "7": 106,
      "8": 107,
      "9": 108,
      ":": 109,
      ";": 110,
      "<": 111,
      "=": 112,
      ">": 113,
      "?": 114,
      "@": 115,
      "A": 116,
      "B": 117,
      "C": 118,
      "D": 119,
      "E": 120,
      "F": 121,
      "G": 122,
      "H": 123,
      "I": 124,
      "J": 125,
      "K": 126,
      "L": 127,
      "M": 128,
      "N": 129,
      "O": 130,
      "P": 131,
      "Q": 132,
      "R": 133,
      "S": 134,
      "T": 135,
      "U": 136,
      "V": 137,
      "W": 138,
      "X": 139,
      "Y": 140,
      "Z": 141,
      "[": 142,
      "\\": 143,
      "]": 144,
      "^": 145,
      "_": 146,
      "`": 147,
      "a": 148,
      "b": 149,
      "c": 150,
      "d": 151,
      "e": 152,
      "f": 153,
      "g": 154,
      "h": 155,
      "i": 156,
      "j": 157,
      "k": 158,
      "l": 159,
      "m": 160,
      "n": 161,
      "o": 162,
      "p": 163,
      "q": 164,
      "r": 165,
      "s": 166,
      "t": 167,
      "u": 168,
      "v": 169,
      "w": 170,
      "x": 171,
      "y": 172,
      "z": 173,
      "{": 174,
      "|": 175,
      "}": 176,
      "~": 177,
      "¡": 178,
      "¢": 179,
      "£": 180,
      "¤": 181,
      "¥": 182,
      "¦": 183,
      "§": 184,
      "¨": 185,
      "©": 186,
      "ª": 187,
      "«": 188,
      "¬": 189,
      "®": 190,
      "¯": 191,
      "°": 192,
      "±": 193,
      "²": 194,
      "³": 195,
      "´": 196,
      "µ": 197,
      "¶": 198,
      "·": 199,
      "¸": 200,
      "¹": 201,
      "º": 202,
      "»": 203,
      "¼": 204,
      "½": 205,
      "¾": 206,
      "¿": 207,
      "À": 208,
      "Á": 209,
      "Â": 210,
      "Ã": 211,
      "Ä": 212,
      "Å": 213,
      "Æ": 214,
      "Ç": 215,
      "È": 216,
      "É": 217,
      "Ê": 218,
      "Ë": 219,
      "Ì": 220,
      "Í": 221,
      "Î": 222,
      "Ï": 223,
      "Ð": 224,
      "Ñ": 225,
      "Ò": 226,
      "Ó": 227,
      "Ô": 228,
      "Õ": 229,
      "Ö": 230,
      "×": 231,
      "Ø": 232,
      "Ù": 233,
      "Ú": 234,
      "Û": 235,
      "Ü": 236,
      "Ý": 237,
      "Þ": 238,
      "ß": 239,
      "à": 240,
      "á": 241,
      "â": 242,
      "ã": 243,
      "ä": 244,
      "å": 245,
      "æ": 246,
      "ç": 247,
      "è": 248,
      "é": 249,
      "ê": 250,
      "ë": 251,
      "ì": 252,
      "í": 253,
      "î": 254,
      "ï": 255,
      "ð": 256,
      "ñ": 257,
      "ò": 258,
      "ó": 259,
      "ô": 260,
      "õ": 261,
      "ö": 262,
      "÷": 263,
      "ø": 264,
      "ù": 265,
      "ú": 266,
      "û": 267,
      "ü": 268,
      "ý": 269,
      "þ": 270,
      "ÿ": 271,
      "Ā": 272,
      "ā": 273,
      "Ă": 274,
      "ă": 275,
      "Ą": 276,
      "ą": 277,
      "Ć": 278,
      "ć": 279,
      "Ĉ": 280,
      "ĉ": 281,
      "Ċ": 282,
      "ċ": 283,
      "Č": 284,
      "č": 285,
      "Ď": 286,
      "ď": 287,
      "Đ": 288,
      "đ": 289,
      "Ē": 290,
      "ē": 291,
      "Ĕ": 292,
      "ĕ": 293,
      "Ė": 294,
      "ė": 295,
      "Ę": 296,
      "ę": 297,
      "Ě": 298,
      "ě": 299,
      "Ĝ": 300,
      "ĝ": 301,
      "Ğ": 302,
      "ğ": 303,
      "Ġ": 304,
      "ġ": 305,
      "Ģ": 306,
      "ģ": 307,
      "Ĥ": 308,
      "ĥ": 309,
      "Ħ": 310,
      "ħ": 311,
      "Ĩ": 312,
      "ĩ": 313,
      "Ī": 314,
      "ī": 315,
      "Ĭ": 316,
      "ĭ": 317,
      "Į": 318,
      "į": 319,
      "İ": 320,
      "ı": 321,
      "Ĳ": 322,
      "ĳ": 323,
      "Ĵ": 324,
      "ĵ": 325,
      "Ķ": 326,
      "ķ": 327,
      "ĸ": 328,
      "Ĺ": 329,
      "ĺ": 330,
      "Ļ": 331,
      "ļ": 332,
      "Ľ": 333,
      "ľ": 334,
      "Ŀ": 335,
      "ŀ": 336,
      "Ł": 337,
      "ł": 338,
      "Ń": 339,
      "ï¼": 340,
      "ï¼Į": 341,
      "ä¸": 342,
      "äº": 343,
      "çļ": 344,
      "çļĦ": 345,
      "âĢ": 346,
      "ãĢ": 347,
      "ä»": 348,
      "ãĢĤ": 349,
      "å¤": 350,
      "è¿": 351,
      "åı": 352,
      "ä¸Ģ": 353,
      "æĺ": 354,
      "ä¹": 355,
      "æľ": 356,
      "ä½": 357,
      "ä¸į": 358,
      "æĺ¯": 359,
      "åľ": 360,
      "äºĨ": 361,
      "å°": 362,
      "åĲ": 363,
      "åħ": 364,
      "éģ": 365,
      "åĪ": 366,
      "æĿ": 367,
      "éģĵ": 368,
      "âĢľ": 369,
      "âĢĿ": 370,
      "åĩ": 371,
      "æĹ": 372,
      "å®": 373,
      "æī": 374,
      "äºº": 375,
      "è¿Ļ": 376,
      "æĪ": 377,
      "åľ¨": 378,
      "åį": 379,
      "è¯": 380,
      "æľī": 381,
      "å¾": 382,
      "ä»ĸ": 383,
      "çľ": 384,
      "æŃ": 385,
      "å¥": 386,
      "å¿": 387,
      "ï¼ļ": 388,
      "æĿ¥": 389,
      "èĢ": 390,
      "åŃ": 391,
      "ï¼ļâĢľ": 392,
      "åĬ": 393,
      "åĨ": 394,
      "å¤§": 395,
      "éĹ": 396,
      "ä¼": 397,
      "éĤ": 398,
      "ä¹ĭ": 399,
      "å·": 400,
      "å¼": 401,
      "ç»": 402,
      "éĤ£": 403,
      "æĪĳ": 404,
      "ä¸Ĭ": 405,
      "ä¸Ń": 406,
      "åĩº": 407,
      "æĥ": 408,
      "ĥ½": 409,
      "åİ": 410,
      "çİ": 411,
      "èµ": 412,
      "éĩ": 413,
      "çĦ": 414,
      "çĿ": 415,
      "çĶ": 416,
      "ä¸ĭ": 417,
      "ä½ł": 418,
      "å¹": 419,
      "æĢ": 420,
      "éĿ": 421,
      "çĦ¶": 422,
      "åŃĲ": 423,
      "ä¸ª": 424,
      "åĽ": 425,
      "è§": 426,
      "ä¹Ł": 427,
      "ãĢĤâĢĿ": 428,
      "æ²": 429,
      "åī": 430,
      "èĩ": 431,
      "çĿĢ": 432,
      "å¦": 433,
      "å°±": 434,
      "čĊ": 435,
      "çĽ": 436,
      "åĪ°": 437,
      "å¯": 438,
      "æĸ": 439,
      "æķ": 440,
      "è¯´": 441,
      "èº": 442,
      "å¸": 443,
      "å¤©": 444,
      "å£": 445,
      "ç«": 446,
      "ç¥": 447,
      "å½": 448,
      "ç¬": 449,
      "èº«": 450,
      "ï¼Ł": 451,
      "çŁ": 452,
      "å¾Ĺ": 453,
      "æ°": 454,
      "è®": 455,
      "æĹ¶": 456,
      "¦ģ": 457,
      "æŀ": 458,
      "æīĭ": 459,
      "æĬ": 460,
      "åľ°": 461,
      "è¿ĩ": 462,
      "è¡": 463,
      "è½": 464,
      "åıª": 465,
      "éĢ": 466,
      "å¿ĥ": 467,
      "åİ»": 468,
      "åĲİ": 469,
      "ï¼ģ": 470,
      "æĹł": 471,
      "è¦ģ": 472,
      "åº": 473,
      "å±": 474,
      "æĦ": 475,
      "éĻ": 476,
      "èĩª": 477,
      "ä¸º": 478,
      "ä¹Ī": 479,
      "èĢĮ": 480,
      "æ³": 481,
      "åı¯": 482,
      "çľĭ": 483,
      "éĺ": 484,
      "æŃ¤": 485,
      "ç¥ŀ": 486,
      "âĢ¦": 487,
      "ä¾": 488,
      "éĥ½": 489,
      "åĳ": 490,
      "å°ı": 491,
      "æ²¡": 492,
      "å£°": 493,
      "å¦Ĥ": 494,
      "æİ": 495,
      "æĭ": 496,
      "å¤´": 497,
      "èµ·": 498,
      "åĴ": 499,
      "æł": 500,
      "çģ": 501,
      "è¿ĺ": 502,
      "ä»¬": 503,
      "ä»¥": 504,
      "éļ": 505,
      "èĥ½": 506,
      "éĩĮ": 507,
      "å·²": 508,
      "æ¯": 509,
      "è¾": 510,
      "ä¿": 511,
      "ä½Ĩ": 512,
      "é£": 513,
      "åĵ": 514,
      "å¥½": 515,
      "æµ": 516,
      "çĻ": 517,
      "ç§": 518,
      "æĥ³": 519,
      "ç¬ĳ": 520,
      "ï¼ŁâĢĿ": 521,
      "æ°Ķ": 522,
      "åį´": 523,
      "è¢": 524,
      "çº": 525,
      "ç©": 526,
      "åħī": 527,
      "éĿ¢": 528,
      "æ¸": 529,
      "çŁ¥": 530,
      "è§ģ": 531,
      "å¯¹": 532,
      "åīį": 533,
      "ä¼ļ": 534,
      "åĮ": 535,
      "äºĽ": 536,
      "éĽ": 537,
      "èĭ": 538,
      "çī": 539,
      "èĦ": 540,
      "èĻ": 541,
      "èĢģ": 542,
      "çľ¼": 543,
      "å¥¹": 544,
      "èī": 545,
      "å¹´": 546,
      "æĮ": 547,
      "åıĪ": 548,
      "æ´": 549,
      "çĤ": 550,
      "ä¸¤": 551,
      "çİĭ": 552,
      "éĹ´": 553,
      "è·": 554,
      "æ³ķ": 555,
      "æģ": 556,
      "æ²¡æľī": 557,
      "å¤ļ": 558,
      "é»": 559,
      "æĻ": 560,
      "çľŁ": 561,
      "åĢ": 562,
      "ä¾¿": 563,
      "äºĭ": 564,
      "çĶŁ": 565,
      "åĴĮ": 566,
      "æĸ¹": 567,
      "åīĳ": 568,
      "çķ": 569,
      "æĽ": 570,
      "èĲ": 571,
      "èī²": 572,
      "ä¸ī": 573,
      "åĬĽ": 574,
      "å¼Ģ": 575,
      "éķ": 576,
      "éŁ": 577,
      "åĬ¨": 578,
      "å°Ĩ": 579,
      "è°": 580,
      "å½ĵ": 581,
      "åħ¶": 582,
      "åģ": 583,
      "ç¼": 584,
      "ä¸Ģä¸ª": 585,
      "èĪ": 586,
      "æĶ": 587,
      "çİ°": 588,
      "æĦı": 589,
      "ä»Ģ": 590,
      "ä»Ģä¹Ī": 591,
      "æīĢ": 592,
      "éľ": 593,
      "æĪĲ": 594,
      "ç®": 595,
      "ç«ĭ": 596,
      "å§": 597,
      "æ¬": 598,
      "åįģ": 599,
      "éŃ": 600,
      "åĲĳ": 601,
      "çŃ": 602,
      "åıĳ": 603,
      "çĭ": 604,
      "ï¼ģâĢĿ": 605,
      "åĸ": 606,
      "èĤ": 607,
      "æ·": 608,
      "åĨį": 609,
      "è¢«": 610,
      "é¢": 611,
      "æł·": 612,
      "è´": 613,
      "âĢ¦âĢ¦": 614,
      "æŃ£": 615,
      "å±±": 616,
      "èĬ": 617,
      "çĻ½": 618,
      "åı£": 619,
      "è¶": 620,
      "èĥ": 621,
      "å·±": 622,
      "å¸Ī": 623,
      "éĹ¨": 624,
      "ä»İ": 625,
      "ç©º": 626,
      "ãĢģ": 627,
      "åĿ": 628,
      "éķ¿": 629,
      "é¡": 630,
      "çĪ": 631,
      "åĽŀ": 632,
      "æŃ»": 633,
      "åĦ": 634,
      "åĩł": 635,
      "èĩªå·±": 636,
      "æĥħ": 637,
      "äºİ": 638,
      "è¯Ŀ": 639,
      "æ±": 640,
      "å¤ĸ": 641,
      "ä¸İ": 642,
      "äºĨä¸Ģ": 643,
      "æīį": 644,
      "çĤ¹": 645,
      "æŀĹ": 646,
      "ä½ķ": 647,
      "ä¿®": 648,
      "éª": 649,
      "æĺİ": 650,
      "æľ¬": 651,
      "å¤Ħ": 652,
      "åĨħ": 653,
      "éĵ": 654,
      "åĲ¬": 655,
      "å¥³": 656,
      "æħ": 657,
      "ç»ı": 658,
      "åĦ¿": 659,
      "ä½į": 660,
      "èµ°": 661,
      "é«": 662,
      "éĿĴ": 663,
      "åħ¥": 664,
      "å®¶": 665,
      "ç½": 666,
      "å¾Ī": 667,
      "å°ĳ": 668,
      "çģµ": 669,
      "åŁ": 670,
      "é©": 671,
      "å¨": 672,
      "åĽĽ": 673,
      "æŁ": 674,
      "çĥ": 675,
      "åĪ»": 676,
      "çĶ¨": 677,
      "äºĮ": 678,
      "çŁ³": 679,
      "æ¶": 680,
      "ç´": 681,
      "å®ļ": 682,
      "åĲĮ": 683,
      "è½»": 684,
      "è¡Į": 685,
      "æľĢ": 686,
      "é«ĺ": 687,
      "æĽ´": 688,
      "åĥ": 689,
      "èĭ¥": 690,
      "çĽ¸": 691,
      "çŁ¥éģĵ": 692,
      "å®ŀ": 693,
      "ä¸»": 694,
      "ç«Ł": 695,
      "åĮĸ": 696,
      "é£İ": 697,
      "ç§į": 698,
      "æĬĬ": 699,
      "ä½ı": 700,
      "éĶ": 701,
      "åĲį": 702,
      "è®©": 703,
      "æĿĢ": 704,
      "æ»": 705,
      "çª": 706,
      "æ®": 707,
      "æīĵ": 708,
      "çĽ´": 709,
      "èį": 710,
      "çĽ®": 711,
      "åħ¨": 712,
      "çŀ": 713,
      "å¾®": 714,
      "ä¸įæĺ¯": 715,
      "é£ŀ": 716,
      "å¤ª": 717,
      "éĥ": 718,
      "è§ī": 719,
      "ä¼¼": 720,
      "åĪĨ": 721,
      "éļ¾": 722,
      "è¯´éģĵ": 723,
      "çŃī": 724,
      "æ¸ħ": 725,
      "æļ": 726,
      "éĩĳ": 727,
      "æķ°": 728,
      "éĩį": 729,
      "ä»ĸä»¬": 730,
      "è¿Ľ": 731,
      "ç¦": 732,
      "éĹ®": 733,
      "æ°´": 734,
      "æ¬¡": 735,
      "é»ĳ": 736,
      "èĦ¸": 737,
      "çł": 738,
      "èĲ½": 739,
      "ä½ĵ": 740,
      "½çĦ¶": 741,
      "è¾¹": 742,
      "è¿ŀ": 743,
      "é¾": 744,
      "åıĺ": 745,
      "æŀģ": 746,
      "è¡Ģ": 747,
      "è½¬": 748,
      "æĤ": 749,
      "æĳ": 750,
      "èĪ¬": 751,
      "åıĮ": 752,
      "éŁ©": 753,
      "éŃĶ": 754,
      "åķ": 755,
      "çİĭæŀĹ": 756,
      "åĥı": 757,
      "æı": 758,
      "ä»Ļ": 759,
      "è¿ľ": 760,
      "æĹ¥": 761,
      "ç¾": 762,
      "æĦŁ": 763,
      "æİ¥": 764,
      "çĲ": 765,
      "ç»Ļ": 766,
      "åįĬ": 767,
      "åĽł": 768,
      "æĥĬ": 769,
      "æĢİ": 770,
      "å¹¶": 771,
      "ä¹Łä¸į": 772,
      "ä¸ĸ": 773,
      "èĩ³": 774,
      "å°±æĺ¯": 775,
      "åħĪ": 776,
      "ä¸ĩ": 777,
      "é¦": 778,
      "¨Ģ": 779,
      "èĮ": 780,
      "åĨ·": 781,
      "é¾Ļ": 782,
      "ç¬¬": 783,
      "å®Ŀ": 784,
      "éĺµ": 785,
      "æ¯Ķ": 786,
      "é©¬": 787,
      "å£«": 788,
      "åĪ°äºĨ": 789,
      "éĢļ": 790,
      "çģ«": 791,
      "ç²": 792,
      "ä»ĸçļĦ": 793,
      "å²": 794,
      "èİ": 795,
      "æľĽ": 796,
      "å¾Ĳ": 797,
      "äºĳ": 798,
      "å·²ç»ı": 799,
      "èĬ±": 800,
      "å¼Ł": 801,
      "åģļ": 802,
      "ç®Ĺ": 803,
      "ç¢": 804,
      "åĬŁ": 805,
      "ç¬ĳéģĵ": 806,
      "ä½Ļ": 807,
      "åºĶ": 808,
      "åŁİ": 809,
      "èµ·æĿ¥": 810,
      "å¢": 811,
      "æ¥": 812,
      "çĸ": 813,
      "è¿Ļä¸Ģ": 814,
      "è¨Ģ": 815,
      "åĺ": 816,
      "çķĮ": 817,
      "èĢħ": 818,
      "æµ·": 819,
      "æ¡": 820,
      "çĻ¾": 821,
      "çī©": 822,
      "äºĶ": 823,
      "æŃ¥": 824,
      "çİī": 825,
      "æĿİ": 826,
      "çİ°åľ¨": 827,
      "ä¸įè¿ĩ": 828,
      "éĿŀ": 829,
      "éŁ©ç«ĭ": 830,
      "ä¼ł": 831,
      "éĹª": 832,
      "æľª": 833,
      "æį": 834,
      "åı«": 835,
      "ä¹İ": 836,
      "å¿«": 837,
      "å¼ł": 838,
      "çĮ": 839,
      "å¼º": 840,
      "çļĦä¸Ģ": 841,
      "åĢĴ": 842,
      "æŃ¦": 843,
      "åİŁ": 844,
      "æĪĺ": 845,
      "åıªæĺ¯": 846,
      "çı": 847,
      "éĴ": 848,
      "èĻļ": 849,
      "èħ": 850,
      "æŀľ": 851,
      "åĨ²": 852,
      "æĪĳä»¬": 853,
      "éļı": 854,
      "ç»Ŀ": 855,
      "æĢķ": 856,
      "çº¢": 857,
      "å¹³": 858,
      "è£": 859,
      "åħĥ": 860,
      "çīĩ": 861,
      "å¤«": 862,
      "æ·±": 863,
      "æİĮ": 864,
      "ä»Ĭ": 865,
      "åįĹ": 866,
      "æ²ī": 867,
      "åĩºæĿ¥": 868,
      "æĶ¾": 869,
      "å½±": 870,
      "ç¦»": 871,
      "åĳ¨": 872,
      "å¦ĤæŃ¤": 873,
      "ä¸ĥ": 874,
      "è¥": 875,
      "å½¢": 876,
      "çªģ": 877,
      "åĪ«": 878,
      "ä½ľ": 879,
      "è¿Ļä¸ª": 880,
      "åĪĢ": 881,
      "è¿ĺæĺ¯": 882,
      "éŁ³": 883,
      "è®¸": 884,
      "åĳ½": 885,
      "éħ": 886,
      "æĮĩ": 887,
      "æĺĵ": 888,
      "åı¤": 889,
      "åĪļ": 890,
      "æģ¯": 891,
      "åįĥ": 892,
      "å¸¸": 893,
      "åĶ": 894,
      "åħĦ": 895,
      "æľīäºĽ": 896,
      "æļĹ": 897,
      "é¬": 898,
      "å®¹": 899,
      "æ¢": 900,
      "è¥¿": 901,
      "çļĦäºº": 902,
      "ä¹ĭä¸Ń": 903,
      "èĲ§": 904,
      "ä¸ľ": 905,
      "çł´": 906,
      "çĹ": 907,
      "è¶Ĭ": 908,
      "åħ¬": 909,
      "ç¿": 910,
      "æĺŁ": 911,
      "å¸¦": 912,
      "éĿĻ": 913,
      "è¡£": 914,
      "åı¯ä»¥": 915,
      "å¾Ģ": 916,
      "æľº": 917,
      "å¼Ĥ": 918,
      "âĢ¦âĢ¦âĢĿ": 919,
      "å¤±": 920,
      "éĺ´": 921,
      "åľ¨è¿Ļ": 922,
      "é¬¼": 923,
      "å·¨": 924,
      "åĩ¤": 925,
      "ä¸Ŀ": 926,
      "çļĩ": 927,
      "æ¼": 928,
      "å¿ħ": 929,
      "æĢª": 930,
      "åĩ»": 931,
      "åĬ¿": 932,
      "ç¼ĵ": 933,
      "å¥ĩ": 934,
      "éĺ³": 935,
      "å¿ĥä¸Ń": 936,
      "ä¹Ŀ": 937,
      "ä½¿": 938,
      "åħ³": 939,
      "éĵģ": 940,
      "è·¯": 941,
      "å®Ĺ": 942,
      "æĢĿ": 943,
      "è¿ĳ": 944,
      "åĨĽ": 945,
      "è¿ĻäºĽ": 946,
      "æµģ": 947,
      "å¨ĺ": 948,
      "é»Ħ": 949,
      "ç¡": 950,
      "æł¹": 951,
      "è·Ł": 952,
      "å©": 953,
      "åį³": 954,
      "ç»Ī": 955,
      "æ»¡": 956,
      "åıį": 957,
      "åĪĻ": 958,
      "éĽ·": 959,
      "è°ģ": 960,
      "è±": 961,
      "åıĹ": 962,
      "äººçļĦ": 963,
      "èĮĥ": 964,
      "èģ": 965,
      "åħ«": 966,
      "å®«": 967,
      "æķ£": 968,
      "æĢİä¹Ī": 969,
      "å®ī": 970,
      "åĮĹ": 971,
      "ä¸Ģå£°": 972,
      "ä¼¤": 973,
      "çĶ±": 974,
      "çķĻ": 975,
      "ç¨": 976,
      "æ¨": 977,
      "æ¶Ī": 978,
      "åĽłä¸º": 979,
      "åĢĻ": 980,
      "æķ¢": 981,
      "å®Į": 982,
      "æ¸Ĳ": 983,
      "èĻ½çĦ¶": 984,
      "éĥ¨": 985,
      "æ´ª": 986,
      "æ£": 987,
      "ä½Ľ": 988,
      "å°½": 989,
      "æľīä¸Ģ": 990,
      "æĹ©": 991,
      "åĿĲ": 992,
      "èĵ": 993,
      "çĲĨ": 994,
      "æľĪ": 995,
      "éŃĤ": 996,
      "éļĲ": 997,
      "åĵª": 998,
      "æĿ¡": 999,
      "ä¿¡": 1000,
      "éľ²": 1001,
      "æĴ": 1002,
      "é¸": 1003,
      "ä¸Ķ": 1004,
      "è¶³": 1005,
      "ä¼Ĺ": 1006,
      "ä»»": 1007,
      "çľĭçĿĢ": 1008,
      "éĩı": 1009,
      "å¿µ": 1010,
      "éĻĨ": 1011,
      "æķĻ": 1012,
      "æº": 1013,
      "åĲĪ": 1014,
      "éĽª": 1015,
      "åľº": 1016,
      "ç¥ĸ": 1017,
      "æĺ¯ä¸Ģ": 1018,
      "æ¥ļ": 1019,
      "ä¸įçŁ¥": 1020,
      "èĭ¦": 1021,
      "æ·¡": 1022,
      "çĶļ": 1023,
      "ç³": 1024,
      "åĲ§": 1025,
      "åĻ": 1026,
      "åł": 1027,
      "è§£": 1028,
      "æĸŃ": 1029,
      "åĤ": 1030,
      "æĹı": 1031,
      "åŃĹ": 1032,
      "äº²": 1033,
      "æĺ¾": 1034,
      "ä»¤": 1035,
      "ä¹¦": 1036,
      "æ¹": 1037,
      "ç²¾": 1038,
      "è¯Ń": 1039,
      "çİĦ": 1040,
      "éĹ²": 1041,
      "æ±Ł": 1042,
      "ä¸ĬçļĦ": 1043,
      "çĤ¼": 1044,
      "è¯¥": 1045,
      "é¦Ļ": 1046,
      "åħŃ": 1047,
      "åĵį": 1048,
      "æħĪ": 1049,
      "âĢĶ": 1050,
      "ä¹ĭåĲİ": 1051,
      "åĸľ": 1052,
      "åĲĥ": 1053,
      "çªģçĦ¶": 1054,
      "ä¿®å£«": 1055,
      "åĸĿ": 1056,
      "ä½łä»¬": 1057,
      "å¦ĸ": 1058,
      "æĶ¶": 1059,
      "ç´§": 1060,
      "äº¤": 1061,
      "åºķ": 1062,
      "åį´æĺ¯": 1063,
      "æī¾": 1064,
      "å¤§çļĦ": 1065,
      "è¿Ļæł·": 1066,
      "éľĩ": 1067,
      "çħ": 1068,
      "å§ĭ": 1069,
      "åħµ": 1070,
      "æĹ¶åĢĻ": 1071,
      "ç«Ļ": 1072,
      "å¿½çĦ¶": 1073,
      "åĬł": 1074,
      "èĩªçĦ¶": 1075,
      "åĽ½": 1076,
      "è½©": 1077,
      "åĪ¶": 1078,
      "æĭĽ": 1079,
      "æīĢä»¥": 1080,
      "æħ¢": 1081,
      "å¯Ĵ": 1082,
      "æĹģ": 1083,
      "éĨ": 1084,
      "æķ´": 1085,
      "éĥ½æĺ¯": 1086,
      "è¸": 1087,
      "ä¹Łæĺ¯": 1088,
      "çĬ": 1089,
      "ä½İ": 1090,
      "æĸĩ": 1091,
      "ç»ĵ": 1092,
      "èĽ": 1093,
      "éħĴ": 1094,
      "éĻµ": 1095,
      "ç¦ģ": 1096,
      "çľī": 1097,
      "åĲĦ": 1098,
      "æĢ¥": 1099,
      "é¡¿": 1100,
      "å³": 1101,
      "èĦļ": 1102,
      "æ´¾": 1103,
      "ä¸įä¼ļ": 1104,
      "ä¸ŃçļĦ": 1105,
      "ä¼¼ä¹İ": 1106,
      "åĳ¼": 1107,
      "åı¥": 1108,
      "ä¹ħ": 1109,
      "ä»²": 1110,
      "å®ģ": 1111,
      "éĤ£äºĽ": 1112,
      "ä¸įèĥ½": 1113,
      "åĪĩ": 1114,
      "è¿Ļä¹Ī": 1115,
      "ç«ĭåĪ»": 1116,
      "æĢ§": 1117,
      "è¿ĺæľī": 1118,
      "éĶĻ": 1119,
      "ä¸ĭæĿ¥": 1120,
      "åı¹": 1121,
      "åıĭ": 1122,
      "æĹ¶éĹ´": 1123,
      "å¯ĩ": 1124,
      "æĳĩ": 1125,
      "åº¦": 1126,
      "å£°éŁ³": 1127,
      "æıĲ": 1128,
      "ä»¶": 1129,
      "æľ¨": 1130,
      "åº§": 1131,
      "åı³": 1132,
      "åĩºäºĨ": 1133,
      "ä½ĻæħĪ": 1134,
      "åİī": 1135,
      "è®¤": 1136,
      "çŀ§": 1137,
      "ä¸ĢèĪ¬": 1138,
      "æ®¿": 1139,
      "ç¼º": 1140,
      "å¢ĥ": 1141,
      "ç¤": 1142,
      "æľĿ": 1143,
      "å¹²": 1144,
      "åıĬ": 1145,
      "çĪ¶": 1146,
      "è¾Ī": 1147,
      "åħ½": 1148,
      "å±Ĥ": 1149,
      "åĩĿ": 1150,
      "åĲĽ": 1151,
      "æĢĴ": 1152,
      "é½": 1153,
      "æ´»": 1154,
      "éĢĢ": 1155,
      "å·¦": 1156,
      "å¸Ŀ": 1157,
      "èĮĥéĹ²": 1158,
      "æľ¯": 1159,
      "éĵ¶": 1160,
      "äºĭæĥħ": 1161,
      "éĻĪ": 1162,
      "æĹ¢": 1163,
      "æ®µ": 1164,
      "çĪ·": 1165,
      "å¨ģ": 1166,
      "è¿Ļç§į": 1167,
      "èĻ½": 1168,
      "åģľ": 1169,
      "ç¡®": 1170,
      "å´": 1171,
      "è¯Ĩ": 1172,
      "æ¯«": 1173,
      "æĹłæ³ķ": 1174,
      "æĢ»": 1175,
      "ç½Ĺ": 1176,
      "æķĮ": 1177,
      "èº«ä¸Ĭ": 1178,
      "åı¯æĺ¯": 1179,
      "å®³": 1180,
      "ä½Ĩæĺ¯": 1181,
      "åĩºä¸Ģ": 1182,
      "å»": 1183,
      "å®ĺ": 1184,
      "åı¶": 1185,
      "è®°": 1186,
      "æĿ¥çļĦ": 1187,
      "èĤ¡": 1188,
      "å¯ĩä»²": 1189,
      "å¦Ĥä½ķ": 1190,
      "è¡¨": 1191,
      "éĢŁ": 1192,
      "çĨ": 1193,
      "å¤į": 1194,
      "è®º": 1195,
      "å±ħ": 1196,
      "ä¹ĭä¸ĭ": 1197,
      "æĭ¿": 1198,
      "âĢĻ": 1199,
      "çĶ·": 1200,
      "ç»Ĩ": 1201,
      "âĢĺ": 1202,
      "èĹ": 1203,
      "ä¸¤äºº": 1204,
      "å¤ľ": 1205,
      "å¤©åľ°": 1206,
      "é¥": 1207,
      "åıªæľī": 1208,
      "ä¹±": 1209,
      "èĥ¡": 1210,
      "éĻ¤": 1211,
      "ä¾Ŀ": 1212,
      "å®ĥ": 1213,
      "è¿ĻéĩĮ": 1214,
      "åĨ°": 1215,
      "åİĭ": 1216,
      "çĽ®åħī": 1217,
      "èĬĴ": 1218,
      "ä¸įåı¯": 1219,
      "æ´ŀ": 1220,
      "åı¦": 1221,
      "åĵ¥": 1222,
      "èİ«": 1223,
      "æ¹ĸ": 1224,
      "ä¸Ī": 1225,
      "èĥĮ": 1226,
      "åľ£": 1227,
      "å¼ŁåŃĲ": 1228,
      "æ¯Ĵ": 1229,
      "è¯·": 1230,
      "éĨĴ": 1231,
      "åĬ«": 1232,
      "åķĬ": 1233,
      "å¦Ļ": 1234,
      "åįİ": 1235,
      "ç¾İ": 1236,
      "å°Ĭ": 1237,
      "åĭ": 1238,
      "åĲ¦": 1239,
      "éĻ¢": 1240,
      "åĲĹ": 1241,
      "ç§ĺ": 1242,
      "æĻ¨": 1243,
      "æĲ": 1244,
      "æĽ¾": 1245,
      "æĸĹ": 1246,
      "é¦ĸ": 1247,
      "é¼": 1248,
      "é½Ĳ": 1249,
      "æ¯ı": 1250,
      "å§ĳ": 1251,
      "éĤ£ä¸ª": 1252,
      "åĹ": 1253,
      "ç©¿": 1254,
      "çģŃ": 1255,
      "è½°": 1256,
      "è°·": 1257,
      "æĻ¯": 1258,
      "å¥³åŃĲ": 1259,
      "åĪº": 1260,
      "çļĦå¤§": 1261,
      "ç¬¦": 1262,
      "éª¨": 1263,
      "çĭĤ": 1264,
      "åºľ": 1265,
      "æŃ¤æĹ¶": 1266,
      "åĲĮæĹ¶": 1267,
      "åĳ¢": 1268,
      "å¯Ĩ": 1269,
      "ä¸¹": 1270,
      "ä¾¿æĺ¯": 1271,
      "å¤Ł": 1272,
      "ä»į": 1273,
      "ç®¡": 1274,
      "çŀ¬": 1275,
      "å¿Ļ": 1276,
      "æŃ¤åĪ»": 1277,
      "å¸®": 1278,
      "ä¸Ģä¸ĭ": 1279,
      "å®¢": 1280,
      "é¹": 1281,
      "åĺ´": 1282,
      "æ²³": 1283,
      "å¿½": 1284,
      "è§Ĥ": 1285,
      "æĪĸ": 1286,
      "åĩºçİ°": 1287,
      "åĵĪ": 1288,
      "å£°éģĵ": 1289,
      "çŃĶ": 1290,
      "èº«åŃĲ": 1291,
      "æĦŁè§ī": 1292,
      "çĸĳ": 1293,
      "éº": 1294,
      "èĤī": 1295,
      "å¯»": 1296,
      "è¿Ļæĺ¯": 1297,
      "ä¸¤ä¸ª": 1298,
      "å³°": 1299,
      "æ´ªæĺĵ": 1300,
      "å¾ħ": 1301,
      "éĹ®éģĵ": 1302,
      "æľį": 1303,
      "é»ĺ": 1304,
      "ç´«": 1305,
      "ä»¿": 1306,
      "çľĭåĪ°": 1307,
      "ä¹ĭéĹ´": 1308,
      "è¿Ĳ": 1309,
      "ç¬¬ä¸Ģ": 1310,
      "åĪ©": 1311,
      "éĢģ": 1312,
      "è§īå¾Ĺ": 1313,
      "é¡¶": 1314,
      "åĨ³": 1315,
      "æĿ¨": 1316,
      "çŁ³è½©": 1317,
      "åį°": 1318,
      "çĮĽ": 1319,
      "æģĲ": 1320,
      "åŃĲéĻµ": 1321,
      "è§Ĵ": 1322,
      "åıĸ": 1323,
      "±¼": 1324,
      "é±¼": 1325,
      "åĽ´": 1326,
      "ç¢İ": 1327,
      "è§Ĩ": 1328,
      "è£Ĥ": 1329,
      "åĪ¹": 1330,
      "å¯¹æĸ¹": 1331,
      "è¿½": 1332,
      "ä¸įå¾Ĺ": 1333,
      "çĿĽ": 1334,
      "æľīäºº": 1335,
      "å°ļ": 1336,
      "æŃ£æĺ¯": 1337,
      "éªĳ": 1338,
      "æ±ī": 1339,
      "æĮģ": 1340,
      "çĹĽ": 1341,
      "é²": 1342,
      "çĽĺ": 1343,
      "æłĳ": 1344,
      "ç«ł": 1345,
      "ä¸įä½ı": 1346,
      "èĩªå·±çļĦ": 1347,
      "åĩ¤å¹´": 1348,
      "çħ§": 1349,
      "åĩī": 1350,
      "å¾Ĳåĩ¤å¹´": 1351,
      "çļĦæĺ¯": 1352,
      "è¿ĩåİ»": 1353,
      "æĭ³": 1354,
      "æĸ°": 1355,
      "èĲ§æĻ¨": 1356,
      "ä½łçļĦ": 1357,
      "åı£æ°Ķ": 1358,
      "åĩĨ": 1359,
      "èº«ä½ĵ": 1360,
      "è®¡": 1361,
      "å¾ĲåŃĲéĻµ": 1362,
      "è¿Ļä½į": 1363,
      "èĢĮåĩº": 1364,
      "åŃ¦": 1365,
      "èĦ¸ä¸Ĭ": 1366,
      "ä¸įåĪ°": 1367,
      "æ¥¼": 1368,
      "å¤©ä¸ĭ": 1369,
      "çĦ¶åĲİ": 1370,
      "éĢĥ": 1371,
      "åĲ¸": 1372,
      "å°ģ": 1373,
      "çľ¼çĿĽ": 1374,
      "ä»»ä½ķ": 1375,
      "è±¡": 1376,
      "æĬ¬": 1377,
      "è¯´è¯Ŀ": 1378,
      "çļĦè¯Ŀ": 1379,
      "æ¬¢": 1380,
      "å¦Ĥæŀľ": 1381,
      "åĻ¨": 1382,
      "æ³¢": 1383,
      "åįķ": 1384,
      "èį¯": 1385,
      "æ¿": 1386,
      "ä¸įçŁ¥éģĵ": 1387,
      "çĩ": 1388,
      "èµµ": 1389,
      "æĶ»": 1390,
      "å¹½": 1391,
      "å°Ħ": 1392,
      "å¿į": 1393,
      "éĢı": 1394,
      "æĽ´æĺ¯": 1395,
      "èĤ¯": 1396,
      "æł¹æľ¬": 1397,
      "åŃĺ": 1398,
      "è½¦": 1399,
      "éĽ¾": 1400,
      "è¿ĩæĿ¥": 1401,
      "æģ¶": 1402,
      "åıªè¦ģ": 1403,
      "å®ģç¼º": 1404,
      "å½ĵçĦ¶": 1405,
      "çĥĪ": 1406,
      "æķħ": 1407,
      "æĬĵ": 1408,
      "ä¸Ģæł·": 1409,
      "çļ®": 1410,
      "éĤ£ä¹Ī": 1411,
      "ä¸Ģéģĵ": 1412,
      "åľ¨éĤ£": 1413,
      "åĥıæĺ¯": 1414,
      "ä»£": 1415,
      "åħ¶ä¸Ń": 1416,
      "æľŁ": 1417,
      "ç¾¤": 1418,
      "å¥Ķ": 1419,
      "çº·": 1420,
      "æ¿Ģ": 1421,
      "ä¸´": 1422,
      "âĢĿï¼Į": 1423,
      "åŃ©": 1424,
      "å¼Ģå§ĭ": 1425,
      "å±ķ": 1426,
      "å·®": 1427,
      "ä¸įæķ¢": 1428,
      "ä¼¸": 1429,
      "èĢ³": 1430,
      "çıł": 1431,
      "èĥľ": 1432,
      "èĹı": 1433,
      "å°±ç®Ĺ": 1434,
      "äºĮäºº": 1435,
      "ç³»": 1436,
      "ç±": 1437,
      "åľ¨ä¸Ģ": 1438,
      "èĢĮä¸Ķ": 1439,
      "æĪĳçļĦ": 1440,
      "éĻ©": 1441,
      "é¡¾": 1442,
      "çĶļèĩ³": 1443,
      "æľ±": 1444,
      "éĹ»": 1445,
      "èĻļç©º": 1446,
      "æĮ¥": 1447,
      "æĦ¿": 1448,
      "ï¼ĮâĢľ": 1449,
      "éĽ¨": 1450,
      "èĳ": 1451,
      "åĨµ": 1452,
      "å½ĵå¹´": 1453,
      "ç®Ģ": 1454,
      "å§ĵ": 1455,
      "çĤ¹å¤´": 1456,
      "çĭ¬": 1457,
      "å§Ĳ": 1458,
      "å¸ĥ": 1459,
      "æĸ½": 1460,
      "åĩºæīĭ": 1461,
      "é¡¿æĹ¶": 1462,
      "æĬ¤": 1463,
      "å¤ĩ": 1464,
      "è¯¸": 1465,
      "ä»¿ä½Ľ": 1466,
      "å¾®å¾®": 1467,
      "ç¿»": 1468,
      "é¢Ĩ": 1469,
      "æĺİçĻ½": 1470,
      "åľ°æĸ¹": 1471,
      "çŀ¬éĹ´": 1472,
      "ä¸¾": 1473,
      "åıªè§ģ": 1474,
      "çľŁçļĦ": 1475,
      "èĭ¥æĺ¯": 1476,
      "åı¯èĥ½": 1477,
      "ç«ŁçĦ¶": 1478,
      "æ¨ª": 1479,
      "åıĳçİ°": 1480,
      "ç¥ŀéĢļ": 1481,
      "èĴ": 1482,
      "æĸĻ": 1483,
      "ä¿Ŀ": 1484,
      "åłĤ": 1485,
      "ä¸ľè¥¿": 1486,
      "ä¸ºäºĨ": 1487,
      "èµ¶": 1488,
      "æĥ³åĪ°": 1489,
      "ä¸ĭåİ»": 1490,
      "èĦ±": 1491,
      "çĽ´æİ¥": 1492,
      "åľ¨äºĨ": 1493,
      "æŃ¢": 1494,
      "èĢģèĢħ": 1495,
      "æĻļ": 1496,
      "âĢĶâĢĶ": 1497,
      "äº®": 1498,
      "ç¼ĵç¼ĵ": 1499,
      "éĶĭ": 1500,
      "åĴ±": 1501,
      "ä¸ĭçļĦ": 1502,
      "æľĢåĲİ": 1503,
      "æ¨¡": 1504,
      "ç»ĥ": 1505,
      "ä¸ĢçĽ´": 1506,
      "å¼ķ": 1507,
      "èįī": 1508,
      "æİī": 1509,
      "éļ¾éģĵ": 1510,
      "èį¡": 1511,
      "æŁĲ": 1512,
      "å·ŀ": 1513,
      "ä¸ĢéĹª": 1514,
      "åħ´": 1515,
      "çºµ": 1516,
      "çĭł": 1517,
      "åı°": 1518,
      "è°¢": 1519,
      "ç¥ŀèī²": 1520,
      "ä¹ĭä¸Ĭ": 1521,
      "å¥¹çļĦ": 1522,
      "ä¸ºä»Ģä¹Ī": 1523,
      "æī¿": 1524,
      "åĩºåİ»": 1525,
      "æķ´ä¸ª": 1526,
      "é¡»": 1527,
      "æĪ¿": 1528,
      "æĵ": 1529,
      "ç»Īäºİ": 1530,
      "æīĭä¸Ń": 1531,
      "æ±Ĥ": 1532,
      "æµ®": 1533,
      "èĻİ": 1534,
      "åĽ¾": 1535,
      "æ¸©": 1536,
      "èĢĮæĺ¯": 1537,
      "æķĳ": 1538,
      "æĪĲäºĨ": 1539,
      "ä¸Ģç¬ĳ": 1540,
      "ç¤¼": 1541,
      "éŁ¦": 1542,
      "æĭį": 1543,
      "é£ĺ": 1544,
      "æ³¨": 1545,
      "æĿ¾": 1546,
      "æĢĢ": 1547,
      "åŁŁ": 1548,
      "ä¹ĭåīį": 1549,
      "ç«¹": 1550,
      "æı¡": 1551,
      "éº»": 1552,
      "å¡": 1553,
      "ä¸Ģçľ¼": 1554,
      "åİŁæĿ¥": 1555,
      "åºĶè¯¥": 1556,
      "æ¡ĳ": 1557,
      "ä¸Ģå®ļ": 1558,
      "æ½": 1559,
      "çº¿": 1560,
      "ç»Ń": 1561,
      "ä¿®ä¸º": 1562,
      "çķ¥": 1563,
      "èĪ¹": 1564,
      "åĪĿ": 1565,
      "å¦¹": 1566,
      "ä¼Ĺäºº": 1567,
      "åĽ¢": 1568,
      "ç©¶": 1569,
      "æĹłæķ°": 1570,
      "éľ²åĩº": 1571,
      "çļ±": 1572,
      "æµª": 1573,
      "éģĵåıĭ": 1574,
      "å®Ī": 1575,
      "å±ħçĦ¶": 1576,
      "è¾¾": 1577,
      "åľĨ": 1578,
      "å§ĳå¨ĺ": 1579,
      "å°ĳå¹´": 1580,
      "åŀ": 1581,
      "åĴ±ä»¬": 1582,
      "éĺ¿": 1583,
      "åĩłä¹İ": 1584,
      "æĮ¡": 1585,
      "åĳĬ": 1586,
      "åĿĹ": 1587,
      "è¢į": 1588,
      "çľĭæĿ¥": 1589,
      "ç§°": 1590,
      "çĵ": 1591,
      "æĢģ": 1592,
      "ä»½": 1593,
      "æ²Ī": 1594,
      "å¹»": 1595,
      "ä¸ĸçķĮ": 1596,
      "æī«": 1597,
      "å¦Ĥä»Ĭ": 1598,
      "å®Įåħ¨": 1599,
      "ä¹ī": 1600,
      "å½Ĵ": 1601,
      "èĭį": 1602,
      "å¦ĩ": 1603,
      "åľ¨ä»ĸ": 1604,
      "éģĩ": 1605,
      "æīĢæľī": 1606,
      "é«ĺæīĭ": 1607,
      "ä¸įè§ģ": 1608,
      "èĩĤ": 1609,
      "èĦĳ": 1610,
      "è·³": 1611,
      "å¿Į": 1612,
      "é¢¤": 1613,
      "å¾Ĵ": 1614,
      "æŃ¦åĬŁ": 1615,
      "ä¸ĢçĤ¹": 1616,
      "åĪ¹éĤ£": 1617,
      "äºĨèµ·æĿ¥": 1618,
      "å°¸": 1619,
      "èģļ": 1620,
      "å®ŀåľ¨": 1621,
      "åĩ¡": 1622,
      "æ¶Īå¤±": 1623,
      "æ¸ħæ¥ļ": 1624,
      "çļĦéĤ£": 1625,
      "å«": 1626,
      "ç»¿": 1627,
      "èĨ": 1628,
      "å±ĭ": 1629,
      "ä¸Ģçīĩ": 1630,
      "èĭ±": 1631,
      "ä¹Łæ²¡æľī": 1632,
      "çº¦": 1633,
      "è½»è½»": 1634,
      "åľŁ": 1635,
      "åį·": 1636,
      "ç½®": 1637,
      "éĢł": 1638,
      "åĵªéĩĮ": 1639,
      "å¸ĪåħĦ": 1640,
      "çľŁæĺ¯": 1641,
      "æİ¨": 1642,
      "æ¯ķ": 1643,
      "æĥľ": 1644,
      "æį¢": 1645,
      "çģ°": 1646,
      "åĮħ": 1647,
      "ç«Łæĺ¯": 1648,
      "åĩ¶": 1649,
      "é¢ľ": 1650,
      "çĥŃ": 1651,
      "åĬĽéĩı": 1652,
      "äº¬": 1653,
      "åŃĻ": 1654,
      "å¹¶ä¸į": 1655,
      "éķĩ": 1656,
      "çİ¯": 1657,
      "çļĦæĹ¶åĢĻ": 1658,
      "èįĴ": 1659,
      "çı£": 1660,
      "èŀ": 1661,
      "ä½ıäºĨ": 1662,
      "èº«åĲİ": 1663,
      "é¢ĺ": 1664,
      "ï¼Ľ": 1665,
      "çĿĢä¸Ģ": 1666,
      "éĺ¶": 1667,
      "çķª": 1668,
      "èĿ": 1669,
      "ç¦»å¼Ģ": 1670,
      "çĶ²": 1671,
      "è½®": 1672,
      "æ¢ģ": 1673,
      "èĦ¸èī²": 1674,
      "ç®Ń": 1675,
      "åĳĨ": 1676,
      "åĩłä¸ª": 1677,
      "æ»ļ": 1678,
      "åĲ¬å¾Ĺ": 1679,
      "æĹ¢çĦ¶": 1680,
      "èĥ¸": 1681,
      "åĶĲ": 1682,
      "æĩ": 1683,
      "åħ¶å®ŀ": 1684,
      "èĢĮåİ»": 1685,
      "éĹŃ": 1686,
      "å°ĸ": 1687,
      "æĭī": 1688,
      "æŁ³": 1689,
      "éģ¿": 1690,
      "é¸£": 1691,
      "ç£": 1692,
      "èĥ½å¤Ł": 1693,
      "çĶµ": 1694,
      "æķ¬": 1695,
      "å¯Ł": 1696,
      "èĦī": 1697,
      "ä¹ĭäºº": 1698,
      "çļĦå°ı": 1699,
      "ç´ł": 1700,
      "æĳĩå¤´": 1701,
      "ä¸¥": 1702,
      "èĢģäºº": 1703,
      "çľŁæŃ£": 1704,
      "éľĢ": 1705,
      "åı³æīĭ": 1706,
      "æĿİçı£": 1707,
      "å¤«äºº": 1708,
      "ä¸īäºº": 1709,
      "åıĳåĩº": 1710,
      "å¼±": 1711,
      "è¿ĩäºĨ": 1712,
      "äºī": 1713,
      "åĩŃ": 1714,
      "æĺ¥": 1715,
      "çĭĲ": 1716,
      "éĥŃ": 1717,
      "çĥŁ": 1718,
      "åĢŁ": 1719,
      "æĸ©": 1720,
      "æĬ±": 1721,
      "éŀ": 1722,
      "éĩĮçļĦ": 1723,
      "ä¹ĭåĬĽ": 1724,
      "æ¸¸": 1725,
      "èĴĻ": 1726,
      "çī¹": 1727,
      "åı¥è¯Ŀ": 1728,
      "åİ»äºĨ": 1729,
      "ä¹ĥ": 1730,
      "ä¸Ģéĺµ": 1731,
      "æĢĶ": 1732,
      "çľ¼ä¸Ń": 1733,
      "æĬ¥": 1734,
      "æĹłè®º": 1735,
      "è®¸å¤ļ": 1736,
      "èľ": 1737,
      "è¿Ľåħ¥": 1738,
      "å¿Ĺ": 1739,
      "è¯ķ": 1740,
      "æŁĶ": 1741,
      "åģı": 1742,
      "ä»ħ": 1743,
      "èĸ": 1744,
      "è´¥": 1745,
      "ä¾¯": 1746,
      "åĲŁ": 1747,
      "æ¯į": 1748,
      "åħħ": 1749,
      "èī²çļĦ": 1750,
      "ç¬¬äºĮ": 1751,
      "åħ¨éĥ¨": 1752,
      "æħķ": 1753,
      "éĻ¤äºĨ": 1754,
      "åıĶ": 1755,
      "åħ·": 1756,
      "åıĺåĮĸ": 1757,
      "åŃĲçļĦ": 1758,
      "å¹´è½»": 1759,
      "éģĵäºº": 1760,
      "å®ĭ": 1761,
      "æ°Ķæģ¯": 1762,
      "èģĶ": 1763,
      "ç»§": 1764,
      "è¹": 1765,
      "éĽĦ": 1766,
      "çĪ¹": 1767,
      "çľ¼åīį": 1768,
      "è´µ": 1769,
      "çĦ°": 1770,
      "ä¸įåĩº": 1771,
      "æİ¥çĿĢ": 1772,
      "ä¼¯": 1773,
      "åį«": 1774,
      "ä»ĩ": 1775,
      "èµ°äºĨ": 1776,
      "åħ¶ä»ĸ": 1777,
      "æĴŀ": 1778,
      "åħį": 1779,
      "çĪĨ": 1780,
      "è¢ĸ": 1781,
      "ä»ĬæĹ¥": 1782,
      "ä¸įè¦ģ": 1783,
      "éļĨ": 1784,
      "ç½¢": 1785,
      "ç¡¬": 1786,
      "èı": 1787,
      "æģ¨": 1788,
      "å¿ĥéĩĮ": 1789,
      "ç´¢": 1790,
      "å¿ĺ": 1791,
      "ç¨ĭ": 1792,
      "çļĦæīĭ": 1793,
      "èĵĿ": 1794,
      "åĬ²": 1795,
      "åıªä¸įè¿ĩ": 1796,
      "æļ´": 1797,
      "åĪļæīį": 1798,
      "ç©ºä¸Ń": 1799,
      "æľĽçĿĢ": 1800,
      "åīįè¾Ī": 1801,
      "ä¹ĭæĹ¶": 1802,
      "åĨįæ¬¡": 1803,
      "æ··": 1804,
      "ä¸įçĶ±": 1805,
      "æĻĵ": 1806,
      "ä»¥ä¸º": 1807,
      "ä¸ĢäºĽ": 1808,
      "ç«¯": 1809,
      "èĩ´": 1810,
      "çĪ±": 1811,
      "åı¸": 1812,
      "åıĮæīĭ": 1813,
      "æŀľçĦ¶": 1814,
      "åĳ³": 1815,
      "å¸¦çĿĢ": 1816,
      "å±Ģ": 1817,
      "å¸Į": 1818,
      "åĲ¬åĪ°": 1819,
      "å¹ķ": 1820,
      "ä¸įéĶĻ": 1821,
      "æľīä»Ģä¹Ī": 1822,
      "æ±Łæ¹ĸ": 1823,
      "æĿ¥äºĨ": 1824,
      "è¿ĻæĹ¶": 1825,
      "æ¼«": 1826,
      "åĲĮæł·": 1827,
      "æ¬²": 1828,
      "å¸ĪçĪ¶": 1829,
      "ä¼Ļ": 1830,
      "å½©": 1831,
      "åİĨ": 1832,
      "é²ľ": 1833,
      "åħĦå¼Ł": 1834,
      "ä¿®çĤ¼": 1835,
      "æĽ²": 1836,
      "çļĩå¸Ŀ": 1837,
      "æīĳ": 1838,
      "æĥ¨": 1839,
      "èŀį": 1840,
      "çŁŃ": 1841,
      "å°±åľ¨": 1842,
      "æł·åŃĲ": 1843,
      "èĩ³äºİ": 1844,
      "å£ģ": 1845,
      "é¡º": 1846,
      "åĬ©": 1847,
      "è¿·": 1848,
      "è¿¹": 1849,
      "åĽĽåĳ¨": 1850,
      "åĵ¼": 1851,
      "æ¸Ĳæ¸Ĳ": 1852,
      "å©Ĩ": 1853,
      "çīĩåĪ»": 1854,
      "çļĦå£°éŁ³": 1855,
      "æİ¢": 1856,
      "è´Ł": 1857,
      "è¿ľå¤Ħ": 1858,
      "å¹¿": 1859,
      "åħĥç¥ŀ": 1860,
      "æĬĸ": 1861,
      "åĩĮ": 1862,
      "å´©": 1863,
      "æ°¸": 1864,
      "æľ¬æĿ¥": 1865,
      "åĬŀ": 1866,
      "æĺ¯ä¸ª": 1867,
      "å¹¸": 1868,
      "æŃ¤äºº": 1869,
      "ä¼ı": 1870,
      "æ¶Į": 1871,
      "æĳ¸": 1872,
      "åĩĨå¤ĩ": 1873,
      "éģģ": 1874,
      "æł¼": 1875,
      "åħĪçĶŁ": 1876,
      "å¢ĥçķĮ": 1877,
      "æĻĥ": 1878,
      "åıªèĥ½": 1879,
      "äº¦": 1880,
      "èĤ©": 1881,
      "å°ĳå¥³": 1882,
      "ä¸Ģäºº": 1883,
      "åĥ§": 1884,
      "æ²Ļ": 1885,
      "çĶ»": 1886,
      "ç¨į": 1887,
      "ç§ĭ": 1888,
      "éĴ±": 1889,
      "æ¢¦": 1890,
      "ç±»": 1891,
      "æĭľ": 1892,
      "éĩĮéĿ¢": 1893,
      "ä¸ĢæŃ¥": 1894,
      "æ²īé»ĺ": 1895,
      "åķ¸": 1896,
      "åĮĸä¸º": 1897,
      "åģĩ": 1898,
      "åģ·": 1899,
      "ç¢§": 1900,
      "éĿŀå¸¸": 1901,
      "çĬ¹": 1902,
      "åįĩ": 1903,
      "åĳ¨éĿĴ": 1904,
      "ä¸Ŀæ¯«": 1905,
      "èİ²": 1906,
      "æħ¢æħ¢": 1907,
      "çľĭäºĨ": 1908,
      "çĸ¯": 1909,
      "çļĦäºĭ": 1910,
      "æ®ĭ": 1911,
      "ä¹ĭèī²": 1912,
      "å°ĺ": 1913,
      "å²Ľ": 1914,
      "æŁĦ": 1915,
      "éĻĦ": 1916,
      "è¢ĭ": 1917,
      "æī¬": 1918,
      "çĶ·åŃĲ": 1919,
      "æľīäºĨ": 1920,
      "çļĦä¸Ģå£°": 1921,
      "å¤º": 1922,
      "éĻħ": 1923,
      "çĭ¼": 1924,
      "ä¸ģ": 1925,
      "èħ°": 1926,
      "çĳ": 1927,
      "çĽ¯": 1928,
      "ç¼ĺ": 1929,
      "ä»ĺ": 1930,
      "åİīå®³": 1931,
      "ä¸Ģä¸ªäºº": 1932,
      "ç½©": 1933,
      "ç§»": 1934,
      "ä¸ĢåĪĩ": 1935,
      "æ°ĳ": 1936,
      "ç¥Ń": 1937,
      "èħ¾": 1938,
      "å²Ĥ": 1939,
      "å¼ı": 1940,
      "å¹³éĿĻ": 1941,
      "èļ": 1942,
      "åĲ¦åĪĻ": 1943,
      "è¸ı": 1944,
      "èµ·äºĨ": 1945,
      "éĹ®é¢ĺ": 1946,
      "éĿ¢åīį": 1947,
      "ç»ķ": 1948,
      "çīĽ": 1949,
      "éĥ½ä¸į": 1950,
      "åħ°": 1951,
      "å°ıå®Ŀ": 1952,
      "åħ¬åŃĲ": 1953,
      "çļĦäºĭæĥħ": 1954,
      "æºĲ": 1955,
      "è§ģåĪ°": 1956,
      "åĲ«": 1957,
      "èº«è¾¹": 1958,
      "å¯¹äºİ": 1959,
      "åį±": 1960,
      "çĴ": 1961,
      "æĬµ": 1962,
      "å¾Īå¤ļ": 1963,
      "è¯Ģ": 1964,
      "å¤§äºº": 1965,
      "åĪ«äºº": 1966,
      "å·´": 1967,
      "çļĦç¥ŀ": 1968,
      "æĤŁ": 1969,
      "èĭı": 1970,
      "çĩķ": 1971,
      "ä¹Į": 1972,
      "éĤ£ä½į": 1973,
      "å±ŀ": 1974,
      "äº¡": 1975,
      "ä¸ºä½ķ": 1976,
      "çĬ¶": 1977,
      "æľºä¼ļ": 1978,
      "çīĻ": 1979,
      "éĥİ": 1980,
      "éĩİ": 1981,
      "åħ¨èº«": 1982,
      "æĮī": 1983,
      "éĺ»": 1984,
      "æĦıæĢĿ": 1985,
      "é¢ĩ": 1986,
      "ä¹Ĳ": 1987,
      "è¾°": 1988,
      "ä¹ĭå¤ĸ": 1989,
      "çĿ¡": 1990,
      "æĳĨ": 1991,
      "æĶ¯": 1992,
      "éŁ¦å°ıå®Ŀ": 1993,
      "åĿĩ": 1994,
      "çĥ§": 1995,
      "å¤ļå°ĳ": 1996,
      "é¢Ĺ": 1997,
      "åľ¨è¿ĻéĩĮ": 1998,
      "éĻĨå°ı": 1999,
      "æµĵ": 2000,
      "éªĤ": 2001,
      "çĨŁ": 2002,
      "æĹ§": 2003,
      "è·ĥ": 2004,
      "ä¸įåĲĮ": 2005,
      "åºĨ": 2006,
      "æĬ¢": 2007,
      "åħīèĬĴ": 2008,
      "åľ¨åľ°": 2009,
      "æ·¡æ·¡": 2010,
      "ç§Ģ": 2011,
      "çĽĳ": 2012,
      "éĻĨå°ıåĩ¤": 2013,
      "çĦ¶èĢĮ": 2014,
      "è·Ŀ": 2015,
      "ä¸ĬäºĨ": 2016,
      "åıĺå¾Ĺ": 2017,
      "æĥ³è¦ģ": 2018,
      "ç©´": 2019,
      "è°Ī": 2020,
      "è®©ä»ĸ": 2021,
      "åķĨ": 2022,
      "å¥½åĥı": 2023,
      "éĿĸ": 2024,
      "å²ģ": 2025,
      "å¾·": 2026,
      "å¢Ļ": 2027,
      "è¿ĺè¦ģ": 2028,
      "åı·": 2029,
      "ä¸ĢèĤ¡": 2030,
      "éļıçĿĢ": 2031,
      "åĲ¹": 2032,
      "åĮĹåĩī": 2033,
      "éĽĨ": 2034,
      "è¿İ": 2035,
      "æĹłæ¯Ķ": 2036,
      "éĴŁ": 2037,
      "èĽĩ": 2038,
      "éĺ²": 2039,
      "çľŁäºº": 2040,
      "æĭħ": 2041,
      "å°±è¦ģ": 2042,
      "è®²": 2043,
      "æĺ¯è°ģ": 2044,
      "å½»": 2045,
      "åĴ¬": 2046,
      "èĢĮæĿ¥": 2047,
      "ç³Ĭ": 2048,
      "ä¸ĢåĬ¨": 2049,
      "æİĴ": 2050,
      "éĥ½æ²¡æľī": 2051,
      "åĵģ": 2052,
      "éĻį": 2053,
      "åľĪ": 2054,
      "åŃĶ": 2055,
      "åĵĪåĵĪ": 2056,
      "è°ĥ": 2057,
      "éĨĴè¨Ģ": 2058,
      "è¿Ł": 2059,
      "ç¼©": 2060,
      "æĶ¹": 2061,
      "ç«Ļåľ¨": 2062,
      "äºĮåįģ": 2063,
      "åı«éģĵ": 2064,
      "ä½ĵåĨħ": 2065,
      "åŃ©åŃĲ": 2066,
      "æĬķ": 2067,
      "åŃĺåľ¨": 2068,
      "æŃ»äºĨ": 2069,
      "åıĮçĽ®": 2070,
      "åĲĳçĿĢ": 2071,
      "æĿĤ": 2072,
      "èº«å½¢": 2073,
      "éĽĢ": 2074,
      "å°¤": 2075,
      "è¸ª": 2076,
      "ä¸īä¸ª": 2077,
      "çĮľ": 2078,
      "åŃ¤": 2079,
      "åĲĲ": 2080,
      "è¶ħ": 2081,
      "èµ¤": 2082,
      "è£ħ": 2083,
      "å¤§å¸Ī": 2084,
      "è¾ĥ": 2085,
      "ä¸Ģæ¬¡": 2086,
      "å¿įä¸įä½ı": 2087,
      "éĿ¢ä¸Ĭ": 2088,
      "æĻº": 2089,
      "çĽĸ": 2090,
      "æ¯Ľ": 2091,
      "å¿ĥæĥ³": 2092,
      "ä¸įäºĨ": 2093,
      "åĿļ": 2094,
      "å¤©ç©º": 2095,
      "æ¡Į": 2096,
      "ç¨³": 2097,
      "ä¾§": 2098,
      "æĹĭ": 2099,
      "çĿģ": 2100,
      "çĻ»": 2101,
      "åĤħ": 2102,
      "éĿł": 2103,
      "æĹłå¿Į": 2104,
      "åĸĥ": 2105,
      "åĺ¿": 2106,
      "åĪĴ": 2107,
      "åľ¨ä¸ĭ": 2108,
      "æĹ©å·²": 2109,
      "åĨ¥": 2110,
      "åºĦ": 2111,
      "åİļ": 2112,
      "ä»¥åĲİ": 2113,
      "ç«¥": 2114,
      "ä¾ĿçĦ¶": 2115,
      "åıªæĢķ": 2116,
      "çķĻé¦Ļ": 2117,
      "éĺģ": 2118,
      "æĥ§": 2119,
      "åĲ¼": 2120,
      "èĵ¦": 2121,
      "æ¥ļçķĻé¦Ļ": 2122,
      "å²³": 2123,
      "åĩĢ": 2124,
      "æĻ¶": 2125,
      "äºĨä¸ĭæĿ¥": 2126,
      "çģ¯": 2127,
      "éĤª": 2128,
      "è¿Ļæ¬¡": 2129,
      "äºĨåĩł": 2130,
      "çľĭè§ģ": 2131,
      "å¯º": 2132,
      "ä¸¤ä½į": 2133,
      "ä»Ĭå¤©": 2134,
      "éĿ¢çļĦ": 2135,
      "éľŀ": 2136,
      "æĪª": 2137,
      "èĢĮå·²": 2138,
      "ä¹ĭå¤Ħ": 2139,
      "æŃ£åľ¨": 2140,
      "æĬĺ": 2141,
      "æ´Ľ": 2142,
      "ä¸ĢæĹ¶": 2143,
      "æĿ¯": 2144,
      "å¿µå¤´": 2145,
      "ç¬Ķ": 2146,
      "å¹¶æ²¡æľī": 2147,
      "åĽŀæĿ¥": 2148,
      "éĢī": 2149,
      "åı£ä¸Ń": 2150,
      "åĴĮå°ļ": 2151,
      "åħ¬ä¸»": 2152,
      "ä¸įå°ĳ": 2153,
      "ä¸įå®ļ": 2154,
      "ä¸Ģèµ·": 2155,
      "æ¸Ĭ": 2156,
      "æ¢ģèĲ§": 2157,
      "åĲŀ": 2158,
      "è¿ĻèĪ¬": 2159,
      "æĿĲ": 2160,
      "ç¬ĳäºĨ": 2161,
      "ä¸īåįģ": 2162,
      "ç¢°": 2163,
      "æ¯ģ": 2164,
      "åĨĴ": 2165,
      "æĿ¿": 2166,
      "ä½łæĺ¯": 2167,
      "å¼Ģåı£": 2168,
      "è²": 2169,
      "éĤ£ä¸Ģ": 2170,
      "å®¤": 2171,
      "è´¨": 2172,
      "å©´": 2173,
      "éĻĪæĻ¯": 2174,
      "éľĢè¦ģ": 2175,
      "è§¦": 2176,
      "æİ§": 2177,
      "ä¸įå¥½": 2178,
      "åķ¦": 2179,
      "åıĤ": 2180,
      "åı¯æĥľ": 2181,
      "å¥ĩæĢª": 2182,
      "æ¦": 2183,
      "åĸ·": 2184,
      "å¼Ħ": 2185,
      "åĵŃ": 2186,
      "æ±ł": 2187,
      "ä¹Łæľī": 2188,
      "ä¹ĭäºĭ": 2189,
      "æĥħåĨµ": 2190,
      "æģ©": 2191,
      "åī§": 2192,
      "åĶ¯": 2193,
      "éļ¾ä»¥": 2194,
      "è¿Ļæīį": 2195,
      "ç¾½": 2196,
      "ä¸Ĭä¸Ģ": 2197,
      "å¼¹": 2198,
      "ä¾ł": 2199,
      "éĿ¢èī²": 2200,
      "æ£®": 2201,
      "æºĥ": 2202,
      "ä¸įæĸŃ": 2203,
      "èħ¿": 2204,
      "åı¦ä¸Ģ": 2205,
      "çİ©": 2206,
      "èº¯": 2207,
      "çĽĽ": 2208,
      "èĥĨ": 2209,
      "ç½ª": 2210,
      "çĽ¯çĿĢ": 2211,
      "å¼¥": 2212,
      "èĪį": 2213,
      "æ³ķå®Ŀ": 2214,
      "æĺ¾çĦ¶": 2215,
      "çĭĹ": 2216,
      "ä¸įç¦ģ": 2217,
      "è®®": 2218,
      "äºĨä¸Ģå£°": 2219,
      "æŀģä¸º": 2220,
      "æĿĢäºĨ": 2221,
      "éĢ¼": 2222,
      "å°º": 2223,
      "çĶ°": 2224,
      "è·ĳ": 2225,
      "åĲ´": 2226,
      "å¾¡": 2227,
      "æľĭ": 2228,
      "è¶ĬæĿ¥": 2229,
      "æģŃ": 2230,
      "èĻ¹": 2231,
      "éĤ£æĺ¯": 2232,
      "åħ»": 2233,
      "æĤĦ": 2234,
      "ç»§ç»Ń": 2235,
      "äºĨä¸Ģä¸ĭ": 2236,
      "ä¸įåĨį": 2237,
      "æĻ®": 2238,
      "ç©ºéĹ´": 2239,
      "è¶ĬæĿ¥è¶Ĭ": 2240,
      "è¡¨æĥħ": 2241,
      "å»º": 2242,
      "æŃ¤äºĭ": 2243,
      "çļĦéģĵ": 2244,
      "èĤ¯å®ļ": 2245,
      "éģĹ": 2246,
      "åī¯": 2247,
      "æ³ª": 2248,
      "æµĭ": 2249,
      "è¯¡": 2250,
      "çĺ": 2251,
      "åĨ·åĨ·": 2252,
      "äºĨåı£æ°Ķ": 2253,
      "æĭĶ": 2254,
      "æµĳ": 2255,
      "æĿ¥è¯´": 2256,
      "çĥ¦": 2257,
      "ä¸½": 2258,
      "å·§": 2259,
      "æ¤": 2260,
      "èº²": 2261,
      "éģį": 2262,
      "åıĳçĶŁ": 2263,
      "è¯ģ": 2264,
      "åıĪæĺ¯": 2265,
      "å¨ĩ": 2266,
      "çļĦå¿ĥ": 2267,
      "éļĶ": 2268,
      "ä¸ĭäºĨ": 2269,
      "èĬĤ": 2270,
      "æŁ¥": 2271,
      "ä¹ĺ": 2272,
      "èķ": 2273,
      "ä¸įåĬ¨": 2274,
      "ç¦ģåĪ¶": 2275,
      "èº«åīį": 2276,
      "èĪ¬çļĦ": 2277,
      "åĸĿéģĵ": 2278,
      "å©ī": 2279,
      "æĿ¥åĪ°": 2280,
      "è¡«": 2281,
      "äºĨåĩºæĿ¥": 2282,
      "ç¤º": 2283,
      "å¼ĢäºĨ": 2284,
      "èĪŀ": 2285,
      "éĺŁ": 2286,
      "ç¬¼": 2287,
      "ä¸įçĶ¨": 2288,
      "çĶŁæŃ»": 2289,
      "ä¼łæĿ¥": 2290,
      "æĬĹ": 2291,
      "ä½łè¯´": 2292,
      "ä¿®è¡Į": 2293,
      "æĤ²": 2294,
      "ä¾į": 2295,
      "æį®": 2296,
      "éĢŁåº¦": 2297,
      "è¡Ĺ": 2298,
      "ä¹ĭåľ°": 2299,
      "æľĭåıĭ": 2300,
      "éĻĽ": 2301,
      "éĤ£äºº": 2302,
      "åĿı": 2303,
      "è½¬èº«": 2304,
      "è§ģè¿ĩ": 2305,
      "åĢĴæĺ¯": 2306,
      "æĪĳä¹Ł": 2307,
      "æ¨¡æł·": 2308,
      "åŁº": 2309,
      "åĽ°": 2310,
      "æĮĳ": 2311,
      "æīĭä¸Ģ": 2312,
      "äººéĥ½": 2313,
      "æĽ¿": 2314,
      "åİŁæľ¬": 2315,
      "åºĻ": 2316,
      "å¾ĹåĪ°": 2317,
      "åįĸ": 2318,
      "éģ¥": 2319,
      "é²ľè¡Ģ": 2320,
      "é¼İ": 2321,
      "é¸Ł": 2322,
      "çº·çº·": 2323,
      "è¶£": 2324,
      "åĨĻ": 2325,
      "è´¼": 2326,
      "åįģåĪĨ": 2327,
      "çļĦæł·åŃĲ": 2328,
      "åıĮçľ¼": 2329,
      "èī¯": 2330,
      "éķ¿èĢģ": 2331,
      "åĮº": 2332,
      "æģĲæĢķ": 2333,
      "äºĨä¸ª": 2334,
      "çĽ¸ä¿¡": 2335,
      "ä¼ĳ": 2336,
      "ç¼Ŀ": 2337,
      "åħ³ç³»": 2338,
      "å¤§å°ı": 2339,
      "ä¸ĭä¸Ģ": 2340,
      "çļĦè¯´éģĵ": 2341,
      "å¯Ĥ": 2342,
      "è¿ĺä¸į": 2343,
      "è®©äºº": 2344,
      "èª": 2345,
      "å¥³äºº": 2346,
      "æĬ½": 2347,
      "ç²ī": 2348,
      "åĪļåĪļ": 2349,
      "å®ŀåĬĽ": 2350,
      "è´¹": 2351,
      "å¾®ç¬ĳ": 2352,
      "ä¹ĭå£°": 2353,
      "å¾Ĺå¾Ī": 2354,
      "æ¯ķç«Ł": 2355,
      "å¢¨": 2356,
      "çªĹ": 2357,
      "ä¸įä½Ĩ": 2358,
      "æģ¢": 2359,
      "ä¸Ĭåİ»": 2360,
      "ä¹¾": 2361,
      "å¿ĥç¥ŀ": 2362,
      "åĲĳåīį": 2363,
      "æīŃ": 2364,
      "ä»ĸä¸Ģ": 2365,
      "åĮĸä½ľ": 2366,
      "è·Ŀç¦»": 2367,
      "éļĲéļĲ": 2368,
      "è¯´çĿĢ": 2369,
      "èĩ£": 2370,
      "æĸ¹åĲĳ": 2371,
      "çº§": 2372,
      "åĩºçİ°åľ¨": 2373,
      "æħķå®¹": 2374,
      "èĢĮèµ·": 2375,
      "åĪ°åºķ": 2376,
      "éª¤": 2377,
      "æĩĤ": 2378,
      "åŀĤ": 2379,
      "èĵī": 2380,
      "è¢ģ": 2381,
      "ä»·": 2382,
      "èº«å½±": 2383,
      "å®ĩ": 2384,
      "çļĦåīĳ": 2385,
      "åĸľæ¬¢": 2386,
      "æ³¥": 2387,
      "å¼Ĥå¸¸": 2388,
      "çĨĬ": 2389,
      "æ¾": 2390,
      "æİ©": 2391,
      "æ¡ĥ": 2392,
      "è½¯": 2393,
      "æĺ¯ä¸įæĺ¯": 2394,
      "æ¢ħ": 2395,
      "è²Į": 2396,
      "çļĦåľ°æĸ¹": 2397,
      "èĮ¶": 2398,
      "è§Ħ": 2399,
      "ä¸Ģåıª": 2400,
      "ä¸įåģľ": 2401,
      "åĸĦ": 2402,
      "ä»°": 2403,
      "æĭ¼": 2404,
      "åıįèĢĮ": 2405,
      "éĻĨæ¸Ĳ": 2406,
      "æľµ": 2407,
      "åĬŁå¤«": 2408,
      "åī©": 2409,
      "åħ¥äºĨ": 2410,
      "åĿĲåľ¨": 2411,
      "ç»Ł": 2412,
      "å°¤åħ¶": 2413,
      "çľīå¤´": 2414,
      "æĺ¯åľ¨": 2415,
      "èĵ¦çĦ¶": 2416,
      "è·ŁçĿĢ": 2417,
      "æ¶Īæģ¯": 2418,
      "æŀ¶": 2419,
      "æŁ±": 2420,
      "?âĢĿ": 2421,
      "åĪĥ": 2422,
      "ä¸Ńå¹´": 2423,
      "è¯ī": 2424,
      "éĩĬ": 2425,
      "éĻ·": 2426,
      "ä½łè¿Ļ": 2427,
      "éĻĦè¿ĳ": 2428,
      "å°ıåŃĲ": 2429,
      "å½»åºķ": 2430,
      "åĭ¾": 2431,
      "è±ª": 2432,
      "ä¹ĭä¸Ģ": 2433,
      "ä»ĸä»¬çļĦ": 2434,
      "ç¦ı": 2435,
      "è¿Ľåİ»": 2436,
      "æŃ¤åľ°": 2437,
      "ä¸įæĥ³": 2438,
      "ä½Ĩåį´": 2439,
      "é£Ł": 2440,
      "è¿ħ": 2441,
      "èĻ«": 2442,
      "éķľ": 2443,
      "å·¨å¤§çļĦ": 2444,
      "æķ°åįģ": 2445,
      "è¿Ļæł·çļĦ": 2446,
      "æŀĿ": 2447,
      "æĢľ": 2448,
      "ä¸ĢæĿ¡": 2449,
      "èİ½": 2450,
      "ä»¤çĭĲ": 2451,
      "åħĪåīį": 2452,
      "ä¼ļåĦ¿": 2453,
      "æĥĳ": 2454,
      "äºİæĺ¯": 2455,
      "æŀª": 2456,
      "çŀª": 2457,
      "æ³ī": 2458,
      "å¤§å®¶": 2459,
      "çº¹": 2460,
      "åĻ¬": 2461,
      "çŃīäºº": 2462,
      "å°ıå¿ĥ": 2463,
      "çĸ¾": 2464,
      "åĩºçļĦ": 2465,
      "åħ±": 2466,
      "åĲĵ": 2467,
      "å¤ļå¹´": 2468,
      "ãĢĢ": 2469,
      "åı¹éģĵ": 2470,
      "ä¸įå¤ļ": 2471,
      "æĢ¨": 2472,
      "å¯¸": 2473,
      "çľĭçľĭ": 2474,
      "éĻĲ": 2475,
      "çł°": 2476,
      "çº¯": 2477,
      "å¸ĮæľĽ": 2478,
      "æĸ½å±ķ": 2479,
      "è¯´çļĦ": 2480,
      "å°ĨåĨĽ": 2481,
      "çıĤ": 2482,
      "è¿ľè¿ľ": 2483,
      "å®¹æĺĵ": 2484,
      "ç¼ł": 2485,
      "æīįèĥ½": 2486,
      "ä¹Łå°±": 2487,
      "åĩºæĿ¥çļĦ": 2488,
      "æ»´": 2489,
      "é¼»": 2490,
      "èĢģå¤«": 2491,
      "é©¬ä¸Ĭ": 2492,
      "åįĹèĲ½": 2493,
      "æľīçļĦ": 2494,
      "ç©·": 2495,
      "æĭ¥": 2496,
      "éĹ¹": 2497,
      "èº«ä»½": 2498,
      "æ·±å¤Ħ": 2499,
      "åļ": 2500,
      "æĹ©å°±": 2501,
      "åįĵ": 2502,
      "å¦ĥ": 2503,
      "éŃĦ": 2504,
      "éĻĽä¸ĭ": 2505,
      "ç²Ĺ": 2506,
      "æįŁ": 2507,
      "æģ¢å¤į": 2508,
      "å·¥": 2509,
      "ãĢĬ": 2510,
      "ãĢĭ": 2511,
      "åīįæĸ¹": 2512,
      "çĲĥ": 2513,
      "ç¦ħ": 2514,
      "ä¼¸æīĭ": 2515,
      "æķĪ": 2516,
      "æľĢç»Ī": 2517,
      "æĺ¯ä»Ģä¹Ī": 2518,
      "æĤł": 2519,
      "å´©æºĥ": 2520,
      "æĬ¬èµ·": 2521,
      "æĤ¬": 2522,
      "éĥŃéĿĸ": 2523,
      "æĪĲçļĦ": 2524,
      "ä»¥åīį": 2525,
      "å¤§æ±ī": 2526,
      "åĪĺ": 2527,
      "å¸ħ": 2528,
      "èĪŁ": 2529,
      "çħŀ": 2530,
      "çĩĥ": 2531,
      "æīİ": 2532,
      "ç§¦": 2533,
      "é¹°": 2534,
      "éĵľ": 2535,
      "ä¸įåıĬ": 2536,
      "ä¹Łæ²¡": 2537,
      "å¥½äºĨ": 2538,
      "éĹªåĬ¨": 2539,
      "å¼ºå¤§": 2540,
      "è°ĵ": 2541,
      "çĹħ": 2542,
      "è§ģä»ĸ": 2543,
      "è¿Ļäºº": 2544,
      "ä¸įç®¡": 2545,
      "éļıåĲİ": 2546,
      "ä¸Ģä¸Ŀ": 2547,
      "æĹĹ": 2548,
      "åįł": 2549,
      "åĽŀåİ»": 2550,
      "æīĢåľ¨": 2551,
      "ç¯": 2552,
      "æ±Ĺ": 2553,
      "è¿ĽæĿ¥": 2554,
      "åĳµ": 2555,
      "æ´Ĺ": 2556,
      "æĢĸ": 2557,
      "é»ĳæļĹ": 2558,
      "æĽ¾ç»ı": 2559,
      "çĦ¶éģĵ": 2560,
      "å®¶ä¼Ļ": 2561,
      "æĪĲä¸º": 2562,
      "çĥģ": 2563,
      "æĥ³ä¸įåĪ°": 2564,
      "å·²çĦ¶": 2565,
      "åĳĬè¯ī": 2566,
      "ä¸įåľ¨": 2567,
      "ç¬¬ä¸ī": 2568,
      "æĽ´åĬł": 2569,
      "æĿŁ": 2570,
      "å¥½çļĦ": 2571,
      "åĽŀå¤´": 2572,
      "æĹģè¾¹": 2573,
      "åĲķ": 2574,
      "ä¹ĭæĦı": 2575,
      "è¢Ń": 2576,
      "èµ·èº«": 2577,
      "èĢĥ": 2578,
      "åĶĩ": 2579,
      "é»ĳèī²": 2580,
      "èĸĦ": 2581,
      "åı¹äºĨåı£æ°Ķ": 2582,
      "è¯´äºĨ": 2583,
      "åĽŀçŃĶ": 2584,
      "ä½¿å¾Ĺ": 2585,
      "ç»ª": 2586,
      "æļĤ": 2587,
      "åľ°éģĵ": 2588,
      "èµ°åĪ°": 2589,
      "å§ĭç»Ī": 2590,
      "éĤ£éĩĮ": 2591,
      "çĹķ": 2592,
      "å¨ģåĬĽ": 2593,
      "éģŃ": 2594,
      "åı¯æĢķ": 2595,
      "ä»ĸæĺ¯": 2596,
      "åı¦å¤ĸ": 2597,
      "å°±åľ¨è¿Ļ": 2598,
      "æ²¡æľīäºº": 2599,
      "å´ĸ": 2600,
      "éĤ£è¾¹": 2601,
      "ç»Ŀå¯¹": 2602,
      "æ£ł": 2603,
      "ä¸įèµ·": 2604,
      "ä»¶äºĭ": 2605,
      "æĿ¨è¿ĩ": 2606,
      "çĵ¶": 2607,
      "æ³ķåĬĽ": 2608,
      "çīĮ": 2609,
      "æĦ¤": 2610,
      "è¿ĺåľ¨": 2611,
      "èĲį": 2612,
      "äºĴ": 2613,
      "ä¹ĥæĺ¯": 2614,
      "çĻ¾å¹´": 2615,
      "åºŃ": 2616,
      "ç¥ŀæĥħ": 2617,
      "ä½Ĩä»ĸ": 2618,
      "æĻĮ": 2619,
      "çĻ½è¡£": 2620,
      "æİł": 2621,
      "å»·": 2622,
      "æ¡ĳæ¡ĳ": 2623,
      "éĩįæĸ°": 2624,
      "åºĬ": 2625,
      "å¤§åĵ¥": 2626,
      "æĭ¦": 2627,
      "å½ĵæĹ¶": 2628,
      "åįģä¸ī": 2629,
      "æĦĪ": 2630,
      "éĹ·": 2631,
      "ä¹Łè®¸": 2632,
      "çºª": 2633,
      "å¿ĥå¤´": 2634,
      "éĩĳåħī": 2635,
      "æķĮäºº": 2636,
      "çģ«çĦ°": 2637,
      "éĵº": 2638,
      "åİħ": 2639,
      "æıĴ": 2640,
      "æĸľ": 2641,
      "åĲ¯": 2642,
      "åŃŁ": 2643,
      "ä¸ĬéĿ¢": 2644,
      "æĥ³èµ·": 2645,
      "åĬĪ": 2646,
      "å¦ĤåĲĮ": 2647,
      "æĢ§åĳ½": 2648,
      "çļĨ": 2649,
      "å°±ä¼ļ": 2650,
      "æ²»": 2651,
      "èµ«": 2652,
      "åĬ¨æīĭ": 2653,
      "ä½©": 2654,
      "ç«ĭåį³": 2655,
      "çļĦæĦŁè§ī": 2656,
      "è¿ĽäºĨ": 2657,
      "åĢį": 2658,
      "å¦Ī": 2659,
      "éĶĲ": 2660,
      "åįģäºĮ": 2661,
      "åľ¨ä¸Ģèµ·": 2662,
      "å¼ĥ": 2663,
      "éĿ¢å¯¹": 2664,
      "å·¨å¤§": 2665,
      "æĺ¾å¾Ĺ": 2666,
      "ä¸įåı¯èĥ½": 2667,
      "æĢİæł·": 2668,
      "çīµ": 2669,
      "éĥ¨åĪĨ": 2670,
      "é±¼åĦ¿": 2671,
      "æĺ¯åĲ¦": 2672,
      "å¤ĸçļĦ": 2673,
      "ä¹Łè¦ģ": 2674,
      "åĲ¬è¯´": 2675,
      "æĿĥ": 2676,
      "å¤©çļĦ": 2677,
      "å°¾": 2678,
      "äºĨä¸Ģçľ¼": 2679,
      "å¥ī": 2680,
      "ä»¤çĭĲåĨ²": 2681,
      "çĽŁ": 2682,
      "çĥĤ": 2683,
      "éĴĪ": 2684,
      "åıĪæľī": 2685,
      "ä¹¦éĻ¢": 2686,
      "äºĨä»ĸ": 2687,
      "éĢĤ": 2688,
      "åĲįåŃĹ": 2689,
      "éĢĨ": 2690,
      "éĢĶ": 2691,
      "åĢ¼": 2692,
      "åı²": 2693,
      "ä¹ł": 2694,
      "æĦŁåºĶ": 2695,
      "éĹªçĥģ": 2696,
      "é¼ĵ": 2697,
      "è°ĭ": 2698,
      "æĺı": 2699,
      "è½¬çľ¼": 2700,
      "åª": 2701,
      "æīĭæĮĩ": 2702,
      "ä¸Ģè·¯": 2703,
      "æŀļ": 2704,
      "è¿«": 2705,
      "èĢģç¥ĸ": 2706,
      "å£®": 2707,
      "èĮ«": 2708,
      "å¢ŀ": 2709,
      "ç§¯": 2710,
      "èĶ": 2711,
      "åįĬæĻĮ": 2712,
      "èµĦ": 2713,
      "èħ¹": 2714,
      "ç¡®å®ŀ": 2715,
      "åīĳåħī": 2716,
      "åĸĬ": 2717,
      "è¯¡å¼Ĥ": 2718,
      "ä¸ĢåĲį": 2719,
      "å¤§ç¬ĳ": 2720,
      "çŃĶåºĶ": 2721,
      "åľ¨æŃ¤": 2722,
      "çĽĪ": 2723,
      "ä»İæĿ¥": 2724,
      "éªĩ": 2725,
      "éĿĴå¹´": 2726,
      "ä¸įå¦Ĥ": 2727,
      "ç¿¼": 2728,
      "å¥Ī": 2729,
      "è·ĭ": 2730,
      "ç®Ĺæĺ¯": 2731,
      "ä¸ĢæĬĬ": 2732,
      "æ¸¡": 2733,
      "é¥Ń": 2734,
      "èķ´": 2735,
      "ç¥ŀè¯Ĩ": 2736,
      "é¹¤": 2737,
      "å¸Īå¼Ł": 2738,
      "ç£¨": 2739,
      "çļĦå¤©": 2740,
      "ä¸Ģä½į": 2741,
      "éķ¿å®ī": 2742,
      "å¿ħé¡»": 2743,
      "æµ®çİ°": 2744,
      "æĴķ": 2745,
      "ç»ĻæĪĳ": 2746,
      "åĽŃ": 2747,
      "æĻ®éĢļ": 2748,
      "ç¬ĳå®¹": 2749,
      "ä¹Łä¸įä¼ļ": 2750,
      "èĲ¥": 2751,
      "æĭ©": 2752,
      "åĨ·ç¬ĳ": 2753,
      "å»¶": 2754,
      "æŃ¦æŀĹ": 2755,
      "çİĭæŀĹçļĦ": 2756,
      "ä¿±": 2757,
      "æķĻä¸»": 2758,
      "æĿľ": 2759,
      "å®ľ": 2760,
      "æ¼ł": 2761,
      "åºŀ": 2762,
      "ä¸įæĪĲ": 2763,
      "çĸ¯çĭĤ": 2764,
      "éĥ½è¦ģ": 2765,
      "å¤ı": 2766,
      "æĪĳå°±": 2767,
      "è®¶": 2768,
      "æ²¡æľīä»»ä½ķ": 2769,
      "æµ©": 2770,
      "åłª": 2771,
      "æīĺ": 2772,
      "çĶŁçļĦ": 2773,
      "è¯´å®Į": 2774,
      "å¥½ä¼¼": 2775,
      "æĮ£": 2776,
      "åĽº": 2777,
      "ä¸įæĦ¿": 2778,
      "ç»Ļä½ł": 2779,
      "åħĥæ°Ķ": 2780,
      "åħħæ»¡": 2781,
      "å°ıé±¼åĦ¿": 2782,
      "ä»Ķ": 2783,
      "æľīæīĢ": 2784,
      "éħį": 2785,
      "æī§": 2786,
      "æĬ¬å¤´": 2787,
      "ä»¤äºº": 2788,
      "è¿ĺæ²¡æľī": 2789,
      "çĹ´": 2790,
      "èĳĽ": 2791,
      "èĿ¶": 2792,
      "è±«": 2793,
      "è¾ĵ": 2794,
      "æĺĨ": 2795,
      "çº³": 2796,
      "éĩįè¦ģ": 2797,
      "å°Ķ": 2798,
      "åįĬçĤ¹": 2799,
      "æĬ¹": 2800,
      "å·¦æīĭ": 2801,
      "æĬĽ": 2802,
      "åºŁ": 2803,
      "å¯¹ä»ĺ": 2804,
      "æ°ı": 2805,
      "èĦļæŃ¥": 2806,
      "éĴ»": 2807,
      "æłĩ": 2808,
      "ä¹ĭæŀģ": 2809,
      "æĭħå¿ĥ": 2810,
      "éĤ£ç§į": 2811,
      "åĨħçļĦ": 2812,
      "æĪĸèĢħ": 2813,
      "éĻª": 2814,
      "ä¸ĬæĿ¥": 2815,
      "åĩĿèģļ": 2816,
      "è¿Ļä¸¤": 2817,
      "åľ¨éĤ£éĩĮ": 2818,
      "å°¤åħ¶æĺ¯": 2819,
      "ç¬¼ç½©": 2820,
      "å²¸": 2821,
      "èĲ½åľ¨": 2822,
      "è¢«äºº": 2823,
      "æºľ": 2824,
      "åºĹ": 2825,
      "çĤ¹äºĨ": 2826,
      "ç»ĵæŀľ": 2827,
      "å®ĹéĹ¨": 2828,
      "åĲİæĿ¥": 2829,
      "è¿ĺèĥ½": 2830,
      "å¼ĵ": 2831,
      "åįģä¸Ģ": 2832,
      "æĪĳæĺ¯": 2833,
      "åĲİéĿ¢": 2834,
      "æ¬§": 2835,
      "çº¸": 2836,
      "èĨĿ": 2837,
      "å¥Ĺ": 2838,
      "èµĮ": 2839,
      "å½ĵä¸ĭ": 2840,
      "ä¸ĸéĹ´": 2841,
      "äºĨä¸Ģä¸ª": 2842,
      "æ¤ħ": 2843,
      "ä»Ķç»Ĩ": 2844,
      "å¾Īå¿«": 2845,
      "çļĦåĬĽéĩı": 2846,
      "å¼¯": 2847,
      "ä»¥åıĬ": 2848,
      "å½ĵåį³": 2849,
      "åħ¨éĥ½": 2850,
      "å½¼": 2851,
      "è·ª": 2852,
      "è®¾": 2853,
      "å¿Ĩ": 2854,
      "çĬ¹è±«": 2855,
      "æĮº": 2856,
      "éĩĩ": 2857,
      "çĽ´å¥Ķ": 2858,
      "ä¸Ģç§į": 2859,
      "æ¡Ī": 2860,
      "è£¹": 2861,
      "éĩĳèī²": 2862,
      "æľīçĤ¹": 2863,
      "çľ¸": 2864,
      "ç¢Ĺ": 2865,
      "èĥĮåĲİ": 2866,
      "æģĲæĢĸ": 2867,
      "ç®Ģåįķ": 2868,
      "åıªåĲ¬": 2869,
      "ä½ķåĨµ": 2870,
      "æīĭæ®µ": 2871,
      "è¯´æĺ¯": 2872,
      "æ£ĭ": 2873,
      "äºŃ": 2874,
      "æī¾åĪ°": 2875,
      "éĶģ": 2876,
      "åľ¨åħ¶": 2877,
      "æĥ³çĿĢ": 2878,
      "åį´åıĪ": 2879,
      "å²©": 2880,
      "çľ¼ç¥ŀ": 2881,
      "åĢ¾": 2882,
      "æ¦Ĥ": 2883,
      "ç½ĹåĪ¹": 2884,
      "è¿ĻçŃī": 2885,
      "åĮ¹": 2886,
      "éŀŃ": 2887,
      "çľĭå¾Ĺ": 2888,
      "ç¿ł": 2889,
      "å·«": 2890,
      "åĴĴ": 2891,
      "åĨįè¯´": 2892,
      "èµŀ": 2893,
      "ä¸»äºº": 2894,
      "å°±åĥı": 2895,
      "åıįåºĶ": 2896,
      "éľĦ": 2897,
      "èĤīèº«": 2898,
      "æ½®": 2899,
      "ç¼ľ": 2900,
      "ç¨Ģ": 2901,
      "çĦ¦": 2902,
      "ä¹°": 2903,
      "å¼¥æ¼«": 2904,
      "ç»Ļä»ĸ": 2905,
      "çľŁæ°Ķ": 2906,
      "æī¯": 2907,
      "çľ¨": 2908,
      "åıĺæĪĲ": 2909,
      "æ¬§éĺ³": 2910,
      "ç½ĳ": 2911,
      "åı¤æĢª": 2912,
      "å¹¶éĿŀ": 2913,
      "åį±éĻ©": 2914,
      "åĨł": 2915,
      "ä¸įè¯´": 2916,
      "é»Ħèĵī": 2917,
      "åŃĲéĩĮ": 2918,
      "æĨ": 2919,
      "å¤ĸéĿ¢": 2920,
      "çĪ¶äº²": 2921,
      "å¤´é¡¶": 2922,
      "æ²īåĲŁ": 2923,
      "åĳĢ": 2924,
      "å®¶çļĦ": 2925,
      "æĹ¦": 2926,
      "æĶ¾åľ¨": 2927,
      "ä¸Ģçľĭ": 2928,
      "è®¨": 2929,
      "ç¬ĳçĿĢ": 2930,
      "ä¸Ģä¸ªä¸ª": 2931,
      "æĻ°": 2932,
      "è¦ģæĺ¯": 2933,
      "å¤©éŃĶ": 2934,
      "èĢĢ": 2935,
      "åĪĻæĺ¯": 2936,
      "èĻĳ": 2937,
      "åľ¨è¿Ļä¸Ģ": 2938,
      "å¡Ķ": 2939,
      "éĥģ": 2940,
      "æĥ¹": 2941,
      "æ³¨æĦı": 2942,
      "å¹¶ä¸įæĺ¯": 2943,
      "å¾ĹäºĨ": 2944,
      "æĴĳ": 2945,
      "éľ¸": 2946,
      "åĳĺ": 2947,
      "åĤ²": 2948,
      "ä¸ĵ": 2949,
      "åħĭ": 2950,
      "åĩĦ": 2951,
      "âĢĻï¼Į": 2952,
      "äºı": 2953,
      "çļĦç¡®": 2954,
      "å¥´": 2955,
      "è¯ļ": 2956,
      "æŀ¯": 2957,
      "å¸ĪåıĶ": 2958,
      "åĬłä¸Ĭ": 2959,
      "å¤ªå¤ļ": 2960,
      "æĿĢäºº": 2961,
      "è®¤ä¸º": 2962,
      "è¾Ľ": 2963,
      "æ¯«ä¸į": 2964,
      "åħĥå©´": 2965,
      "ä»Ĺ": 2966,
      "æ²Īæµª": 2967,
      "è°·ç¼ľ": 2968,
      "è¯¯": 2969,
      "éļıåį³": 2970,
      "çĿĢçļĦ": 2971,
      "é¢¤æĬĸ": 2972,
      "å¥ĭ": 2973,
      "ä¹ĭæ°Ķ": 2974,
      "çĺ¦": 2975,
      "é©¬è½¦": 2976,
      "èĩ³å°ĳ": 2977,
      "ä¸ĢæĥĬ": 2978,
      "æĸ¹æīį": 2979,
      "å°Ĩä»ĸ": 2980,
      "æĶ»åĩ»": 2981,
      "æģ¼": 2982,
      "æīĩ": 2983,
      "èİ·": 2984,
      "ä¼łåĩº": 2985,
      "å¥¹ä»¬": 2986,
      "é£ŀåīĳ": 2987,
      "éĥ½åľ¨": 2988,
      "å¿§": 2989,
      "æĪĲåĬŁ": 2990,
      "æ¸ħæĻ°": 2991,
      "æĹłå£°": 2992,
      "è¿ŀå¿Ļ": 2993,
      "åı¶å¼Ģ": 2994,
      "çĭłçĭł": 2995,
      "æĹłå°½": 2996,
      "å°ıçļĦ": 2997,
      "æĮĤ": 2998,
      "çľ¯": 2999,
      "éľľ": 3000,
      "éª¤çĦ¶": 3001,
      "ç¾Ĭ": 3002,
      "ç§ĺå¯Ĩ": 3003,
      "çļĦèĢģ": 3004,
      "å¸Ĳ": 3005,
      "èĪĴ": 3006,
      "çī¢": 3007,
      "ç²¾ç¥ŀ": 3008,
      "çĿĢä»ĸ": 3009,
      "å¼ºèĢħ": 3010,
      "èªī": 3011,
      "å¼ºå¤§çļĦ": 3012,
      "ä¼´": 3013,
      "èĢĹ": 3014,
      "ä¸Ģè¾¹": 3015,
      "è¯»": 3016,
      "ä¸ĢéĿ¢": 3017,
      "è¿Ļè¯Ŀ": 3018,
      "èĭįçĻ½": 3019,
      "å¤§éģĵ": 3020,
      "éĻĢ": 3021,
      "åĺ»": 3022,
      "çļĦä¿®å£«": 3023,
      "åº·": 3024,
      "æİ§åĪ¶": 3025,
      "å¤´é¢": 3026,
      "æĢ»æĺ¯": 3027,
      "è¿Ļåĩł": 3028,
      "æĤī": 3029,
      "åĵįèµ·": 3030,
      "æŃ»çļĦ": 3031,
      "ä¹Łä¸įæĺ¯": 3032,
      "äºĨä¸¤": 3033,
      "åĲī": 3034,
      "éĥ½æľī": 3035,
      "ç¥ŀç§ĺ": 3036,
      "çĶĺ": 3037,
      "çľĭåİ»": 3038,
      "éķ¿åīĳ": 3039,
      "ç¬ĳäºĨç¬ĳ": 3040,
      "æĶ¾å¿ĥ": 3041,
      "çĹĽèĭ¦": 3042,
      "åľ°ä¸Ĭ": 3043,
      "éĢīæĭ©": 3044,
      "çļ±çľī": 3045,
      "æ´Ĵ": 3046,
      "åĽŀåĪ°": 3047,
      "äººçī©": 3048,
      "çĪª": 3049,
      "è¿ħéĢŁ": 3050,
      "åħ¸": 3051,
      "åĪĽ": 3052,
      "æ°¸è¿ľ": 3053,
      "ä½łè¦ģ": 3054,
      "éĨī": 3055,
      "æĹ¶è¾°": 3056,
      "ä»ĸåľ¨": 3057,
      "ä½įç½®": 3058,
      "éĹ¯": 3059,
      "çľĭåĪ°äºĨ": 3060,
      "èŁ": 3061,
      "å¾ĭ": 3062,
      "æĪĳä¸į": 3063,
      "çľŁæŃ£çļĦ": 3064,
      "å¯Į": 3065,
      "ç§ģ": 3066,
      "å¼łæĹłå¿Į": 3067,
      "çĶ·äºº": 3068,
      "éĺµæ³ķ": 3069,
      "éĽķ": 3070,
      "éķ¿çļĦ": 3071,
      "æ»ĳ": 3072,
      "æīįæĺ¯": 3073,
      "æ®Ĭ": 3074,
      "å·²æĺ¯": 3075,
      "èĥĸ": 3076,
      "çķĻä¸ĭ": 3077,
      "çļĦåľ°": 3078,
      "åį³ä½¿": 3079,
      "æľ±éĽĢ": 3080,
      "åĽłæŃ¤": 3081,
      "è¯´ä¸įå®ļ": 3082,
      "æĭĤ": 3083,
      "ä»ģ": 3084,
      "æĦŁåıĹ": 3085,
      "è´£": 3086,
      "ä¸«": 3087,
      "çıį": 3088,
      "èı©": 3089,
      "çļĦçģµ": 3090,
      "å§¿": 3091,
      "ä¸Ĭåīį": 3092,
      "åĺ¶": 3093,
      "âĢĿãĢĤ": 3094,
      "èĽ®": 3095,
      "ç¥ŀéŃĤ": 3096,
      "è¡¥": 3097,
      "ãĢĢĊ": 3098,
      "å¦»": 3099,
      "æīĭæİĮ": 3100,
      "çºµçĦ¶": 3101,
      "åĪ«çļĦ": 3102,
      "èĲ¨": 3103,
      "éĵ¶åŃĲ": 3104,
      "åłĨ": 3105,
      "ä½łä¸į": 3106,
      "æ±ŁåįĹ": 3107,
      "èº«èº¯": 3108,
      "è¯´å¾Ĺ": 3109,
      "æĹłäºº": 3110,
      "åĩłåĪĨ": 3111,
      "å¾®ç¬ĳéģĵ": 3112,
      "å¹´åīį": 3113,
      "éªĹ": 3114,
      "èº«æĹģ": 3115,
      "æĪ·": 3116,
      "ä¸ĭæĸ¹": 3117,
      "å¤©éģĵ": 3118,
      "æīĭä¸Ĭ": 3119,
      "éĺµéĺµ": 3120,
      "è¿Ķ": 3121,
      "ä¸Ģåı£": 3122,
      "å°±åĥıæĺ¯": 3123,
      "å¼ĢæĿ¥": 3124,
      "èİ«éĿŀ": 3125,
      "åĨ·ç¬ĳéģĵ": 3126,
      "éģ®": 3127,
      "åİĮ": 3128,
      "æ³ķåŃĲ": 3129,
      "æ½ľ": 3130,
      "èĢģéģĵ": 3131,
      "è¯´åĪ°": 3132,
      "æ¯«æĹł": 3133,
      "äºĨè¿ĩåİ»": 3134,
      "çļĦè¡Ģ": 3135,
      "æħĮ": 3136,
      "æĺ¯æĪĳ": 3137,
      "ä¸ĢæĹ¦": 3138,
      "è¿Ļåı¥è¯Ŀ": 3139,
      "åĳ¨åĽ´": 3140,
      "éĢĲ": 3141,
      "åı¹æģ¯": 3142,
      "çĶļä¹Ī": 3143,
      "ç»ıè¿ĩ": 3144,
      "çĮ«": 3145,
      "å¤´é¢ħ": 3146,
      "ç½¢äºĨ": 3147,
      "æľīä¸ª": 3148,
      "èĲ½ä¸ĭ": 3149,
      "æĥħç»ª": 3150,
      "æľĿå»·": 3151,
      "ä¹ĭåĨħ": 3152,
      "å°±åľ¨è¿ĻæĹ¶": 3153,
      "é¾Ł": 3154,
      "é©¾": 3155,
      "æŃ£è¦ģ": 3156,
      "æĤ¨": 3157,
      "éĶ¦": 3158,
      "ä»įçĦ¶": 3159,
      "è¿Ī": 3160,
      "åĲ¬äºĨ": 3161,
      "è®©æĪĳ": 3162,
      "åĬŀæ³ķ": 3163,
      "ç´¯": 3164,
      "é»¯": 3165,
      "ä¸ļ": 3166,
      "åĹ¯": 3167,
      "è¯´ä»Ģä¹Ī": 3168,
      "å®Ĺå¸Ī": 3169,
      "ç¢ĳ": 3170,
      "æĪĳè¦ģ": 3171,
      "åĭī": 3172,
      "æľ«": 3173,
      "èµı": 3174,
      "è¨Ģè¯Ń": 3175,
      "çĥĪçļĦ": 3176,
      "å¹´çºª": 3177,
      "è·Į": 3178,
      "åīĳæ³ķ": 3179,
      "æĢİä¼ļ": 3180,
      "çĲ¼": 3181,
      "ç½¡": 3182,
      "æī¶": 3183,
      "æ³ķåĻ¨": 3184,
      "çļĦæĹ¶éĹ´": 3185,
      "é©°": 3186,
      "åĴĲ": 3187,
      "å¯¹ä»ĸ": 3188,
      "åĪ¹éĤ£éĹ´": 3189,
      "ä¸ĢåĽ¢": 3190,
      "å¤´ä¸Ĭ": 3191,
      "éĥ½ä¼ļ": 3192,
      "è¿Ļä¸Ģæ¬¡": 3193,
      "éĤ£åĲį": 3194,
      "çĽ´åĪ°": 3195,
      "åīįéĿ¢": 3196,
      "æķı": 3197,
      "åı¬": 3198,
      "æ²¹": 3199,
      "é¢Ŀ": 3200,
      "ä¿Ĭ": 3201,
      "æĺİæĺ¾": 3202,
      "æŁĵ": 3203,
      "ä¸ĥåħ«": 3204,
      "é»ĳè¡£": 3205,
      "åĨ²åĩ»": 3206,
      "éĺ´éĺ³": 3207,
      "åįĹå®«": 3208,
      "æĺ¨": 3209,
      "è¾ķ": 3210,
      "åıĪéģĵ": 3211,
      "ä¸ĸä¸Ĭ": 3212,
      "åĤ¬": 3213,
      "ä¹Łä¸įçŁ¥": 3214,
      "æīĭéĩĮ": 3215,
      "æ¶Īæķ£": 3216,
      "åĦ¿åŃĲ": 3217,
      "ä¸Ģå¼ł": 3218,
      "æľĽåİ»": 3219,
      "æ¬º": 3220,
      "èį£": 3221,
      "åĤ¨": 3222,
      "è§£éĩĬ": 3223,
      "ä¸Ģè§ģ": 3224,
      "åĶ¤": 3225,
      "åĸĥåĸĥ": 3226,
      "éģĵçĲĨ": 3227,
      "å±ł": 3228,
      "äºķ": 3229,
      "æĪĸè®¸": 3230,
      "åĵĳ": 3231,
      "æ¨¡ç³Ĭ": 3232,
      "ä¸ĢæĿ¥": 3233,
      "å°±è¿ŀ": 3234,
      "åĲİéĢĢ": 3235,
      "è´¯": 3236,
      "å¥³åĦ¿": 3237,
      "éĿĻéĿĻ": 3238,
      "åĽłä¸ºä»ĸ": 3239,
      "çªį": 3240,
      "èŃ": 3241,
      "åĽĽä¸ª": 3242,
      "æł·çļĦ": 3243,
      "èĭ±éĽĦ": 3244,
      "å¯¹æīĭ": 3245,
      "éº»çĥ¦": 3246,
      "èµ°åĩº": 3247,
      "æ¶¡": 3248,
      "èĢģå¤´": 3249,
      "åĮĹèİ½": 3250,
      "æ¡¥": 3251,
      "æ±īåŃĲ": 3252,
      "ä¸įä¸Ĭ": 3253,
      "å½ĵçľŁ": 3254,
      "æĥħå½¢": 3255,
      "æİĮéĹ¨": 3256,
      "èĢĮä¸ĭ": 3257,
      "éķĸ": 3258,
      "çĤ¹äºĨçĤ¹å¤´": 3259,
      "æŃ»äº¡": 3260,
      "åĮĨ": 3261,
      "åĵ¥åĵ¥": 3262,
      "èµ°åİ»": 3263,
      "ä¹ĭçī©": 3264,
      "èģª": 3265,
      "æ´ŀåºľ": 3266,
      "äººéĹ´": 3267,
      "ä»ĸä¹Ł": 3268,
      "è§ģäºĨ": 3269,
      "æĹ¥åĲİ": 3270,
      "ç®ĢçĽ´": 3271,
      "ä¾ĿæĹ§": 3272,
      "è¯´è¿ĩ": 3273,
      "éĢĿ": 3274,
      "è¾ī": 3275,
      "å®ĥä»¬": 3276,
      "æ¼Ĩ": 3277,
      "åĬ¡": 3278,
      "å¹¡": 3279,
      "åĤĢ": 3280,
      "çłį": 3281,
      "é¸¡": 3282,
      "çĬ¯": 3283,
      "éĹªçĶµ": 3284,
      "æĿĳ": 3285,
      "å·¦åı³": 3286,
      "è½¬è¿ĩ": 3287,
      "æľĽåĲĳ": 3288,
      "èıľ": 3289,
      "é©±": 3290,
      "éĽ¶": 3291,
      "ä½łä¹Ł": 3292,
      "é¬¼åİī": 3293,
      "äº§": 3294,
      "ç¥¸": 3295,
      "èĦĨ": 3296,
      "æĿĸ": 3297,
      "åħ¨åĬĽ": 3298,
      "æįī": 3299,
      "æĳ©": 3300,
      "åĹ¡": 3301,
      "æĻķ": 3302,
      "å·Ŀ": 3303,
      "ä¸Ģçķª": 3304,
      "æĭĸ": 3305,
      "åĦ¡": 3306,
      "æīĢè°ĵ": 3307,
      "ä»ĻåŃĲ": 3308,
      "ä¿Ĺ": 3309,
      "èŃ¦": 3310,
      "çº±": 3311,
      "å¹¶æľª": 3312,
      "è¢«ä»ĸ": 3313,
      "åĳ¼åĲ¸": 3314,
      "åĵ¦": 3315,
      "éĵģèĬ±": 3316,
      "åīĳæ°Ķ": 3317,
      "åįģåĩł": 3318,
      "å¤§åįĬ": 3319,
      "èĽĭ": 3320,
      "èĥ¡éĵģèĬ±": 3321,
      "æľ¬èº«": 3322,
      "äºĨè¿ĩæĿ¥": 3323,
      "å®½": 3324,
      "æ´ĭ": 3325,
      "æĬĬæı¡": 3326,
      "çŀĴ": 3327,
      "ä¸ŃéĹ´": 3328,
      "æĺ¯ä»ĸ": 3329,
      "è¾ŀ": 3330,
      "ä¸įèĤ¯": 3331,
      "åħ¶ä½Ļ": 3332,
      "ä¸ĩéĩĮ": 3333,
      "ä¹ĭéĻħ": 3334,
      "æĺĬ": 3335,
      "è¿ĻäºĽäºº": 3336,
      "å±Ī": 3337,
      "èĤļ": 3338,
      "å¤§åľ°": 3339,
      "æ®¿ä¸ĭ": 3340,
      "èİ¹": 3341,
      "è¶ģ": 3342,
      "æ¼©": 3343,
      "çŃĸ": 3344,
      "é¢Ħ": 3345,
      "å¥¶": 3346,
      "å§¬": 3347,
      "è½©è¾ķ": 3348,
      "çķı": 3349,
      "å¤¹": 3350,
      "å¿ĥçļĦ": 3351,
      "ä¸ĢæĻĥ": 3352,
      "çļĦåħī": 3353,
      "è¦": 3354,
      "æįı": 3355,
      "çĭ±": 3356,
      "æľĹ": 3357,
      "å°±ä¸į": 3358,
      "çĤ¹çĤ¹å¤´": 3359,
      "å¾Ħ": 3360,
      "ä»İæľª": 3361,
      "ç¾ŀ": 3362,
      "åĤĢåĦ¡": 3363,
      "æ³¢åĬ¨": 3364,
      "æĦķ": 3365,
      "ä»įæĺ¯": 3366,
      "åįģä½Ļ": 3367,
      "åħīä¸ĢéĹª": 3368,
      "èĽŁ": 3369,
      "çļĩåŃĲ": 3370,
      "åĩºäºĨä¸Ģ": 3371,
      "è¦Ĩ": 3372,
      "ä¿®çľŁ": 3373,
      "çĽ®ä¸Ń": 3374,
      "åĭĩ": 3375,
      "äº²èĩª": 3376,
      "æļĹä¸Ń": 3377,
      "æĦ£": 3378,
      "æīĭèĩĤ": 3379,
      "æĦ§": 3380,
      "åıªå¥½": 3381,
      "å°Ŀ": 3382,
      "å±ı": 3383,
      "éĶĭå¯Ĵ": 3384,
      "ä½³": 3385,
      "åĲ©": 3386,
      "è£Ĥç¼Ŀ": 3387,
      "èĥ¸åı£": 3388,
      "äº¬éĥ½": 3389,
      "æĶ¹åıĺ": 3390,
      "åĲ©åĴĲ": 3391,
      "æĦŁè§īåĪ°": 3392,
      "è®°å¾Ĺ": 3393,
      "å¾®å¾®ä¸Ģç¬ĳ": 3394,
      "èħķ": 3395,
      "çļĦä¸ľè¥¿": 3396,
      "å¤§æ¦Ĥ": 3397,
      "åĬ³": 3398,
      "å£°è¯´éģĵ": 3399,
      "æģ°": 3400,
      "ä¸Ģéľĩ": 3401,
      "åģ¶": 3402,
      "å¤ªè¿ĩ": 3403,
      "æĦıçļĦ": 3404,
      "ç¥ŀæ®¿": 3405,
      "åĨįä¹Ł": 3406,
      "å¸Ń": 3407,
      "å¿½åľ°": 3408,
      "å§ļ": 3409,
      "çľĭèµ·æĿ¥": 3410,
      "æ¶²": 3411,
      "æµħ": 3412,
      "è½½": 3413,
      "ä¹Łåľ¨": 3414,
      "å½±åĵį": 3415,
      "çļĦæ°Ķ": 3416,
      "è¿ĺæľª": 3417,
      "å±ģ": 3418,
      "åĽĽäºº": 3419,
      "èĵ¬": 3420,
      "ä¸¢": 3421,
      "æĥ³æĿ¥": 3422,
      "èı©èĲ¨": 3423,
      "ç¬¬ä¸Ģæ¬¡": 3424,
      "æĺł": 3425,
      "åĿĽ": 3426,
      "åĢĺ": 3427,
      "æľīä¸Ģä¸ª": 3428,
      "èĻ½è¯´": 3429,
      "çĳ¶": 3430,
      "æī°": 3431,
      "éĽ¾æ°Ķ": 3432,
      "èĢĲ": 3433,
      "èĢĮè¿ĩ": 3434,
      "å½¢æĪĲ": 3435,
      "ç©¶ç«Ł": 3436,
      "åĺ´è§Ĵ": 3437,
      "è·ĭéĶĭå¯Ĵ": 3438,
      "æĦıå¤ĸ": 3439,
      "æĥ³å¿ħ": 3440,
      "ç»Ħ": 3441,
      "ä¸Ģåº§": 3442,
      "åĪĹ": 3443,
      "æĻļè¾Ī": 3444,
      "å±±å³°": 3445,
      "çİĩ": 3446,
      "éĥ¡": 3447,
      "ä¸Ĭå®ĺ": 3448,
      "å¹´æĿ¥": 3449,
      "åĬ¨ä½ľ": 3450,
      "è¿Ļè¾¹": 3451,
      "é³": 3452,
      "æĬ«": 3453,
      "æĪĴ": 3454,
      "éĤ£æĹ¶": 3455,
      "ä¼¼çļĦ": 3456,
      "è´´": 3457,
      "çĽĳå¯Ł": 3458,
      "å¤©å°Ĭ": 3459,
      "çĪ¹çĪ¹": 3460,
      "ä¹ĸ": 3461,
      "äºĨä¸ĭåİ»": 3462,
      "å¨ĥ": 3463,
      "èĭ¦ç¬ĳéģĵ": 3464,
      "æĹłå½¢": 3465,
      "æ´ģ": 3466,
      "åĤ¨çī©": 3467,
      "ä¸Ģåīĳ": 3468,
      "æĿĢæŃ»": 3469,
      "èī³": 3470,
      "ä¸°": 3471,
      "å®Ŀçī©": 3472,
      "å°ģåį°": 3473,
      "æĥ¯": 3474,
      "åī²": 3475,
      "å®¢æ°Ķ": 3476,
      "é¥¶": 3477,
      "åĤ»": 3478,
      "éĩįçļĦ": 3479,
      "ä¹Łä¼ļ": 3480,
      "çŃĳ": 3481,
      "æĵį": 3482,
      "èĬĿ": 3483,
      "å¤´æĿ¥": 3484,
      "ä¸įè§ī": 3485,
      "äºĨåĩºåİ»": 3486,
      "åįģåħ«": 3487,
      "æĦģ": 3488,
      "æ¶Ĥ": 3489,
      "çĶŁçĶŁ": 3490,
      "çĻ»æĹ¶": 3491,
      "éģĵå£«": 3492,
      "éķ¿çĶŁ": 3493,
      "å¯¿": 3494,
      "æīĵç®Ĺ": 3495,
      "çĨŁæĤī": 3496,
      "çľĭçĿĢä»ĸ": 3497,
      "æĪı": 3498,
      "åĴĨ": 3499,
      "å¯»å¸¸": 3500,
      "åħ¶åĨħ": 3501,
      "è¿Ļä¸ĢåĪĩ": 3502,
      "å°ıåĩ¡": 3503,
      "éľį": 3504,
      "è¿ĺæľīä¸Ģ": 3505,
      "çĶŁåĳ½": 3506,
      "è´º": 3507,
      "å§Ĭ": 3508,
      "å®īéĿĻ": 3509,
      "å¦ĩäºº": 3510,
      "åĶ¯ä¸Ģ": 3511,
      "åĬŁæ³ķ": 3512,
      "èĢģåŃĲ": 3513,
      "é¥®": 3514,
      "åĺ¿åĺ¿": 3515,
      "è®©ä½ł": 3516,
      "ä¸Ģè½¬": 3517,
      "è¯´åĩº": 3518,
      "çļĦå¥½": 3519,
      "åĨ³å®ļ": 3520,
      "æĲľ": 3521,
      "äººå®¶": 3522,
      "è¾Ł": 3523,
      "ç»Ŀä¸įä¼ļ": 3524,
      "åĲĦèĩª": 3525,
      "çĽĹ": 3526,
      "çĮĽçĦ¶": 3527,
      "èµ«çĦ¶": 3528,
      "ç¥ĸç¥ŀ": 3529,
      "æĵĴ": 3530,
      "çģ¿": 3531,
      "æ³ķåĪĻ": 3532,
      "æ¼©æ¶¡": 3533,
      "è´¤": 3534,
      "åĳ¼åķ¸": 3535,
      "çĭŀ": 3536,
      "åĬŁåĬĽ": 3537,
      "åĿł": 3538,
      "æĦŁåĪ°": 3539,
      "æĿİä¸ĸ": 3540,
      "æ®·": 3541,
      "æ·±æ·±": 3542,
      "æħ§": 3543,
      "æĮ¯": 3544,
      "åįĥä¸ĩ": 3545,
      "éľĩæĥĬ": 3546,
      "æĮ£æīİ": 3547,
      "éĢ¸": 3548,
      "éľĨ": 3549,
      "éĹ¨çļĦ": 3550,
      "å®£": 3551,
      "å¾Īä¹ħ": 3552,
      "èºº": 3553,
      "çķĶ": 3554,
      "ç¿ħ": 3555,
      "å¹¼": 3556,
      "æĸ¹æ³ķ": 3557,
      "å°Ĩè¿Ļ": 3558,
      "çľĭä¼¼": 3559,
      "èĪĮ": 3560,
      "æŃ£å¥½": 3561,
      "çļĦæ°Ķæģ¯": 3562,
      "åį´æ²¡æľī": 3563,
      "åĵ®": 3564,
      "çĪ¬": 3565,
      "éľĩåĬ¨": 3566,
      "å¥¸": 3567,
      "åľ°è¯´éģĵ": 3568,
      "å¤įæĿĤ": 3569,
      "çŁĽ": 3570,
      "ä¸ĢæĢĶ": 3571,
      "é¢ĩä¸º": 3572,
      "å¹¶ä¸Ķ": 3573,
      "èĸĽ": 3574,
      "å°ĨéĤ£": 3575,
      "æĵ¦": 3576,
      "éĻĨå°ıåĩ¤éģĵ": 3577,
      "çĮ¿": 3578,
      "åŃ©åĦ¿": 3579,
      "éĢĴ": 3580,
      "è½»æĺĵ": 3581,
      "éĿĴèī²": 3582,
      "ä¸įçĶ±å¾Ĺ": 3583,
      "è¯Ĺ": 3584,
      "è¶Ł": 3585,
      "é£ŀåĩº": 3586,
      "åıªè§ī": 3587,
      "åı¤ç¥ŀ": 3588,
      "åĭīå¼º": 3589,
      "å¤§åĸľ": 3590,
      "çļĦäººçī©": 3591,
      "æĪĳçŁ¥éģĵ": 3592,
      "æīĢæľīäºº": 3593,
      "ä¸Ńäºº": 3594,
      "è¿Ļä¸ªäºº": 3595,
      "æģĲæĥ§": 3596,
      "åŁĭ": 3597,
      "å¤ļäºĨ": 3598,
      "åĩłä½į": 3599,
      "åªļ": 3600,
      "åİ®": 3601,
      "ä»ª": 3602,
      "æĬĵä½ı": 3603,
      "å¤§éĺµ": 3604,
      "å¡ŀ": 3605,
      "æ¬£": 3606,
      "æķĽ": 3607,
      "çĽĳå¯ŁéĻ¢": 3608,
      "æŁı": 3609,
      "åĴĨåĵ®": 3610,
      "æĪĳçŃī": 3611,
      "å¸Ĥ": 3612,
      "å¦Ħ": 3613,
      "ç»µ": 3614,
      "åį´ä¸į": 3615,
      "å·ħ": 3616,
      "äºĨä¸ĢäºĽ": 3617,
      "å¼łå°ıåĩ¡": 3618,
      "è®¸ä¹ħ": 3619,
      "çľĭåĩº": 3620,
      "å¿ħå®ļ": 3621,
      "é²ģ": 3622,
      "ä¸Ĳ": 3623,
      "éªĮ": 3624,
      "èĦĳè¢ĭ": 3625,
      "èĬ³": 3626,
      "åľ°éĿ¢": 3627,
      "éĴ¢": 3628,
      "å¤ªåŃĲ": 3629,
      "ä½İå¤´": 3630,
      "åİŁåĽł": 3631,
      "ä½ľä¸º": 3632,
      "è®°å¿Ĩ": 3633,
      "åĲ¬çĿĢ": 3634,
      "å¥½å¥½": 3635,
      "çĻ½èī²": 3636,
      "è½®åĽŀ": 3637,
      "æĭĴ": 3638,
      "èĢģçĪ·": 3639,
      "æ¼Ķ": 3640,
      "é¹ı": 3641,
      "æĬļ": 3642,
      "å¤©åĲĽ": 3643,
      "å¤ļä¹ħ": 3644,
      "çł¸": 3645,
      "æĢİä¹Īä¼ļ": 3646,
      "æĹ¥åŃĲ": 3647,
      "æİĲ": 3648,
      "è°¨": 3649,
      "æīĭä¸ĭ": 3650,
      "èĩªèº«": 3651,
      "æĳĶ": 3652,
      "éľ²åĩºä¸Ģ": 3653,
      "éĻĮ": 3654,
      "çĮ´": 3655,
      "åµ": 3656,
      "æĦıè¯Ĩ": 3657,
      "è¤": 3658,
      "çĤī": 3659,
      "æĬµæĮ¡": 3660,
      "åĪĨæĺİ": 3661,
      "è¿ĩçļĦ": 3662,
      "å£°ä¸Ń": 3663,
      "ä¸¤åĲį": 3664,
      "çº¢éĽª": 3665,
      "åĩºçİ°äºĨ": 3666,
      "ä¹ĭæľ¯": 3667,
      "åĸī": 3668,
      "æĤĶ": 3669,
      "å¿ĥæĢĿ": 3670,
      "æĪĳè¿Ļ": 3671,
      "ä¸ĥå½©": 3672,
      "åľ¨åľ°ä¸Ĭ": 3673,
      "ä¸įæŃ»": 3674,
      "åĶī": 3675,
      "å¿ĺäºĨ": 3676,
      "èĢģäººå®¶": 3677,
      "å¹²åĩĢ": 3678,
      "æī¹": 3679,
      "çĮĽåľ°": 3680,
      "åĪ·": 3681,
      "çľ¼ä¸ĭ": 3682,
      "æ¡Ĥ": 3683,
      "æĪĲå°±": 3684,
      "å°ĳæŀĹ": 3685,
      "æ»¡èĦ¸": 3686,
      "éĽ·éľĨ": 3687,
      "æ¶¨": 3688,
      "è¯´ä¸įåĩº": 3689,
      "åĴ³": 3690,
      "éĤ£å°±": 3691,
      "æ»Ķ": 3692,
      "åį¿": 3693,
      "å¦¨": 3694,
      "éĽħ": 3695,
      "çĲ´": 3696,
      "æĥ³è±¡": 3697,
      "åįģå¹´": 3698,
      "çĤ¼åĪ¶": 3699,
      "åĤħçº¢éĽª": 3700,
      "ä¹Łä¸įçŁ¥éģĵ": 3701,
      "å°ļæľª": 3702,
      "å¾Īæĺ¯": 3703,
      "ä½łåı¯": 3704,
      "çĶ¨çļĦ": 3705,
      "ç»½": 3706,
      "æ»ĭ": 3707,
      "æ®µèªī": 3708,
      "ä»ĭ": 3709,
      "ä¸Ģä»¶": 3710,
      "ä¹Łä¸įèĥ½": 3711,
      "è½°éļĨ": 3712,
      "åĨħå¿ĥ": 3713,
      "ä¸Ģèº«": 3714,
      "å°±èĥ½": 3715,
      "éŀĺ": 3716,
      "äºĨè§£": 3717,
      "æľ¬æºĲ": 3718,
      "æļĤæĹ¶": 3719,
      "å°½ç®¡": 3720,
      "åĴ½": 3721,
      "å®ı": 3722,
      "ä¸Ģåľº": 3723,
      "çľĭåĲĳ": 3724,
      "äººå½±": 3725,
      "å¾Īéļ¾": 3726,
      "æĥĬè®¶": 3727,
      "å¹´è½»äºº": 3728,
      "èº«ä¸ĬçļĦ": 3729,
      "è¡£æľį": 3730,
      "å½ĵåĪĿ": 3731,
      "æīĵå¼Ģ": 3732,
      "æħİ": 3733,
      "å¾ģ": 3734,
      "æĸ¹éĿ¢": 3735,
      "åĪ¤": 3736,
      "ä¸İæŃ¤": 3737,
      "æĸ¹åľĨ": 3738,
      "èĩŃ": 3739,
      "éĹ¨ä¸ĭ": 3740,
      "ä½łèĭ¥": 3741,
      "åĬ¨çļĦ": 3742,
      "æīįä¼ļ": 3743,
      "åĮ»": 3744,
      "èł": 3745,
      "æĥ³æ³ķ": 3746,
      "éĩįéĩį": 3747,
      "çŃĭ": 3748,
      "çļĦèĦ¸": 3749,
      "æī©": 3750,
      "æ²¡æľīä»Ģä¹Ī": 3751,
      "æĻ´": 3752,
      "åıĮæĸ¹": 3753,
      "åĢĺèĭ¥": 3754,
      "ç¼ķ": 3755,
      "åĬ¨äºĨ": 3756,
      "çĪĨåıĳ": 3757,
      "æģį": 3758,
      "åĸĺ": 3759,
      "å¹»åĮĸ": 3760,
      "è´«": 3761,
      "æ³½": 3762,
      "ç²Ĵ": 3763,
      "åĿĲä¸ĭ": 3764,
      "çİĦæľº": 3765,
      "ç»Īç©¶": 3766,
      "æĺĶ": 3767,
      "éĥ½è¢«": 3768,
      "æľ¬äºĭ": 3769,
      "å¤§å£°": 3770,
      "ç»´": 3771,
      "æīĭä¸ŃçļĦ": 3772,
      "éĹ»è¨Ģ": 3773,
      "äºĨè¿Ļ": 3774,
      "æĢĴéģĵ": 3775,
      "æĺ¯ä½ł": 3776,
      "å°±æŃ¤": 3777,
      "ä¸Ģå¤Ħ": 3778,
      "è¿ĺæ²¡": 3779,
      "çĽ®çļĦ": 3780,
      "å°±æľī": 3781,
      "çģµéŃĤ": 3782,
      "æľīäºĽä¸į": 3783,
      "åĩĽ": 3784,
      "åľ¨å¤©": 3785,
      "æĬĢ": 3786,
      "æµĳèº«": 3787,
      "æĿĨ": 3788,
      "æĪ´": 3789,
      "è¾£": 3790,
      "æĺŁè¾°": 3791,
      "ä¸ĢåĲĳ": 3792,
      "ä¸§": 3793,
      "æĺ¯ä»¥": 3794,
      "æĽ¹": 3795,
      "å®ĺåĳĺ": 3796,
      "éģĵçļĦ": 3797,
      "æĺŁç©º": 3798,
      "æŃĮ": 3799,
      "åĲĥæĥĬ": 3800,
      "çľ¼è§ģ": 3801,
      "ç»£": 3802,
      "çļĦä¸ĢåĪĩ": 3803,
      "éĢļè¿ĩ": 3804,
      "å¤§äºĨ": 3805,
      "éļĻ": 3806,
      "åĨ²å¤©": 3807,
      "ä¸įè§ģäºĨ": 3808,
      "æģĴ": 3809,
      "ç«ĭæĹ¶": 3810,
      "å¤ļçļĦ": 3811,
      "åį´ä¹Ł": 3812,
      "çĤ¸": 3813,
      "è®¤å¾Ĺ": 3814,
      "ä¸İä»ĸ": 3815,
      "æĿ¥èĩª": 3816,
      "å¤§æľī": 3817,
      "èĩªçĦ¶æĺ¯": 3818,
      "ä¸įåİ»": 3819,
      "èĤĥ": 3820,
      "æľªå¿ħ": 3821,
      "è´§": 3822,
      "åĩı": 3823,
      "åĽĽéĿ¢": 3824,
      "è¡°": 3825,
      "è´ª": 3826,
      "å¥ĩå¼Ĥ": 3827,
      "æķ°çĻ¾": 3828,
      "å°¼": 3829,
      "éĽģ": 3830,
      "æ¼Ĥ": 3831,
      "åĪĨåĪ«": 3832,
      "å°ıå§Ĳ": 3833,
      "åŁİçļĦ": 3834,
      "å¹ħ": 3835,
      "çĸĳæĥĳ": 3836,
      "åħīæĺİ": 3837,
      "çİĭçļĦ": 3838,
      "çİĭçĪ·": 3839,
      "ä¸ĥä¸ĥ": 3840,
      "å°ıå¼Ł": 3841,
      "æģŃæķ¬": 3842,
      "å°¸ä½ĵ": 3843,
      "æķ´ä¸ªäºº": 3844,
      "éĹ¨å¤ĸ": 3845,
      "çĿģå¼Ģ": 3846,
      "å¢ĵ": 3847,
      "ä¸įçĦ¶": 3848,
      "ä¸ĳ": 3849,
      "åıī": 3850,
      "ï¼ļâĢĺ": 3851,
      "èĭ¦ç¬ĳ": 3852,
      "å¸®ä¸»": 3853,
      "ç©¶ç«Łæĺ¯": 3854,
      "æĳĩå¤´éģĵ": 3855,
      "æī¿å¿Ĺ": 3856,
      "çĸ¼": 3857,
      "åįĥéĩĮ": 3858,
      "æŃ¤å¥³": 3859,
      "æĲŃ": 3860,
      "åľ¨ä»ĸçļĦ": 3861,
      "èģªæĺİ": 3862,
      "å¸ĺ": 3863,
      "æ¼Ĩé»ĳ": 3864,
      "çĴ§": 3865,
      "å®Ľ": 3866,
      "æ³Ħ": 3867,
      "æ¯Ķè¾ĥ": 3868,
      "åįĥå¹´": 3869,
      "è´¢": 3870,
      "æīĵéĩı": 3871,
      "åıĹäºĨ": 3872,
      "æī®": 3873,
      "æ´¾çļĦ": 3874,
      "åį³ä¾¿æĺ¯": 3875,
      "ç¦»åİ»": 3876,
      "çŁ¥æĻĵ": 3877,
      "èĬ¦": 3878,
      "å¤®": 3879,
      "ä¸ŃåİŁ": 3880,
      "ä¼łè¯´": 3881,
      "å¯»æ¬¢": 3882,
      "æ²¿": 3883,
      "ä¹Łå°±æĺ¯": 3884,
      "åĨ°åĨ·": 3885,
      "è½°çĦ¶": 3886,
      "å¾Īå¥½": 3887,
      "æĿ¥å¾Ĺ": 3888,
      "åīĬ": 3889,
      "ç¥ŀå¿µ": 3890,
      "æ¯ģçģŃ": 3891,
      "ä¸ªäºº": 3892,
      "å¤©åľ°éĹ´": 3893,
      "ä»ĸå°±": 3894,
      "åĬĿ": 3895,
      "æĭ¾": 3896,
      "æĸĲ": 3897,
      "è¿Ļå°±æĺ¯": 3898,
      "çļĦçĽ®åħī": 3899,
      "äºĽä»Ģä¹Ī": 3900,
      "å©Ĩå©Ĩ": 3901,
      "ä¸ĸåŃĲ": 3902,
      "è±¹": 3903,
      "æĿİä¸ĸæ°ĳ": 3904,
      "æĴ¼": 3905,
      "ä¹Łå¥½": 3906,
      "åĥµ": 3907,
      "ç¥ĸå¸Ī": 3908,
      "èŀįåĲĪ": 3909,
      "ä¸ĺ": 3910,
      "å¿ł": 3911,
      "æ³Ľ": 3912,
      "å´ĩ": 3913,
      "ä¸Ģå¤´": 3914,
      "æĦ¤æĢĴ": 3915,
      "æĿİå¯»æ¬¢": 3916,
      "å¿ĺè®°": 3917,
      "åħħæ»¡äºĨ": 3918,
      "çĽĴ": 3919,
      "ä¾ĭ": 3920,
      "å¤ªéĺ³": 3921,
      "éĥĳ": 3922,
      "ç¢į": 3923,
      "ä¸Ģå®ļè¦ģ": 3924,
      "æİĪ": 3925,
      "åĦĴ": 3926,
      "è¶³ä»¥": 3927,
      "åıĺæĪĲäºĨ": 3928,
      "éĺĶ": 3929,
      "ä½ķå¿ħ": 3930,
      "ä¸įæ¸ħ": 3931,
      "ä¸»æĦı": 3932,
      "ä¸Ĭç©º": 3933,
      "å¸ĪåĤħ": 3934,
      "åıªåī©": 3935,
      "åīįæĿ¥": 3936,
      "å§Ķ": 3937,
      "ç¥ŀåħī": 3938,
      "ä¸Ĭäºº": 3939,
      "æĤ¦": 3940,
      "å®ŀåľ¨æĺ¯": 3941,
      "æĢ¥å¿Ļ": 3942,
      "åĴ§": 3943,
      "çİīç®Ģ": 3944,
      "ç´§å¼ł": 3945,
      "èįīåİŁ": 3946,
      "åľ°çļĦ": 3947,
      "åľ¨å¤§": 3948,
      "è¶³å¤Ł": 3949,
      "æĦ¿æĦı": 3950,
      "ä½łå°±": 3951,
      "åľ¨å¥¹": 3952,
      "åıªå¾Ĺ": 3953,
      "çŃīåĪ°": 3954,
      "èİº": 3955,
      "å®īæİĴ": 3956,
      "åįģä¸Ģéĥİ": 3957,
      "èĤ©å¤´": 3958,
      "åºĵ": 3959,
      "èĤ¤": 3960,
      "æĳĩäºĨ": 3961,
      "é¢ľèī²": 3962,
      "ä¸Ģåı¥": 3963,
      "æĪĺåľº": 3964,
      "åķª": 3965,
      "èĲ§åįģä¸Ģéĥİ": 3966,
      "æīŃæĽ²": 3967,
      "ä¸Ģæł¹": 3968,
      "ä»ħä»ħ": 3969,
      "æĹ¨": 3970,
      "åĬ¿åĬĽ": 3971,
      "çŁ©": 3972,
      "æľ±ä¸ĥä¸ĥ": 3973,
      "åĴĮä»ĸ": 3974,
      "ä¹ĭæ³ķ": 3975,
      "ç°": 3976,
      "èĻļæĹł": 3977,
      "æŃ¦å½ĵ": 3978,
      "ç¾İä¸½": 3979,
      "ä¸Ģåĩ»": 3980,
      "æ³°": 3981,
      "èĭĹ": 3982,
      "çĩĥçĥ§": 3983,
      "éĢļå¤©": 3984,
      "æ£Ĵ": 3985,
      "å°±ç®Ĺæĺ¯": 3986,
      "ä¸Ģé½Ĳ": 3987,
      "éĹªè¿ĩ": 3988,
      "å¤ªçĽĳ": 3989,
      "åĺĽ": 3990,
      "éģĩåĪ°": 3991,
      "åį´å·²": 3992,
      "æĥĬå¤©": 3993,
      "èĭ¥éĿŀ": 3994,
      "æ¹¿": 3995,
      "ä¼°": 3996,
      "è¡į": 3997,
      "ç©Ĩ": 3998,
      "æķ²": 3999,
      "æĢĢçĸĳ": 4000,
      "ä¸Ģæī«": 4001,
      "åįĬä¸ª": 4002,
      "ä¸¤éģĵ": 4003,
      "æ¬¢åĸľ": 4004,
      "æ¯įäº²": 4005,
      "æİ·": 4006,
      "åĵĢ": 4007,
      "åĲįçļĦ": 4008,
      "è¿Łçĸĳ": 4009,
      "èī°": 4010,
      "çĸ¯çĭĤçļĦ": 4011,
      "é«ĺåħ´": 4012,
      "éļıæĹ¶": 4013,
      "æļĹæļĹ": 4014,
      "è¸¢": 4015,
      "åĩºåı£": 4016,
      "äºĶè¡Į": 4017,
      "ä¸įçĿĢ": 4018,
      "çĶ©": 4019,
      "éĶ®": 4020,
      "é¢Ī": 4021,
      "å©ł": 4022,
      "æĽ´æľī": 4023,
      "ä¹Łä¸įæķ¢": 4024,
      "ä¸Ģå±Ĥ": 4025,
      "çĽ¸å½ĵ": 4026,
      "çļĩå®«": 4027,
      "çļĦæĦıæĢĿ": 4028,
      "ä¸ĢæĹ¶éĹ´": 4029,
      "éĥ½å·²": 4030,
      "åħ´è¶£": 4031,
      "åĲŀåĻ¬": 4032,
      "å¤·": 4033,
      "åħ³éĶ®": 4034,
      "æķħæĦı": 4035,
      "ä¸İæŃ¤åĲĮæĹ¶": 4036,
      "ä¸ĢæĮĩ": 4037,
      "æĺ¯ä¸Ģä¸ª": 4038,
      "æĸ¥": 4039,
      "åĩĳ": 4040,
      "å¤§æĪĺ": 4041,
      "æ¿Ģå°Ħ": 4042,
      "èĦļä¸ĭ": 4043,
      "çİ°åĩº": 4044,
      "åĲİçļĦ": 4045,
      "åĩłäºº": 4046,
      "ä»Ģä¹Īäºĭ": 4047,
      "æľĢå¥½": 4048,
      "ä¾Ħ": 4049,
      "é¾Ļå¥³": 4050,
      "èĥ¡æĸĲ": 4051,
      "èĮĥåĽ´": 4052,
      "ç±³": 4053,
      "ä¸«å¤´": 4054,
      "æĺ¯è¦ģ": 4055,
      "çģµåħī": 4056,
      "é»Ľ": 4057,
      "åĨ·åĨ·éģĵ": 4058,
      "ä¸¤åıª": 4059,
      "éĩįä¼¤": 4060,
      "ä¸ĢèĪ¬çļĦ": 4061,
      "å¾ĹæĦı": 4062,
      "åĽŀèį¡": 4063,
      "è½¬å¤´": 4064,
      "åįĹæµ·": 4065,
      "å¤§ä¾ł": 4066,
      "æĪĳæĥ³": 4067,
      "çľŁå®ŀ": 4068,
      "æ°ĶçļĦ": 4069,
      "ä¸įå¯¹": 4070,
      "éĺ´æ²ī": 4071,
      "åĲĦç§į": 4072,
      "éĤ£æł·": 4073,
      "ä¾Ľ": 4074,
      "å¿ĥæĥħ": 4075,
      "æļĸ": 4076,
      "æĹłç©·": 4077,
      "è¾±": 4078,
      "ä¸ĢåĿĹ": 4079,
      "ä¾¿è¦ģ": 4080,
      "çļĩä¸Ĭ": 4081,
      "çĽĺèĨĿ": 4082,
      "æĤĦæĤĦ": 4083,
      "éĶĻäºĨ": 4084,
      "å½¼æŃ¤": 4085,
      "èĦı": 4086,
      "è·¯ä¸Ĭ": 4087,
      "é¬¼çİĭ": 4088,
      "çŁ®": 4089,
      "å¸Īå¦¹": 4090,
      "éŃĶæĹı": 4091,
      "åģıåģı": 4092,
      "ä½İå£°éģĵ": 4093,
      "è¿Ļä»¶": 4094,
      "éħ¸": 4095,
      "æ£į": 4096,
      "æķ£åıĳ": 4097,
      "å«ģ": 4098,
      "åĲĳä»ĸ": 4099,
      "èĽĽ": 4100,
      "ä¸īä½į": 4101,
      "é«ĺçļĦ": 4102,
      "åĿ¦": 4103,
      "éĵĥ": 4104,
      "ä¸ĢæĭĽ": 4105,
      "æ²īå£°éģĵ": 4106,
      "ä»ĻçķĮ": 4107,
      "çļĦåĪ¹éĤ£": 4108,
      "ä½Ĩè¿Ļ": 4109,
      "è¿Ļä¸ĢçĤ¹": 4110,
      "éĹ¨åı£": 4111,
      "æĪ®": 4112,
      "æķ£äºº": 4113,
      "éŃı": 4114,
      "æĥĬäºº": 4115,
      "éļĲèĹı": 4116,
      "ï¼ģï¼ģ": 4117,
      "æİĢ": 4118,
      "åĤ¨çī©è¢ĭ": 4119,
      "è¯¦": 4120,
      "çº¤": 4121,
      "éĿ¢å®¹": 4122,
      "çĸ²": 4123,
      "å¤©åĬ«": 4124,
      "çļĦå¥³åŃĲ": 4125,
      "æĻĭ": 4126,
      "æ£º": 4127,
      "çªģçł´": 4128,
      "å£¶": 4129,
      "äºĭå®ŀ": 4130,
      "èĤĮ": 4131,
      "ä¹ĭå¿ĥ": 4132,
      "ä¸Ľ": 4133,
      "ä¸ĢåĲ¬": 4134,
      "è¿Ļå°ı": 4135,
      "èĻļç©ºä¸Ń": 4136,
      "ç¬ĳå£°": 4137,
      "è´Ŀ": 4138,
      "å¯Łè§ī": 4139,
      "åĽĽåįģ": 4140,
      "æŀģåħ¶": 4141,
      "çĶŁçģµ": 4142,
      "è®¤è¯Ĩ": 4143,
      "çĤİ": 4144,
      "çľģ": 4145,
      "è¹Ħ": 4146,
      "ä¹¡": 4147,
      "å·®ä¸įå¤ļ": 4148,
      "åĳľ": 4149,
      "å°Ĩåħ¶": 4150,
      "åıĽ": 4151,
      "ç¹": 4152,
      "æĶ¾ä¸ĭ": 4153,
      "ä¸Ĭåı¤": 4154,
      "ä¾¿åľ¨": 4155,
      "ä¸įå¿ħ": 4156,
      "å¥½å¥ĩ": 4157,
      "ä¿ĿæĮģ": 4158,
      "éªĳåħµ": 4159,
      "å¼ºè¡Į": 4160,
      "æºª": 4161,
      "çĭ®": 4162,
      "èĢģå®ŀ": 4163,
      "åĮħè£¹": 4164,
      "ä¸Ģä¼ļåĦ¿": 4165,
      "å¤§åı«": 4166,
      "æĩĴ": 4167,
      "ç¬¦æĸĩ": 4168,
      "éĤĵ": 4169,
      "æ´»çĿĢ": 4170,
      "å¯»æī¾": 4171,
      "èķ´åĲ«": 4172,
      "ç¨ĭåº¦": 4173,
      "åģļäºĨ": 4174,
      "çĽĬ": 4175,
      "ä¸Ģåı£æ°Ķ": 4176,
      "æ±¤": 4177,
      "æł¹æľ¬å°±": 4178,
      "æĭ¥æľī": 4179,
      "å¥¥": 4180,
      "æ¼ı": 4181,
      "çī¹åĪ«": 4182,
      "ä»ĳ": 4183,
      "ä¸Ģé¡¿": 4184,
      "åŀĭ": 4185,
      "ä¼ĺ": 4186,
      "è¿ŀè¿ŀ": 4187,
      "æĹłå¥Ī": 4188,
      "è¡¡": 4189,
      "æķħèĢĮ": 4190,
      "å§Ĳå§Ĳ": 4191,
      "æĭĵ": 4192,
      "åĽŀäºĭ": 4193,
      "èµ¢": 4194,
      "èħ¥": 4195,
      "ä¸¹èį¯": 4196,
      "å¯¹æĪĳ": 4197,
      "è¿ĺçľŁ": 4198,
      "å¯¹çĿĢ": 4199,
      "çĻ¾å§ĵ": 4200,
      "åĻĹ": 4201,
      "çļĦæĥħåĨµ": 4202,
      "ä¸ĭéĿ¢": 4203,
      "æª": 4204,
      "ç»ĻäºĨ": 4205,
      "åĢĴä¹Ł": 4206,
      "éĢłåĮĸ": 4207,
      "äº¿": 4208,
      "ä¾µ": 4209,
      "çĬ¶æĢģ": 4210,
      "å¤§æ®¿": 4211,
      "éĤ£éģĵ": 4212,
      "èĤľ": 4213,
      "æīĢæľīçļĦ": 4214,
      "èµĲ": 4215,
      "æ´Ľéĺ³": 4216,
      "æŁľ": 4217,
      "æĳĩäºĨæĳĩå¤´": 4218,
      "èµ¶ç´§": 4219,
      "æĭ³å¤´": 4220,
      "åľ¨æĪĳ": 4221,
      "åı¯è§ģ": 4222,
      "ä¸ĢæĮ¥": 4223,
      "æ°ĶåĬ¿": 4224,
      "å±±çļĦ": 4225,
      "çĲ¼èĤľ": 4226,
      "åĴ¬çīĻ": 4227,
      "æİ¥è¿ĳ": 4228,
      "æĺĨä»ĳ": 4229,
      "ä¸Ĭä¸ĭ": 4230,
      "å·¥å¤«": 4231,
      "çļĦéĢŁåº¦": 4232,
      "åĵªæĢķ": 4233,
      "ä¸Ĭæ¸ħ": 4234,
      "é½¿": 4235,
      "å®³æĢķ": 4236,
      "çĤ¹å¤´éģĵ": 4237,
      "æ²¡æĥ³åĪ°": 4238,
      "å¤§éĻĨ": 4239,
      "ä½łæĪĳ": 4240,
      "å£°åĵį": 4241,
      "å½±åŃĲ": 4242,
      "åıĹä¼¤": 4243,
      "éļĲçº¦": 4244,
      "åĹ¤": 4245,
      "ç¹ģ": 4246,
      "çļĦçŁ³": 4247,
      "èĥģ": 4248,
      "è¯į": 4249,
      "åįĴ": 4250,
      "èīº": 4251,
      "ä¼ļæľī": 4252,
      "èĹ¤": 4253,
      "é¥°": 4254,
      "èº«ç©¿": 4255,
      "çŀ³": 4256,
      "æĸ§": 4257,
      "è¯¸ä½į": 4258,
      "åĪĨèº«": 4259,
      "çĻ½åħī": 4260,
      "æį§": 4261,
      "åĸĿéħĴ": 4262,
      "ä¾¿æľī": 4263,
      "ç®±": 4264,
      "è½°é¸£": 4265,
      "æĿ°": 4266,
      "å¯¹éĿ¢": 4267,
      "ä»ĸåıĪ": 4268,
      "å°ĳå¸ħ": 4269,
      "å¤§åĨĽ": 4270,
      "äºĨä¸Ģåı£æ°Ķ": 4271,
      "æĺİæĺİ": 4272,
      "åĨħåĬĽ": 4273,
      "è§ģæŃ¤": 4274,
      "è¯Ńæ°Ķ": 4275,
      "ä¸Ńå¿ĥ": 4276,
      "çľīå¿ĥ": 4277,
      "è§ĦçŁ©": 4278,
      "åĨ²åĩº": 4279,
      "è·ŁæĪĳ": 4280,
      "ä¸įè¶³": 4281,
      "å·¨åĵį": 4282,
      "äºĨä¸Ģåı¥": 4283,
      "çĻ½åıĳ": 4284,
      "çĶŁåĩº": 4285,
      "çĭĦ": 4286,
      "åĢı": 4287,
      "åĽĽå¨ĺ": 4288,
      "æħ¢æħ¢çļĦ": 4289,
      "ä¸»çļĦ": 4290,
      "è¿Ĳè½¬": 4291,
      "çķ¥ä¸Ģ": 4292,
      "ä¸Ńå¤®": 4293,
      "å¥½å¤Ħ": 4294,
      "æľīä½ķ": 4295,
      "è§ģè¯Ĩ": 4296,
      "è·¨": 4297,
      "å¾Ĺå¤ļ": 4298,
      "éªģ": 4299,
      "çªŁ": 4300,
      "æľīä¸Ģç§į": 4301,
      "åĨ¬": 4302,
      "éĻ¡": 4303,
      "éĴī": 4304,
      "ä¼łéĢģ": 4305,
      "æ´ªçİĦæľº": 4306,
      "åħµåĪĥ": 4307,
      "æīĢåĮĸ": 4308,
      "åıĳè§ī": 4309,
      "å®ĹçļĦ": 4310,
      "äºĨäºĽ": 4311,
      "ä¹Ķ": 4312,
      "çıĬ": 4313,
      "æĮīçħ§": 4314,
      "çľŁåĲĽ": 4315,
      "é¢Ĭ": 4316,
      "çĥĽ": 4317,
      "çŀİ": 4318,
      "æĢİèĥ½": 4319,
      "åģļä»Ģä¹Ī": 4320,
      "è®Ń": 4321,
      "çļĦé£İ": 4322,
      "å®¿": 4323,
      "å¤ªåı¤": 4324,
      "ä½ľçĶ¨": 4325,
      "åĩŃç©º": 4326,
      "çŀ¥": 4327,
      "æĪĺæĸĹ": 4328,
      "åı¸å¾Ĵ": 4329,
      "èĳ£": 4330,
      "çīĩåĪ»åĲİ": 4331,
      "ç«Ļèµ·èº«": 4332,
      "æĬĬè¿Ļ": 4333,
      "åĩºçİ°åľ¨äºĨ": 4334,
      "æŀĦ": 4335,
      "æĮ¤": 4336,
      "æ±¹": 4337,
      "å¤§ç¬ĳéģĵ": 4338,
      "ä¹Łèĥ½": 4339,
      "ä¸Ģæīĭ": 4340,
      "è¡Įäºĭ": 4341,
      "å¹´çļĦ": 4342,
      "èŀįåħ¥": 4343,
      "æ³ķæľ¯": 4344,
      "ä»¥æĿ¥": 4345,
      "éĿĴè¡£": 4346,
      "åħīåįİ": 4347,
      "åĺ²": 4348,
      "åĶ±": 4349,
      "èģĬ": 4350,
      "æĬĬä»ĸ": 4351,
      "åħ´å¥ĭ": 4352,
      "äºĶèī²": 4353,
      "èģĶæīĭ": 4354,
      "éģĵæľ¯": 4355,
      "éľ²åĩºäºĨ": 4356,
      "æħ¨": 4357,
      "æ²³ç¥ŀ": 4358,
      "æĿ¥åİĨ": 4359,
      "éªĨ": 4360,
      "å¼§": 4361,
      "æħ°": 4362,
      "åħ¨æĹł": 4363,
      "èĥ¡åŃĲ": 4364,
      "åıªåĲ¬å¾Ĺ": 4365,
      "çļĦæ¨¡æł·": 4366,
      "ç³Ł": 4367,
      "çŀ§çĿĢ": 4368,
      "çĤ¼åĮĸ": 4369,
      "åħĪå¤©": 4370,
      "èº«ä¸º": 4371,
      "éĢĬ": 4372,
      "æĹıçļĦ": 4373,
      "æľ½": 4374,
      "éĩĳä¸¹": 4375,
      "éĽ·åĬ«": 4376,
      "ç´§ç´§": 4377,
      "æ³ķéĺµ": 4378,
      "äºĶåįģ": 4379,
      "æĿĲæĸĻ": 4380,
      "ä¸²": 4381,
      "ä»ĸä¸į": 4382,
      "èĥİ": 4383,
      "è£³": 4384,
      "æı´": 4385,
      "èĳ«": 4386,
      "æĭ¼åĳ½": 4387,
      "å·ħå³°": 4388,
      "åįĥä¸ĸçķĮ": 4389,
      "æĺİçĻ½äºĨ": 4390,
      "ä¸ĢèĦ¸": 4391,
      "ä¸įè¯Ń": 4392,
      "çĲĨä¼ļ": 4393,
      "æ±Łæµ·": 4394,
      "ä½łæĢİä¹Ī": 4395,
      "å°ĨæĿ¥": 4396,
      "åįĪ": 4397,
      "ç²īç¢İ": 4398,
      "èĻļå½±": 4399,
      "é»Ħéĩĳ": 4400,
      "éĤ£åıª": 4401,
      "ä¸ºä»Ģä¹Īè¦ģ": 4402,
      "æľīçĿĢ": 4403,
      "å°±è¢«": 4404,
      "ä¸Ģåıĺ": 4405,
      "è¯´æĿ¥": 4406,
      "æµģè½¬": 4407,
      "å¤§å£°éģĵ": 4408,
      "éĵ®": 4409,
      "ç®ĵ": 4410,
      "çļĦçŀ¬éĹ´": 4411,
      "æŃ¤çī©": 4412,
      "æ´²": 4413,
      "æĤį": 4414,
      "ä¸įä¹ħ": 4415,
      "éķ¿éĿĴ": 4416,
      "çĽ®æłĩ": 4417,
      "éķĩåİĭ": 4418,
      "éĺİ": 4419,
      "ä¼Ł": 4420,
      "ç»ĩ": 4421,
      "æĭ¢": 4422,
      "åħ¬åŃĻ": 4423,
      "çļĦé»ĳ": 4424,
      "å¤ļè°¢": 4425,
      "æŃĩ": 4426,
      "åĲ¬è§ģ": 4427,
      "åŃĲä¸Ĭ": 4428,
      "çĶ¨åĬĽ": 4429,
      "çłĶ": 4430,
      "ä¸ľæĸ¹": 4431,
      "èĥ½åĬĽ": 4432,
      "éĹ´çļĦ": 4433,
      "åĿ¤": 4434,
      "å¨ĺå¨ĺ": 4435,
      "åĽ½å¸Ī": 4436,
      "çĲ³": 4437,
      "å¼¦": 4438,
      "éªĦ": 4439,
      "éļıä¹ĭ": 4440,
      "å¼©": 4441,
      "å¦¥": 4442,
      "æİĮæı¡": 4443,
      "æĢ¥éĢŁ": 4444,
      "ä¹ĭéģĵ": 4445,
      "ç½ķ": 4446,
      "æĶ¶åĽŀ": 4447,
      "æĪĳåĴĮ": 4448,
      "åĽĬ": 4449,
      "æĢ»ç®Ĺ": 4450,
      "åĳµåĳµ": 4451,
      "åŁİä¸Ń": 4452,
      "ç¥¥": 4453,
      "äº«": 4454,
      "æľĢè¿ĳ": 4455,
      "è¢ģæī¿å¿Ĺ": 4456,
      "æİĲè¯Ģ": 4457,
      "åĪĳ": 4458,
      "ä½łåİ»": 4459,
      "æĭ¨": 4460,
      "æłª": 4461,
      "å±±è°·": 4462,
      "éĩĳåĪļ": 4463,
      "åį´è§ģ": 4464,
      "ä½ķæĹ¶": 4465,
      "ä½łæĥ³": 4466,
      "çĽ¾": 4467,
      "åºĨåĽ½": 4468,
      "çĽ¸å¯¹": 4469,
      "åīįçļĦ": 4470,
      "æĢĿç´¢": 4471,
      "ä¸¤ä¸ªäºº": 4472,
      "æļĹåĻ¨": 4473,
      "åĨįæĹł": 4474,
      "æĹıäºº": 4475,
      "ä¸ŃäºĨ": 4476,
      "æĺ¯ä¸į": 4477,
      "å¤§äºĭ": 4478,
      "å®Ĺä¸»": 4479,
      "å¤«å¦ĩ": 4480,
      "æľīåħ³": 4481,
      "æ²Į": 4482,
      "çľ¼çľĭ": 4483,
      "åħģ": 4484,
      "è¿Ľè¡Į": 4485,
      "å«£": 4486,
      "éĢ¢": 4487,
      "çĭ°": 4488,
      "é«ħ": 4489,
      "è¡ĮåĬ¨": 4490,
      "ç¬¬åĽĽ": 4491,
      "å¸Īå§Ĳ": 4492,
      "çģµæ°Ķ": 4493,
      "ç«¥åŃĲ": 4494,
      "æ³ķéĹ¨": 4495,
      "èĳ«èĬ¦": 4496,
      "å½Ń": 4497,
      "æľĢä¸º": 4498,
      "ç±į": 4499,
      "å·²è¢«": 4500,
      "éª·": 4501,
      "åıįæŃ£": 4502,
      "å£³": 4503,
      "éª·é«ħ": 4504,
      "äººå¿ĥ": 4505,
      "æ²¾": 4506,
      "çļĦæľºä¼ļ": 4507,
      "ç©´éģĵ": 4508,
      "è¡£è¡«": 4509,
      "è¿Ļçīĩ": 4510,
      "éļ¾å¾Ĺ": 4511,
      "å¹¶æĹł": 4512,
      "çķĻåľ¨": 4513,
      "ä½Ĩè§ģ": 4514,
      "ä¸įå¾Ĺä¸į": 4515,
      "ä»Ĩ": 4516,
      "èł¢": 4517,
      "è¿Ļä»¶äºĭ": 4518,
      "çľĭäºĨä¸Ģçľ¼": 4519,
      "éķ¿æĹ¶éĹ´": 4520,
      "å¤§æĥĬ": 4521,
      "çĽ¸æ¯Ķ": 4522,
      "åĮĸèº«": 4523,
      "æĪĳåİ»": 4524,
      "ä¸İéĤ£": 4525,
      "æĸ¤": 4526,
      "çĭ°çĭŀ": 4527,
      "ä»ĸèĩªå·±": 4528,
      "çĭ¬åŃ¤": 4529,
      "éĿ¢çĽ®": 4530,
      "éĢļéģĵ": 4531,
      "æ¶Ľ": 4532,
      "è¡Įèµ°": 4533,
      "çŃīçĿĢ": 4534,
      "æĢİä¹Īæł·": 4535,
      "åıªåı¯æĥľ": 4536,
      "ä»£è¡¨": 4537,
      "åĵªçŁ¥": 4538,
      "çļĦæ°´": 4539,
      "è¿°": 4540,
      "æĸŃäºĨ": 4541,
      "åľ¨çİĭæŀĹ": 4542,
      "ç¬¦ç®ĵ": 4543,
      "éºŁ": 4544,
      "åįĬç©º": 4545,
      "ä¸įæĸŃåľ°": 4546,
      "æĹ¶åĪ»": 4547,
      "åĮĸæĪĲ": 4548,
      "çĵ¦": 4549,
      "å®ļäºĨ": 4550,
      "éļ¾æĢª": 4551,
      "å¿«éĢŁ": 4552,
      "å°±åı¯ä»¥": 4553,
      "å±±ä¸Ĭ": 4554,
      "éĤ£èĪ¬": 4555,
      "åĺ´éĩĮ": 4556,
      "çŁ¥éģĵäºĨ": 4557,
      "ä¸įå·²": 4558,
      "åĮĹé½Ĳ": 4559,
      "ä»¿èĭ¥": 4560,
      "æĭ¬": 4561,
      "éĿĴéĿĴ": 4562,
      "éŃĶå¤´": 4563,
      "é»ĺé»ĺ": 4564,
      "æĥ¶": 4565,
      "èľĢ": 4566,
      "åĩºä¸Ģä¸ª": 4567,
      "è¾¨": 4568,
      "åıĹåĪ°": 4569,
      "å¤ļåįĬ": 4570,
      "åĿĬ": 4571,
      "ä¸įæĢķ": 4572,
      "çļĦé«ĺ": 4573,
      "èªĵ": 4574,
      "åįĹå®«å¹³": 4575,
      "çĦļ": 4576,
      "åį¢": 4577,
      "å¤´åıĳ": 4578,
      "åĺ´åĶĩ": 4579,
      "çĢ": 4580,
      "å¡Į": 4581,
      "æľ¬æĺ¯": 4582,
      "è¥Ħ": 4583,
      "äº¬åŁİ": 4584,
      "è¯Ľ": 4585,
      "ç¦Ģ": 4586,
      "è¿Ļä¹Īå¤ļ": 4587,
      "ç»ıåİĨ": 4588,
      "èļĬ": 4589,
      "ä¼į": 4590,
      "çĪ·çĪ·": 4591,
      "åĲĳåĲİ": 4592,
      "ä¸įæĺĵ": 4593,
      "èĪª": 4594,
      "æ±ĩ": 4595,
      "æĥ³äºĨ": 4596,
      "å¿ĥä¸ĭ": 4597,
      "ä¸ºä¹ĭ": 4598,
      "è½»æĿ¾": 4599,
      "å½ĵæĹ¥": 4600,
      "å¤§å¤ļ": 4601,
      "å¿ĥå¿µ": 4602,
      "ä½©æľį": 4603,
      "è¿ĻæĿ¡": 4604,
      "èĤĸ": 4605,
      "æ¶©": 4606,
      "å§ľ": 4607,
      "åĨ·æ¼ł": 4608,
      "ä½¿çĶ¨": 4609,
      "ä¸Ģå®ļä¼ļ": 4610,
      "èĩªè¯Ń": 4611,
      "ä¸įå¤§": 4612,
      "æİ¥è¿ĩ": 4613,
      "äººäºº": 4614,
      "æĸ¹çļĦ": 4615,
      "éĿĴåħī": 4616,
      "å¯¨": 4617,
      "æŁĲç§į": 4618,
      "æ¸©æŁĶ": 4619,
      "å¤§éĹ¨": 4620,
      "èĢĮåĲİ": 4621,
      "èĥĮä¸Ĭ": 4622,
      "å¤ªæŀģ": 4623,
      "å¤§éĩı": 4624,
      "æŃ¤å¤Ħ": 4625,
      "åĲĦä½į": 4626,
      "å¯¼": 4627,
      "æıĲèµ·": 4628,
      "æĢģåº¦": 4629,
      "çļĦæīĭæ®µ": 4630,
      "æľīå¦Ĥ": 4631,
      "æŁ´": 4632,
      "çŁ³ä¹ĭ": 4633,
      "ä¸įåłª": 4634,
      "èµ´": 4635,
      "èĻ½æĺ¯": 4636,
      "æ¯ıä¸ª": 4637,
      "å°Ħåĩº": 4638,
      "åĴ¯": 4639,
      "åĶ¯æľī": 4640,
      "çļĦçľ¼çĿĽ": 4641,
      "ç¦»éĺ³": 4642,
      "åĩĿéĩį": 4643,
      "å·²ç»ıæĺ¯": 4644,
      "éĻ¤éĿŀ": 4645,
      "éķ¿å®īåŁİ": 4646,
      "å®ŀéĻħ": 4647,
      "åģļåĪ°": 4648,
      "ç¥ŃçĤ¼": 4649,
      "åİ»çļĦ": 4650,
      "æľķ": 4651,
      "ä»ĸå·²": 4652,
      "èĦĸ": 4653,
      "èģĮ": 4654,
      "æĺ¯ä½ķ": 4655,
      "æ°Ķæľº": 4656,
      "çĻ½éª¨": 4657,
      "çıĤçıĤ": 4658,
      "äººä»¬": 4659,
      "ä½łè¿ĺ": 4660,
      "å¸ĥç½®": 4661,
      "é£İåĽĽå¨ĺ": 4662,
      "ä¸Ģæĭį": 4663,
      "çĦ¶çļĦ": 4664,
      "å¦¹å¦¹": 4665,
      "æ··æ²Į": 4666,
      "æĺĬå¤©": 4667,
      "éĺ³åħī": 4668,
      "æºħ": 4669,
      "è¯§": 4670,
      "éĴ©": 4671,
      "è¯Ńå£°": 4672,
      "èĭ¥ä¸įæĺ¯": 4673,
      "åĵ©": 4674,
      "æĪĳä»¬çļĦ": 4675,
      "è¥¿éĻµ": 4676,
      "æĪĳçľĭ": 4677,
      "å¾Ĺä¸Ĭ": 4678,
      "å¤«åŃĲ": 4679,
      "æľŁä¿®å£«": 4680,
      "çŀ§çŀ§": 4681,
      "æ»ļæ»ļ": 4682,
      "æĿĢæĪ®": 4683,
      "æĵħ": 4684,
      "åįģå¤ļ": 4685,
      "é»Ħæ³ī": 4686,
      "åĲ¸æĶ¶": 4687,
      "ä¸Ģä¸Ģ": 4688,
      "çĻ½çļĦ": 4689,
      "ç¼ĵç¼ĵéģĵ": 4690,
      "è½°è½°": 4691,
      "ä¿¯": 4692,
      "å®ħ": 4693,
      "å¥Īä½ķ": 4694,
      "å¤§å¸ĪåħĦ": 4695,
      "æĮĩçĤ¹": 4696,
      "æĺŃ": 4697,
      "åģļçļĦ": 4698,
      "æĮ¨": 4699,
      "ç¿ģ": 4700,
      "æĹłä¸Ĭ": 4701,
      "éĺģä¸ĭ": 4702,
      "èµĦæł¼": 4703,
      "åı«åģļ": 4704,
      "å··": 4705,
      "åĽĽå¤§": 4706,
      "åħĨ": 4707,
      "åĨ¤": 4708,
      "éĥ½æ²¡": 4709,
      "å¿ħçĦ¶": 4710,
      "è¾ĪåŃĲ": 4711,
      "ä¸įè®º": 4712,
      "æĿ¥åĪ°äºĨ": 4713,
      "å¹²ä»Ģä¹Ī": 4714,
      "è¿ĻæĹ¶åĢĻ": 4715,
      "å¿ĥéģĵ": 4716,
      "èİ«åĲį": 4717,
      "çĥŃéĹ¹": 4718,
      "ä¸įå®ī": 4719,
      "åį³ä¾¿": 4720,
      "æĲģ": 4721,
      "è¡ĢèĤī": 4722,
      "åŃ½": 4723,
      "è¥¿éĹ¨": 4724,
      "ç«ĭåĪ»å°±": 4725,
      "ä»Ļäºº": 4726,
      "é¡ºçĿĢ": 4727,
      "æ¸Ķ": 4728,
      "æīĵå¾Ĺ": 4729,
      "çĮİ": 4730,
      "å¹¸å¥½": 4731,
      "è¶Ĭåıĳ": 4732,
      "è½¬çľ¼éĹ´": 4733,
      "æĦŁæ¿Ģ": 4734,
      "æ¶ī": 4735,
      "æ¢µ": 4736,
      "çļĦèº«ä½ĵ": 4737,
      "åľ°ä¸ĭ": 4738,
      "ä½ĵç³»": 4739,
      "è®¡åĪĴ": 4740,
      "åĬĽçļĦ": 4741,
      "èĢ¸": 4742,
      "å®Ŀçİī": 4743,
      "éŁ¦å°ıå®Ŀéģĵ": 4744,
      "å¤ªåĲİ": 4745,
      "å±ŀäºİ": 4746,
      "èĦ¾": 4747,
      "èģĶç³»": 4748,
      "éľ²åĩºä¸Ģä¸Ŀ": 4749,
      "è®©å¥¹": 4750,
      "åĨ·åĵ¼": 4751,
      "åŃ£": 4752,
      "ä¸ªä¸ª": 4753,
      "éĺ»æŃ¢": 4754,
      "ä¾įåį«": 4755,
      "ä¹Ļ": 4756,
      "æİ¥è§¦": 4757,
      "æĸ¯": 4758,
      "åīĳçļĦ": 4759,
      "æ¡Įä¸Ĭ": 4760,
      "ä¹Łéĥ½": 4761,
      "åĴ¦": 4762,
      "å¤©ä¸Ĭ": 4763,
      "æµİ": 4764,
      "èº¬": 4765,
      "è¾¹çļĦ": 4766,
      "æĹĭè½¬": 4767,
      "ç¥Ŀ": 4768,
      "çľ¼åħī": 4769,
      "ç§įç§į": 4770,
      "åıł": 4771,
      "éĤĢ": 4772,
      "ä¸Ģé¢Ĺ": 4773,
      "ä¸įçĽ¸": 4774,
      "çŃīå¾ħ": 4775,
      "ä¸ĢçĶŁ": 4776,
      "éħ·": 4777,
      "ä¸įä¿¡": 4778,
      "åı¦ä¸Ģä¸ª": 4779,
      "åºĶè¯¥æĺ¯": 4780,
      "æ§": 4781,
      "å¿ĸ": 4782,
      "æľīå¤ļ": 4783,
      "åĳ³éģĵ": 4784,
      "å®ĩæĸĩ": 4785,
      "ä»ĸæ²¡æľī": 4786,
      "è¯±": 4787,
      "ä¸Ńæ£ł": 4788,
      "ä¹Łå·²": 4789,
      "çŁ³ä¹ĭè½©": 4790,
      "æľ´": 4791,
      "éģĵéĹ¨": 4792,
      "ä¸ĢæİĮ": 4793,
      "æĻ¶èİ¹": 4794,
      "ç»Ļäºº": 4795,
      "æŃ»åľ¨": 4796,
      "åľ¨ç©ºä¸Ń": 4797,
      "æĪĳåľ¨": 4798,
      "éĻįä¸´": 4799,
      "å±ķå¼Ģ": 4800,
      "å¤´çļĦ": 4801,
      "è¡¨éĿ¢": 4802,
      "çĶľ": 4803,
      "å°ıé¾Ļå¥³": 4804,
      "çİīç½ĹåĪ¹": 4805,
      "éģĵéķ¿": 4806,
      "ç¬ĳæĦı": 4807,
      "è¡Ģåħī": 4808,
      "åĲĥäºĨä¸Ģ": 4809,
      "çĸĨ": 4810,
      "éªĳåĨĽ": 4811,
      "ä¸įåĩºæĿ¥": 4812,
      "æł¸": 4813,
      "æĽ´ä¸º": 4814,
      "éĵģä¸Ńæ£ł": 4815,
      "åįģäºĶ": 4816,
      "å¾Ģå¾Ģ": 4817,
      "è¶Ĭæĺ¯": 4818,
      "èĢģå¸Ī": 4819,
      "èĢĥèĻĳ": 4820,
      "é£ŀå¿«": 4821,
      "é¾Ļçİĭ": 4822,
      "æĻļä¸Ĭ": 4823,
      "ä½Ĩåľ¨": 4824,
      "åĢļ": 4825,
      "å¦ĤæŃ¤ä¸ĢæĿ¥": 4826,
      "ä¸Ģåĩº": 4827,
      "è¯Ŀè¯Ń": 4828,
      "å¦ĸåħ½": 4829,
      "å²ĤéĿŀ": 4830,
      "æĳĺ": 4831,
      "åĪ°è¿ĻéĩĮ": 4832,
      "å¤©å¤ĸ": 4833,
      "å¾Īæľī": 4834,
      "å¿ĥä¸Ńä¸Ģ": 4835,
      "éļĨåºĨ": 4836,
      "ä»ĸçŁ¥éģĵ": 4837,
      "çĶŁæľº": 4838,
      "æļĦ": 4839,
      "å¾Ĳéªģ": 4840,
      "åľ¨ä¸ĢæĹģ": 4841,
      "æĭĽåĳ¼": 4842,
      "åİŁåľ°": 4843,
      "äºĨä¸ī": 4844,
      "ä¸ĢåĪĢ": 4845,
      "é£İåĲ¹": 4846,
      "åİĭåĬĽ": 4847,
      "åı¯æĢľ": 4848,
      "æ·¡æ·¡éģĵ": 4849,
      "æľīæ²¡æľī": 4850,
      "æ±¡": 4851,
      "åĥ§äºº": 4852,
      "æľīä¸ĢèĤ¡": 4853,
      "ä¸´è¿ĳ": 4854,
      "éļľ": 4855,
      "è¾¹ç¼ĺ": 4856,
      "è¡Ģèī²": 4857,
      "çģ¾": 4858,
      "åĿĳ": 4859,
      "å¤ĸäºº": 4860,
      "ä¸Ģå¤©": 4861,
      "è¿Ļåº§": 4862,
      "ä½İå£°": 4863,
      "åĩĮåİī": 4864,
      "æĹłçĸĳ": 4865,
      "ä¿®ç½Ĺ": 4866,
      "éĵ¶èī²": 4867,
      "ä½ķå¤Ħ": 4868,
      "çļĦä¿®ä¸º": 4869,
      "æŃ£å¸¸": 4870,
      "çī¹æ®Ĭ": 4871,
      "çĮľæµĭ": 4872,
      "ä½Ĩä¹Ł": 4873,
      "æıī": 4874,
      "é¾Ħ": 4875,
      "éļıæĦı": 4876,
      "èļģ": 4877,
      "æĴ¤": 4878,
      "éĻĪå®¶": 4879,
      "å°ıäºº": 4880,
      "ç¾İäºº": 4881,
      "åİ»æī¾": 4882,
      "æ¯Ķèµ·": 4883,
      "ç»ĵä¸¹": 4884,
      "äºĨåĲ§": 4885,
      "æĹ¶åħī": 4886,
      "æĭ±": 4887,
      "çĪ½": 4888,
      "æ®µæĹ¶éĹ´": 4889,
      "ç¢İçīĩ": 4890,
      "åıªåĽł": 4891,
      "ä¿ĥ": 4892,
      "æĪĸæĺ¯": 4893,
      "ä¼¦": 4894,
      "è¿Ļçķª": 4895,
      "èĨĢ": 4896,
      "çĸı": 4897,
      "åĮºåŁŁ": 4898,
      "å¤§åıĺ": 4899,
      "çªľ": 4900,
      "çĨĻ": 4901,
      "ç«ĸ": 4902,
      "éģģåħī": 4903,
      "èĢĮæĿ¥çļĦ": 4904,
      "è¿Ļä¸¤ä¸ª": 4905,
      "åįľ": 4906,
      "èĲ½åľ¨äºĨ": 4907,
      "å¤©äºº": 4908,
      "éĶ¤": 4909,
      "é£ŀåİ»": 4910,
      "è½¬åĬ¨": 4911,
      "è·Łä½ł": 4912,
      "å½¹": 4913,
      "æ»ŀ": 4914,
      "ç´§æİ¥çĿĢ": 4915,
      "ä¸ĩå¹´": 4916,
      "çļĦéŃĶ": 4917,
      "èĩªè¡Į": 4918,
      "è°·ä¸Ń": 4919,
      "é¹¿": 4920,
      "è¿ĩç¨ĭ": 4921,
      "æĹłéĩı": 4922,
      "ä¹ĭåĬ¿": 4923,
      "èĩªå®¶": 4924,
      "çĮ«åĦ¿": 4925,
      "è¾¾åĪ°": 4926,
      "è®©ä»ĸä»¬": 4927,
      "ä½łåľ¨": 4928,
      "åĸĤ": 4929,
      "ä¸Ģåī¯": 4930,
      "çĶļæĺ¯": 4931,
      "çĶ·å¥³": 4932,
      "å°±å°Ĩ": 4933,
      "è¾Ĩ": 4934,
      "å¥ĳ": 4935,
      "è§ģå¥¹": 4936,
      "å¤±æľĽ": 4937,
      "ç»ľ": 4938,
      "è¯´ç½¢": 4939,
      "èĬ·": 4940,
      "çĶŁæ°Ķ": 4941,
      "åįİå±±": 4942,
      "æ²§": 4943,
      "ç²®": 4944,
      "ä¸ĢæĬĸ": 4945,
      "æľĢå¤§çļĦ": 4946,
      "çĵľ": 4947,
      "æ¼«å¤©": 4948,
      "ä¸įæĸĻ": 4949,
      "æŃ¤è¨Ģ": 4950,
      "è¯»ä¹¦": 4951,
      "è¶³è¶³": 4952,
      "çĹķè¿¹": 4953,
      "éĤ£å°ı": 4954,
      "èĢĮè¨Ģ": 4955,
      "åĺ»åĺ»": 4956,
      "ç»³": 4957,
      "ä»İå®¹": 4958,
      "ä¸įåħį": 4959,
      "æ²Ĳ": 4960,
      "æİ¥ä¸ĭæĿ¥": 4961,
      "æįķ": 4962,
      "å«Į": 4963,
      "ç¼ļ": 4964,
      "æĢĿè®®": 4965,
      "åĮħæĭ¬": 4966,
      "åİ¢": 4967,
      "åĲ¬ä»ĸ": 4968,
      "çĽ¼": 4969,
      "ä»İæŃ¤": 4970,
      "çł´ç©º": 4971,
      "æĹłåıĮ": 4972,
      "åĲĳæĿ¥": 4973,
      "çļ±çľīéģĵ": 4974,
      "ä¸įç»Ŀ": 4975,
      "çł´å¤©": 4976,
      "åıªè§īå¾Ĺ": 4977,
      "çıŃ": 4978,
      "æ··ä¹±": 4979,
      "ä»ĸè¦ģ": 4980,
      "å¥ı": 4981,
      "åĵĹ": 4982,
      "å®«ä¸Ń": 4983,
      "åıĺäºĨ": 4984,
      "ä¸ĢæĪĺ": 4985,
      "æ½Ń": 4986,
      "æ¨ªæī«": 4987,
      "æĽ¼": 4988,
      "åģľä¸ĭ": 4989,
      "åıĳæĮ¥": 4990,
      "ä»İéĤ£": 4991,
      "å¤©è¿Ĳ": 4992,
      "åıĪæĺ¯ä¸Ģ": 4993,
      "çİĭåºľ": 4994,
      "å®Ľå¦Ĥ": 4995,
      "é¬¼åİĮ": 4996,
      "æ²¡ä»Ģä¹Ī": 4997,
      "ä½łèĥ½": 4998,
      "æ·¡æ·¡çļĦ": 4999,
      "æĹ¶çļĦ": 5000,
      "åı±": 5001,
      "éĥ½èĥ½": 5002,
      "å®ĥçļĦ": 5003,
      "ç¥ŀä»Ļ": 5004,
      "æ³ķè¯Ģ": 5005,
      "èĥĸåŃĲ": 5006,
      "äºĨä½ł": 5007,
      "çłģ": 5008,
      "çļĦå°ĳå¹´": 5009,
      "ä¸¸": 5010,
      "æİĮæŁľ": 5011,
      "å±ĢéĿ¢": 5012,
      "å¤§åĸĿ": 5013,
      "åįĬå¤©": 5014,
      "åİĭåĪ¶": 5015,
      "èĢģæĢª": 5016,
      "å¯Ĩå¯Ĩ": 5017,
      "åĴĮæĪĳ": 5018,
      "æŃ¦éģĵ": 5019,
      "è¸©": 5020,
      "ä¸įæĩĤ": 5021,
      "ä»İä¸Ń": 5022,
      "æĿĢæľº": 5023,
      "æķ£å¼Ģ": 5024,
      "èĢ»": 5025,
      "ä¸ĢåıĮ": 5026,
      "ä¸įè¡Į": 5027,
      "å·²æľī": 5028,
      "æľªæĽ¾": 5029,
      "åīįè¡Į": 5030,
      "æ»¡äºĨ": 5031,
      "åįģåħŃ": 5032,
      "è§£åĨ³": 5033,
      "ä¸įåı¯æĢĿè®®": 5034,
      "æīĭèħķ": 5035,
      "åľ¨è¿Ļä¸ĢåĪ»": 5036,
      "èĪ±": 5037,
      "æĥĬåĳ¼": 5038,
      "é¦Ĩ": 5039,
      "ç«Ļèµ·": 5040,
      "å¤ĦçļĦ": 5041,
      "ä¾¿åı¯": 5042,
      "åĽŀè¿ĩ": 5043,
      "å°ĳçĪ·": 5044,
      "å°ıæĸ¹": 5045,
      "çĿ¹": 5046,
      "æĺ¯ä¸Ģç§į": 5047,
      "çļĦæĦı": 5048,
      "çŃ¹": 5049,
      "çģ«åħī": 5050,
      "ä½ĨæĪĳ": 5051,
      "æĹłæĥħ": 5052,
      "é£İæļ´": 5053,
      "å§¥": 5054,
      "çľ¨çľ¼": 5055,
      "åĪ°å¤Ħ": 5056,
      "åıĳçĶŁäºĨ": 5057,
      "éħįåĲĪ": 5058,
      "ä¸įå¤ª": 5059,
      "æĸ¹å¼ı": 5060,
      "åĬĽæ°Ķ": 5061,
      "åģ¥": 5062,
      "ç¡®æĺ¯": 5063,
      "éĻĪå®¶æ´Ľ": 5064,
      "çĿĢä¸Ģä¸ª": 5065,
      "èĢģæĿ¿": 5066,
      "è¯¢": 5067,
      "ä¹ŁæĹł": 5068,
      "çĽ¸è²Į": 5069,
      "ä¾¿ä¼ļ": 5070,
      "åħ«æĸ¹": 5071,
      "æī¿è®¤": 5072,
      "å¤§æĢĴ": 5073,
      "æīĭçļĦ": 5074,
      "å®ļçĦ¶": 5075,
      "ç«Ļèµ·èº«æĿ¥": 5076,
      "æĪĳæĿ¥": 5077,
      "èµĸ": 5078,
      "èº«çļĦ": 5079,
      "æĶ¾åĩº": 5080,
      "è¿Ļä¸ī": 5081,
      "éŃģ": 5082,
      "ä¸¤æĿ¡": 5083,
      "æĴĴ": 5084,
      "ä¸Ģåı¥è¯Ŀ": 5085,
      "æĺİæľĪ": 5086,
      "å®¶æĹı": 5087,
      "çº¢èī²": 5088,
      "è½°éļĨéļĨ": 5089,
      "éĢį": 5090,
      "åŃĲå¼Ł": 5091,
      "è½»åĬŁ": 5092,
      "ç¢İè£Ĥ": 5093,
      "çĽı": 5094,
      "æĺŁåŁŁ": 5095,
      "é¸¾": 5096,
      "ç¿»æ»ļ": 5097,
      "çºł": 5098,
      "èīĺ": 5099,
      "æ³ķçİĭ": 5100,
      "éļıä¾¿": 5101,
      "åİŁæĿ¥æĺ¯": 5102,
      "èİ±": 5103,
      "æĬ±æĭ³": 5104,
      "çļĦä¸Ģä¸ª": 5105,
      "èĭ¥æĹł": 5106,
      "ä¼¤åĬ¿": 5107,
      "åħµåĻ¨": 5108,
      "åĨ»": 5109,
      "çĶŁæĢķ": 5110,
      "ç¼Ń": 5111,
      "ç´«èī²": 5112,
      "æ¿ĢåĬ¨": 5113,
      "çºµæ¨ª": 5114,
      "åĬª": 5115,
      "å¯¹æĸ¹çļĦ": 5116,
      "é¼»åŃĲ": 5117,
      "é¥¿": 5118,
      "æīĶ": 5119,
      "æĪĳè¿ĺ": 5120,
      "å¦¾": 5121,
      "çľĭäºĨçľĭ": 5122,
      "ä¸Ģæĭ³": 5123,
      "çĿĢå¤´": 5124,
      "æ·»": 5125,
      "æµ·ä¸Ń": 5126,
      "æĥ¨åı«": 5127,
      "é¢ł": 5128,
      "è£Ļ": 5129,
      "ç»Ŀä¸į": 5130,
      "ä¸Īå¤«": 5131,
      "çĿĢèĦ¸": 5132,
      "çĶ±äºİ": 5133,
      "åĲĥäºĨ": 5134,
      "è®¯": 5135,
      "å±ĳ": 5136,
      "ä¼ŀ": 5137,
      "åī§çĥĪ": 5138,
      "é»ĳèī²çļĦ": 5139,
      "æī£": 5140,
      "æ³ķçĽ¸": 5141,
      "åĮĸç¥ŀ": 5142,
      "éªĤéģĵ": 5143,
      "èĪĴæľį": 5144,
      "ä¹ŁæĹłæ³ķ": 5145,
      "å¯Ħ": 5146,
      "æĬĳ": 5147,
      "çł´äºĨ": 5148,
      "çŀ¬æģ¯": 5149,
      "èĢ³è¾¹": 5150,
      "æĪĳåıª": 5151,
      "å¤§éĥ¨åĪĨ": 5152,
      "ï¼ģï¼ģâĢĿ": 5153,
      "ç¬¬äºĶ": 5154,
      "ç©¿çĿĢ": 5155,
      "å¼ĢåĲ¯": 5156,
      "éĿĴäºĳ": 5157,
      "æ±Łæµ·å¤©": 5158,
      "åĸ·åĩº": 5159,
      "çĶŁæ´»": 5160,
      "èĤĨ": 5161,
      "é¡·": 5162,
      "æ¬ł": 5163,
      "çĽ¸äºĴ": 5164,
      "åĦ¿çļĦ": 5165,
      "ä¹ĭæīĢä»¥": 5166,
      "ä¿©": 5167,
      "ä¼¼æĺ¯": 5168,
      "æİīäºĨ": 5169,
      "æ¼ª": 5170,
      "çİ°åľ¨çļĦ": 5171,
      "èī°éļ¾": 5172,
      "åı®": 5173,
      "é©»": 5174,
      "æ¶¦": 5175,
      "æŀ«": 5176,
      "åĬ¨éĿĻ": 5177,
      "å©¢": 5178,
      "èĢĮè¡Į": 5179,
      "èĦ¸ä¸ĬçļĦ": 5180,
      "æĺ¯åĽłä¸º": 5181,
      "æĮĩçĿĢ": 5182,
      "å·®çĤ¹": 5183,
      "èº«æĿĲ": 5184,
      "èĻļå¹»": 5185,
      "å°ī": 5186,
      "ä¸»åĬ¨": 5187,
      "æĺŁåħī": 5188,
      "æĪĳåı¯": 5189,
      "æµ¸": 5190,
      "åĴķ": 5191,
      "çĤ¹çĤ¹": 5192,
      "èħĲ": 5193,
      "çª¥": 5194,
      "æĹłè¸ª": 5195,
      "åĩłæŃ¥": 5196,
      "é»ĳè¢į": 5197,
      "å½¢åĬ¿": 5198,
      "æ·ĭ": 5199,
      "çĻ¾éĩĮ": 5200,
      "åįĬç¥ĸ": 5201,
      "è¿Ļåľº": 5202,
      "æĪĳä¼ļ": 5203,
      "å¤§ä¸º": 5204,
      "éĴ¦": 5205,
      "ä¹ĭä¸ŃçļĦ": 5206,
      "åĳĪ": 5207,
      "åįģä¹Ŀ": 5208,
      "ä¿®éģĵ": 5209,
      "èĳ¬": 5210,
      "éĻ¨": 5211,
      "åľ¨åĵªéĩĮ": 5212,
      "çĶŁæĦı": 5213,
      "è¿Ļä¸ªæĹ¶åĢĻ": 5214,
      "é¸¦": 5215,
      "çģµçŁ³": 5216,
      "ä¼łæī¿": 5217,
      "æĹłåı¯": 5218,
      "æĿĢæĪĳ": 5219,
      "åĽ½çļĦ": 5220,
      "éĢĥèµ°": 5221,
      "è¯Ħ": 5222,
      "èĭ¥æľī": 5223,
      "åį§": 5224,
      "åľ°çľĭçĿĢ": 5225,
      "éĿŀä½Ĩ": 5226,
      "éĺ»æĮ¡": 5227,
      "ä»ĸå¿ĥä¸Ń": 5228,
      "ä¹ĭè¾Ī": 5229,
      "åģļåĩº": 5230,
      "æĬ¥ä»ĩ": 5231,
      "å¤§åĶĲ": 5232,
      "èĩªä»İ": 5233,
      "æĮĸ": 5234,
      "çľ¼ä¸Ńéľ²åĩº": 5235,
      "æĢĢä¸Ń": 5236,
      "å¿ĥåºķ": 5237,
      "å¸ĮçĻ½": 5238,
      "å²ģæľĪ": 5239,
      "çļĦéĩĳ": 5240,
      "çĽĨ": 5241,
      "è¿ĻåĲį": 5242,
      "ç³Ĭæ¶Ĥ": 5243,
      "è¿Ĳæ°Ķ": 5244,
      "èĴĻèĴĻ": 5245,
      "æĪĲä¸ºäºĨ": 5246,
      "çļĦå±±": 5247,
      "èĢĮä¸į": 5248,
      "çŁ³å¤´": 5249,
      "ä¼¸åĩº": 5250,
      "ä¾¿å®ľ": 5251,
      "æ»¡æĦı": 5252,
      "çªĿ": 5253,
      "ä¸Ģé¢¤": 5254,
      "æ²¡äºĨ": 5255,
      "çĽĺæĹĭ": 5256,
      "éĹŃåħ³": 5257,
      "æĪĳè¯´": 5258,
      "æĿĢæ°Ķ": 5259,
      "çıłåŃĲ": 5260,
      "åĲĥäºĨä¸ĢæĥĬ": 5261,
      "è¸ªå½±": 5262,
      "æīĢè¯´": 5263,
      "åħ¶ä»ĸäºº": 5264,
      "ä»Ļåīĳ": 5265,
      "ä¹ĭéĹ´çļĦ": 5266,
      "æĦļ": 5267,
      "çĽ´èĩ³": 5268,
      "åºĶä»ĺ": 5269,
      "ä¸Ńå¹´çĶ·åŃĲ": 5270,
      "ä¸įæĺİçĻ½": 5271,
      "å¾Ĺç½ª": 5272,
      "ä¹Łåıªæľī": 5273,
      "æł¹æľ¬æ²¡æľī": 5274,
      "ç¬¬ä¸Ģä¸ª": 5275,
      "èĤł": 5276,
      "é»ĺçĦ¶": 5277,
      "çĶļèĩ³è¿ŀ": 5278,
      "åºŀå¤§çļĦ": 5279,
      "å®°": 5280,
      "æĺİäº®": 5281,
      "è°ģéĥ½": 5282,
      "åİ»çľĭ": 5283,
      "éĺ³ç¥ŀ": 5284,
      "æĲı": 5285,
      "çļĦè¡¨æĥħ": 5286,
      "ä»ĸåį´": 5287,
      "æĴķè£Ĥ": 5288,
      "æĭĨ": 5289,
      "ä¿¡å¿ĥ": 5290,
      "æĤ£": 5291,
      "ç¢°åĪ°": 5292,
      "éĤ£èĢģ": 5293,
      "è¯´åĪ°è¿ĻéĩĮ": 5294,
      "ä½łçľĭ": 5295,
      "æĹģäºº": 5296,
      "éī": 5297,
      "è§Ĥå¯Ł": 5298,
      "å¾Ĵå¼Ł": 5299,
      "éī´": 5300,
      "ä¸ºäºº": 5301,
      "è·Łä»ĸ": 5302,
      "è§ĨçĿĢ": 5303,
      "æŁıéķ¿éĿĴ": 5304,
      "çļĦå·¨": 5305,
      "æį·": 5306,
      "äºĨæĪĳ": 5307,
      "è¿Ļå°±": 5308,
      "å°Ĩå¥¹": 5309,
      "å¸®åĬ©": 5310,
      "å°±è¿Ļæł·": 5311,
      "åıªæľīä¸Ģ": 5312,
      "ä¸ĭæīĭ": 5313,
      "è¯º": 5314,
      "è´«éģĵ": 5315,
      "ç¬¨": 5316,
      "æĢĢéĩĮ": 5317,
      "è¿Ŀ": 5318,
      "æĥ®": 5319,
      "èħ°éĹ´": 5320,
      "ä¸įè§£": 5321,
      "å¾Ĺä½ı": 5322,
      "åħīå¹ķ": 5323,
      "æĬ±çĿĢ": 5324,
      "è°¨æħİ": 5325,
      "æ¶ħ": 5326,
      "éŃĤéŃĦ": 5327,
      "ä»ĸä¾¿": 5328,
      "èĩªåľ¨": 5329,
      "ç´«è¡£": 5330,
      "å±ĭåŃĲ": 5331,
      "èĮĥéĹ²çļĦ": 5332,
      "åĵĪåĵĪå¤§ç¬ĳ": 5333,
      "ä»Ģä¹ĪæĹ¶åĢĻ": 5334,
      "çĶ»éĿ¢": 5335,
      "å¤§çīĩ": 5336,
      "æĹłå½±": 5337,
      "æĳĦ": 5338,
      "æ¥ļçķĻé¦Ļéģĵ": 5339,
      "æŃ»äºº": 5340,
      "éĵł": 5341,
      "çĶ¨äºĨ": 5342,
      "é£ŀè¡Į": 5343,
      "æĶ¾å¼ĥ": 5344,
      "ä¸Ģä¸ĭåŃĲ": 5345,
      "æıŃ": 5346,
      "èĿ¶åħ°": 5347,
      "åģ¶å°Ķ": 5348,
      "åĲĳéĤ£": 5349,
      "å¦ĥæļĦ": 5350,
      "éĿ¢æĹł": 5351,
      "ä»ĸå·²ç»ı": 5352,
      "æľ¬å°±": 5353,
      "è¯´åĩºæĿ¥": 5354,
      "æ·³": 5355,
      "ä»ĸå¿½çĦ¶": 5356,
      "èĢģå¤§": 5357,
      "ä¸ĢçĻ¾": 5358,
      "é©¼": 5359,
      "æ°Ľ": 5360,
      "ä¸Ģè¨Ģ": 5361,
      "åĽŀéģĵ": 5362,
      "åĽĽä¸ĭ": 5363,
      "èĲįèĲį": 5364,
      "é½Ĳé½Ĳ": 5365,
      "çļĦåŃĺåľ¨": 5366,
      "æĹłæĦı": 5367,
      "å¸Īå°Ĭ": 5368,
      "åĪ°äºĨæŀģ": 5369,
      "æľĪåħī": 5370,
      "åģľæŃ¢": 5371,
      "é»¯æ·¡": 5372,
      "çļĦå¨ģ": 5373,
      "ç¬¬ä¸ĢçĻ¾": 5374,
      "ä¹łæĥ¯": 5375,
      "éĻĪèĲįèĲį": 5376,
      "åįĩèµ·": 5377,
      "é¢ĩæľī": 5378,
      "ä½łçŁ¥éģĵ": 5379,
      "è¡Įäºº": 5380,
      "ä¸įé¡¾": 5381,
      "è¾ħ": 5382,
      "ä¸ĢåĪ»": 5383,
      "å¤§æīĭ": 5384,
      "æľ¬åĳ½": 5385,
      "æĹłä¸į": 5386,
      "èŁĴ": 5387,
      "ä¸ĢåŃĹ": 5388,
      "éº»éº»": 5389,
      "æ¡ĥèĬ±": 5390,
      "ä¸İæĪĳ": 5391,
      "ä¹¦çĶŁ": 5392,
      "ä»ĸæīį": 5393,
      "è®½": 5394,
      "çł´ç¢İ": 5395,
      "ä¼Ĳ": 5396,
      "èĦ¾æ°Ķ": 5397,
      "æĺ¯æľī": 5398,
      "å¹²èĦĨ": 5399,
      "èĢĮä¸Ĭ": 5400,
      "æĽ´å¤ļ": 5401,
      "ä¼Ĺå¤ļ": 5402,
      "çĭ¸": 5403,
      "çļĦéĺ´": 5404,
      "ä¸Ģçļ±": 5405,
      "è¦ģåİ»": 5406,
      "èĩ³æŀģ": 5407,
      "åıªåī©ä¸ĭ": 5408,
      "è§Ĩçº¿": 5409,
      "èĵĦ": 5410,
      "ä¼ĳæģ¯": 5411,
      "åĨľ": 5412,
      "ä¹Łè¢«": 5413,
      "è¿ĺä¼ļ": 5414,
      "æľīæĹ¶": 5415,
      "çĽ¸åĬ©": 5416,
      "çļĦéĿĴ": 5417,
      "æĥŁ": 5418,
      "å¯¹ä½ł": 5419,
      "æĻĵéľľ": 5420,
      "ä¸ĭä¸ĢåĪ»": 5421,
      "èĹ©": 5422,
      "ç»ĵæĿŁ": 5423,
      "åį°è®°": 5424,
      "éĻ©äºĽ": 5425,
      "åĲĵå¾Ĺ": 5426,
      "æ¾ľ": 5427,
      "ä¸ĢèĪª": 5428,
      "åĩłæ¬¡": 5429,
      "æıĲéĨĴ": 5430,
      "å½ķ": 5431,
      "ä¸īçĻ¾": 5432,
      "çĲª": 5433,
      "çļĦéĤ£ä¸ª": 5434,
      "äºĨè®¸å¤ļ": 5435,
      "åĨįåĬłä¸Ĭ": 5436,
      "å±Ĥæ¬¡": 5437,
      "ä¸ĢåĲĮ": 5438,
      "ä¸įä¸ĭ": 5439,
      "æĶ¿": 5440,
      "ä¿ĿæĬ¤": 5441,
      "åħĢ": 5442,
      "ä¸ĩä¸Ģ": 5443,
      "ç©¿éĢı": 5444,
      "åıĸåĩº": 5445,
      "ä¹ŁçŁ¥éģĵ": 5446,
      "åľĨæ»¡": 5447,
      "å¯Ĩå¯Ĩéº»éº»": 5448,
      "é»ĳæ°Ķ": 5449,
      "æĪļ": 5450,
      "æħĳ": 5451,
      "è¿Ļä¸Ģå¹ķ": 5452,
      "æĲº": 5453,
      "éľŀåħī": 5454,
      "åı¶å¼Ģéģĵ": 5455,
      "å¨ĺåŃĲ": 5456,
      "æĦıæĸĻ": 5457,
      "çĮª": 5458,
      "èĲ½åĪ°": 5459,
      "æĿ¥ä¸įåıĬ": 5460,
      "éĻĩ": 5461,
      "å°ıåħ½": 5462,
      "è¯¸å¤ļ": 5463,
      "äº§çĶŁ": 5464,
      "äºĪ": 5465,
      "å·¡": 5466,
      "ä¿¡æģ¯": 5467,
      "åľ¨åĨħ": 5468,
      "éĵ¸": 5469,
      "èĤ¥": 5470,
      "è·Łéļı": 5471,
      "åĲĥä¸ĢæĥĬ": 5472,
      "å¿½çĦ¶éĹ´": 5473,
      "å¿½åĲ¬": 5474,
      "èĢ³ä¸Ń": 5475,
      "éªĩçĦ¶": 5476,
      "äºĨä¸Ģä¼ļåĦ¿": 5477,
      "éŃĶæķĻ": 5478,
      "èĮħ": 5479,
      "èĬ±æĹł": 5480,
      "ç§ĺæľ¯": 5481,
      "ç«Ń": 5482,
      "æµ·æ£ł": 5483,
      "å¥½çĶŁ": 5484,
      "å¤§æ³ķ": 5485,
      "å¤§å°ĨåĨĽ": 5486,
      "ç§ĥ": 5487,
      "èĨĽ": 5488,
      "æľ¬ä½ĵ": 5489,
      "åĪ¤æĸŃ": 5490,
      "éĤ£å¤©": 5491,
      "å¯¹äºĨ": 5492,
      "åķ§": 5493,
      "æµ®çİ°èĢĮåĩº": 5494,
      "åĩłåĲį": 5495,
      "æ·±åĲ¸": 5496,
      "æ²īéĩį": 5497,
      "åĳ½çļĦ": 5498,
      "ä¼¤åı£": 5499,
      "çŀ§è§ģ": 5500,
      "åľ¨å±±": 5501,
      "æ¯Ļ": 5502,
      "å¥½åĥıæĺ¯": 5503,
      "æĲ¬": 5504,
      "èµ°è¿Ľ": 5505,
      "èºģ": 5506,
      "å¯¹æŃ¤": 5507,
      "ä¸Ģéģĵéģĵ": 5508,
      "æĶĢ": 5509,
      "ä¾¯å¸ĮçĻ½": 5510,
      "å°¬": 5511,
      "å°´": 5512,
      "åħ¼": 5513,
      "åģ·åģ·": 5514,
      "åįĵä¸ĢèĪª": 5515,
      "ä¸ĢæĬĵ": 5516,
      "æŃ¹": 5517,
      "ä¹Łå¾Ī": 5518,
      "æĥ³èµ·äºĨ": 5519,
      "éķ¿éķ¿": 5520,
      "æľªæĿ¥": 5521,
      "ä¸ĢçĽ´åľ¨": 5522,
      "ä¸įè¿ľå¤Ħ": 5523,
      "åĩºå£°": 5524,
      "æĹłè®ºæĺ¯": 5525,
      "æķĪæŀľ": 5526,
      "åĭĴ": 5527,
      "å°´å°¬": 5528,
      "ä¸ºä»ĸ": 5529,
      "æĦŁæħ¨": 5530,
      "æĹłè®ºå¦Ĥä½ķ": 5531,
      "çľ¼éĩĮ": 5532,
      "åºĬä¸Ĭ": 5533,
      "æİ¥éģĵ": 5534,
      "çļĦå¥³": 5535,
      "æ¸ħéĨĴ": 5536,
      "æİĮæķĻ": 5537,
      "çªģçĦ¶éĹ´": 5538,
      "çļĦçľŁ": 5539,
      "çļĦç¥ŀèī²": 5540,
      "èĲ§å³°": 5541,
      "éĽ·åħī": 5542,
      "åĩĿç¥ŀ": 5543,
      "ç¦»å¼ĢäºĨ": 5544,
      "ä¸įç®Ĺ": 5545,
      "æĿİåħĥ": 5546,
      "çĿ£": 5547,
      "çļĦåĲį": 5548,
      "éĢĤæīį": 5549,
      "èĶ½": 5550,
      "çŀ³åŃĶ": 5551,
      "çļĦèº«å½±": 5552,
      "å¿«æ´»": 5553,
      "ä¸Ģä¸¾": 5554,
      "æĶ¶æĭ¾": 5555,
      "ä¸īå¤§": 5556,
      "ä¹¦æĪ¿": 5557,
      "é³ŀ": 5558,
      "å¾ª": 5559,
      "è¡¨ç¤º": 5560,
      "çľĭä¸Ĭåİ»": 5561,
      "å½¢å®¹": 5562,
      "åı¶çº¢": 5563,
      "çļĦéķ¿": 5564,
      "éĢĢåĲİ": 5565,
      "æĹłæģ¯": 5566,
      "å½ĵåľº": 5567,
      "åĸĩ": 5568,
      "äºĨä¸Ģä¸Ŀ": 5569,
      "çĶ³": 5570,
      "æŀ¢": 5571,
      "éĹªéĹª": 5572,
      "æķħäºĭ": 5573,
      "æĦŁåıĹåĪ°": 5574,
      "è§ĳ": 5575,
      "æ¯ıä¸Ģä¸ª": 5576,
      "åĢ¼å¾Ĺ": 5577,
      "æĶ¾è¿ĩ": 5578,
      "åĩºä¸Ģéģĵ": 5579,
      "ä¿ı": 5580,
      "æĹłè¾¹": 5581,
      "æĭ¿çĿĢ": 5582,
      "å¥¹æĺ¯": 5583,
      "èĢĮåľ¨": 5584,
      "çĬ¹å¦Ĥ": 5585,
      "ç¬ĳäºĨèµ·æĿ¥": 5586,
      "åĨįæĿ¥": 5587,
      "çĻ¾ä¸Ī": 5588,
      "è¿¸": 5589,
      "ä½łåıĪ": 5590,
      "æĥĬå¤©åĬ¨": 5591,
      "çĨĬçĮ«åĦ¿": 5592,
      "è¿ĩåĲİ": 5593,
      "æŀĹä¸Ń": 5594,
      "åįĬæŃ¥": 5595,
      "åĪ©çĶ¨": 5596,
      "èĤ¢": 5597,
      "æĦıä¹ī": 5598,
      "ä¸ĩä¸ĩ": 5599,
      "ä¸Ĳå¸®": 5600,
      "æĦĪåıĳ": 5601,
      "æĭĲ": 5602,
      "è¡¨çİ°": 5603,
      "é¡¾åīĳ": 5604,
      "ä¿Ŀè¯ģ": 5605,
      "è´Łè´£": 5606,
      "å£°åĬ¿": 5607,
      "è¿ĺå¥½": 5608,
      "å®¢äºº": 5609,
      "èľĤ": 5610,
      "åıªä¸įè¿ĩæĺ¯": 5611,
      "å¤±åİ»äºĨ": 5612,
      "ç£ģ": 5613,
      "å·²ç»ıè¢«": 5614,
      "æĭ¿åĩº": 5615,
      "å¼Ģå¿ĥ": 5616,
      "åºķä¸ĭ": 5617,
      "åĪ°æĹ¶åĢĻ": 5618,
      "æĳĬ": 5619,
      "å¦ĻçļĦ": 5620,
      "èĵ¬èİ±": 5621,
      "çļĦçģ«": 5622,
      "æĮª": 5623,
      "çŃĳåŁº": 5624,
      "æĪĳä¾¿": 5625,
      "èĻ¾": 5626,
      "ç¼Ńç»ķ": 5627,
      "æ²¡åħ¥": 5628,
      "æıı": 5629,
      "å¤§é»ĳ": 5630,
      "çº¢åħī": 5631,
      "å©ļ": 5632,
      "åĩĮæľª": 5633,
      "åĪ°ä»ĸ": 5634,
      "çĽ®åīį": 5635,
      "çĮ®": 5636,
      "æĦķçĦ¶": 5637,
      "æľ¦": 5638,
      "è®¿": 5639,
      "é£ŀèĪŀ": 5640,
      "åĮĨåĮĨ": 5641,
      "çļĦäºĨ": 5642,
      "åĬ¨å¼¹": 5643,
      "å®´": 5644,
      "æľīå¤ļå°ĳ": 5645,
      "éĤ£å¼ł": 5646,
      "èº«æ³ķ": 5647,
      "æ¶Īå¤±äºĨ": 5648,
      "åı¶çº¢é±¼": 5649,
      "éĦ": 5650,
      "å¯ŀ": 5651,
      "è¿ŀç»Ń": 5652,
      "æĥķ": 5653,
      "çĭĲçĭ¸": 5654,
      "å°±åı¯": 5655,
      "éĹŃä¸Ĭ": 5656,
      "å¸½": 5657,
      "è½»å£°": 5658,
      "çĬĢ": 5659,
      "èģĶçĽŁ": 5660,
      "çļĦç¥ŀæĥħ": 5661,
      "æľĢå¤ļ": 5662,
      "å®ŀéĻħä¸Ĭ": 5663,
      "ç¼ĵæħ¢": 5664,
      "æ»¡æĺ¯": 5665,
      "æĹłå£°æĹłæģ¯": 5666,
      "ä»ĸè¯´": 5667,
      "æģķ": 5668,
      "ä»ĬæĻļ": 5669,
      "åı°ä¸Ĭ": 5670,
      "åħ¶ä¸Ĭ": 5671,
      "å°½å¤´": 5672,
      "å´Ķ": 5673,
      "ç©¿è¿ĩ": 5674,
      "æĺİçļĦ": 5675,
      "æī¿åıĹ": 5676,
      "åĩ¡äºº": 5677,
      "ç©¹": 5678,
      "ä»°å¤©": 5679,
      "åįļ": 5680,
      "éļ¾åħį": 5681,
      "é£ĺé£ĺ": 5682,
      "çĻ½å¤©": 5683,
      "åĽĽæĸ¹": 5684,
      "é£ŀèµ·": 5685,
      "åıĳçİ°äºĨ": 5686,
      "ä¸įå°ı": 5687,
      "èī¯ä¹ħ": 5688,
      "åįĳ": 5689,
      "çľĭä»ĸ": 5690,
      "åĩłåįģ": 5691,
      "ç£ķ": 5692,
      "ä¸ĢåĪĨ": 5693,
      "åł¡": 5694,
      "èº«åľ¨": 5695,
      "æ°´ä¸Ń": 5696,
      "èµĶ": 5697,
      "é¼ł": 5698,
      "ä¾¿å¦Ĥ": 5699,
      "è¥Ł": 5700,
      "ä»İæĿ¥æ²¡æľī": 5701,
      "èĩªä¿¡": 5702,
      "çĶµåħī": 5703,
      "ä½ĨéĤ£": 5704,
      "æ¢§": 5705,
      "çļĦè¯Ŀè¯Ń": 5706,
      "æĤłæĤł": 5707,
      "çķħ": 5708,
      "çļĦæĪĺ": 5709,
      "ä¹ĭç±»": 5710,
      "æ¸Ĺ": 5711,
      "åı¯ä¸įæĺ¯": 5712,
      "åĩĮæľªé£İ": 5713,
      "æĻĵå¾Ĺ": 5714,
      "ä¹Łç®Ĺ": 5715,
      "èĢ½": 5716,
      "äºĨä¸Ģåı£": 5717,
      "æĢİåľ°": 5718,
      "ï¼Łï¼ģâĢĿ": 5719,
      "çĲĨçĶ±": 5720,
      "ç¡®å®ļ": 5721,
      "çĽĪçĽĪ": 5722,
      "åĿ¡": 5723,
      "åı«æĪĳ": 5724,
      "åłµ": 5725,
      "åĸĥåĸĥéģĵ": 5726,
      "å¤§å¸Ŀ": 5727,
      "é¡¹": 5728,
      "çł´å¼Ģ": 5729,
      "è¿½æĿĢ": 5730,
      "èĢ³æľµ": 5731,
      "æĮ½": 5732,
      "èĢģä¼¯": 5733,
      "éĵ¾": 5734,
      "ä¸ĢæĹ¥": 5735,
      "çĪ¶æ¯į": 5736,
      "åĽŀåºĶ": 5737,
      "åĭĥ": 5738,
      "æĶ¯æĮģ": 5739,
      "éĤ£åº§": 5740,
      "éĤ£å¥³åŃĲ": 5741,
      "åĲİæľŁ": 5742,
      "æĹłæīĢ": 5743,
      "å®īåħ¨": 5744,
      "åĨłåĨĽ": 5745,
      "è½¬è¿ĩèº«": 5746,
      "é©Ń": 5747,
      "æīĢä»¥ä»ĸ": 5748,
      "å¯¥": 5749,
      "å¹³æĹ¥": 5750,
      "èĢĮèĩ³": 5751,
      "çľŁæľī": 5752,
      "ä¸ľæµ·": 5753,
      "ä»Ļæľ¯": 5754,
      "åĨ·éĿĻ": 5755,
      "ä¼¤å®³": 5756,
      "å¯Ĵåħī": 5757,
      "éŀĭ": 5758,
      "é¾Ļéª": 5759,
      "æľºç¼ĺ": 5760,
      "èĥĮå½±": 5761,
      "åħ¬åħ¬": 5762,
      "æĢĿéĩı": 5763,
      "æ³¼": 5764,
      "ç½ļ": 5765,
      "ä¹Łä¸įè¿ĩ": 5766,
      "å°½æķ°": 5767,
      "èĴĻåı¤": 5768,
      "çļĦå¢ĥçķĮ": 5769,
      "èĦĤ": 5770,
      "çĻ½äºĳ": 5771,
      "ä¸įè¿ĩæĺ¯": 5772,
      "å¦»åŃĲ": 5773,
      "äºĭå®ŀä¸Ĭ": 5774,
      "çļĦé«ĺæīĭ": 5775,
      "ä¸ĸåŃĲæ®¿ä¸ĭ": 5776,
      "åĲ±": 5777,
      "å¾Īå°ĳ": 5778,
      "!âĢĿ": 5779,
      "äºĮä½į": 5780,
      "è¦ģæ±Ĥ": 5781,
      "èĢģå¤ª": 5782,
      "æĿİæ¸Ĭ": 5783,
      "å®«ä¸»": 5784,
      "å¤§åİħ": 5785,
      "è´¦": 5786,
      "çģĮ": 5787,
      "ä¸İä½ł": 5788,
      "å²Ń": 5789,
      "è½»å£°éģĵ": 5790,
      "è¹²": 5791,
      "ä¸įèĩª": 5792,
      "éĤ£å°±æĺ¯": 5793,
      "èİ²èĬ±": 5794,
      "åĪ°æĿ¥": 5795,
      "èĳĹ": 5796,
      "æĿ¥ä¸´": 5797,
      "åĳ¨èº«": 5798,
      "çĮ´åŃĲ": 5799,
      "æľīç§į": 5800,
      "åľ°ä½į": 5801,
      "ç»ıéªĮ": 5802,
      "åĽłæŀľ": 5803,
      "ç¬¬ä¸ĥ": 5804,
      "æ²¸": 5805,
      "ç¦½": 5806,
      "éĿłè¿ĳ": 5807,
      "ä¸ĭå±±": 5808,
      "è¯´æĺİ": 5809,
      "å¼ĤçķĮ": 5810,
      "çļĦåĲĮæĹ¶": 5811,
      "çļĦç¥ŀéĢļ": 5812,
      "æŃª": 5813,
      "å·²å°Ĩ": 5814,
      "è¯ĿæĿ¥": 5815,
      "ä¹Ŀå¤©": 5816,
      "è¯§å¼Ĥ": 5817,
      "åı£éģĵ": 5818,
      "æľªåħį": 5819,
      "éĿ¢æĹłè¡¨æĥħ": 5820,
      "å°ıå§ĳå¨ĺ": 5821,
      "ä¼¼ä¹İæĺ¯": 5822,
      "ä»ĸåĴĮ": 5823,
      "çİ¯ç»ķ": 5824,
      "æĺ¯å¦ĤæŃ¤": 5825,
      "åįģåĽĽ": 5826,
      "éŃĶå®Ĺ": 5827,
      "æ¯Ķå¦Ĥ": 5828,
      "éĵ¶çº±": 5829,
      "å¥¶å¥¶": 5830,
      "åľ¨èĩªå·±": 5831,
      "æ¶ĪèĢĹ": 5832,
      "è¿ĶåĽŀ": 5833,
      "ç¥ŀåºĻ": 5834,
      "æĺ¾çİ°": 5835,
      "ç¼ĺæķħ": 5836,
      "å©īåĦ¿": 5837,
      "å³¡": 5838,
      "æ»ĭåĳ³": 5839,
      "åĨłåĨĽä¾¯": 5840,
      "è¿Ļå°ıåŃĲ": 5841,
      "æĸĳ": 5842,
      "èįĨ": 5843,
      "èİ«è¦ģ": 5844,
      "çĸĳéĹ®": 5845,
      "ç»ĿæľĽ": 5846,
      "å®«æ®¿": 5847,
      "ä¸įæŃ¢": 5848,
      "èĢ¿": 5849,
      "åįĬç©ºä¸Ń": 5850,
      "ä¸ĩä¸Ī": 5851,
      "ä¸ĭæĦıè¯Ĩ": 5852,
      "åĩłåı¥": 5853,
      "æ°´èĿ¶åħ°": 5854,
      "æĹłæķĮ": 5855,
      "çł´ç»½": 5856,
      "åĵªä¸ª": 5857,
      "è§Ĥä¸»": 5858,
      "å½¦": 5859,
      "æİª": 5860,
      "éĩĳä»Ļ": 5861,
      "æ¯ıæ¬¡": 5862,
      "èĭ¥ä¸į": 5863,
      "èº¬èº«": 5864,
      "åĨħåĬŁ": 5865,
      "åĲ«ç¬ĳ": 5866,
      "çŃīä»ĸ": 5867,
      "ä¸įå®¹æĺĵ": 5868,
      "åĿŁ": 5869,
      "çģµåĬĽ": 5870,
      "çĽ®åħīä¸ĢéĹª": 5871,
      "èĥ¸èĨĽ": 5872,
      "æĺ¯éĤ£": 5873,
      "è°¦": 5874,
      "ä»İä»ĸ": 5875,
      "æŀģå¤§": 5876,
      "çļĦç²¾": 5877,
      "èĦĳä¸Ń": 5878,
      "é»ĳæļĹä¸Ń": 5879,
      "å¤§åĲĥä¸ĢæĥĬ": 5880,
      "åĵ§": 5881,
      "æĮŁ": 5882,
      "ä¼łéĹ»": 5883,
      "æĺ¯ä¸Ģçīĩ": 5884,
      "åį¦": 5885,
      "é»ĳçĻ½": 5886,
      "ä¸ĢæĹģ": 5887,
      "ä¹ĭè¨Ģ": 5888,
      "åĹĵ": 5889,
      "è¯¡å¼ĤçļĦ": 5890,
      "é¾Ļéª§": 5891,
      "å°ıå°ı": 5892,
      "äº²çľ¼": 5893,
      "çĭĤé£İ": 5894,
      "å®¾": 5895,
      "ä¸įåĥı": 5896,
      "éª¸": 5897,
      "çĻ¾ä½Ļ": 5898,
      "æĺ¥ç§ĭ": 5899,
      "ä¸¤å£°": 5900,
      "æ²¡æľīä¸Ŀæ¯«": 5901,
      "é¸¿": 5902,
      "æķ°ä¸Ī": 5903,
      "åį´åľ¨": 5904,
      "ä»ĸå¯¹": 5905,
      "çĿĢéģĵ": 5906,
      "è§ģçļĦ": 5907,
      "åĽŀåĪ°äºĨ": 5908,
      "æ±ª": 5909,
      "ä¸Ĭæĸ¹": 5910,
      "åį´è¢«": 5911,
      "è§ģå¾Ĺ": 5912,
      "çļĩå¸ĿéĻĽä¸ĭ": 5913,
      "æľīä½Ļ": 5914,
      "ä¸įæĹ¶": 5915,
      "èµ°çļĦ": 5916,
      "æŃ¤è¯Ŀ": 5917,
      "åĮ£": 5918,
      "å¹½å¹½": 5919,
      "è¿Ļä¸Ģä¸ĭ": 5920,
      "æıĲåįĩ": 5921,
      "åı¸é©¬": 5922,
      "è¥¿éĻµç¥ŀæ®¿": 5923,
      "ä¹Ŀå¹½": 5924,
      "é»İ": 5925,
      "æļ®": 5926,
      "çİ°èº«": 5927,
      "è¾Ľèĭ¦": 5928,
      "å¦Ĥå¸¸": 5929,
      "è¿ľæĸ¹": 5930,
      "çĭĪ": 5931,
      "è®¤çľŁ": 5932,
      "åį´ä¸įçŁ¥": 5933,
      "çĻ½çİī": 5934,
      "çĶ¨æĿ¥": 5935,
      "å±Ĥå±Ĥ": 5936,
      "èįĴåİŁ": 5937,
      "åĩĮç©º": 5938,
      "ä¸Ģå¯¹": 5939,
      "å®µ": 5940,
      "åįģä¸ĥ": 5941,
      "é«ĺæ·±": 5942,
      "æį®è¯´": 5943,
      "è¿ĻçĤ¹": 5944,
      "è¿ĳä¹İ": 5945,
      "çº¢çļĦ": 5946,
      "ä¹¾åĿ¤": 5947,
      "ä¸Ģæ²ī": 5948,
      "æ¡Ĳ": 5949,
      "çĲĨè§£": 5950,
      "éģ¿å¼Ģ": 5951,
      "æģ¢å¤įäºĨ": 5952,
      "åĽĽå¤Ħ": 5953,
      "æĢķæĺ¯": 5954,
      "æ¨Ĭ": 5955,
      "è¸ıåħ¥": 5956,
      "åģľé¡¿": 5957,
      "æ¸ħæ°´": 5958,
      "æ¯«ä¸įçĬ¹è±«": 5959,
      "æłĪ": 5960,
      "éŃĶéĹ¨": 5961,
      "èį·": 5962,
      "ç¬¬åħŃ": 5963,
      "ä¸īå¤©": 5964,
      "æĲħ": 5965,
      "ä¸ĢäºĮ": 5966,
      "å®Ļ": 5967,
      "æĪĳå·²": 5968,
      "çĿĢäºĨ": 5969,
      "éĺĢ": 5970,
      "ç»Ĩç»Ĩ": 5971,
      "é¢Ŀå¤´": 5972,
      "å®Ŀåīĳ": 5973,
      "çľ¼æ³ª": 5974,
      "å¤ĦçĲĨ": 5975,
      "äºīæĸĹ": 5976,
      "åıĮæİĮ": 5977,
      "éĿŀåĲĮ": 5978,
      "å¸ĸ": 5979,
      "çľĭçļĦ": 5980,
      "äºĶä¸ª": 5981,
      "åĴĮä½ł": 5982,
      "æ¢Ń": 5983,
      "åĨ¯": 5984,
      "å±±èĦī": 5985,
      "è¡Įç¤¼": 5986,
      "åĮĸä¸ºäºĨ": 5987,
      "éĽªçĻ½": 5988,
      "æĹłåĬĽ": 5989,
      "éĻ·åħ¥": 5990,
      "åİ¿": 5991,
      "çľŁè¦ģ": 5992,
      "æĭĴç»Ŀ": 5993,
      "æľīæŃ¤": 5994,
      "æİı": 5995,
      "è±Ĩ": 5996,
      "æĺ¯å¥½": 5997,
      "äºĶæĮĩ": 5998,
      "è¿ĺæľīä»Ģä¹Ī": 5999,
      "è¿Ļä¸ªä¸ĸçķĮ": 6000,
      "æĹłä¸Ģ": 6001,
      "å°ıä»Ļ": 6002,
      "çģµå®Ŀ": 6003,
      "éŁ©åħĦ": 6004,
      "éĽªçĲª": 6005,
      "å¦ĸéŃĶ": 6006,
      "éľĩæĴ¼": 6007,
      "è¦ģçŁ¥éģĵ": 6008,
      "è´±": 6009,
      "çļĦå°±æĺ¯": 6010,
      "å¤ĸåĽ´": 6011,
      "æĺ¯çļĦ": 6012,
      "çľĭä¸įåĪ°": 6013,
      "é«ĺç©º": 6014,
      "å®ŀæĺ¯": 6015,
      "çļĦéĤ£äºĽ": 6016,
      "æĶ¯æĴĳ": 6017,
      "æŀī": 6018,
      "èĥ§": 6019,
      "ä»£ä»·": 6020,
      "çĭ¼çĭĪ": 6021,
      "äººç±»": 6022,
      "ä¸ºéļ¾": 6023,
      "æł¹æľ¬æĹłæ³ķ": 6024,
      "æĺŁéŃĤ": 6025,
      "æĢªå¼Ĥ": 6026,
      "æĪĪ": 6027,
      "æĿĢä½ł": 6028,
      "èĵ¦çĦ¶éĹ´": 6029,
      "æĺİå¤©": 6030,
      "é±¼é¾Ļ": 6031,
      "ä¸Ŀæ¯«ä¸į": 6032,
      "å½ĵçľŁæĺ¯": 6033,
      "æĢľèĬ±": 6034,
      "ä¸ĢåįĬ": 6035,
      "çļĦå¿µå¤´": 6036,
      "æ¯ħ": 6037,
      "æī©æķ£": 6038,
      "å¿ĥæĥĬ": 6039,
      "ä¸¤çľ¼": 6040,
      "æĭĽå¼ı": 6041,
      "çŃĶéģĵ": 6042,
      "äºĴçĽ¸": 6043,
      "éĻĮçĶŁ": 6044,
      "ä¼°è®¡": 6045,
      "ãĢĤâĢĻ": 6046,
      "å¤§åı£": 6047,
      "æĻ¦": 6048,
      "åīĳæľ¯": 6049,
      "æ·®": 6050,
      "ä¿ŀ": 6051,
      "é£İéĽ¨": 6052,
      "æµĵéĥģ": 6053,
      "å¤§æŃ¥": 6054,
      "æ³Ĭ": 6055,
      "è¿ľçļĦ": 6056,
      "èµ°åĲ§": 6057,
      "å«©": 6058,
      "å¤§åįĥä¸ĸçķĮ": 6059,
      "ç»ŀ": 6060,
      "è¯´èµ·": 6061,
      "åıĳåĬ¨": 6062,
      "è¯ĿéŁ³": 6063,
      "å¨¶": 6064,
      "èĵ¦åľ°": 6065,
      "é»ĳè¡£äºº": 6066,
      "å¤ķ": 6067,
      "çĿĢéĤ£": 6068,
      "åĮª": 6069,
      "éĽ·é¸£": 6070,
      "ç¡®è®¤": 6071,
      "å£ģä¸Ĭ": 6072,
      "éĵģéªĳ": 6073,
      "å¿½åĲ¬å¾Ĺ": 6074,
      "åĲ¬éĹ»": 6075,
      "å°ĳå¦ĩ": 6076,
      "èĻļç«¹": 6077,
      "åķĨéĩı": 6078,
      "å¤¸": 6079,
      "å¤§èĥ½": 6080,
      "å±±ä¸Ń": 6081,
      "åĮĸä¸ºä¸Ģéģĵ": 6082,
      "æĦŁè§īåĪ°äºĨ": 6083,
      "å¤§å°ıçļĦ": 6084,
      "éģĤ": 6085,
      "çľĭä¸įåĩº": 6086,
      "æŁĶå£°éģĵ": 6087,
      "ä¸įå¤Ł": 6088,
      "è°±": 6089,
      "æĮ¥æīĭ": 6090,
      "èĥĨåŃĲ": 6091,
      "èĳĽé¾Ļéª§": 6092,
      "æ·¹": 6093,
      "æĢªçī©": 6094,
      "ä¸ĭæĿ¥çļĦ": 6095,
      "æĴŀåĩ»": 6096,
      "åıĳåĩºäºĨ": 6097,
      "æĢİä¹ĪåĬŀ": 6098,
      "æĳĩæĳĩå¤´": 6099,
      "å°ıåı¯": 6100,
      "å®ļçļĦ": 6101,
      "æ·±åħ¥": 6102,
      "èĩªæľī": 6103,
      "åŁİéĹ¨": 6104,
      "èĥ½åĲ¦": 6105,
      "æİ¥è¿ŀ": 6106,
      "åĳ½ä»¤": 6107,
      "ç«ĻçĿĢ": 6108,
      "åĩłå¤©": 6109,
      "è¿Ļä¸ĢåĪ»": 6110,
      "å¿ĥæĦı": 6111,
      "å¤±åİ»": 6112,
      "åı¦æľī": 6113,
      "å¤ļä¹Ī": 6114,
      "å¤Ħäºİ": 6115,
      "æº¢": 6116,
      "äº¤ç»Ļ": 6117,
      "åİīå£°éģĵ": 6118,
      "é¥±": 6119,
      "å·¾": 6120,
      "åĨ³å¿ĥ": 6121,
      "åłĤä¸»": 6122,
      "å¯¡": 6123,
      "ç©ºæ°Ķ": 6124,
      "åħ¨æĺ¯": 6125,
      "æĬµæĬĹ": 6126,
      "çļĦåĪĢ": 6127,
      "åľ¨æĦı": 6128,
      "åºĲ": 6129,
      "çļ®çļ®": 6130,
      "æį¢äºĨ": 6131,
      "æłı": 6132,
      "åħ¥åı£": 6133,
      "æļĹèĩª": 6134,
      "éĢļä½ĵ": 6135,
      "ä¸Ģäºĭ": 6136,
      "åĲİæĸ¹": 6137,
      "å·¨äºº": 6138,
      "æīĭæ³ķ": 6139,
      "çļĦåıĺåĮĸ": 6140,
      "æİ¥åıĹ": 6141,
      "æľīå¾Īå¤ļ": 6142,
      "è°ģèĥ½": 6143,
      "çļĦåħīèĬĴ": 6144,
      "éĥ½åı¯ä»¥": 6145,
      "ä¸Ńå¹´äºº": 6146,
      "åĳĬè¯īä½ł": 6147,
      "èĲ½åľ°": 6148,
      "åĩ¶åħ½": 6149,
      "è¿Ļä»¶äºĭæĥħ": 6150,
      "å¦į": 6151,
      "çĥĻ": 6152,
      "èĬ±æĻĵéľľ": 6153,
      "æĨ¾": 6154,
      "æŃ¦åŃ¦": 6155,
      "è£ĺ": 6156,
      "éģĩä¸Ĭ": 6157,
      "èµ·çļĦ": 6158,
      "æĿı": 6159,
      "ä»Ģä¹Īäºº": 6160,
      "çħĮ": 6161,
      "ç´łç´ł": 6162,
      "èĢĮåħ¥": 6163,
      "å¹¿åľº": 6164,
      "è¾©": 6165,
      "ä¼ļä¸įä¼ļ": 6166,
      "åıĪå¦Ĥä½ķ": 6167,
      "çİĭä¸ĸ": 6168,
      "éĵ¶åħī": 6169,
      "æļĩ": 6170,
      "æŀģå¿«": 6171,
      "æİĮåĬĽ": 6172,
      "éĻĨéĽªçĲª": 6173,
      "ç³ķ": 6174,
      "è¿Ļä¹Īä¸Ģ": 6175,
      "çİ¯å¢ĥ": 6176,
      "åįģä¸ĩ": 6177,
      "åľ¨è¿Ļç§į": 6178,
      "ç§»åĬ¨": 6179,
      "çĦ¶ä¸Ģç¬ĳ": 6180,
      "æµĬ": 6181,
      "è¶ĭ": 6182,
      "å¨ģèĥģ": 6183,
      "çļĦä¸į": 6184,
      "å¦ª": 6185,
      "äºĨä¸Ģéģĵ": 6186,
      "åĨ·æ±Ĺ": 6187,
      "å¹³æĹ¶": 6188,
      "åĳĨäºĨ": 6189,
      "ä»ĸæĥ³": 6190,
      "ä¹Łæĺ¯ä¸Ģ": 6191,
      "çī§": 6192,
      "çļĦä¸ĭ": 6193,
      "è¿Ļåıª": 6194,
      "ä¸¤éĵ¶åŃĲ": 6195,
      "é«ĵ": 6196,
      "ç¬ĳå¾Ĺ": 6197,
      "æŁ¯": 6198,
      "åı¹ä¸Ģå£°": 6199,
      "åĩĦåİī": 6200,
      "è§ĴèĲ½": 6201,
      "äºĨä¸įå°ĳ": 6202,
      "çĿĢå®ŀ": 6203,
      "åĨįçľĭ": 6204,
      "åĲ¸å¼ķ": 6205,
      "éĢıåĩº": 6206,
      "çĸ¯åŃĲ": 6207,
      "æ£ºæĿĲ": 6208,
      "çł°çł°": 6209,
      "æīĭæĮģ": 6210,
      "åŃŁæĺŁéŃĤ": 6211,
      "ä»ĵ": 6212,
      "ä¸Ĭæ¬¡": 6213,
      "çķıæĥ§": 6214,
      "æĳ§": 6215,
      "ä»»ä½ķäºº": 6216,
      "ä¸įå¼Ģ": 6217,
      "å°±å¥½åĥı": 6218,
      "åīĳæĦı": 6219,
      "çļĩåĲİ": 6220,
      "å®ĮæĪĲ": 6221,
      "æŀľçĦ¶æĺ¯": 6222,
      "èĩªæĺ¯": 6223,
      "åĨįåº¦": 6224,
      "çļĦéĹ®é¢ĺ": 6225,
      "å¤§èĩ£": 6226,
      "çŁ³çł´å¤©": 6227,
      "ä½¿åĩº": 6228,
      "å¹³æ·¡": 6229,
      "è£¸": 6230,
      "äººä¹ĭ": 6231,
      "ä¸¾åĬ¨": 6232,
      "ä½łèĩªå·±": 6233,
      "å¿Įæĥ®": 6234,
      "æĿ¥äºº": 6235,
      "åĲĽåŃĲ": 6236,
      "æŁĲä¸ª": 6237,
      "çļĦä¸¤": 6238,
      "æ¾Ħ": 6239,
      "åįłæį®": 6240,
      "é«ĺå¤§": 6241,
      "èĲ½åħ¥": 6242,
      "åĩ»æĿĢ": 6243,
      "çİĭä¸ĸåħħ": 6244,
      "åħ¶ä¸ŃçļĦ": 6245,
      "åĩºæĿ¥äºĨ": 6246,
      "ç»į": 6247,
      "èİ·å¾Ĺ": 6248,
      "ä¸Ģå¹´": 6249,
      "èĪ¹ä¸Ĭ": 6250,
      "åĲ¾": 6251,
      "æľīä¸ĢäºĽ": 6252,
      "å¯¹èĩªå·±": 6253,
      "åįı": 6254,
      "æ²¡æľīäºĨ": 6255,
      "åĵªæľī": 6256,
      "å¯ĩä»²åĴĮ": 6257,
      "å¾®å¾®ä¸Ģ": 6258,
      "ä¹Įäºĳ": 6259,
      "ç²¹": 6260,
      "æ²īæĢĿ": 6261,
      "éĻĪçļ®çļ®": 6262,
      "çĸ¾é©°": 6263,
      "ç¥ŀåīĳ": 6264,
      "å°ĳè®¸": 6265,
      "æĺĤ": 6266,
      "å¥³ä¿®": 6267,
      "æĹģè§Ĥ": 6268,
      "èģļéĽĨ": 6269,
      "æĺİçŁ¥": 6270,
      "æķ£ä¿®": 6271,
      "å¿½åıĪ": 6272,
      "ä¸Ģæł·çļĦ": 6273,
      "è¯´æ³ķ": 6274,
      "è¡Ĺéģĵ": 6275,
      "åį´æľī": 6276,
      "è°ħ": 6277,
      "éģĵè·¯": 6278,
      "æīĭèĦļ": 6279,
      "å¿ħè¦ģ": 6280,
      "æİ¥çĿĢéģĵ": 6281,
      "å²Ľä¸Ĭ": 6282,
      "éĶħ": 6283,
      "ç«Ļç«ĭ": 6284,
      "å§ļæĻ´": 6285,
      "å·¢": 6286,
      "ä¾¿åį³": 6287,
      "æµĨ": 6288,
      "å¤ªå¤§": 6289,
      "çĮĽçĥĪ": 6290,
      "éĻ¡çĦ¶": 6291,
      "ä½Ĩå¥¹": 6292,
      "æīįæľī": 6293,
      "èĵĿèī²": 6294,
      "åĩ°": 6295,
      "æ·«": 6296,
      "åĲĪä½ĵ": 6297,
      "æĪĳçİ°åľ¨": 6298,
      "éŁ©éģĵåıĭ": 6299,
      "æĪŁ": 6300,
      "åĥ»": 6301,
      "é»Ħèī²": 6302,
      "é¦ĸåħĪ": 6303,
      "ä¸ĢæŁĦ": 6304,
      "ä¿º": 6305,
      "æĦıå¿Ĺ": 6306,
      "åĪ«è¯´": 6307,
      "èİ«æµĭ": 6308,
      "æĪ¿éĹ´": 6309,
      "è¿ĻäºĽå¹´": 6310,
      "åľ°çĭ±": 6311,
      "èµł": 6312,
      "çŃīçŃī": 6313,
      "æ¸¡è¿ĩ": 6314,
      "æĺ¯ä»İ": 6315,
      "äºĨè¿Ľåİ»": 6316,
      "åĢ©": 6317,
      "åĲĳäºĨ": 6318,
      "æŀĲ": 6319,
      "å£°å¤§": 6320,
      "éĿĴé¾Ļ": 6321,
      "çļĦä¸ĢäºĽ": 6322,
      "ä¸ĵéĹ¨": 6323,
      "éľ¹": 6324,
      "ç»Ŀä¸ĸ": 6325,
      "ä¸ĭå¤´": 6326,
      "å¾Ĳå¾Ĳ": 6327,
      "å°ļä¹¦": 6328,
      "ç¦ħéĵ¶çº±": 6329,
      "æĺĶæĹ¥": 6330,
      "è®¥": 6331,
      "æ³£": 6332,
      "é«ĺæĺİ": 6333,
      "åĪ«äººçļĦ": 6334,
      "è½»è½»ä¸Ģ": 6335,
      "åĩŃåĢŁ": 6336,
      "çļĦæľĢ": 6337,
      "åīĳéĺµ": 6338,
      "éŁµ": 6339,
      "å¸Īä¼¯": 6340,
      "è°ģçŁ¥": 6341,
      "æĿ¡ä»¶": 6342,
      "æķ´åº§": 6343,
      "äºĨå¾Ĺ": 6344,
      "èĦĬ": 6345,
      "å»ĸ": 6346,
      "ç§°åĳ¼": 6347,
      "åĽ°éļ¾": 6348,
      "è¥¿åŁŁ": 6349,
      "éľĩèį¡": 6350,
      "æ¸©åĴĮ": 6351,
      "é«ĺäºº": 6352,
      "æĥ³äºĨæĥ³": 6353,
      "éĤ£å°ĳå¥³": 6354,
      "ç¦Ħ": 6355,
      "ä¸įéĢļ": 6356,
      "éĤ£æĿ¡": 6357,
      "è§ģéĿ¢": 6358,
      "æĢ§åŃĲ": 6359,
      "åľ¨åľ°ä¸ĭ": 6360,
      "çļĦä¸ī": 6361,
      "ä½łæĿ¥": 6362,
      "çļĦèĦ¸ä¸Ĭ": 6363,
      "çļĦæ¶Īæģ¯": 6364,
      "çļĦä¸Ģå¹ķ": 6365,
      "éĺ´æ£®": 6366,
      "ä¼łéĢģéĺµ": 6367,
      "éĹ¨æ´¾": 6368,
      "äºĨä¸Ģéĺµ": 6369,
      "çĽ¸è§ģ": 6370,
      "å¼łå¼Ģ": 6371,
      "çĴĥ": 6372,
      "åŃĶéĽĢ": 6373,
      "ä¸Ńæľī": 6374,
      "ä¹Łåı¯ä»¥": 6375,
      "åĳ½è¿Ĳ": 6376,
      "çĹĴ": 6377,
      "æīĢæľīäººéĥ½": 6378,
      "äº¤æĺĵ": 6379,
      "ç¯Ĩ": 6380,
      "ä¸ŃåľŁ": 6381,
      "çłĶç©¶": 6382,
      "çİ²": 6383,
      "çĪĨè£Ĥ": 6384,
      "æĺ¯åķĬ": 6385,
      "åĮķ": 6386,
      "æĽ´ä½ķåĨµ": 6387,
      "è¯¢éĹ®": 6388,
      "æīĵäºĨä¸ª": 6389,
      "ãĢĭï¼Į": 6390,
      "ä¸Ģæĸ¹": 6391,
      "ä¸įåģĩ": 6392,
      "äºĨä¸ĢèĤ¡": 6393,
      "å¤ªä¸Ĭ": 6394,
      "ç»°": 6395,
      "æīįçŁ¥éģĵ": 6396,
      "æ¨±": 6397,
      "æĢİä¹Īåı¯èĥ½": 6398,
      "èĬ±æĹłç¼º": 6399,
      "å¤§æµ·": 6400,
      "éĥ½æĺ¯ä¸Ģ": 6401,
      "å¦ĤæĿ¥": 6402,
      "ç»Ļå¥¹": 6403,
      "å¿½è§ģ": 6404,
      "éĺ¿é£ŀ": 6405,
      "éĽªå±±": 6406,
      "åļ·": 6407,
      "ä¸įè¯¥": 6408,
      "çĴĩ": 6409,
      "æ¸º": 6410,
      "æ±Łæ¹ĸä¸Ĭ": 6411,
      "åºŀå¤§": 6412,
      "èĦ±èº«": 6413,
      "è¿ĻèĤ¡": 6414,
      "äºĭçļĦ": 6415,
      "è¿Ľéĺ¶": 6416,
      "ä¾¿èĥ½": 6417,
      "çĭ¡": 6418,
      "å®ļè¦ģ": 6419,
      "åĩĿç»ĵ": 6420,
      "ä¼Ĭ": 6421,
      "éĻ¶": 6422,
      "åĸĢ": 6423,
      "æĥħæĻ¯": 6424,
      "èĩ³æŃ¤": 6425,
      "ç¨įå¾®": 6426,
      "æ²īé»ĺäºĨ": 6427,
      "åĲĳå¤ĸ": 6428,
      "éķ¿åħ¬ä¸»": 6429,
      "å¼łåı£": 6430,
      "è¿Ļä¹Īè¯´": 6431,
      "æ¸ħæĻ°çļĦ": 6432,
      "åıªä¼ļ": 6433,
      "æ¶¯": 6434,
      "ä¸įåıĳ": 6435,
      "ä»ĸçİ°åľ¨": 6436,
      "å¦Īå¦Ī": 6437,
      "åĪ°åĵªéĩĮ": 6438,
      "åĢ¦": 6439,
      "å®ļæĺ¯": 6440,
      "æĭ¿èµ·": 6441,
      "éŁ¦æĺİ": 6442,
      "ä»ĸä¸Ģçľ¼": 6443,
      "æŃī": 6444,
      "éĽ³": 6445,
      "çİĭæĢľèĬ±": 6446,
      "çļ±äºĨ": 6447,
      "æķĸ": 6448,
      "æĥĬåĸľ": 6449,
      "åį´æĺ¯ä¸Ģ": 6450,
      "å¤ľåıī": 6451,
      "æ´¾äºº": 6452,
      "çļĦéĿ¢": 6453,
      "ä¸Ģä¸ªå°ı": 6454,
      "æ¯Ķä¹ĭ": 6455,
      "éĺ´ç¥ŀ": 6456,
      "è¿Ľåħ¥äºĨ": 6457,
      "å®¢æłĪ": 6458,
      "çªĹå¤ĸ": 6459,
      "å©łå©ł": 6460,
      "åĲİæĤĶ": 6461,
      "åĮĹæĸ¹": 6462,
      "éľ¹éĽ³": 6463,
      "å¤§å¤«": 6464,
      "èĻļå¼±": 6465,
      "åĩºèº«": 6466,
      "ç¬Ľ": 6467,
      "åīįåĲİ": 6468,
      "ä½Ĩçİ°åľ¨": 6469,
      "æĭĻ": 6470,
      "çķĮçļĦ": 6471,
      "æ»Ķå¤©": 6472,
      "è¡Ļ": 6473,
      "å³¨": 6474,
      "è¿ĩæĿ¥çļĦ": 6475,
      "åįĹæĸ¹": 6476,
      "æĪĳæľī": 6477,
      "åįĬæĪª": 6478,
      "åĹĸ": 6479,
      "åĤ¬åĬ¨": 6480,
      "ä¸İä¹ĭ": 6481,
      "å¾ĲåŃĲéĻµéģĵ": 6482,
      "å¤§æĦŁ": 6483,
      "éĨĴæĿ¥": 6484,
      "çļĦæµ·": 6485,
      "æ³¡": 6486,
      "ä½ľåĵį": 6487,
      "æĪĳä¹Łä¸į": 6488,
      "ä½łäºĨ": 6489,
      "åı¯è°ĵ": 6490,
      "ç¾¤è±ª": 6491,
      "æĹłéĻĲ": 6492,
      "ä½Ĩä½ł": 6493,
      "åĽŀå¤į": 6494,
      "åı¤éŁ³": 6495,
      "ä½¿èĢħ": 6496,
      "èµ¶æĿ¥": 6497,
      "æ¤į": 6498,
      "å¸¦çĿĢä¸Ģ": 6499,
      "å¤ľèī²": 6500,
      "èĩ³ä»Ĭ": 6501,
      "åħ«ä¹Ŀ": 6502,
      "åĩºä¸ĢèĤ¡": 6503,
      "è¤ļ": 6504,
      "åĪ®": 6505,
      "åıĪè¦ģ": 6506,
      "é£İå£°": 6507,
      "çĻ¾ä¸ĩ": 6508,
      "èĦĸåŃĲ": 6509,
      "çļĦåĲİ": 6510,
      "å¯¹å¥¹": 6511,
      "å¯ĴæĦı": 6512,
      "ä»·åĢ¼": 6513,
      "çĴ§åĲĽ": 6514,
      "åĲĬ": 6515,
      "åĲ¬åĪ°äºĨ": 6516,
      "çļĦçĻ½": 6517,
      "è¿Ļä¸ĢæĭĽ": 6518,
      "æ²ĪçĴ§åĲĽ": 6519,
      "ä¸įæĦ§": 6520,
      "çľ¼è§Ĵ": 6521,
      "å±±å±±": 6522,
      "å½ĵçĦ¶æĺ¯": 6523,
      "åĽºçĦ¶": 6524,
      "çºłç¼ł": 6525,
      "æĥ³è¿ĩ": 6526,
      "å¯Ĵæ°Ķ": 6527,
      "çľīå¤´ä¸Ģçļ±": 6528,
      "ä½łä¸įæĺ¯": 6529,
      "å¤±è´¥": 6530,
      "è¯ģæĺİ": 6531,
      "èŃ¦æĥķ": 6532,
      "å¹¶èĤ©": 6533,
      "éĢįéģ¥": 6534,
      "ä¸Ģä¼ļ": 6535,
      "ä½łæľī": 6536,
      "æĻ¯è±¡": 6537,
      "ç»Łé¢Ĩ": 6538,
      "èĶĵ": 6539,
      "å¤§åĬĽ": 6540,
      "å½ĵä»ĸ": 6541,
      "æīĢèĥ½": 6542,
      "çº¢äºĨ": 6543,
      "åī§çĥĪçļĦ": 6544,
      "å®ł": 6545,
      "å¸Īå¦ĥæļĦ": 6546,
      "åĿĲçĿĢ": 6547,
      "æ¼Ĥäº®": 6548,
      "éĤ£çīĩ": 6549,
      "çŁ³äºº": 6550,
      "è®©éŁ©ç«ĭ": 6551,
      "äºĶåħŃ": 6552,
      "çĭĦäºĳ": 6553,
      "äºĨä¸Ĭåİ»": 6554,
      "åıĪåľ¨": 6555,
      "å¯¹è¿Ļ": 6556,
      "åĩ¶éĻ©": 6557,
      "åħįå¾Ĺ": 6558,
      "åħĶ": 6559,
      "ä½ĽéĹ¨": 6560,
      "ä¸įæ¸ħæ¥ļ": 6561,
      "æ¡ĮåŃĲ": 6562,
      "ä¸įåıĺ": 6563,
      "æĳĩæĻĥ": 6564,
      "æĬ¼": 6565,
      "åı¯æĢķçļĦ": 6566,
      "å·į": 6567,
      "ä¾¿å·²": 6568,
      "ä¸īå¹´": 6569,
      "çĶ«": 6570,
      "ä½łä¸ºä»Ģä¹Ī": 6571,
      "éĥ½æĹłæ³ķ": 6572,
      "æ´ŀå¤©": 6573,
      "ä½ķçŃī": 6574,
      "åıĮèĩĤ": 6575,
      "æī¾ä¸įåĪ°": 6576,
      "åĪºå®¢": 6577,
      "å°±å·²ç»ı": 6578,
      "çľ¼çļĦ": 6579,
      "å¾ĹçŁ¥": 6580,
      "ä¹ı": 6581,
      "çĤ¹åĦ¿": 6582,
      "å¥ĩéģĵ": 6583,
      "åģ·è¢Ń": 6584,
      "åĴ¬çĿĢ": 6585,
      "æŃ£æĥ³": 6586,
      "çļĦåĨ²": 6587,
      "åİ¥": 6588,
      "èº«åĲİçļĦ": 6589,
      "èİºèİº": 6590,
      "è¿Ļä¸įæĺ¯": 6591,
      "åıĪæĥĬ": 6592,
      "é£İä¸Ń": 6593,
      "å®ĮäºĨ": 6594,
      "æĻĥåĬ¨": 6595,
      "å¤©ç©ºä¸Ń": 6596,
      "éĹ®ä½ł": 6597,
      "æ¶Īå¤±ä¸įè§ģ": 6598,
      "åĴ½åĸī": 6599,
      "å¦Ĥçİī": 6600,
      "è½¿": 6601,
      "éĥ½ä¸įä¼ļ": 6602,
      "çģ¼": 6603,
      "éŃħ": 6604,
      "éħĴæ¥¼": 6605,
      "ä¹ĭæĦŁ": 6606,
      "æĹłæŀģ": 6607,
      "éĺ²å¾¡": 6608,
      "æĺ¾çĦ¶æĺ¯": 6609,
      "éĢĲæ¸Ĳ": 6610,
      "è¾½": 6611,
      "æĿĢçļĦ": 6612,
      "åŁİå¤ĸ": 6613,
      "çªģçĦ¶ä¹ĭéĹ´": 6614,
      "æľīä¸¤": 6615,
      "èĢģå¦ª": 6616,
      "å½ĵä¸Ń": 6617,
      "æķ°åįĥ": 6618,
      "å»Ĭ": 6619,
      "åħ·ä½ĵ": 6620,
      "åľ¨ä»ĸä»¬": 6621,
      "å°ıçĻ½": 6622,
      "åĨĴéĻ©": 6623,
      "æ¬§éĺ³éĶĭ": 6624,
      "æķ°éĩı": 6625,
      "æľĽäºĨä¸Ģçľ¼": 6626,
      "å¤§ä¹ĺ": 6627,
      "ä¿®çľŁæĺŁ": 6628,
      "éŁ¦æĺİè¿ľ": 6629,
      "æľīè¶£": 6630,
      "åŁ¹": 6631,
      "ä¼¤å¿ĥ": 6632,
      "åĸľéģĵ": 6633,
      "å®ĪæĬ¤": 6634,
      "èļĬåħ½": 6635,
      "æĿ¥æī¾": 6636,
      "åĮºåĮº": 6637,
      "çļĦå¤©åľ°": 6638,
      "å¤§çİĭ": 6639,
      "å¿ĥçŁ¥": 6640,
      "åŁİå¢Ļ": 6641,
      "å¼łä¸ī": 6642,
      "å¹³å¸¸": 6643,
      "æĦī": 6644,
      "é¡½": 6645,
      "æĬĬä½ł": 6646,
      "é£ŀæĿ¥": 6647,
      "åĽłä¸ºæĪĳ": 6648,
      "ä¸Ģå¤§": 6649,
      "åľ¨åħ¶ä¸Ń": 6650,
      "æĢİä¹ĪåĽŀäºĭ": 6651,
      "è¯¸èĳĽ": 6652,
      "èµ¶åĪ°": 6653,
      "åĵĪåĵĪä¸Ģç¬ĳ": 6654,
      "æªĢ": 6655,
      "èĢģå¼Ł": 6656,
      "äººäºĨ": 6657,
      "æ·Į": 6658,
      "åº·çĨĻ": 6659,
      "åŃĿ": 6660,
      "æ½ĩ": 6661,
      "åĪĨæ¯«": 6662,
      "èĿī": 6663,
      "è¿Ļä¸¤äºº": 6664,
      "èµ·ä¼ı": 6665,
      "å¤§çº¢": 6666,
      "æŃ¤æ¬¡": 6667,
      "æī¾åĪ°äºĨ": 6668,
      "åĪ°äºĨä¸Ģ": 6669,
      "æľ¦èĥ§": 6670,
      "ä¸ģçģµ": 6671,
      "æĵįæİ§": 6672,
      "çİĳ": 6673,
      "æĢ§æĥħ": 6674,
      "å²Ĥä¸įæĺ¯": 6675,
      "è¿Ļäºĭ": 6676,
      "èĢį": 6677,
      "çľŁèº«": 6678,
      "æĢ§çļĦ": 6679,
      "æ²¡æľīåįĬçĤ¹": 6680,
      "åħ³å¿ĥ": 6681,
      "éªĦåĤ²": 6682,
      "æĬĦ": 6683,
      "éĢłæĪĲ": 6684,
      "éĻ¨èĲ½": 6685,
      "çļĦéĹ®éģĵ": 6686,
      "éģĵè¡Į": 6687,
      "æĥ³åĪ°äºĨ": 6688,
      "åį´è¿ĺæĺ¯": 6689,
      "æ»¡éĿ¢": 6690,
      "æĥħåĨµä¸ĭ": 6691,
      "æ°¸æģĴ": 6692,
      "åĲ¬è¯´è¿ĩ": 6693,
      "æ³Ľèµ·": 6694,
      "çļĦæľĽçĿĢ": 6695,
      "çļĦå¼ŁåŃĲ": 6696,
      "ä¸ĢèĦļ": 6697,
      "éļıæīĭ": 6698,
      "èĿİ": 6699,
      "ä¸īåįģåħŃ": 6700,
      "å¥³åŃ©": 6701,
      "è¾¾åĪ°äºĨ": 6702,
      "âĢĿãĢģ": 6703,
      "ç¬¬ä¹Ŀ": 6704,
      "å®ĩå®Ļ": 6705,
      "æºľæºľ": 6706,
      "å§¿æĢģ": 6707,
      "çł´åĿı": 6708,
      "éĶĭåĪ©": 6709,
      "ä¹į": 6710,
      "æĬĬéĤ£": 6711,
      "åıĺèī²": 6712,
      "ä¸įå¦Ļ": 6713,
      "ä¸īåįĥ": 6714,
      "æł¹åŁº": 6715,
      "çħŀæ°Ķ": 6716,
      "æľīè¿ĩ": 6717,
      "æĥ«": 6718,
      "çļĦçľĭçĿĢ": 6719,
      "ä¹³": 6720,
      "å¤©é¾Ļ": 6721,
      "ä¸ºä¸Ģ": 6722,
      "æīĢè¨Ģ": 6723,
      "å¤§å¤ļæķ°": 6724,
      "èµĭ": 6725,
      "ä½łçİ°åľ¨": 6726,
      "å¥½ç¬ĳ": 6727,
      "æģĭ": 6728,
      "æīįå¥½": 6729,
      "è¯´ä¸įåĩºçļĦ": 6730,
      "çļĦä»ĸ": 6731,
      "çĿĢæĢ¥": 6732,
      "åĽŀæĿ¥äºĨ": 6733,
      "çĤ®": 6734,
      "ä¸ĸå®¶": 6735,
      "å¥½åľ¨": 6736,
      "ä¸¾èµ·": 6737,
      "åĽĽéĿ¢åħ«æĸ¹": 6738,
      "ä¹ŁæľīäºĽ": 6739,
      "éľĵ": 6740,
      "äººåľ¨": 6741,
      "æĪĳåıĪ": 6742,
      "ä¸ĭé©¬": 6743,
      "åĴĶ": 6744,
      "äº¤æīĭ": 6745,
      "æ¼Ĥæµ®": 6746,
      "çļĦåĬŁå¤«": 6747,
      "åĪ°çİ°åľ¨": 6748,
      "æł¡": 6749,
      "å°Ĩèĩªå·±": 6750,
      "èĪµ": 6751,
      "åŁİåĨħ": 6752,
      "æ³¢çº¹": 6753,
      "åĪ°è¾¾": 6754,
      "èĢĮå¼Ģ": 6755,
      "çĨĦ": 6756,
      "æİ¨å¼Ģ": 6757,
      "åĨ°äºĳ": 6758,
      "çĮĽçļĦ": 6759,
      "éĻĭ": 6760,
      "ç¿Ł": 6761,
      "è¹Ļ": 6762,
      "åĲĮæł·çļĦ": 6763,
      "çİĦé»Ħ": 6764,
      "çĬ¬": 6765,
      "åĬ¨å®¹": 6766,
      "è°İ": 6767,
      "è¡ĢèĦī": 6768,
      "æĶ¶ç¼©": 6769,
      "èĥĢ": 6770,
      "äºĳéĽ¾": 6771,
      "ç¿»èº«": 6772,
      "æħ¢æħ¢åľ°": 6773,
      "ä¸įè¿ľ": 6774,
      "èĢĮæĪĲ": 6775,
      "éĿ¢çĽ¸": 6776,
      "å®īæħ°": 6777,
      "ãĢĤâĢľ": 6778,
      "åİŁåħĪ": 6779,
      "ç¯ĩ": 6780,
      "èº«å¤Ħ": 6781,
      "è´ŀ": 6782,
      "çĽ¸ä¼¼": 6783,
      "çıĳ": 6784,
      "åĿļå®ļ": 6785,
      "æ¾¹": 6786,
      "äºĨä¹Ī": 6787,
      "å§¨": 6788,
      "æĺ¯å¤§": 6789,
      "åĨĮ": 6790,
      "æĪĺäºī": 6791,
      "ç»ĵæŀĦ": 6792,
      "ç½Ĺå¤©": 6793,
      "åºĶéģĵ": 6794,
      "åĪļä¸Ģ": 6795,
      "æµģåĬ¨": 6796,
      "éļĲç§ĺ": 6797,
      "ä¼ª": 6798,
      "éĤ£å°ĳå¹´": 6799,
      "ä¹Łåıªæĺ¯": 6800,
      "æ²Ł": 6801,
      "å¬": 6802,
      "åĩºç¥ŀ": 6803,
      "æĶ¶äºĨ": 6804,
      "çļĦæŃ¦åĬŁ": 6805,
      "å¦®": 6806,
      "å¾ĹåĪ°äºĨ": 6807,
      "äºĶç«¹": 6808,
      "å²Ĥèĥ½": 6809,
      "æł¸å¿ĥ": 6810,
      "éĤ£ä¸¤ä¸ª": 6811,
      "æľ¬å°±æĺ¯": 6812,
      "ç¡¬çĶŁçĶŁ": 6813,
      "å¾Īå¿«å°±": 6814,
      "éªļ": 6815,
      "åı«ä»ĸ": 6816,
      "å¸®å¿Ļ": 6817,
      "åı¯çĪ±": 6818,
      "äº²çİĭ": 6819,
      "æĥ³çļĦ": 6820,
      "é«ĺé«ĺ": 6821,
      "è¿Ļä¹Īæł·": 6822,
      "äºĨæķ°": 6823,
      "ä¹ĭå¤§": 6824,
      "æľ¬èĥ½": 6825,
      "å¹½çģµ": 6826,
      "éĹŃçĽ®": 6827,
      "ç¥ŀå®ĺ": 6828,
      "çŁ¥éģĵèĩªå·±": 6829,
      "ä¿¡ä»»": 6830,
      "æ¹ĺ": 6831,
      "ä»ĸè¿ĺ": 6832,
      "çĶ±æŃ¤": 6833,
      "å®Įæķ´": 6834,
      "æ´ªèįĴ": 6835,
      "ç»¿èī²": 6836,
      "æŃ¦å£«": 6837,
      "ç¢°æĴŀ": 6838,
      "ä¸ĩçī©": 6839,
      "å®¹é¢ľ": 6840,
      "ä¸įæĽ¾": 6841,
      "ä¸įä»ħ": 6842,
      "ä¸īåĲį": 6843,
      "èĮĤ": 6844,
      "åĬŁå¾·": 6845,
      "ç¯·": 6846,
      "è¦ģæĪĳ": 6847,
      "ä¸ºé¦ĸ": 6848,
      "ä½łä»¬çļĦ": 6849,
      "ç¾İçļĦ": 6850,
      "ä¸ģçģµçĲ³": 6851,
      "å±±åºĦ": 6852,
      "æľĽäºĨ": 6853,
      "çķĻä¸ĭçļĦ": 6854,
      "éĤ£èĢģèĢħ": 6855,
      "èĢģåīįè¾Ī": 6856,
      "åĽŀäºĨ": 6857,
      "èĮ«çĦ¶": 6858,
      "åľ¨ä½ł": 6859,
      "çľĭæ¸ħ": 6860,
      "åĵŁ": 6861,
      "åĿļæĮģ": 6862,
      "..": 6863,
      "æĸĩåŃĹ": 6864,
      "å§Ķå®ŀ": 6865,
      "äººç¾¤": 6866,
      "ä¸ĩåĪĨ": 6867,
      "èħĶ": 6868,
      "æĹłå°½çļĦ": 6869,
      "ä¸ĢèĦī": 6870,
      "è¢«è¿Ļ": 6871,
      "æĿĢä»ĸ": 6872,
      "åĮķé¦ĸ": 6873,
      "åĵ¼äºĨä¸Ģå£°": 6874,
      "é¡¾å¿Į": 6875,
      "çĳŁ": 6876,
      "èĬĻ": 6877,
      "æ±Łæ¹ĸä¸Ń": 6878,
      "æĴĩ": 6879,
      "åĲĦäºº": 6880,
      "å¤ıä¾¯": 6881,
      "åĢĶ": 6882,
      "é¢ī": 6883,
      "éĿĴè¡«": 6884,
      "æİ©é¥°": 6885,
      "ä¸įæĺİ": 6886,
      "æ¬¡éĽ·åĬ«": 6887,
      "äºĳä¸Ń": 6888,
      "å½ĵå¹´çļĦ": 6889,
      "ç¿¼ç¿¼": 6890,
      "ä¸Ģè¿ŀ": 6891,
      "æ²Ľ": 6892,
      "æĹłåĲį": 6893,
      "ä¸īåĪĨ": 6894,
      "åĩĨç¡®": 6895,
      "ä»¥å¾Ģ": 6896,
      "åħĥåĬĽ": 6897,
      "æĢĶæĢĶ": 6898,
      "åı£åĳĨ": 6899,
      "åĲĮæĦı": 6900,
      "çŀ§å¾Ĺ": 6901,
      "åıªè§ģä»ĸ": 6902,
      "æĹłæ¯ĶçļĦ": 6903,
      "æĪĲäºĨä¸Ģ": 6904,
      "è£ģ": 6905,
      "éħĴæĿ¯": 6906,
      "é©¬è¹Ħ": 6907,
      "å±ŀä¸ĭ": 6908,
      "èĤļåŃĲ": 6909,
      "éĹªéģ¿": 6910,
      "æ¯ıä¸Ģ": 6911,
      "æģįçĦ¶": 6912,
      "å¤©è¿ĲåŃĲ": 6913,
      "è¦ģä¹Ī": 6914,
      "å¥³çļĦ": 6915,
      "ç¾İå¦ĩ": 6916,
      "ä¸įçĶ±èĩª": 6917,
      "åħ®": 6918,
      "åĬ£": 6919,
      "ä»¥ä¸Ĭ": 6920,
      "æ´ŀç©¿": 6921,
      "ä¸Īè®¸": 6922,
      "åŃ¦å£«": 6923,
      "è¢«éĤ£": 6924,
      "æĦŁæĥħ": 6925,
      "æĿİæħķ": 6926,
      "æİĮå¿ĥ": 6927,
      "åī¥": 6928,
      "å¾Īå¤§": 6929,
      "çľ¼çľ¸": 6930,
      "å°ıå¿ĥç¿¼ç¿¼": 6931,
      "çļĦå¯¹": 6932,
      "éª¨å¤´": 6933,
      "äººéģĵ": 6934,
      "éĽ¨æ°´": 6935,
      "çļĦç©ºéĹ´": 6936,
      "å¸Ĩ": 6937,
      "å¸Īå¤ª": 6938,
      "ç»Ŀä¸įæĺ¯": 6939,
      "è¥¿åĮĹ": 6940,
      "ä¹ĭä½Ļ": 6941,
      "çĶŁçĶŁçļĦ": 6942,
      "ç»Ŀé¡¶": 6943,
      "ä¾¥": 6944,
      "å¤Ħå¤Ħ": 6945,
      "é©´": 6946,
      "ä¼¤äºĨ": 6947,
      "åįķæīĭ": 6948,
      "ä¿®è¡ĮèĢħ": 6949,
      "åĿª": 6950,
      "åłķ": 6951,
      "äºĳéľŀ": 6952,
      "ä¸Ŀä¸Ŀ": 6953,
      "æĹłå¿Įéģĵ": 6954,
      "çİĦå¤©": 6955,
      "è¯¸å¤©": 6956,
      "çŀªçĿĢ": 6957,
      "çķľ": 6958,
      "å¼Ĥæł·": 6959,
      "æ£µ": 6960,
      "èį¯å¸Ī": 6961,
      "å¤©çĶŁ": 6962,
      "ç«ĭåľ¨": 6963,
      "çģµèį¯": 6964,
      "æĥŃ": 6965,
      "æĿĢæīĭ": 6966,
      "å§ĵèĢģèĢħ": 6967,
      "å°ĳæŀĹå¯º": 6968,
      "å¤©èī²": 6969,
      "ç¥ŀæĢģ": 6970,
      "ä¾¿å°Ĩ": 6971,
      "å¤ªéĺ¿": 6972,
      "çļĦå·¨å¤§": 6973,
      "ä¸įæĥľ": 6974,
      "æ¸©é»Ľ": 6975,
      "é¡·åĪ»": 6976,
      "éģĵç¥ĸ": 6977,
      "éĥ½å·²ç»ı": 6978,
      "æ²¡æľīæĥ³åĪ°": 6979,
      "åĨįä¸į": 6980,
      "äºĨä¸Ģéģį": 6981,
      "ä¸įçŁ¥ä½ķæĹ¶": 6982,
      "ä¸»æĮģ": 6983,
      "éķĸå±Ģ": 6984,
      "å±ģèĤ¡": 6985,
      "çģµæ¼ª": 6986,
      "å®ŀçļĦ": 6987,
      "æ¹Ľ": 6988,
      "åıĤåĬł": 6989,
      "ä¸ºä½ł": 6990,
      "ç«Łä¼¼": 6991,
      "ç¾¡": 6992,
      "ç¬¬åħ«": 6993,
      "äº¤éĶĻ": 6994,
      "æĭīçĿĢ": 6995,
      "æĸ©æĿĢ": 6996,
      "ä¸įåĩ¡": 6997,
      "ä¸ĥåħ¬": 6998,
      "è¡£è¢ĸ": 6999,
      "å¿Ļéģĵ": 7000,
      "èĭįèĢģ": 7001,
      "ä¸ĢåĬ¨ä¸įåĬ¨": 7002,
      "èĢģå©Ĩ": 7003,
      "èĥľè´Ł": 7004,
      "æı¡çĿĢ": 7005,
      "èĩªå·²": 7006,
      "ä¿®å£«çļĦ": 7007,
      "æ¯ıå¤©": 7008,
      "é»¯çĦ¶": 7009,
      "äººä»Ļ": 7010,
      "çģ¯çģ«": 7011,
      "åĹ¡åĹ¡": 7012,
      "å¾ĹæĽ´": 7013,
      "ä»¥æŃ¤": 7014,
      "åĵĦ": 7015,
      "ä¸¤è¾¹": 7016,
      "è£´": 7017,
      "å¤©ä¸ĭçļĦ": 7018,
      "å»ºçŃĳ": 7019,
      "éľ¸éģĵ": 7020,
      "ç¬ĳè¯Ŀ": 7021,
      "ç«Ļåľ¨éĤ£éĩĮ": 7022,
      "èĹıåľ¨": 7023,
      "äºĨåĩłåı¥": 7024,
      "æİĢèµ·": 7025,
      "æĬĬæĪĳ": 7026,
      "åį±æľº": 7027,
      "è§ħ": 7028,
      "ä¸īå¨ĺ": 7029,
      "èµ°åĲĳ": 7030,
      "æĿİå¯Ĩ": 7031,
      "èĩªçĦ¶ä¸įä¼ļ": 7032,
      "çĭ¬èĩª": 7033,
      "åµ©": 7034,
      "èĢģéŃĶ": 7035,
      "åľ£äºº": 7036,
      "çŁŃçŁŃ": 7037,
      "å´ĩæĸĩ": 7038,
      "åĩłä¸ĭ": 7039,
      "æ¢¯": 7040,
      "å¤±äºĨ": 7041,
      "ä»¤ä»ĸ": 7042,
      "æĮģç»Ń": 7043,
      "å°ıé©¬": 7044,
      "è´¾": 7045,
      "çļĦä½įç½®": 7046,
      "çĽ®çŀª": 7047,
      "å½±é¬¼": 7048,
      "æ¯Ĵæīĭ": 7049,
      "æĸĻåĪ°": 7050,
      "æ¯ķç«Łæĺ¯": 7051,
      "çĴ¨": 7052,
      "çļĦæĸ¹åĲĳ": 7053,
      "ä¸ľå¤·": 7054,
      "ç«Ļèµ·æĿ¥": 7055,
      "çĢĳ": 7056,
      "ä¸Ģè·ĥ": 7057,
      "ç»ıèĦī": 7058,
      "çŁ³åĥı": 7059,
      "äºĶäºº": 7060,
      "æľīåĩłåĪĨ": 7061,
      "è¡Ĺä¸Ĭ": 7062,
      "äººçĶŁ": 7063,
      "è¿Ļä¹Łæĺ¯": 7064,
      "æĪĳä¸Ģ": 7065,
      "ä¸ĬéĹ¨": 7066,
      "ä½łä¸Ģ": 7067,
      "æĢİçļĦ": 7068,
      "åį«å£«": 7069,
      "å¤§ä¼Ļ": 7070,
      "æĢ¯": 7071,
      "æŀģå¤§çļĦ": 7072,
      "åĹ½": 7073,
      "æ´ªæĺĵçļĦ": 7074,
      "å°ĸéĶĲ": 7075,
      "å¤§ä¼ļ": 7076,
      "ä¼łæİĪ": 7077,
      "æ²īæ²ī": 7078,
      "æı¡ä½ı": 7079,
      "åĸĺæģ¯": 7080,
      "åıĪæĥĬåıĪ": 7081,
      "ç¼ĵç¼ĵè¯´éģĵ": 7082,
      "éĺ»æĭ¦": 7083,
      "è¿ĺä¸įæĺ¯": 7084,
      "åīĳå°ĸ": 7085,
      "æľ¬éĹ¨": 7086,
      "æĿ¯éħĴ": 7087,
      "åĲĵäºĨä¸Ģ": 7088,
      "ä¸ºä¹ĭä¸Ģ": 7089,
      "çº¢è¡£": 7090,
      "çģ¯åħī": 7091,
      "å¯Ĥå¯ŀ": 7092,
      "æĺĮ": 7093,
      "å¦Ĥé¾Ļ": 7094,
      "å®Ŀè´Ŀ": 7095,
      "åľ¨å¤ĸ": 7096,
      "ä¸¤æŃ¥": 7097,
      "åı°éĺ¶": 7098,
      "åĨ²å¤©èĢĮèµ·": 7099,
      "æľīå¿ĥ": 7100,
      "æĥļ": 7101,
      "ç¥ŀçİĭ": 7102,
      "ä½ĨæŃ¤åĪ»": 7103,
      "éŁ©ç«ĭçļĦ": 7104,
      "ä½İåĲ¼": 7105,
      "åĢŁåĬ©": 7106,
      "å°±è¿Ļä¹Ī": 7107,
      "æľĢé«ĺ": 7108,
      "åĩºä¹İ": 7109,
      "åı¯ä¸į": 7110,
      "ä¸¤æ¬¡": 7111,
      "å°Ĩè¦ģ": 7112,
      "é£ŀå°Ħ": 7113,
      "åĩºéĹ¨": 7114,
      "å¼ºçĥĪ": 7115,
      "æŁ³èİºèİº": 7116,
      "è¦ģä¸įæĺ¯": 7117,
      "æ²¡æľīè¯´è¯Ŀ": 7118,
      "çľŁç©º": 7119,
      "æŃ»åİ»": 7120,
      "é»ĳéĽ¾": 7121,
      "å½¢æĪĲäºĨ": 7122,
      "åľ¨åľº": 7123,
      "åĩłå£°": 7124,
      "çģµåĦ¿": 7125,
      "æ£ī": 7126,
      "åĹĶ": 7127,
      "è¯ķæİ¢": 7128,
      "èĥ½ä¸įèĥ½": 7129,
      "é¢¤å£°éģĵ": 7130,
      "åĴ³åĹ½": 7131,
      "ä¹ĭæĥħ": 7132,
      "æĲŀ": 7133,
      "å¯ĤéĿĻ": 7134,
      "èĤĮèĤ¤": 7135,
      "åĽļ": 7136,
      "æ²¡äºº": 7137,
      "çĩķåįĹ": 7138,
      "ç¦ħå¸Ī": 7139,
      "æĪĳèĭ¥": 7140,
      "æĹ¥æľĪ": 7141,
      "æ¯Ķä»ĸ": 7142,
      "åĨ·ç¬ĳä¸Ģå£°": 7143,
      "æĺ§": 7144,
      "ä¸įçĲĨ": 7145,
      "æģ¨ä¸įå¾Ĺ": 7146,
      "çŁ¢": 7147,
      "å¿ĥä¸Ĭ": 7148,
      "ä¿®ä»Ļ": 7149,
      "ç¬ĶçĽ´": 7150,
      "åħ¶ä»ĸçļĦ": 7151,
      "ä¼łéŁ³": 7152,
      "é²²": 7153,
      "æĥ³æĥ³": 7154,
      "ä½İæ²ī": 7155,
      "ä¹Įé»ĳ": 7156,
      "éģµ": 7157,
      "âĢĿâĢľ": 7158,
      "åĵİ": 7159,
      "ä½Ľç¥ĸ": 7160,
      "åĨµä¸Ķ": 7161,
      "è¯ķè¯ķ": 7162,
      "æĩĤå¾Ĺ": 7163,
      "è§ĦåĪĻ": 7164,
      "æķ°ä¸ĩ": 7165,
      "é¢¤åĬ¨": 7166,
      "çĶ°ä¸įæĺĵ": 7167,
      "åĲķå´ĩæĸĩ": 7168,
      "å¿ħé¡»è¦ģ": 7169,
      "è¿Ļå¥³åŃĲ": 7170,
      "å¿ĥåĨħ": 7171,
      "å¥½æ±ī": 7172,
      "æĥ³åĥı": 7173,
      "çİĭå¦ĥ": 7174,
      "åĴĮéĤ£": 7175,
      "æ¢¢": 7176,
      "åįĬä¸ªæĹ¶è¾°": 7177,
      "çļĦå®ŀåĬĽ": 7178,
      "ä¸ŃæľŁ": 7179,
      "æĹ¶åĪĨ": 7180,
      "åı¯åĲ¦": 7181,
      "åģľçķĻ": 7182,
      "ç¤ºæĦı": 7183,
      "ä¾¥å¹¸": 7184,
      "å¤§çº¦": 7185,
      "æĸ¹ä¾¿": 7186,
      "èµµæķı": 7187,
      "ç¾¤éĽĦ": 7188,
      "è¯Ŀè¯´": 7189,
      "è®©èĩªå·±": 7190,
      "ç£ħ": 7191,
      "æŁĶåĴĮ": 7192,
      "äº¦æĺ¯": 7193,
      "æĥĬäººçļĦ": 7194,
      "è§£å¼Ģ": 7195,
      "éºĴ": 7196,
      "è¾ĵäºĨ": 7197,
      "éĿŀåĲĮå°ıåı¯": 7198,
      "éģ£": 7199,
      "å¤©çİĭ": 7200,
      "æģ³": 7201,
      "ä¹Łä¸įç¦ģ": 7202,
      "åŁİæ±ł": 7203,
      "èķĬ": 7204,
      "è¿Ļéģĵ": 7205,
      "èĻŀ": 7206,
      "è¡Ģèħ¥": 7207,
      "éĻ¢åŃĲ": 7208,
      "åĳĬè¾ŀ": 7209,
      "æŃ¦æŀĹä¸Ń": 7210,
      "åįģä¸Ī": 7211,
      "ç¿©": 7212,
      "éĵģå¿ĥ": 7213,
      "æªĲ": 7214,
      "éľĵè£³": 7215,
      "å±±éģĵ": 7216,
      "çĲ¢": 7217,
      "çŃĶæ¡Ī": 7218,
      "æĳ¸äºĨ": 7219,
      "ä¹ĭä¸ĬçļĦ": 7220,
      "éľİ": 7221,
      "èĮ¹": 7222,
      "éĹªèĢĢ": 7223,
      "äº¤æį¢": 7224,
      "äºĨåĩłåĪĨ": 7225,
      "ä¸įå¦¨": 7226,
      "ç§½": 7227,
      "çªģåľ°": 7228,
      "è¦ĨçĽĸ": 7229,
      "åĴļ": 7230,
      "åĮ¿": 7231,
      "é»ĳå½±": 7232,
      "åĬłæĮģ": 7233,
      "èĦ±ç¦»": 7234,
      "ç«ĻäºĨèµ·æĿ¥": 7235,
      "æīĢä»¥æĪĳ": 7236,
      "å¼ĺ": 7237,
      "æĢĴåĲ¼": 7238,
      "æī«è¿ĩ": 7239,
      "å¸Īåĵ¥": 7240,
      "æİĮæİ§": 7241,
      "åĵªåĦ¿": 7242,
      "éĽªå®ľ": 7243,
      "å¤©åºŃ": 7244,
      "æŃ¦åľ£": 7245,
      "æĮĩå°ĸ": 7246,
      "è¶ħè¿ĩ": 7247,
      "å½ĵä½ľ": 7248,
      "ç¨ļ": 7249,
      "åĵĪåĵĪç¬ĳéģĵ": 7250,
      "äºĨä¸įèµ·": 7251,
      "èĢ¶": 7252,
      "åĨħéĥ¨": 7253,
      "æ¡©": 7254,
      "åģľäºĨä¸ĭæĿ¥": 7255,
      "è¿ĻéĩĮçļĦ": 7256,
      "åį³å°Ĩ": 7257,
      "åı¯èĥ½æĺ¯": 7258,
      "çľ¼åīįçļĦ": 7259,
      "æ¸Ń": 7260,
      "èµ¤çº¢": 7261,
      "æĬ¬èµ·å¤´æĿ¥": 7262,
      "æĸĭ": 7263,
      "éĹ¨æĪ·": 7264,
      "æīĵåĿĲ": 7265,
      "æĺ¨å¤©": 7266,
      "è®©åħ¶": 7267,
      "çĥĻåį°": 7268,
      "åĽĽæµ·": 7269,
      "æľĢå¼º": 7270,
      "éĤ£äºĽäºº": 7271,
      "ç¤´": 7272,
      "ä¸įæĿ¥": 7273,
      "æĪĲä¸Ģ": 7274,
      "æŃ£éģĵ": 7275,
      "åĲĪä¸Ģ": 7276,
      "ç£ħç¤´": 7277,
      "äºĨçļĦ": 7278,
      "åı«ä½ł": 7279,
      "éĺŁä¼į": 7280,
      "ä¸įç¾¤": 7281,
      "æĢĿèĢĥ": 7282,
      "è·Łåľ¨": 7283,
      "èĮ«èĮ«": 7284,
      "çĿĢä»Ģä¹Ī": 7285,
      "é»Ŀ": 7286,
      "çĹĽå¿«": 7287,
      "è¿Ļä»½": 7288,
      "ä¸ºæĪĳ": 7289,
      "å·²åľ¨": 7290,
      "åı¯æĺ¯ä»ĸ": 7291,
      "çķ¥å¾®": 7292,
      "åĢŁçĿĢ": 7293,
      "èº²éģ¿": 7294,
      "ç¼ĿéļĻ": 7295,
      "ä¸įåģľçļĦ": 7296,
      "é£İéĽª": 7297,
      "æĲĤ": 7298,
      "ä¹ĸä¹ĸ": 7299,
      "æĿİæħķå©ī": 7300,
      "åħľ": 7301,
      "ä¸İäºº": 7302,
      "åı·ç§°": 7303,
      "éŃĶéģĵ": 7304,
      "ä»ĻèĬĿ": 7305,
      "æ´ªä¸ĥåħ¬": 7306,
      "å®ŀåľ¨å¤ª": 7307,
      "èº¯ä½ĵ": 7308,
      "äºĨå¥½": 7309,
      "çļĦå¥³äºº": 7310,
      "å°ıçģ°": 7311,
      "æľ¬äºº": 7312,
      "åĹħ": 7313,
      "èį¡èį¡": 7314,
      "äº²æīĭ": 7315,
      "çİ²çıĳ": 7316,
      "ä¹ĭèº«": 7317,
      "ä»Ģä¹Īåľ°æĸ¹": 7318,
      "æ·±åİļ": 7319,
      "åıįåĩ»": 7320,
      "åı³æīĭæĬ¬èµ·": 7321,
      "ä¹Łå¾Ĺ": 7322,
      "åħīæŁ±": 7323,
      "ä¼Ļè®¡": 7324,
      "çĸ²æĥ«": 7325,
      "âĢĿãĢģâĢľ": 7326,
      "ä¸įå®¹": 7327,
      "åĨ²åħ¥": 7328,
      "éľĩå¾Ĺ": 7329,
      "éĢģåĪ°": 7330,
      "æĿ¥å¾ĹåıĬ": 7331,
      "åĲµ": 7332,
      "çŁ¥ä»ĸ": 7333,
      "å°Ŀè¯ķ": 7334,
      "ä¸Ģåį·": 7335,
      "å¦ĤæĦı": 7336,
      "åĳ¨ä¼¯": 7337,
      "åıĶåıĶ": 7338,
      "éĶ¦è¡£": 7339,
      "åľ¨åīį": 7340,
      "ä½łéļ¾éģĵ": 7341,
      "åĺ´å·´": 7342,
      "ä¸Ģéģį": 7343,
      "ç¥ŀæĦı": 7344,
      "èĤ²": 7345,
      "ä¸İåħ¶": 7346,
      "éļ¾åıĹ": 7347,
      "ä¸ĸäºº": 7348,
      "æķ£åıĳåĩº": 7349,
      "èĹ©çİĭ": 7350,
      "åĲĳä¸ĭ": 7351,
      "äºĮè¯Ŀ": 7352,
      "å¹¿å¯Ĵ": 7353,
      "çļĦæ¸ħ": 7354,
      "èĢĮèµ°": 7355,
      "é©¶": 7356,
      "ç«Łæľī": 7357,
      "çĸĹ": 7358,
      "æľīä¸Ģéģĵ": 7359,
      "çİĦå¦Ļ": 7360,
      "èĢģåĥ§": 7361,
      "çľ¼çıł": 7362,
      "åĲĮéĹ¨": 7363,
      "ç¨³å®ļ": 7364,
      "å®¶äºº": 7365,
      "çļĦéĵģ": 7366,
      "çļĦçľ¼ç¥ŀ": 7367,
      "äººæĹı": 7368,
      "äºĮå¸ĪåħĦ": 7369,
      "ãĢĢãĢĢĊ": 7370,
      "çļĦèº«ä»½": 7371,
      "åķ¼": 7372,
      "æĤ¬æµ®": 7373,
      "åħĪæĺ¯": 7374,
      "è¿ĩåİ»äºĨ": 7375,
      "å¯ĴåĨ·": 7376,
      "æ¯ĴèĽĩ": 7377,
      "å®«éĩĮ": 7378,
      "é£ŀéģģ": 7379,
      "éĦĻ": 7380,
      "æĹ¶æĹ¥": 7381,
      "éĿ¢åŃĲ": 7382,
      "æľªèĥ½": 7383,
      "ç²¾æ°Ķ": 7384,
      "ä¹Łåıªèĥ½": 7385,
      "å°±å·²": 7386,
      "çİĭä»ĻèĬĿ": 7387,
      "å°ĨæĪĳ": 7388,
      "åįĬåĪĨ": 7389,
      "èĭ¥èĥ½": 7390,
      "çŁ¥éģĵçļĦ": 7391,
      "é½Ĳå£°": 7392,
      "çŀİåŃĲ": 7393,
      "å¯ĩä»²åĴĮå¾ĲåŃĲéĻµ": 7394,
      "æĭĩ": 7395,
      "è·Ħ": 7396,
      "ç¼Ī": 7397,
      "åĨħå¤ĸ": 7398,
      "äºĮåŃĹ": 7399,
      "è¡Ģæ¶²": 7400,
      "çĴĢ": 7401,
      "åİ®æĿĢ": 7402,
      "ç¥ŀåĬĽ": 7403,
      "å¦Ĥå±±": 7404,
      "çŀħ": 7405,
      "çĪ¶åŃĲ": 7406,
      "çħ§é¡¾": 7407,
      "ä»ĭç»į": 7408,
      "äºĨä¸ĬæĿ¥": 7409,
      "æľīæĦı": 7410,
      "éļ¾çľĭ": 7411,
      "ä»ĸçļĦèº«ä½ĵ": 7412,
      "ç¼©å°ı": 7413,
      "çļĦæĥħç»ª": 7414,
      "ä¸įçĶĺ": 7415,
      "æĺ¯ä¸ºäºĨ": 7416,
      "æĿ¥çľĭ": 7417,
      "å¤§å¤©å°Ĭ": 7418,
      "å°Ĩé¢Ĩ": 7419,
      "åĮħåĽ´": 7420,
      "ä¸įä¼ĳ": 7421,
      "çĽ®çĿ¹": 7422,
      "èĿ´": 7423,
      "æ¸ħæ¥ļæ¥ļ": 7424,
      "èĢģçĪ·åŃĲ": 7425,
      "ä¹Ķå³°": 7426,
      "æľīä¸ī": 7427,
      "æĽ°": 7428,
      "æľĢéĩįè¦ģ": 7429,
      "çĭ®åŃĲ": 7430,
      "çļĦå¨ģåĬĽ": 7431,
      "ä»ĸä¸İ": 7432,
      "åĪ°çļĦ": 7433,
      "èĿ´èĿ¶": 7434,
      "å¨ģåİĭ": 7435,
      "å¹¿éĻµ": 7436,
      "åľ¨æīĭ": 7437,
      "å®«çļĦ": 7438,
      "è¯·ä½ł": 7439,
      "å«Ĥ": 7440,
      "è¿ĻåĦ¿": 7441,
      "å¾Ĺåĩº": 7442,
      "çľ¼èī²": 7443,
      "åĨ°éĽª": 7444,
      "é¢ĨæĤŁ": 7445,
      "è¿ĺæĥ³": 7446,
      "äºĨä¸Ģä¼ļ": 7447,
      "å¿«è¦ģ": 7448,
      "æķ´æķ´": 7449,
      "éĢłçī©": 7450,
      "æł½": 7451,
      "è¿ĺæĺ¯è¦ģ": 7452,
      "é¡¾ä¸įå¾Ĺ": 7453,
      "è¯¯ä¼ļ": 7454,
      "ç¥ŀåĲĽ": 7455,
      "æľ¬é¢Ĩ": 7456,
      "çĲī": 7457,
      "æ¢³": 7458,
      "äº¤æĥħ": 7459,
      "åħĥå§ĭ": 7460,
      "åĳ¼åĳ¼": 7461,
      "å¯Ĩå®¤": 7462,
      "å¼ķèµ·": 7463,
      "æİłè¿ĩ": 7464,
      "æĪĳä¸įæĺ¯": 7465,
      "ä¸įåĬ¨å£°": 7466,
      "å½»åºķçļĦ": 7467,
      "èİ«åĲįåħ¶": 7468,
      "æĪĳåĢĴ": 7469,
      "æĮĩæĮ¥": 7470,
      "çħ§ç¥ŀ": 7471,
      "ï¼ĽâĢľ": 7472,
      "å¾Īæ¸ħæ¥ļ": 7473,
      "äºĨåĲĹ": 7474,
      "å¯ĩä»²éģĵ": 7475,
      "åıĳåĩºä¸Ģå£°": 7476,
      "çĦ¦æĢ¥": 7477,
      "æģįæĥļ": 7478,
      "éºĴéºŁ": 7479,
      "çĴĢçĴ¨": 7480,
      "è½¨": 7481,
      "æľĢå¥½çļĦ": 7482,
      "ç½Ĺæµ®": 7483,
      "æ¸©æļĸ": 7484,
      "èººåľ¨": 7485,
      "å°ıè¿Ľ": 7486,
      "èĤº": 7487,
      "è®°è½½": 7488,
      "èº²åľ¨": 7489,
      "ä»İå°ı": 7490,
      "åį³éĢĿ": 7491,
      "èı²": 7492,
      "é¢ĵ": 7493,
      "åįķæīĭä¸Ģ": 7494,
      "åļĵ": 7495,
      "æģ°å¥½": 7496,
      "å¤§åħĪçĶŁ": 7497,
      "ä¸Ģä¸ªåŃĹ": 7498,
      "ä¹Łä¸įåı¯èĥ½": 7499,
      "é¦Ļçģ«": 7500,
      "çķ¥æľī": 7501,
      "åĳĨåĳĨ": 7502,
      "è¿ĺç®Ĺ": 7503,
      "æµģæĺŁ": 7504,
      "å¤ªèĻļ": 7505,
      "å¿ĥä¸ŃçļĦ": 7506,
      "çºµèº«": 7507,
      "çĵ£": 7508,
      "åıĤä¸İ": 7509,
      "çĽ®çŀªåı£åĳĨ": 7510,
      "è¿ĺæľīäºĽ": 7511,
      "å®¶éĩĮ": 7512,
      "çĽ¸åıį": 7513,
      "ä¸īä¸ªäºº": 7514,
      "å¯¹æĬĹ": 7515,
      "çĶ¨ä¸įçĿĢ": 7516,
      "éĢļçº¢": 7517,
      "åį°è±¡": 7518,
      "åĽĽåĳ¨çļĦ": 7519,
      "æ³¨æĦıåĪ°": 7520,
      "åĲİèĢħ": 7521,
      "å¥¹åľ¨": 7522,
      "ä¸Ģä¸ªå¤§": 7523,
      "éĶĢ": 7524,
      "é£ŀåĪĢ": 7525,
      "æĦŁæĤŁ": 7526,
      "åįĥçĻ¾": 7527,
      "è¿½åĩ»": 7528,
      "æĬ¬èµ·å¤´": 7529,
      "æĭ±æīĭ": 7530,
      "èµ·çłģ": 7531,
      "ä¸Ģå¤ľ": 7532,
      "ç¿ĺ": 7533,
      "éĺ´æķ£äºº": 7534,
      "æĤ¬ç©º": 7535,
      "éŁ©æŁĲ": 7536,
      "é©³": 7537,
      "çŁ¥éģĵä»ĸ": 7538,
      "æµģæ°´": 7539,
      "ä¸įçŁ¥ä¸įè§ī": 7540,
      "æł¹æľ¬ä¸į": 7541,
      "åłĤåłĤ": 7542,
      "è°¢éĢĬ": 7543,
      "æĭĩæĮĩ": 7544,
      "çļĦå¹´è½»": 7545,
      "ä¸Ģçº¿": 7546,
      "è§īå¾Ĺèĩªå·±": 7547,
      "å¤§å¨ĺ": 7548,
      "å¾Ĺè¿ĩ": 7549,
      "åįģè¶³": 7550,
      "å¯»æĢĿ": 7551,
      "ä¸ĢåĩĿ": 7552,
      "å¥¢": 7553,
      "è¡ĮäºĨ": 7554,
      "éĴµ": 7555,
      "é¬¼ä»Ļ": 7556,
      "éĢĹ": 7557,
      "æĦıåĳ³": 7558,
      "æļĹéģĵ": 7559,
      "åħŃéģĵ": 7560,
      "ä½łåĪ«": 7561,
      "åīįåİ»": 7562,
      "ä¾¿è¢«": 7563,
      "åĺī": 7564,
      "æķĻè®Ń": 7565,
      "ä¸įçŁ¥ä¸ºä½ķ": 7566,
      "çľĭè§ģäºĨ": 7567,
      "éģĵåħĦ": 7568,
      "çĶŁå¹³": 7569,
      "æĸ¹ä½į": 7570,
      "çļĦèĦ¸èī²": 7571,
      "æĺ¯è¢«": 7572,
      "æĪ³": 7573,
      "å¤§å¤§": 7574,
      "ç»ĳ": 7575,
      "æ¿ĢçĥĪ": 7576,
      "æŁĲäºĽ": 7577,
      "è¿Ļå¤©": 7578,
      "åĪ°æŃ¤": 7579,
      "çªĥ": 7580,
      "ä»įåľ¨": 7581,
      "çļ®èĤ¤": 7582,
      "ç®«": 7583,
      "èĪįåĪ©": 7584,
      "ä¸įçģŃ": 7585,
      "ä»ĸèĢģäººå®¶": 7586,
      "å°Ĩä½ł": 7587,
      "èĲ½çļĦ": 7588,
      "æ¯ĶæĪĳ": 7589,
      "æ·±æ¸Ĭ": 7590,
      "åľ£æ®¿": 7591,
      "å¾®ç¬ĳçĿĢ": 7592,
      "å¢ŀåĬł": 7593,
      "çļĦæŃ»": 7594,
      "å¥½äºº": 7595,
      "çľŁçķĮ": 7596,
      "çľŁçļĦæĺ¯": 7597,
      "å¾Īéķ¿æĹ¶éĹ´": 7598,
      "æĮĳæĪĺ": 7599,
      "èµ°æĿ¥": 7600,
      "çŃ·": 7601,
      "åħ¶åĲİ": 7602,
      "åĩłå¹´": 7603,
      "ä¼łé¹°": 7604,
      "å¼ºçĥĪçļĦ": 7605,
      "æĭĪ": 7606,
      "äºĶçĻ¾": 7607,
      "æĹłå½±æĹłè¸ª": 7608,
      "åıįæĬĹ": 7609,
      "æľīä¸Ģå¤©": 7610,
      "åĭ¤": 7611,
      "è½¦åİ¢": 7612,
      "ç´¢æĢ§": 7613,
      "åħ¸ç±į": 7614,
      "åİ»åĲ§": 7615,
      "æµ·æ°´": 7616,
      "æħķå®¹åĪļ": 7617,
      "åĽĽåĲį": 7618,
      "å¤±èī²": 7619,
      "éĵłçĶ²": 7620,
      "ç§ĳ": 7621,
      "æīĵæī®": 7622,
      "åı«å£°": 7623,
      "çº¯ç²¹": 7624,
      "ä¸įæĦ¿æĦı": 7625,
      "è½©è¾ķæ³ķçİĭ": 7626,
      "è°·ä¸Ńèİ²": 7627,
      "èµ°å¾Ĺ": 7628,
      "æŀģäºĨ": 7629,
      "è¿ľåİ»": 7630,
      "æķ£åİ»": 7631,
      "çļĦæĸ¹æ³ķ": 7632,
      "åı©": 7633,
      "é»ĳå¤ľ": 7634,
      "çļĦå¦ĸ": 7635,
      "ä»ĸæīĢ": 7636,
      "éĤ£æĹ¶åĢĻ": 7637,
      "åıªéģĵ": 7638,
      "è¦ģè¯´": 7639,
      "çĨ¬": 7640,
      "ç®±åŃĲ": 7641,
      "éŃĶæ°Ķ": 7642,
      "æĢİä¹Īèĥ½": 7643,
      "å²³ä¸įç¾¤": 7644,
      "ç¬ĳåĺ»åĺ»": 7645,
      "èĢģå¤«äºº": 7646,
      "å¸ĪéĹ¨": 7647,
      "è¥¿æĸ¹": 7648,
      "è®®è®º": 7649,
      "å»ĸå°ıè¿Ľ": 7650,
      "ä¸įå°½": 7651,
      "æ¿Ģåıĳ": 7652,
      "æĭĶåĩº": 7653,
      "ä¸įåģľåľ°": 7654,
      "èĩªçŁ¥": 7655,
      "ä»Ĭå¤ľ": 7656,
      "çľ¼çĿĽéĩĮ": 7657,
      "çĽ¸åħ¬": 7658,
      "ä¹ŀ": 7659,
      "äºĨä»ĸçļĦ": 7660,
      "åīįå¾Ģ": 7661,
      "çľĭçĿĢå¥¹": 7662,
      "ç±»ä¼¼": 7663,
      "æĢ§æł¼": 7664,
      "å°¸èº«": 7665,
      "éķĩå®ļ": 7666,
      "ä½łä»¥ä¸º": 7667,
      "åľ°éĿ¢ä¸Ĭ": 7668,
      "æĹłèĢ»": 7669,
      "ç¥ŀæľº": 7670,
      "è½¬ä¸ĸ": 7671,
      "çļĦæĺ¯ä»Ģä¹Ī": 7672,
      "ç»ĥæĪĲ": 7673,
      "èĸĩ": 7674,
      "çĭłçĭłåľ°": 7675,
      "ä¸¤å¤§": 7676,
      "åįģåĢį": 7677,
      "æĭĽæķ°": 7678,
      "è¿ĺæľīéĤ£": 7679,
      "è½´": 7680,
      "ä¸¤æīĭ": 7681,
      "æĬĬèĩªå·±": 7682,
      "åķ¥": 7683,
      "è¿Ļä¸Ģåīĳ": 7684,
      "æ´ŀä¸Ń": 7685,
      "æĸ°çļĦ": 7686,
      "ä¸įå¿į": 7687,
      "äºĨå¥¹": 7688,
      "ä¹Łç½¢": 7689,
      "æĹłå¿§": 7690,
      "èĩªçĶ±": 7691,
      "èĢĮåıĪ": 7692,
      "çľĭæ¸ħæ¥ļ": 7693,
      "çŁ¥éģĵè¿Ļ": 7694,
      "æĬ¤èº«": 7695,
      "æĢĶäºĨ": 7696,
      "åı¯å°±": 7697,
      "å±±é¡¶": 7698,
      "èĮĥå¤§äºº": 7699,
      "æĭįåįĸ": 7700,
      "æ¦»": 7701,
      "åĸĩåĺĽ": 7702,
      "ä¹ĭä¸»": 7703,
      "åħĪåĲİ": 7704,
      "éĺ´å½±": 7705,
      "å®ĭç¼º": 7706,
      "åĭĩæ°Ķ": 7707,
      "ç³Łç³ķ": 7708,
      "çļĦèº«åŃĲ": 7709,
      "å¥½çľĭ": 7710,
      "å¤§ä¼ĻåĦ¿": 7711,
      "æĢ¦": 7712,
      "ä¹Łæĥ³": 7713,
      "åıĺå¹»": 7714,
      "å¤«å¦»": 7715,
      "çĮľåĪ°": 7716,
      "åļİ": 7717,
      "æĺ¯æĥ³": 7718,
      "æĮ«": 7719,
      "åĲ¬è¿ĩ": 7720,
      "æĥĬæģĲ": 7721,
      "æ±¹æ¶Į": 7722,
      "æĳ¸äºĨæĳ¸": 7723,
      "ä»ĸèĥ½": 7724,
      "è®¤åĩº": 7725,
      "åĩºä¸Ģåı£": 7726,
      "å¤©åľ°æ³ķåĪĻ": 7727,
      "ä¹ĭåħī": 7728,
      "æŃ¤çķª": 7729,
      "èµ°è¿ĩ": 7730,
      "è¿ĲçĶ¨": 7731,
      "ä¸Ģå¹²": 7732,
      "éķ¿åķ¸": 7733,
      "æĶ¾å¼Ģ": 7734,
      "æĻ®éĢļçļĦ": 7735,
      "ç»´æĮģ": 7736,
      "ä¸Ģç¿»": 7737,
      "æĺ¯å¤©": 7738,
      "åıªåľ¨": 7739,
      "åĺ±": 7740,
      "åĩ¤åĩ°": 7741,
      "éĽªèĬ±": 7742,
      "è¿ĺè¯·": 7743,
      "åĸ§": 7744,
      "çĶ¨å¤Ħ": 7745,
      "çĲīçĴĥ": 7746,
      "åĨī": 7747,
      "æŃ£å¦Ĥ": 7748,
      "éĤ£ä¸ªäºº": 7749,
      "éĢıè¿ĩ": 7750,
      "èĢ¶å¾ĭ": 7751,
      "èħ¾ç©º": 7752,
      "æ¿Ģå°ĦèĢĮåĩº": 7753,
      "ç»ĿéĿŀ": 7754,
      "å«¡": 7755,
      "å¤§åĸĿéģĵ": 7756,
      "åĲĳä¸Ĭ": 7757,
      "æĭįäºĨ": 7758,
      "äºĨå¾Īå¤ļ": 7759,
      "åıĳä½ľ": 7760,
      "æ°´æľĪ": 7761,
      "åľ£çļĩ": 7762,
      "åľĪåŃĲ": 7763,
      "åİ»åģļ": 7764,
      "è¿ĺä¸¹": 7765,
      "æľ¬åº§": 7766,
      "èĭ¥è¦ģ": 7767,
      "åĳ¨è¾¹": 7768,
      "å¨ģä¸¥": 7769,
      "å¦Ĥæŀľä¸įæĺ¯": 7770,
      "èĴ²": 7771,
      "ä¸Ģä»£": 7772,
      "æ´µ": 7773,
      "å±±æ´¾": 7774,
      "é¾ĻèĻİ": 7775,
      "è¿Ļæĺ¯ä»Ģä¹Ī": 7776,
      "å¹½åĨ¥": 7777,
      "ä¸ĢçĶ©": 7778,
      "ä»İå¤©": 7779,
      "æ²¿çĿĢ": 7780,
      "æĹłç¤¼": 7781,
      "èģĭ": 7782,
      "å¨ģèĥ½": 7783,
      "èº«è¾¹çļĦ": 7784,
      "å¢Ł": 7785,
      "æĹ·": 7786,
      "ä»ĸèĻ½çĦ¶": 7787,
      "ç¥ŀåĥı": 7788,
      "è¨Ģéģĵ": 7789,
      "å¼łç¿ł": 7790,
      "ä»»çĶ±": 7791,
      "çĽ¸åĲĮ": 7792,
      "å¤±å£°éģĵ": 7793,
      "ä¸Ģäº®": 7794,
      "å¤§æĶ¾": 7795,
      "æķĿ": 7796,
      "æ°Ķæ°Ľ": 7797,
      "å®īçĦ¶": 7798,
      "æŃ¤æĹ¶æŃ¤åĪ»": 7799,
      "æĪ¿ä¸Ń": 7800,
      "è¢ĸåŃĲ": 7801,
      "é¢ĦæĸĻ": 7802,
      "éĥ½ä¸įæķ¢": 7803,
      "åĮĸçļĦ": 7804,
      "åĩºä¸Ģä¸Ŀ": 7805,
      "èĴ¸": 7806,
      "èĤ©èĨĢ": 7807,
      "æıĸ": 7808,
      "è¿ľåı¤": 7809,
      "éĻ¤æŃ¤": 7810,
      "éĺ¿ç´«": 7811,
      "éĤ£ä¸¤": 7812,
      "é»Ħèį¯å¸Ī": 7813,
      "ä¸ĢçĤ¹åĦ¿": 7814,
      "è¿¹è±¡": 7815,
      "æł¼å¤ĸ": 7816,
      "å¤©ä¸ĭç¬¬ä¸Ģ": 7817,
      "éģ®æİ©": 7818,
      "äºĨä¸Ģçīĩ": 7819,
      "åĲİå±±": 7820,
      "åĢĴéĢĢ": 7821,
      "çªģåİ¥": 7822,
      "è§£èį¯": 7823,
      "çļĦç¬ĳå®¹": 7824,
      "èĢĮç«ĭ": 7825,
      "è¾Ļ": 7826,
      "ä¾¿çŁ¥": 7827,
      "æľĢåĲİçļĦ": 7828,
      "è¿ĻèĢģ": 7829,
      "çľŁçģµ": 7830,
      "ä»Ģä¹Īäºĭæĥħ": 7831,
      "å¤ªå¹³": 7832,
      "åĪĨå¼Ģ": 7833,
      "è¸ī": 7834,
      "è§Ĥçľĭ": 7835,
      "åŃ¦çĶŁ": 7836,
      "æĻºæħ§": 7837,
      "éķ¿èĻ¹": 7838,
      "å·¨çĮ¿": 7839,
      "å·¦æİĮ": 7840,
      "è®¡ç®Ĺ": 7841,
      "çļĦå®¶ä¼Ļ": 7842,
      "éģĵè¢į": 7843,
      "è¦ģä¸įçĦ¶": 7844,
      "å±±éĹ¨": 7845,
      "ä»ĸçļĦæīĭ": 7846,
      "åĪĢéĶĭ": 7847,
      "èİ«å±±å±±": 7848,
      "èĨľ": 7849,
      "äºķä¸Ń": 7850,
      "çłĸ": 7851,
      "ç²¾åħī": 7852,
      "ç®¡å®¶": 7853,
      "ä¸¥éĩį": 7854,
      "ä»ĩæģ¨": 7855,
      "åŁºæľ¬": 7856,
      "ç¥Ī": 7857,
      "æĬ¿": 7858,
      "å¦Ĥæ°´": 7859,
      "éĿĴå±±": 7860,
      "æĢĴçģ«": 7861,
      "æ£®æ£®": 7862,
      "æľīåĩł": 7863,
      "å¤§ä¹¾": 7864,
      "å¤©éĽ·": 7865,
      "è¾ĩ": 7866,
      "äº²è¿ĳ": 7867,
      "è¿ģ": 7868,
      "åĨįä¹Łæ²¡æľī": 7869,
      "å¤§éĩıçļĦ": 7870,
      "çĤ½": 7871,
      "æľĽæľĪ": 7872,
      "èħ»": 7873,
      "åľºéĿ¢": 7874,
      "è¿Ļç§įäºĭæĥħ": 7875,
      "è®¡è¾ĥ": 7876,
      "åīĳå®¢": 7877,
      "çİīéĥİ": 7878,
      "ç¦»å°ĺ": 7879,
      "ç¤¾": 7880,
      "ç¥ŃåĿĽ": 7881,
      "åĮ¹é©¬": 7882,
      "çļĦä¸ĸçķĮ": 7883,
      "éĤ£æĹ¥": 7884,
      "å¾Ĺä»ĸ": 7885,
      "æīĵäºĨ": 7886,
      "åı¤éŃĶ": 7887,
      "çļĦéĤ£ä½į": 7888,
      "è¯ŀ": 7889,
      "å¤©æľº": 7890,
      "æķ£åĩº": 7891,
      "å¤©åįĹ": 7892,
      "äºĨä¸ĢæĿ¡": 7893,
      "åĨħåºĵ": 7894,
      "å¥ĩçī¹": 7895,
      "æĸĹæ³ķ": 7896,
      "èĭįæĿ¾": 7897,
      "å¤©åľ°åħĥæ°Ķ": 7898,
      "åĲ´ä¸ī": 7899,
      "åºı": 7900,
      "å°ıçİ¯": 7901,
      "ä¸īå°º": 7902,
      "å§ĳå§ĳ": 7903,
      "é²²é¹ı": 7904,
      "èĢĮéĤ£": 7905,
      "æ»©": 7906,
      "å®¹è²Į": 7907,
      "èĥ¸åīį": 7908,
      "èļ£": 7909,
      "ä½łåĴĮ": 7910,
      "ä¸»è¦ģ": 7911,
      "åı¹äºĨä¸Ģåı£æ°Ķ": 7912,
      "é¦ĸé¢Ĩ": 7913,
      "åİīå®³çļĦ": 7914,
      "æ¦ľ": 7915,
      "åĵī": 7916,
      "æĪĺçļĦ": 7917,
      "åĲĥé¥Ń": 7918,
      "çļĦå¿ĥæĢĿ": 7919,
      "å¿«æ´»çİĭ": 7920,
      "ä¸ĢæĦ£": 7921,
      "åĲģ": 7922,
      "ä»ĸè¿Ļ": 7923,
      "èº«æīĭ": 7924,
      "åıĪæľīä»Ģä¹Ī": 7925,
      "éĽ·çĶµ": 7926,
      "éģĵå¿ĥ": 7927,
      "å¾Ĺä¸į": 7928,
      "éĥ½å¾Ī": 7929,
      "åĵĩ": 7930,
      "æ¸ħæ¸ħæ¥ļæ¥ļ": 7931,
      "çİĭæŀĹç¥ŀèī²": 7932,
      "å¾Ĳå¤©": 7933,
      "åĪºæ¿Ģ": 7934,
      "çº³åħ°": 7935,
      "åĲĵäºĨä¸Ģè·³": 7936,
      "çĭŃ": 7937,
      "æŃ»æŃ»": 7938,
      "åĳĬè¯īæĪĳ": 7939,
      "åĽŀå®¶": 7940,
      "éĵŃ": 7941,
      "èĵ¬èİ±æ´¾": 7942,
      "åı¨": 7943,
      "ä¹Łæľª": 7944,
      "éĿ¢éĿ¢çĽ¸": 7945,
      "äºĭåĲİ": 7946,
      "åįĥä¸Ī": 7947,
      "é¦Ļæ°Ķ": 7948,
      "æĿ¨çĽĺ": 7949,
      "éªĳå£«": 7950,
      "ä»ĸèº«åŃĲ": 7951,
      "å¼Ģè¾Ł": 7952,
      "ç¢İäºĨ": 7953,
      "åļ¼": 7954,
      "åĤħçº¢éĽªéģĵ": 7955,
      "ä¸įè§ģäºĨè¸ªå½±": 7956,
      "çī²": 7957,
      "æŃ£éĿ¢": 7958,
      "è¶³æľī": 7959,
      "æ±Łçİīéĥİ": 7960,
      "æĶ¶èµ·": 7961,
      "éĵ¶æľĪ": 7962,
      "éĥŃè¥Ħ": 7963,
      "äº«åıĹ": 7964,
      "ç¼łç»ķ": 7965,
      "æĳĨèĦ±": 7966,
      "æĭļ": 7967,
      "å·²ä¹ħ": 7968,
      "å¥½äºĭ": 7969,
      "èī¾": 7970,
      "åļ£": 7971,
      "ï¼ĮâĢĺ": 7972,
      "åİ¨": 7973,
      "äºĨä¸Ģç§į": 7974,
      "åĲĦä¸ª": 7975,
      "çĽ®åħīéĹªåĬ¨": 7976,
      "ä½ĵåĨħçļĦ": 7977,
      "æ´Ĺçİī": 7978,
      "å¤´éĻĢ": 7979,
      "åĨįåİ»": 7980,
      "åĨįå¤ļ": 7981,
      "åĢĴåľ¨åľ°": 7982,
      "ä»»åĬ¡": 7983,
      "çİĦéĹ¨": 7984,
      "å°ĬèĢħ": 7985,
      "çŁŃæĹ¶éĹ´": 7986,
      "ä¸įéĢı": 7987,
      "æ¸´": 7988,
      "è¿ŀç»µ": 7989,
      "çªģåĪ©": 7990,
      "ä¸įæľ½": 7991,
      "æĪĳæ²¡æľī": 7992,
      "è¯´èµ·æĿ¥": 7993,
      "è¿ĩäºİ": 7994,
      "çŁ³å®¤": 7995,
      "èĦ¸ä¸Ĭéľ²åĩº": 7996,
      "çľĭä¸įè§ģ": 7997,
      "ç¥ŀåĬŁ": 7998,
      "é«ĺéĺ¶": 7999,
      "åĥıæĺ¯ä¸Ģ": 8000,
      "ä¸įèĥľ": 8001,
      "éĥ½è¯´": 8002,
      "èĥ½åľ¨": 8003,
      "æ²Ļæ¼ł": 8004,
      "æĤ²ä¼¤": 8005,
      "å§Ĭå§Ĭ": 8006,
      "åĬªåĬĽ": 8007,
      "ç»¾": 8008,
      "æĹłè¯Ń": 8009,
      "éĥ½çŁ¥éģĵ": 8010,
      "ä»İè¿Ļ": 8011,
      "ä¼¼ä¹İåľ¨": 8012,
      "ç´łåįİ": 8013,
      "è®²ç©¶": 8014,
      "åĲ´ä¸īæ¡Ĥ": 8015,
      "ä»Ļéģĵ": 8016,
      "ç»ĵåĲĪ": 8017,
      "çĨĶ": 8018,
      "èĢ½æĲģ": 8019,
      "è¦ģæĥ³": 8020,
      "å¾Ģä¸ĭ": 8021,
      "æķĮæīĭ": 8022,
      "æĥ³åĪ°è¿ĻéĩĮ": 8023,
      "æīĢæľª": 8024,
      "éĽ·æ±ł": 8025,
      "åĽłä¸ºå¥¹": 8026,
      "é¦Ļå·Ŀ": 8027,
      "æĶ¶èİ·": 8028,
      "åŃ¦ä¼ļ": 8029,
      "éģĹæĨ¾": 8030,
      "èĶĵå»¶": 8031,
      "åĢª": 8032,
      "èµ°è¿ĳ": 8033,
      "è¡ĮçļĦ": 8034,
      "çªĦ": 8035,
      "æŀģéĻĲ": 8036,
      "ç«ŁçĦ¶æĺ¯": 8037,
      "å°¹": 8038,
      "å¤§çĪ·": 8039,
      "èĥ¡è¯´": 8040,
      "å¿įåıĹ": 8041,
      "æĻĵå³°": 8042,
      "éĺģæ¥¼": 8043,
      "åī§çĹĽ": 8044,
      "æĪ¾": 8045,
      "æľĢå¤§": 8046,
      "æĹ©æľī": 8047,
      "è¿Ļè®©": 8048,
      "çķĮåĨħ": 8049,
      "ç½ĹåĪ¹é¬¼çİĭ": 8050,
      "å¾ĭé¦Ļå·Ŀ": 8051,
      "å¤§åĲį": 8052,
      "ä¹ĭéŁ³": 8053,
      "è¿ĩå¾Ĺ": 8054,
      "çģµåħ½": 8055,
      "åĪ»æĦı": 8056,
      "å¿½çĦ¶éģĵ": 8057,
      "åĬłåħ¥": 8058,
      "å®ģç¼ºè¯´éģĵ": 8059,
      "éĺ¿æľ±": 8060,
      "å¿ĥéŃĶ": 8061,
      "ä»¥ä»ĸ": 8062,
      "åıĪæĥ³": 8063,
      "æ£Ģ": 8064,
      "éĢĢåĩº": 8065,
      "äºĨéĤ£": 8066,
      "éĶ¡": 8067,
      "è¯·æķĻ": 8068,
      "èľĪ": 8069,
      "é¡ºåĪ©": 8070,
      "çļĦéģĵçĲĨ": 8071,
      "åŃŁéľĵè£³": 8072,
      "ä¸Ģæŀļ": 8073,
      "æĹħ": 8074,
      "æĿ¥æŃ¤": 8075,
      "äºĨä¸Ģå±Ĥ": 8076,
      "æĬĺç£¨": 8077,
      "åª³": 8078,
      "çģ¿çĥĤ": 8079,
      "ä¸ĢåľĪ": 8080,
      "è¿Ļå£°éŁ³": 8081,
      "çº¢åŃ©åĦ¿": 8082,
      "ä¹Ŀå·ŀ": 8083,
      "åĩºçİ°çļĦ": 8084,
      "å±ĭé¡¶": 8085,
      "åºŁè¯Ŀ": 8086,
      "æģĲæĢĸçļĦ": 8087,
      "åıĻ": 8088,
      "ä¸Ģæ®µ": 8089,
      "èĢĮæŃ»": 8090,
      "èĤĺ": 8091,
      "è½°åĩ»": 8092,
      "æĮ¡ä½ı": 8093,
      "æ¶Īå¤±åľ¨": 8094,
      "åį´ä¸įæĺ¯": 8095,
      "åı³èĩĤ": 8096,
      "å¾®ä¸Ģ": 8097,
      "æĦŁåħ´è¶£": 8098,
      "éĻĨç´łåįİ": 8099,
      "éĻµå·ŀ": 8100,
      "é¦ĸåº§": 8101,
      "éĤ£ä¹Īå¤ļ": 8102,
      "è·ĥèµ·": 8103,
      "åĪ°è¿ĻéĩĮæĿ¥": 8104,
      "å½ĵå¤´": 8105,
      "å²Ķ": 8106,
      "å¦¹åŃĲ": 8107,
      "çļĦç¡®æĺ¯": 8108,
      "å¿ĥåĬ¨": 8109,
      "ç»ıå¸¸": 8110,
      "æľ±éĽĢæĺŁ": 8111,
      "å¤©æĺŁ": 8112,
      "æŃ£ä¸Ń": 8113,
      "å¦Ĥä»ĬçļĦ": 8114,
      "æ¸©é»Ľé»Ľ": 8115,
      "çĪ¸": 8116,
      "åĲĮä¼´": 8117,
      "ç®Ĺè®¡": 8118,
      "ä¸įåĲĮçļĦ": 8119,
      "çĻ½å¤©èĻ¹": 8120,
      "åĳ»": 8121,
      "åıĳæĬĸ": 8122,
      "äºĶå½©": 8123,
      "æļĹç®Ĺ": 8124,
      "ä¸įèĥ½åĨį": 8125,
      "éĽĨä¸Ń": 8126,
      "ä¹ĭèĬĴ": 8127,
      "çĦķ": 8128,
      "å½ĵåħĪ": 8129,
      "åħ«ä¸ª": 8130,
      "è¿ĺæľīä¸Ģä¸ª": 8131,
      "æ´ĭæ´ĭ": 8132,
      "ä»¤çīĮ": 8133,
      "ä»ħä»ħæĺ¯": 8134,
      "åĬ¨çĿĢ": 8135,
      "äºĳæµ·": 8136,
      "éĹªè¿ĩä¸Ģä¸Ŀ": 8137,
      "ä¸Ģå¿ĥ": 8138,
      "å°±æ²¡æľī": 8139,
      "å¾®å¼±": 8140,
      "èĭ¦æ¶©": 8141,
      "å²Ĥä¸į": 8142,
      "æ£ĭçĽĺ": 8143,
      "è¿Ļä¹Ł": 8144,
      "è¡Ģç¥ŀ": 8145,
      "éĿĻéĿĻçļĦ": 8146,
      "æīĢè°ĵçļĦ": 8147,
      "éĿ¢éĿ¢çĽ¸è§ĳ": 8148,
      "æĹ¶æľº": 8149,
      "ä¿®èĢħ": 8150,
      "çłĤ": 8151,
      "èĻ½çĦ¶æ²¡æľī": 8152,
      "ç¥ĸé¾Ļ": 8153,
      "ç½®ä¿¡": 8154,
      "éģ¥éģ¥": 8155,
      "æĸ¹ä¸Ģ": 8156,
      "åıĮèħ¿": 8157,
      "å¸¦æĿ¥": 8158,
      "æĺ¨æĻļ": 8159,
      "ä¸įçŃī": 8160,
      "æĮł": 8161,
      "æľ¬çİĭ": 8162,
      "æĢªäºº": 8163,
      "çļĦæĥħåĨµä¸ĭ": 8164,
      "çĦī": 8165,
      "é¸ł": 8166,
      "åĲĦå¤Ħ": 8167,
      "æıĲåīį": 8168,
      "æĻĵé£İ": 8169,
      "å±ĢåĬ¿": 8170,
      "ä¸ºä½ķè¦ģ": 8171,
      "åħļ": 8172,
      "ä½łåħĪ": 8173,
      "åĽĽä½į": 8174,
      "åĨ²åİ»": 8175,
      "éĵģåīĳ": 8176,
      "ç¢§çĳ¶": 8177,
      "åĳ¨ä¼¯éĢļ": 8178,
      "ä»ĸçľĭçĿĢ": 8179,
      "å°ıå°ıçļĦ": 8180,
      "ç»ĿæĹł": 8181,
      "èĦļæŃ¥å£°": 8182,
      "çļĦåĲįåŃĹ": 8183,
      "å¿ĥçģµ": 8184,
      "æĭŁ": 8185,
      "å¼ºæ¨ª": 8186,
      "çİ©æĦı": 8187,
      "ä½ĳ": 8188,
      "ä¸Ĭå±±": 8189,
      "é©¬è´¼": 8190,
      "çļĦåĳ³éģĵ": 8191,
      "åĩ³": 8192,
      "æĪĳåıªæĺ¯": 8193,
      "ä¼¼æľī": 8194,
      "æĥĬçĸĳ": 8195,
      "æłĳæŀĹ": 8196,
      "æĪĳå·²ç»ı": 8197,
      "çİĦæŃ¦": 8198,
      "å²©çŁ³": 8199,
      "ä»ĸåıª": 8200,
      "éĤ¸": 8201,
      "ä¸¤æĹģ": 8202,
      "éľī": 8203,
      "åĳ¨ä¸Ģ": 8204,
      "è¿Ļç§įäºº": 8205,
      "äºĮåįģå¹´": 8206,
      "åı¯æ¯Ķ": 8207,
      "æ¸ħåĩī": 8208,
      "å¤©é£İ": 8209,
      "æı£": 8210,
      "æĥĬå¤©åĬ¨åľ°": 8211,
      "éĥ½ä¸įæĺ¯": 8212,
      "èĿł": 8213,
      "ä¾ĭå¤ĸ": 8214,
      "æ·±åĲ¸åı£æ°Ķ": 8215,
      "è¡·": 8216,
      "éĥ½ä¸įçŁ¥éģĵ": 8217,
      "çº¢èĬ±": 8218,
      "å¤§çº¢èĻ¾": 8219,
      "è¾ľ": 8220,
      "é¾Ļè±¡": 8221,
      "å¦ĸæĢª": 8222,
      "å±ħä½ı": 8223,
      "åŃĲéģĵ": 8224,
      "çŁ£": 8225,
      "æ³¾": 8226,
      "ä¾¿éģĵ": 8227,
      "æīĢè¯´çļĦ": 8228,
      "æµģéĢĿ": 8229,
      "åĩłä¸ªäºº": 8230,
      "åĳ»åĲŁ": 8231,
      "æĪĳåį´": 8232,
      "æĹłè¨Ģ": 8233,
      "è¦ģç´§": 8234,
      "é«¯": 8235,
      "å®ŀè´¨": 8236,
      "ä½ĻæħĪçļĦ": 8237,
      "åĪĿæľŁ": 8238,
      "æľīæľºä¼ļ": 8239,
      "ä¹Łåı¯": 8240,
      "å¾Ĺæīĭ": 8241,
      "ä¸īéģĵ": 8242,
      "ä¼¼å·²": 8243,
      "èĻļçģµ": 8244,
      "åĲĦæľī": 8245,
      "ä½łéĤ£": 8246,
      "ä»Ģä¹Īä¸ľè¥¿": 8247,
      "å¨ĺçļĦ": 8248,
      "ç²¾è¡Ģ": 8249,
      "åľ£ç¥ĸ": 8250,
      "æ³ªæ°´": 8251,
      "ä¹Łæ²¡ä»Ģä¹Ī": 8252,
      "æĺıè¿·": 8253,
      "åīª": 8254,
      "æĺİå®¶": 8255,
      "æľ¬å°Ĭ": 8256,
      "åĲįåı«": 8257,
      "å¹½å·ŀ": 8258,
      "éĽĢåĦ¿": 8259,
      "âĢĿï¼ģ": 8260,
      "æ²¡äºĭ": 8261,
      "ä¸ľæĿ¥": 8262,
      "çİ©ç¬ĳ": 8263,
      "éĶµ": 8264,
      "ä¸ĥä¸ª": 8265,
      "åºĦä¸»": 8266,
      "åıĪè¢«": 8267,
      "æĪĺåĬĽ": 8268,
      "éĤĵå®ļ": 8269,
      "äºĨä¸Ģçķª": 8270,
      "å¡ĺ": 8271,
      "æĭľè§ģ": 8272,
      "åĨ·åĵ¼ä¸Ģå£°": 8273,
      "çļĦåĽŀéģĵ": 8274,
      "ä¸įè®¸": 8275,
      "æ®µçİī": 8276,
      "åĵĳçĦ¶": 8277,
      "æĺĶå¹´": 8278,
      "çĿĢçľ¼çĿĽ": 8279,
      "å¤´çĹĽ": 8280,
      "å®ĿåĦ¿": 8281,
      "åı³æİĮ": 8282,
      "ä¸įåı¯æµĭ": 8283,
      "éĤĵå®ļä¾¯": 8284,
      "åľ¨è¿Ļä¸ª": 8285,
      "å¤§åŃ¦å£«": 8286,
      "æĪĳåı¯ä»¥": 8287,
      "æĸŁ": 8288,
      "æĽ´å¤ļçļĦ": 8289,
      "è¿Ļä¸ĢçĶŁ": 8290,
      "éļĲçŀĴ": 8291,
      "èİ«æĦģ": 8292,
      "è¯Ī": 8293,
      "æŃ¤åĲİ": 8294,
      "åģļäºĭ": 8295,
      "ä¼Ĺåľ£æ®¿": 8296,
      "ç²¾éĶĲ": 8297,
      "éĻĪèĬĿ": 8298,
      "æĹ¢çĦ¶å¦ĤæŃ¤": 8299,
      "åįģäºĮç«ł": 8300,
      "ä¸Ģè·¯ä¸Ĭ": 8301,
      "è¿ĪæŃ¥": 8302,
      "æį£": 8303,
      "åĪĢæ³ķ": 8304,
      "éĺ´é£İ": 8305,
      "åĲĪä½ľ": 8306,
      "å±ĤçļĦ": 8307,
      "å¤§å°ıå§Ĳ": 8308,
      "çıįè´µ": 8309,
      "å¤©ç¥ŀ": 8310,
      "éĢ¾": 8311,
      "èĻ¬": 8312,
      "éĩĳèī²çļĦ": 8313,
      "éĩįåĪĽ": 8314,
      "éĿŀæĺ¯": 8315,
      "è¡£è¥Ł": 8316,
      "å¹½æļĹ": 8317,
      "æ»´æºľæºľ": 8318,
      "çĸ¼çĹĽ": 8319,
      "äººé©¬": 8320,
      "åĬĽéģĵ": 8321,
      "çģµç´ł": 8322,
      "åįĬå±±": 8323,
      "èĩªç§°": 8324,
      "çĥ¤": 8325,
      "çģŃäºĨ": 8326,
      "æ¯ıä¸ªäººéĥ½": 8327,
      "ä¸Ģè¶Ł": 8328,
      "ç«ĭåĽ½": 8329,
      "æĿĢæĦı": 8330,
      "æŀģéĺ´": 8331,
      "ç¾İå¥³": 8332,
      "é¡µ": 8333,
      "éĿĴéĶĭ": 8334,
      "åıĺæķħ": 8335,
      "æĤ¸": 8336,
      "ç¢Į": 8337,
      "ç¼ĵç¼ĵåľ°": 8338,
      "éĻĽä¸ĭçļĦ": 8339,
      "æĢł": 8340,
      "åıªæīĭ": 8341,
      "åıĪä¸įæĺ¯": 8342,
      "è°ķ": 8343,
      "åĩłæĹ¥": 8344,
      "æįĨ": 8345,
      "è¸ªè¿¹": 8346,
      "è¿ĺçľŁæĺ¯": 8347,
      "æĿİèİ«æĦģ": 8348,
      "å¢Ļå£ģ": 8349,
      "éĿ¢èī²èĭįçĻ½": 8350,
      "éĻĲåĪ¶": 8351,
      "ä¸ĢçļĦ": 8352,
      "çĻ½èī²çļĦ": 8353,
      "è¿Ľä¸ĢæŃ¥": 8354,
      "åĭ¿": 8355,
      "èĩªè¯Ńéģĵ": 8356,
      "çļĦåİŁåĽł": 8357,
      "çľ¼çĿģ": 8358,
      "çİĭæľĿ": 8359,
      "æķ°çĻ¾å¹´": 8360,
      "éŃĶç¥ŀ": 8361,
      "èĬ±è´¹": 8362,
      "å®Įé¢ľ": 8363,
      "éģŃéģĩ": 8364,
      "éĽķåĥı": 8365,
      "éģĵåĲĽ": 8366,
      "è°¢æĻĵå³°": 8367,
      "åİĨåı²": 8368,
      "æµĵæµĵ": 8369,
      "çļĦåľ°æŃ¥": 8370,
      "ä¸įä¾¿": 8371,
      "éĶ¢": 8372,
      "è¡Ģæµ·": 8373,
      "æµ©çĦ¶": 8374,
      "åľ¨èº«": 8375,
      "ä¹Łæľªå¿ħ": 8376,
      "å¤©çĽĸ": 8377,
      "ä¼ļè¢«": 8378,
      "å¼ĤæĹı": 8379,
      "çģ°èī²": 8380,
      "è¯»ä¹¦äºº": 8381,
      "å¿ĥäºĭ": 8382,
      "ä½Ĩèĭ¥": 8383,
      "ç¬¬äºĮæ¬¡": 8384,
      "æĬ½åĩº": 8385,
      "åī©ä¸ĭçļĦ": 8386,
      "éĺħ": 8387,
      "å°½æĺ¯": 8388,
      "ç§ĺæ³ķ": 8389,
      "æīįå¯¹": 8390,
      "æľºåħ³": 8391,
      "æ¾Ī": 8392,
      "è¿Ļæĺ¯ä¸Ģ": 8393,
      "çľ¶": 8394,
      "å¤ĸçķĮ": 8395,
      "æĥĬæħĮ": 8396,
      "äº¤æµģ": 8397,
      "é¢ľæ´Ľ": 8398,
      "æ¢¦ç¥ŀæľº": 8399,
      "éĻĪèĬĿè±¹": 8400,
      "ä¹ĭå¿«": 8401,
      "æĹłäºĮ": 8402,
      "æłĸ": 8403,
      "ä¸¤äººçļĦ": 8404,
      "ä»Ļå¸Ī": 8405,
      "æĺ¾åĮĸ": 8406,
      "çĿģå¼ĢåıĮçľ¼": 8407,
      "ä½ĵè¡¨": 8408,
      "ä¸ĢéĹªçļĦ": 8409,
      "æ²ħ": 8410,
      "å°±æĬĬ": 8411,
      "ä¼ļçļĦ": 8412,
      "è·º": 8413,
      "è¨ĢåĨ°äºĳ": 8414,
      "å¿ħæľī": 8415,
      "åĵ¼ä¸Ģå£°": 8416,
      "æĦŁåºĶåĪ°": 8417,
      "ä¸ĢæĶ¶": 8418,
      "è¯ı": 8419,
      "éĤ£æĬĬ": 8420,
      "èĢģå¤©": 8421,
      "é«ĺå¼º": 8422,
      "çļĦäººä»¬": 8423,
      "éĢıæĺİ": 8424,
      "ä¼¸åĩºæīĭ": 8425,
      "å¤§è¢ĸ": 8426,
      "éĹº": 8427,
      "è¦ģå°Ĩ": 8428,
      "å½¢çĬ¶": 8429,
      "çļĦå°ĳå¥³": 8430,
      "ä¸įå±ĳ": 8431,
      "éģĵçİĦ": 8432,
      "ä¹ĭä½į": 8433,
      "ä¸Ĭé£İ": 8434,
      "ç¥ŀä¸»": 8435,
      "ç¥ŀåľ£": 8436,
      "ä»ĸçļĦäºº": 8437,
      "å¾Ģåīį": 8438,
      "åĳ¨ä¸Ģä»Ļ": 8439,
      "ä¸Ģæĥ³": 8440,
      "è¿ĻæĬĬ": 8441,
      "éĤ£æŁĦ": 8442,
      "æĹłæľĽ": 8443,
      "æ¸İ": 8444,
      "çŁ³å£ģ": 8445,
      "è½»å£°è¯´éģĵ": 8446,
      "éĤ»": 8447,
      "åĩºä¸ĸ": 8448,
      "è§ģçĬ¶": 8449,
      "ä»İåħ¶": 8450,
      "é£İæµģ": 8451,
      "æĶ¾æĿ¾": 8452,
      "çļĩåŁİ": 8453,
      "æ´ŀåı£": 8454,
      "åī©ä¸ĭ": 8455,
      "åıĪæĢİä¼ļ": 8456,
      "çĶŁçī©": 8457,
      "ç¼¥": 8458,
      "è¯Ŀé¢ĺ": 8459,
      "èĤĮèĤī": 8460,
      "å¤§æĪĲ": 8461,
      "ä¸ºå¸Ī": 8462,
      "ä¸¹åĩ¤": 8463,
      "æ³¥åľŁ": 8464,
      "éĢĶä¸Ń": 8465,
      "çİĩé¢Ĩ": 8466,
      "å¤§åĸĿä¸Ģå£°": 8467,
      "å¤§æłĳ": 8468,
      "åĮł": 8469,
      "ä½ķä»¥": 8470,
      "è½»ç¬ĳ": 8471,
      "ä¸´æĹ¶": 8472,
      "åĩłä¹İæĺ¯": 8473,
      "çº¯éĺ³": 8474,
      "çŁ«": 8475,
      "åı¯ç¬ĳ": 8476,
      "éķ¿è¾Ī": 8477,
      "åĪĨæŀĲ": 8478,
      "ä¹ĿæĮĩ": 8479,
      "è¹¿": 8480,
      "æĭįäºĨæĭį": 8481,
      "å±¿": 8482,
      "æŃ¤åħ½": 8483,
      "èĢģåħĪçĶŁ": 8484,
      "äºĭåħĪ": 8485,
      "æŃ¥èĻļ": 8486,
      "çĻ½é©¬": 8487,
      "äºĳæ®Ĭ": 8488,
      "æį¡": 8489,
      "å¼ºæĤį": 8490,
      "åĨ²çĿĢ": 8491,
      "åħ³äºİ": 8492,
      "æĶ¶æķĽ": 8493,
      "è¿Ļä¹Īå¤ļå¹´": 8494,
      "åĲĽçİĭ": 8495,
      "éģ¿è¿ĩ": 8496,
      "æķ°åįģä¸Ī": 8497,
      "ä¸Ģåįĥ": 8498,
      "ä½łè¿ĺæĺ¯": 8499,
      "æĬĵçĿĢ": 8500,
      "å¸ĥè¢ĭ": 8501,
      "çĶµå¼§": 8502,
      "è²Ĥ": 8503,
      "æ¤ħåŃĲ": 8504,
      "çľ¼çĿģçĿģ": 8505,
      "åĩºå¥ĩ": 8506,
      "çŁ³éĹ¨": 8507,
      "ä¹Łä¸įæĥ³": 8508,
      "åħ³å¤´": 8509,
      "è°ģä¹Ł": 8510,
      "ä»¶äºĭæĥħ": 8511,
      "æŃ¤æĹ¶çļĦ": 8512,
      "æ¶Īå¤±åľ¨äºĨ": 8513,
      "çĪĨçĤ¸": 8514,
      "æīĭéĩĮçļĦ": 8515,
      "æĹłäºĭ": 8516,
      "åĬ¨çĶ¨": 8517,
      "ä¸İå¥¹": 8518,
      "åıĮèĦļ": 8519,
      "åı¶èĭı": 8520,
      "å¾Ĺå¤ª": 8521,
      "åħĥç£ģ": 8522,
      "æł¹æīĭæĮĩ": 8523,
      "æ²³æ°´": 8524,
      "æ½ĩæ´Ĵ": 8525,
      "å¥½ä¸įå®¹æĺĵ": 8526,
      "å±±ä¸ĭ": 8527,
      "å½ª": 8528,
      "æ»¡å¤´": 8529,
      "æķ¬çķı": 8530,
      "å¤§åĬ«": 8531,
      "è¿İéĿ¢": 8532,
      "ä¸įæĸŃçļĦ": 8533,
      "åı¯çŁ¥": 8534,
      "èº«ä½ĵåĨħ": 8535,
      "ä¾įå¥³": 8536,
      "ä¸įåľ¨ä¹İ": 8537,
      "çļĦè·Ŀç¦»": 8538,
      "ä½łåĨį": 8539,
      "æ²¡æ³ķ": 8540,
      "å¥½åĲ§": 8541,
      "çļĦåħ³ç³»": 8542,
      "ä¸įç©º": 8543,
      "å¾ĢåĲİ": 8544,
      "åĲĽéĻĮ": 8545,
      "æĪ¿éĹ¨": 8546,
      "åĸĬéģĵ": 8547,
      "æĨĭ": 8548,
      "èĩªå¹¼": 8549,
      "åĴĮå¥¹": 8550,
      "å¼Łå¼Ł": 8551,
      "æįŀ": 8552,
      "æĳĨæīĭ": 8553,
      "ä½łæĺ¯ä¸įæĺ¯": 8554,
      "æĹłåħ³": 8555,
      "åĽŀå¿Ĩ": 8556,
      "è¿Ļç§įäºĭ": 8557,
      "åįłäºĨ": 8558,
      "äº¿ä¸ĩ": 8559,
      "åĪ°æĹ¶": 8560,
      "éĿ¢éľ²": 8561,
      "çĽ¸åħ³": 8562,
      "å¤ªéĺ´": 8563,
      "èĬ±çĶŁ": 8564,
      "åĨ³ä¸į": 8565,
      "åĪĿæĹ¶": 8566,
      "å¤§æ²³": 8567,
      "ï¼Łï¼ģ": 8568,
      "éĥ½ä¸įèĥ½": 8569,
      "æ·±åĪ»": 8570,
      "å¯ĴèĬĴ": 8571,
      "æĬĵä½ıäºĨ": 8572,
      "æ¸¸èµ°": 8573,
      "ä¼ĳæĥ³": 8574,
      "ç¬ĳçĿĢè¯´éģĵ": 8575,
      "èľĪèļ£": 8576,
      "è¿ĽæĶ»": 8577,
      "æ·±æ·±çļĦ": 8578,
      "åĪ°äºĨæŀģçĤ¹": 8579,
      "è¿Ļå°ĳå¹´": 8580,
      "çİĭåºŃ": 8581,
      "äºİä»ĸ": 8582,
      "é£ŀé¾Ļ": 8583,
      "å¿ĥä¸Ńä¸ĢåĬ¨": 8584,
      "ä¸Ģè¡Įäºº": 8585,
      "çĶ¸": 8586,
      "åĽĽé¡¾åīĳ": 8587,
      "èĲ§æĻ¨çļĦ": 8588,
      "éĢĥåĩº": 8589,
      "èĥľè¿ĩ": 8590,
      "å§Ĳå¦¹": 8591,
      "éĢĽ": 8592,
      "å¿ĥåį°": 8593,
      "éķ¿åį¿": 8594,
      "æķ°æĹ¥": 8595,
      "èĲ½éĽģ": 8596,
      "çİĭæŀĹèº«åŃĲ": 8597,
      "å®«å¥³": 8598,
      "åĿĩéĥ½": 8599,
      "åĮĹåĩīçİĭ": 8600,
      "å¤§ç¥ŀéĢļ": 8601,
      "ä¹ŁåĲĮæł·": 8602,
      "äºİæŃ¤": 8603,
      "äºĨä¸ĢæŃ¥": 8604,
      "éĿĴçĴĩ": 8605,
      "ä»ĸçļĦè¯Ŀ": 8606,
      "ç¢¾": 8607,
      "å¤±å£°": 8608,
      "æłĳæŀĿ": 8609,
      "åıªè§ģéĤ£": 8610,
      "èŁ¹": 8611,
      "æīĭè¶³": 8612,
      "å¼ĢçļĦ": 8613,
      "åıĳå±ķ": 8614,
      "æīĵåĩº": 8615,
      "è¿ŀæİ¥": 8616,
      "éº¾": 8617,
      "åĦĴçĶŁ": 8618,
      "å¤§å®Ĺå¸Ī": 8619,
      "èĥ½éĩı": 8620,
      "åĽŀæĿ¥çļĦ": 8621,
      "èĬ±æ»¡": 8622,
      "åºľçļĦ": 8623,
      "ç¬¬ä¸Ģåįĥ": 8624,
      "ä¸įæıĲ": 8625,
      "åĲİæŀľ": 8626,
      "åįģä¸ª": 8627,
      "æĪĺåīĳ": 8628,
      "è£¤": 8629,
      "å¤«äººçļĦ": 8630,
      "åıĸåĩºä¸Ģ": 8631,
      "çĿ¡è§ī": 8632,
      "èĤ¯å®ļæĺ¯": 8633,
      "ä¸įå¤ļæĹ¶": 8634,
      "è¯¦ç»Ĩ": 8635,
      "æĦīå¿«": 8636,
      "åĵ¨": 8637,
      "å¥½æŃ¹": 8638,
      "ç¿°": 8639,
      "åľ¨è¿ĻäºĽ": 8640,
      "å³»": 8641,
      "åĲĲåĩº": 8642,
      "è®¾æ³ķ": 8643,
      "æĽ¹éķ¿åį¿": 8644,
      "ä¸Ģå®¶": 8645,
      "ä¸Ģçŀ¬éĹ´": 8646,
      "å°ĳäºĨ": 8647,
      "æ¸ħé£İ": 8648,
      "è®ºåīĳ": 8649,
      "è½°çļĦä¸Ģå£°": 8650,
      "æ±ĩèģļ": 8651,
      "é¢īåĪ©": 8652,
      "å¤©åŃĲ": 8653,
      "å¾Ĺå¥½": 8654,
      "ä¼ļæĺ¯": 8655,
      "ä¹Łä¸įçĶ¨": 8656,
      "çģ¿çģ¿": 8657,
      "çį": 8658,
      "æĬ¤æ³ķ": 8659,
      "å¼ķæ°Ķ": 8660,
      "å±ĭåŃĲéĩĮ": 8661,
      "åĿļç¡¬": 8662,
      "ä¼łè¯´ä¸ŃçļĦ": 8663,
      "è¦ģå®³": 8664,
      "éĩĳèĻ«": 8665,
      "ç¿İ": 8666,
      "ä¸Ĭå®ĺå°ıä»Ļ": 8667,
      "ä½Ļåľ°": 8668,
      "åıªæĺ¯åľ¨": 8669,
      "åİĭä¸ĭ": 8670,
      "å·´æİĮ": 8671,
      "ä»ĸå°Ĩ": 8672,
      "åº¸": 8673,
      "åīĳä»Ļ": 8674,
      "å¤ªå®ī": 8675,
      "éģĵåı¤": 8676,
      "åĩºéŀĺ": 8677,
      "äº¤ç»ĩ": 8678,
      "é²¨": 8679,
      "æµªè´¹": 8680,
      "ç¬¬äºĮçĻ¾": 8681,
      "èļĢ": 8682,
      "çļĦåĲĳ": 8683,
      "çĿĢå¥¹": 8684,
      "æłĹ": 8685,
      "èµ°ä¸Ĭ": 8686,
      "äºĮåĵ¥": 8687,
      "åŁİå¤´": 8688,
      "åŁİä¸»": 8689,
      "å¯¿åħĥ": 8690,
      "é¤": 8691,
      "ç¥ŀéĽ·": 8692,
      "æ°Ķå¾Ĺ": 8693,
      "æĥĬå¥ĩ": 8694,
      "å¾ĢæĹ¥": 8695,
      "çļĦå°Ĩ": 8696,
      "çļĦæĥħ": 8697,
      "å¹¢": 8698,
      "ç¥Ł": 8699,
      "æ²¡èĥ½": 8700,
      "é£ŀåįĩ": 8701,
      "éĹ®é¼İ": 8702,
      "æĦŁåı¹": 8703,
      "æķ£äºĨ": 8704,
      "åģĩçļĦ": 8705,
      "éĢĤåĲĪ": 8706,
      "çľ©": 8707,
      "ä¹Łç®Ĺæĺ¯": 8708,
      "ä¸¤èĢħ": 8709,
      "è¢«æīĵ": 8710,
      "ä»İèĢĮ": 8711,
      "éªı": 8712,
      "æĬĬå¥¹": 8713,
      "åĲįå£°": 8714,
      "ç¨įç¨į": 8715,
      "åĥµç¡¬": 8716,
[...]
