{
  "version": "1.0",
  "truncation": null,
  "padding": null,
  "added_tokens": [
    {
      "id": 0,
      "content": "[PAD]",
      "single_word": false,
      "lstrip": false,
      "rstrip": false,
      "normalized": false,
      "special": true
    },
    {
      "id": 1,
      "content": "[CLS]",
      "single_word": false,
      "lstrip": false,
      "rstrip": false,
      "normalized": false,
      "special": true
    },
    {
      "id": 2,
      "content": "[SEP]",
      "single_word": false,
      "lstrip": false,
      "rstrip": false,
      "normalized": false,
      "special": true
    },
    {
      "id": 3,
      "content": "[MASK]",
      "single_word": false,
      "lstrip": false,
      "rstrip": false,
      "normalized": false,
      "special": true
    },
    {
      "id": 4,
      "content": "<|endoftext|>",
      "single_word": false,
      "lstrip": false,
      "rstrip": false,
      "normalized": false,
      "special": true
    }
  ],
  "normalizer": null,
  "pre_tokenizer": {
    "type": "ByteLevel",
    "add_prefix_space": false,
    "trim_offsets": true,
    "use_regex": true
  },
  "post_processor": null,
  "decoder": {
    "type": "ByteLevel",
    "add_prefix_space": true,
    "trim_offsets": true,
    "use_regex": true
  },
  "model": {
    "type": "BPE",
    "dropout": null,
    "unk_token": null,
    "continuing_subword_prefix": null,
    "end_of_word_suffix": null,
    "fuse_unk": false,
    "byte_fallback": false,
    "ignore_merges": false,
    "vocab": {
      "[PAD]": 0,
      "[CLS]": 1,
      "[SEP]": 2,
      "[MASK]": 3,
      "<|endoftext|>": 4,
      "!": 5,
      "\"": 6,
      "#": 7,
      "$": 8,
      "%": 9,
      "&": 10,
      "'": 11,
      "(": 12,
      ")": 13,
      "*": 14,
      "+": 15,
      ",": 16,
      "-": 17,
      ".": 18,
      "/": 19,
      "0": 20,
      "1": 21,
      "2": 22,
      "3": 23,
      "4": 24,
      "5": 25,
      "6": 26,
      "7": 27,
      "8": 28,
      "9": 29,
      ":": 30,
      ";": 31,
      "<": 32,
      "=": 33,
      ">": 34,
      "?": 35,
      "@": 36,
      "A": 37,
      "B": 38,
      "C": 39,
      "D": 40,
      "E": 41,
      "F": 42,
      "G": 43,
      "H": 44,
      "I": 45,
      "J": 46,
      "K": 47,
      "L": 48,
      "M": 49,
      "N": 50,
      "O": 51,
      "P": 52,
      "Q": 53,
      "R": 54,
      "S": 55,
      "T": 56,
      "U": 57,
      "V": 58,
      "W": 59,
      "X": 60,
      "Y": 61,
      "Z": 62,
      "[": 63,
      "\\": 64,
      "]": 65,
      "^": 66,
      "_": 67,
      "`": 68,
      "a": 69,
      "b": 70,
      "c": 71,
      "d": 72,
      "e": 73,
      "f": 74,
      "g": 75,
      "h": 76,
      "i": 77,
      "j": 78,
      "k": 79,
      "l": 80,
      "m": 81,
      "n": 82,
      "o": 83,
      "p": 84,
      "q": 85,
      "r": 86,
      "s": 87,
      "t": 88,
      "u": 89,
      "v": 90,
      "w": 91,
      "x": 92,
      "y": 93,
      "z": 94,
      "{": 95,
      "|": 96,
      "}": 97,
      "~": 98,
      "¡": 99,
      "¢": 100,
      "£": 101,
      "¤": 102,
      "¥": 103,
      "¦": 104,
      "§": 105,
      "¨": 106,
      "©": 107,
      "ª": 108,
      "«": 109,
      "¬": 110,
      "®": 111,
      "¯": 112,
      "°": 113,
      "±": 114,
      "²": 115,
      "³": 116,
      "´": 117,
      "µ": 118,
      "¶": 119,
      "·": 120,
      "¸": 121,
      "¹": 122,
      "º": 123,
      "»": 124,
      "¼": 125,
      "½": 126,
      "¾": 127,
      "¿": 128,
      "À": 129,
      "Á": 130,
      "Â": 131,
      "Ã": 132,
      "Ä": 133,
      "Å": 134,
      "Æ": 135,
      "Ç": 136,
      "È": 137,
      "É": 138,
      "Ê": 139,
      "Ë": 140,
      "Ì": 141,
      "Í": 142,
      "Î": 143,
      "Ï": 144,
      "Ð": 145,
      "Ñ": 146,
      "Ò": 147,
      "Ó": 148,
      "Ô": 149,
      "Õ": 150,
      "Ö": 151,
      "×": 152,
      "Ø": 153,
      "Ù": 154,
      "Ú": 155,
      "Û": 156,
      "Ü": 157,
      "Ý": 158,
      "Þ": 159,
      "ß": 160,
      "à": 161,
      "á": 162,
      "â": 163,
      "ã": 164,
      "ä": 165,
      "å": 166,
      "æ": 167,
      "ç": 168,
      "è": 169,
      "é": 170,
      "ê": 171,
      "ë": 172,
      "ì": 173,
      "í": 174,
      "î": 175,
      "ï": 176,
      "ð": 177,
      "ñ": 178,
      "ò": 179,
      "ó": 180,
      "ô": 181,
      "õ": 182,
      "ö": 183,
      "÷": 184,
      "ø": 185,
      "ù": 186,
      "ú": 187,
      "û": 188,
      "ü": 189,
      "ý": 190,
      "þ": 191,
      "ÿ": 192,
      "Ā": 193,
      "ā": 194,
      "Ă": 195,
      "ă": 196,
      "Ą": 197,
      "ą": 198,
      "Ć": 199,
      "ć": 200,
      "Ĉ": 201,
      "ĉ": 202,
      "Ċ": 203,
      "ċ": 204,
      "Č": 205,
      "č": 206,
      "Ď": 207,
      "ď": 208,
      "Đ": 209,
      "đ": 210,
      "Ē": 211,
      "ē": 212,
      "Ĕ": 213,
      "ĕ": 214,
      "Ė": 215,
      "ė": 216,
      "Ę": 217,
      "ę": 218,
      "Ě": 219,
      "ě": 220,
      "Ĝ": 221,
      "ĝ": 222,
      "Ğ": 223,
      "ğ": 224,
      "Ġ": 225,
      "ġ": 226,
      "Ģ": 227,
      "ģ": 228,
      "Ĥ": 229,
      "ĥ": 230,
      "Ħ": 231,
      "ħ": 232,
      "Ĩ": 233,
      "ĩ": 234,
      "Ī": 235,
      "ī": 236,
      "Ĭ": 237,
      "ĭ": 238,
      "Į": 239,
      "į": 240,
      "İ": 241,
      "ı": 242,
      "Ĳ": 243,
      "ĳ": 244,
      "Ĵ": 245,
      "ĵ": 246,
      "Ķ": 247,
      "ķ": 248,
      "ĸ": 249,
      "Ĺ": 250,
      "ĺ": 251,
      "Ļ": 252,
      "ļ": 253,
      "Ľ": 254,
      "ľ": 255,
      "Ŀ": 256,
      "ŀ": 257,
      "Ł": 258,
      "ł": 259,
      "Ń": 260,
      "ï¼": 261,
      "ï¼Į": 262,
      "ä¸": 263,
      "äº": 264,
      "çļ": 265,
      "çļĦ": 266,
      "âĢ": 267,
      "ãĢ": 268,
      "ãĢĤ": 269,
      "ä»": 270,
      "å¤": 271,
      "è¿": 272,
      "åı": 273,
      "ä¸Ģ": 274,
      "ä¹": 275,
      "æĺ": 276,
      "æľ": 277,
      "ä½": 278,
      "ä¸į": 279,
      "æĺ¯": 280,
      "äºĨ": 281,
      "åľ": 282,
      "å°": 283,
      "åĲ": 284,
      "åħ": 285,
      "éģ": 286,
      "åĪ": 287,
      "âĢľ": 288,
      "éģĵ": 289,
      "âĢĿ": 290,
      "æĿ": 291,
      "åĩ": 292,
      "æĹ": 293,
      "å®": 294,
      "æī": 295,
      "è¿Ļ": 296,
      "äºº": 297,
      "è¯": 298,
      "åľ¨": 299,
      "æĪ": 300,
      "åį": 301,
      "æľī": 302,
      "ä»ĸ": 303,
      "å¾": 304,
      "çľ": 305,
      "æŃ": 306,
      "å¥": 307,
      "ï¼ļ": 308,
      "å¿": 309,
      "ï¼ļâĢľ": 310,
      "èĢ": 311,
      "åŃ": 312,
      "æĿ¥": 313,
      "éĹ": 314,
      "åĨ": 315,
      "éĤ": 316,
      "ä¼": 317,
      "å¤§": 318,
      "å·": 319,
      "åĬ": 320,
      "å¼": 321,
      "éĤ£": 322,
      "ä¹ĭ": 323,
      "ç»": 324,
      "ä¸Ĭ": 325,
      "æĥ": 326,
      "åĩº": 327,
      "çĿ": 328,
      "æĪĳ": 329,
      "ä¸Ń": 330,
      "èµ": 331,
      "åİ": 332,
      "å¹": 333,
      "ĥ½": 334,
      "çĦ": 335,
      "ä¸ĭ": 336,
      "ä½ł": 337,
      "éĩ": 338,
      "æĢ": 339,
      "çİ": 340,
      "çĶ": 341,
      "éĿ": 342,
      "çĦ¶": 343,
      "ä¹Ł": 344,
      "åŃĲ": 345,
      "è§": 346,
      "åĽ": 347,
      "ä¸ª": 348,
      "ãĢĤâĢĿ": 349,
      "çĿĢ": 350,
      "æ²": 351,
      "åī": 352,
      "èĩ": 353,
      "çĽ": 354,
      "å°±": 355,
      "å¦": 356,
      "è¯´": 357,
      "åĪ°": 358,
      "ç«": 359,
      "å£": 360,
      "æĸ": 361,
      "èº": 362,
      "æķ": 363,
      "å¯": 364,
      "å¸": 365,
      "ç¬": 366,
      "ï¼Ł": 367,
      "æŀ": 368,
      "èº«": 369,
      "å½": 370,
      "çŁ": 371,
      "å¾Ĺ": 372,
      "è®": 373,
      "æĹ¶": 374,
      "å¤©": 375,
      "¦ģ": 376,
      "è½": 377,
      "æ°": 378,
      "æīĭ": 379,
      "è¡": 380,
      "åľ°": 381,
      "åıª": 382,
      "è¿ĩ": 383,
      "å¿ĥ": 384,
      "åĲİ": 385,
      "åİ»": 386,
      "æĬ": 387,
      "éĢ": 388,
      "ä¹Ī": 389,
      "æŃ¤": 390,
      "ä¸º": 391,
      "æĹł": 392,
      "å±": 393,
      "åº": 394,
      "âĢ¦": 395,
      "èĩª": 396,
      "æĦ": 397,
      "è¦ģ": 398,
      "ç¥": 399,
      "èĢĮ": 400,
      "ï¼ģ": 401,
      "ä¾": 402,
      "çľĭ": 403,
      "åı¯": 404,
      "æ³": 405,
      "å°ı": 406,
      "å£°": 407,
      "éĺ": 408,
      "éĻ": 409,
      "æ²¡": 410,
      "æİ": 411,
      "æĭ": 412,
      "å¦Ĥ": 413,
      "éĥ½": 414,
      "å¤´": 415,
      "æł": 416,
      "èµ·": 417,
      "è¿ĺ": 418,
      "åĳ": 419,
      "åĴ": 420,
      "éĩĮ": 421,
      "çģ": 422,
      "å·²": 423,
      "ä»¥": 424,
      "ä½Ĩ": 425,
      "ç¬ĳ": 426,
      "ç¥ŀ": 427,
      "èĥ½": 428,
      "éļ": 429,
      "ä¿": 430,
      "è¾": 431,
      "æ¯": 432,
      "äºĽ": 433,
      "ï¼ŁâĢĿ": 434,
      "åĵ": 435,
      "å¥½": 436,
      "ä»¬": 437,
      "æĥ³": 438,
      "é£": 439,
      "çĻ": 440,
      "èĦ": 441,
      "åīį": 442,
      "è§ģ": 443,
      "æ¸": 444,
      "åį´": 445,
      "éĿ¢": 446,
      "çľ¼": 447,
      "èĢģ": 448,
      "ç§": 449,
      "èĭ": 450,
      "å¹´": 451,
      "çŁ¥": 452,
      "åħī": 453,
      "æµ": 454,
      "å¥¹": 455,
      "æ°Ķ": 456,
      "èī": 457,
      "çº": 458,
      "åĮ": 459,
      "å¯¹": 460,
      "ä¼ļ": 461,
      "è¢": 462,
      "çī": 463,
      "éĽ": 464,
      "åıĪ": 465,
      "ç©": 466,
      "èĻ": 467,
      "æĮ": 468,
      "ä¾¿": 469,
      "è·": 470,
      "çİĭ": 471,
      "é»": 472,
      "æģ": 473,
      "éĹ´": 474,
      "éŁ": 475,
      "çĤ": 476,
      "æ²¡æľī": 477,
      "å¤ļ": 478,
      "ä¸¤": 479,
      "èī²": 480,
      "äºĭ": 481,
      "æ³ķ": 482,
      "åĢ": 483,
      "ç¼": 484,
      "çľŁ": 485,
      "åħ¶": 486,
      "å¼Ģ": 487,
      "æĽ": 488,
      "æĸ¹": 489,
      "è°": 490,
      "åģ": 491,
      "å°Ĩ": 492,
      "ä»Ģ": 493,
      "åīĳ": 494,
      "çĶŁ": 495,
      "ä»Ģä¹Ī": 496,
      "çķ": 497,
      "å½ĵ": 498,
      "ç«ĭ": 499,
      "ä¸ī": 500,
      "æĦı": 501,
      "éķ": 502,
      "åĴĮ": 503,
      "åĬ¨": 504,
      "æ´": 505,
      "å§": 506,
      "æīĢ": 507,
      "ä¸Ģä¸ª": 508,
      "ç®": 509,
      "æĶ": 510,
      "æ¬": 511,
      "åĲĳ": 512,
      "âĢ¦âĢ¦": 513,
      "åĬĽ": 514,
      "éľ": 515,
      "æŀĹ": 516,
      "çŃ": 517,
      "åĸ": 518,
      "åįģ": 519,
      "çİ°": 520,
      "èĪ": 521,
      "åı£": 522,
      "åĨį": 523,
      "çĭ": 524,
      "èĬ": 525,
      "å¸Ī": 526,
      "æł·": 527,
      "æĻ": 528,
      "åĦ": 529,
      "éŃ": 530,
      "åıĳ": 531,
      "æĪĲ": 532,
      "èĥ": 533,
      "èĤ": 534,
      "èĲ": 535,
      "ä»İ": 536,
      "ãĢģ": 537,
      "æ·": 538,
      "éĹ¨": 539,
      "æŃ£": 540,
      "è´": 541,
      "ï¼ģâĢĿ": 542,
      "é¢": 543,
      "çĻ½": 544,
      "æħ": 545,
      "è¶": 546,
      "åĩł": 547,
      "å±±": 548,
      "å·±": 549,
      "åĿ": 550,
      "è¢«": 551,
      "é¡": 552,
      "è¯Ŀ": 553,
      "æĥħ": 554,
      "éķ¿": 555,
      "äºĨä¸Ģ": 556,
      "çĪ": 557,
      "æŃ»": 558,
      "åĦ¿": 559,
      "ä¿®": 560,
      "åĨħ": 561,
      "åĽŀ": 562,
      "èĩªå·±": 563,
      "ä½į": 564,
      "æīį": 565,
      "å¤ĸ": 566,
      "æľ¬": 567,
      "çĤ¹": 568,
      "äºİ": 569,
      "éĵ": 570,
      "åĲ¬": 571,
      "å¤Ħ": 572,
      "æ±": 573,
      "å¥³": 574,
      "æĺİ": 575,
      "ä½ķ": 576,
      "ç©º": 577,
      "èµ°": 578,
      "éª": 579,
      "ä¸İ": 580,
      "å¾Ī": 581,
      "æŁ": 582,
      "åĪ»": 583,
      "äºĮ": 584,
      "è½»": 585,
      "å®¶": 586,
      "ç»ı": 587,
      "å°ĳ": 588,
      "é©": 589,
      "åĽĽ": 590,
      "åħ¥": 591,
      "çģµ": 592,
      "çĶ¨": 593,
      "ç´": 594,
      "éĿĴ": 595,
      "åĲĮ": 596,
      "å®ļ": 597,
      "æĽ´": 598,
      "çĽ¸": 599,
      "ç½": 600,
      "èĭ¥": 601,
      "çŀ": 602,
      "è¯´éģĵ": 603,
      "è¡Į": 604,
      "ç«Ł": 605,
      "çĥ": 606,
      "çİĭæŀĹ": 607,
      "çŁ³": 608,
      "å¾®": 609,
      "å®ŀ": 610,
      "æľĢ": 611,
      "çĽ®": 612,
      "ä½ı": 613,
      "åŁ": 614,
      "éŁ©": 615,
      "æ¶": 616,
      "çŁ¥éģĵ": 617,
      "é«": 618,
      "å¨": 619,
      "åĲį": 620,
      "éĥ": 621,
      "çĽ´": 622,
      "æ»": 623,
      "èĦ¸": 624,
      "è®©": 625,
      "ä¸»": 626,
      "æ®": 627,
      "ä¸įæĺ¯": 628,
      "åĥ": 629,
      "èį": 630,
      "ç§į": 631,
      "æīĵ": 632,
      "çŃī": 633,
      "éĶ": 634,
      "åĮĸ": 635,
      "æķ°": 636,
      "é£İ": 637,
      "é«ĺ": 638,
      "åĪĨ": 639,
      "æ¸ħ": 640,
      "éĹ®": 641,
      "åħ¨": 642,
      "ä¼¼": 643,
      "å¤ª": 644,
      "éļ¾": 645,
      "é£ŀ": 646,
      "åıĮ": 647,
      "æĿĢ": 648,
      "è¾¹": 649,
      "æ°´": 650,
      "é»ĳ": 651,
      "½çĦ¶": 652,
      "è§ī": 653,
      "çª": 654,
      "æ¬¡": 655,
      "èĮ": 656,
      "è½¬": 657,
      "éĩį": 658,
      "æŀģ": 659,
      "æĳ": 660,
      "æĤ": 661,
      "åıĺ": 662,
      "ç¦": 663,
      "ä½Ļ": 664,
      "æĬĬ": 665,
      "éĩĳ": 666,
      "æļ": 667,
      "éŁ©ç«ĭ": 668,
      "æĹ¥": 669,
      "¨Ģ": 670,
      "è¿ŀ": 671,
      "åķ": 672,
      "ä¹Łä¸į": 673,
      "å£«": 674,
      "æİ¥": 675,
      "åįĬ": 676,
      "è¿Ľ": 677,
      "è¡Ģ": 678,
      "çĲ": 679,
      "è¿ľ": 680,
      "çł": 681,
      "æı": 682,
      "ç¾": 683,
      "åĨ·": 684,
      "ä»ĸä»¬": 685,
      "ä½ĵ": 686,
      "åĽł": 687,
      "éŃĶ": 688,
      "ç»Ļ": 689,
      "å¹¶": 690,
      "é©¬": 691,
      "é¦": 692,
      "èĩ³": 693,
      "èĬ±": 694,
      "èĪ¬": 695,
      "æľĽ": 696,
      "æĥĬ": 697,
      "åħĪ": 698,
      "åģļ": 699,
      "ä»Ļ": 700,
      "æĢİ": 701,
      "ç¬¬": 702,
      "èĲ½": 703,
      "å°±æĺ¯": 704,
      "è¨Ģ": 705,
      "å¼Ł": 706,
      "ä¸ĩ": 707,
      "éĺµ": 708,
      "æ¥": 709,
      "ç®Ĺ": 710,
      "é¾": 711,
      "ç¬ĳéģĵ": 712,
      "æ¡": 713,
      "çģ«": 714,
      "çĸ": 715,
      "åĺ": 716,
      "åĥı": 717,
      "åºĶ": 718,
      "å®Ŀ": 719,
      "å¼ł": 720,
      "èİ": 721,
      "èµ·æĿ¥": 722,
      "è¿Ļä¸Ģ": 723,
      "æ¯Ķ": 724,
      "ä»ĸçļĦ": 725,
      "åĢĴ": 726,
      "éĢļ": 727,
      "å²": 728,
      "åĬŁ": 729,
      "éĹª": 730,
      "æĦŁ": 731,
      "æŃ¥": 732,
      "çī©": 733,
      "åĪ°äºĨ": 734,
      "äºĳ": 735,
      "å¢": 736,
      "å·²ç»ı": 737,
      "å¤«": 738,
      "å¿«": 739,
      "èĢħ": 740,
      "æį": 741,
      "çļĦä¸Ģ": 742,
      "å¹³": 743,
      "çĻ¾": 744,
      "åı«": 745,
      "ä¹İ": 746,
      "äºĶ": 747,
      "æ²ī": 748,
      "åıªæĺ¯": 749,
      "åİŁ": 750,
      "ç¢": 751,
      "ç²": 752,
      "ä¸įè¿ĩ": 753,
      "æľª": 754,
      "å¦ĤæŃ¤": 755,
      "èħ": 756,
      "éĴ": 757,
      "ä¼ł": 758,
      "çº¢": 759,
      "å½±": 760,
      "ä¸ĥ": 761,
      "åŁİ": 762,
      "è¿ĺæĺ¯": 763,
      "ç»Ŀ": 764,
      "é¾Ļ": 765,
      "æµ·": 766,
      "ä¸ĸ": 767,
      "æľīäºĽ": 768,
      "éĿŀ": 769,
      "éħ": 770,
      "åĪ«": 771,
      "æĶ¾": 772,
      "çİī": 773,
      "çĮ": 774,
      "çı": 775,
      "æİĮ": 776,
      "æŀľ": 777,
      "ä»Ĭ": 778,
      "éļı": 779,
      "åĩ¤": 780,
      "çīĩ": 781,
      "è£": 782,
      "ç¦»": 783,
      "è¥": 784,
      "æĿİ": 785,
      "æŃ¦": 786,
      "åĨ²": 787,
      "æĢķ": 788,
      "èĮĥ": 789,
      "å½¢": 790,
      "èĻļ": 791,
      "æ·±": 792,
      "åľ¨è¿Ļ": 793,
      "ä½ľ": 794,
      "è®¸": 795,
      "çķĮ": 796,
      "é¬": 797,
      "åĩºæĿ¥": 798,
      "çĹ": 799,
      "æ¢": 800,
      "æĮĩ": 801,
      "è¡£": 802,
      "åĳ½": 803,
      "æģ¯": 804,
      "å®Ĺ": 805,
      "å¼º": 806,
      "å¾Ĳ": 807,
      "åĪĢ": 808,
      "ç¼ĵ": 809,
      "å®¹": 810,
      "çİ°åľ¨": 811,
      "åħĦ": 812,
      "è¶Ĭ": 813,
      "åħĥ": 814,
      "æĺŁ": 815,
      "è·Ł": 816,
      "å¸¸": 817,
      "é¬¼": 818,
      "éŁ³": 819,
      "âĢ¦âĢ¦âĢĿ": 820,
      "ä¸ľ": 821,
      "å¸¦": 822,
      "è¿ĻäºĽ": 823,
      "è¥¿": 824,
      "åĪļ": 825,
      "åįĹ": 826,
      "éĵģ": 827,
      "åĶ": 828,
      "çªģ": 829,
      "éĿĻ": 830,
      "ä¸Ŀ": 831,
      "å¿ħ": 832,
      "åĮĹ": 833,
      "å¼Ĥ": 834,
      "æĢª": 835,
      "æĢĿ": 836,
      "å¥ĩ": 837,
      "åħ¬": 838,
      "åįĥ": 839,
      "æĪĺ": 840,
      "æ¸Ĳ": 841,
      "ç¿": 842,
      "è¿Ļä¸ª": 843,
      "éĻĨ": 844,
      "æļĹ": 845,
      "åı¤": 846,
      "å¾Ģ": 847,
      "è°ģ": 848,
      "è·¯": 849,
      "æ»¡": 850,
      "æ¼": 851,
      "è¿ĳ": 852,
      "ç»Ī": 853,
      "éĺ´": 854,
      "é»Ħ": 855,
      "åıį": 856,
      "æł¹": 857,
      "åį³": 858,
      "å·¨": 859,
      "ä½¿": 860,
      "ç¡": 861,
      "åħ³": 862,
      "å©": 863,
      "æµģ": 864,
      "åı¯ä»¥": 865,
      "åĽłä¸º": 866,
      "éĹ²": 867,
      "çķĻ": 868,
      "æ£": 869,
      "ä¸Ģå£°": 870,
      "äººçļĦ": 871,
      "æķ£": 872,
      "çł´": 873,
      "å¨ĺ": 874,
      "čĊ": 875,
      "å¤±": 876,
      "è±": 877,
      "æħĪ": 878,
      "çļĦäºº": 879,
      "ä¿®å£«": 880,
      "ç¨": 881,
      "åĪĻ": 882,
      "çļĩ": 883,
      "éľ²": 884,
      "æľº": 885,
      "æĢİä¹Ī": 886,
      "åĵª": 887,
      "åĢĻ": 888,
      "æĪĳä»¬": 889,
      "åĳ¨": 890,
      "åıĹ": 891,
      "åħ«": 892,
      "èĵ": 893,
      "ä¼¤": 894,
      "æ¨": 895,
      "å®Į": 896,
      "éĺ³": 897,
      "èģ": 898,
      "å®ī": 899,
      "çľĭçĿĢ": 900,
      "é¸": 901,
      "æķ¢": 902,
      "çĶ±": 903,
      "çĲĨ": 904,
      "åĬ¿": 905,
      "åĩ»": 906,
      "ä¸įçŁ¥": 907,
      "å®«": 908,
      "ä¿¡": 909,
      "æĹ©": 910,
      "éĥ¨": 911,
      "æ¥ļ": 912,
      "éĽª": 913,
      "æ¹": 914,
      "éĽ·": 915,
      "å¿ĥä¸Ń": 916,
      "ä¸Ķ": 917,
      "èĭ¦": 918,
      "åĨĽ": 919,
      "ç³": 920,
      "æ¶Ī": 921,
      "æ·¡": 922,
      "å¿½çĦ¶": 923,
      "åĿĲ": 924,
      "ä¹¦": 925,
      "éļĲ": 926,
      "æº": 927,
      "ä¹Ŀ": 928,
      "æĿ¡": 929,
      "è¯Ń": 930,
      "ä½ĻæħĪ": 931,
      "æľīä¸Ģ": 932,
      "åŃĹ": 933,
      "èĻ½çĦ¶": 934,
      "âĢĶ": 935,
      "æĴ": 936,
      "åĤ": 937,
      "é¦Ļ": 938,
      "æľĪ": 939,
      "åĸľ": 940,
      "ä»»": 941,
      "è¶³": 942,
      "å°½": 943,
      "è§£": 944,
      "éĨ": 945,
      "éħĴ": 946,
      "ç«Ļ": 947,
      "ä½Ľ": 948,
      "åĻ": 949,
      "å®ģ": 950,
      "åį´æĺ¯": 951,
      "è¯¥": 952,
      "æĸŃ": 953,
      "ä¸ĬçļĦ": 954,
      "éŃĤ": 955,
      "èĮĥéĹ²": 956,
      "è½©": 957,
      "åł": 958,
      "æħ¢": 959,
      "ç´§": 960,
      "ä¼Ĺ": 961,
      "ä»¤": 962,
      "ä¹Łæĺ¯": 963,
      "äº²": 964,
      "ç«ĭåĪ»": 965,
      "åĵį": 966,
      "åĸĿ": 967,
      "åĲĥ": 968,
      "åĲĪ": 969,
      "ä½İ": 970,
      "èĩªçĦ¶": 971,
      "åħŃ": 972,
      "æī¾": 973,
      "æĹ¶åĢĻ": 974,
      "çĶļ": 975,
      "çŀ§": 976,
      "ç¦ģ": 977,
      "çľī": 978,
      "æķĻ": 979,
      "åĪ¶": 980,
      "æĹı": 981,
      "åı¥": 982,
      "æīĢä»¥": 983,
      "åıĭ": 984,
      "åĬł": 985,
      "åľº": 986,
      "åĲ§": 987,
      "å§ĭ": 988,
      "ç¼º": 989,
      "ä¹ĭåĲİ": 990,
      "äº¤": 991,
      "æĢ¥": 992,
      "å¿µ": 993,
      "åĽ½": 994,
      "æĹģ": 995,
      "éĩı": 996,
      "å³": 997,
      "ä¹ħ": 998,
      "éĥ½æĺ¯": 999,
      "éĤ£äºĽ": 1000,
      "æĺ¾": 1001,
      "èĦļ": 1002,
      "åı³": 1003,
      "çħ": 1004,
      "åºķ": 1005,
      "æĭĽ": 1006,
      "è¸": 1007,
      "æĶ¶": 1008,
      "çĬ": 1009,
      "è¾Ī": 1010,
      "éĶĻ": 1011,
      "ä¸įä¼ļ": 1012,
      "ä»¶": 1013,
      "åĳ¼": 1014,
      "æ±Ł": 1015,
      "ç»ĵ": 1016,
      "é¡¿": 1017,
      "åı¹": 1018,
      "æľ¨": 1019,
      "å±Ĥ": 1020,
      "è®¤": 1021,
      "æķ´": 1022,
      "çªģçĦ¶": 1023,
      "æĢ§": 1024,
      "è¿Ļæł·": 1025,
      "æĹ¶éĹ´": 1026,
      "æĳĩ": 1027,
      "å¦ĸ": 1028,
      "ä¸ŃçļĦ": 1029,
      "åĲĦ": 1030,
      "åº¦": 1031,
      "æ´¾": 1032,
      "çĤ¼": 1033,
      "å®ĺ": 1034,
      "ç²¾": 1035,
      "æĹ¢": 1036,
      "çĪ¶": 1037,
      "èĽ": 1038,
      "çİĦ": 1039,
      "é½": 1040,
      "ä¹ĭä¸ĭ": 1041,
      "è¿ĺæľī": 1042,
      "æĢ»": 1043,
      "ä¸įèĥ½": 1044,
      "èĥ¡": 1045,
      "å·¦": 1046,
      "æıĲ": 1047,
      "ä¼¼ä¹İ": 1048,
      "å¹²": 1049,
      "è¿Ļç§į": 1050,
      "èĻ½": 1051,
      "åıĬ": 1052,
      "åı¯æĺ¯": 1053,
      "ä¾¿æĺ¯": 1054,
      "æ®µ": 1055,
      "èĲ§": 1056,
      "çĽ®åħī": 1057,
      "åħµ": 1058,
      "è¿Ļä¹Ī": 1059,
      "æĿ¥çļĦ": 1060,
      "åħ½": 1061,
      "æ´»": 1062,
      "ç¤": 1063,
      "éľĩ": 1064,
      "ä¹ĭä¸Ń": 1065,
      "âĢĻ": 1066,
      "åı¶": 1067,
      "åĲĽ": 1068,
      "åģľ": 1069,
      "æĢĴ": 1070,
      "éĵ¶": 1071,
      "âĢĺ": 1072,
      "ä½łä»¬": 1073,
      "åİī": 1074,
      "æĸĩ": 1075,
      "åĪĩ": 1076,
      "çĶ·": 1077,
      "èº«åŃĲ": 1078,
      "åĩºäºĨ": 1079,
      "æĹłæ³ķ": 1080,
      "å´": 1081,
      "è¯Ĩ": 1082,
      "æ¹ĸ": 1083,
      "çŁ³è½©": 1084,
      "ç¡®": 1085,
      "èº«ä¸Ĭ": 1086,
      "åĩĿ": 1087,
      "éĻ¢": 1088,
      "æ®¿": 1089,
      "å¯Ĵ": 1090,
      "äºĭæĥħ": 1091,
      "éĨĴ": 1092,
      "åĨ°": 1093,
      "è¡¨": 1094,
      "é¥": 1095,
      "å¤§çļĦ": 1096,
      "å¦Ĥä½ķ": 1097,
      "ç»Ĩ": 1098,
      "å§ĳ": 1099,
      "å£°éŁ³": 1100,
      "æ¯«": 1101,
      "åĩºä¸Ģ": 1102,
      "æ¯Ĵ": 1103,
      "çĪ·": 1104,
      "æŃ¤åĪ»": 1105,
      "è®º": 1106,
      "æĭ¿": 1107,
      "åº§": 1108,
      "å¼ŁåŃĲ": 1109,
      "åĩ¤å¹´": 1110,
      "éĢĢ": 1111,
      "å¢ĥ": 1112,
      "æĺ¯ä¸Ģ": 1113,
      "ä¸¹": 1114,
      "åĵ¥": 1115,
      "ä¸Ī": 1116,
      "å¾Ĳåĩ¤å¹´": 1117,
      "æ´ŀ": 1118,
      "ç¥ĸ": 1119,
      "å¤į": 1120,
      "çĨ": 1121,
      "é½Ĳ": 1122,
      "è®°": 1123,
      "åıªæľī": 1124,
      "ç¬¦": 1125,
      "èİ«": 1126,
      "éĻ¤": 1127,
      "åĺ´": 1128,
      "ä¾Ŀ": 1129,
      "è¿ĻéĩĮ": 1130,
      "èĹ": 1131,
      "é¼": 1132,
      "ä¸ĢèĪ¬": 1133,
      "ä¸ĭæĿ¥": 1134,
      "éĢŁ": 1135,
      "æľ¯": 1136,
      "é»ĺ": 1137,
      "å¥³åŃĲ": 1138,
      "èĥĮ": 1139,
      "å¤ľ": 1140,
      "é¦ĸ": 1141,
      "æŃ¤æĹ¶": 1142,
      "è°·": 1143,
      "å³°": 1144,
      "å£°éģĵ": 1145,
      "æĲ": 1146,
      "å®¢": 1147,
      "èĤ¡": 1148,
      "è¯·": 1149,
      "å¿½": 1150,
      "åĩī": 1151,
      "åĹ": 1152,
      "é±": 1153,
      "é±¼": 1154,
      "è½°": 1155,
      "å°Ĭ": 1156,
      "å¦Ļ": 1157,
      "åķĬ": 1158,
      "éĤ£ä¸ª": 1159,
      "ä¹±": 1160,
      "çŀ¬": 1161,
      "å®ģç¼º": 1162,
      "çĭĤ": 1163,
      "åºľ": 1164,
      "ä¸įåı¯": 1165,
      "æ¯ı": 1166,
      "å±ħ": 1167,
      "å¸Ŀ": 1168,
      "ç®¡": 1169,
      "å®³": 1170,
      "å®ĥ": 1171,
      "åĬ«": 1172,
      "è¿Ļä½į": 1173,
      "æĺĵ": 1174,
      "å¯»": 1175,
      "è§īå¾Ĺ": 1176,
      "åı¦": 1177,
      "èĬĴ": 1178,
      "çŃĶ": 1179,
      "å¸®": 1180,
      "ç¾İ": 1181,
      "åĪº": 1182,
      "åĩºçİ°": 1183,
      "çĸĳ": 1184,
      "æĽ¾": 1185,
      "éĹ®éģĵ": 1186,
      "éĢģ": 1187,
      "èĦ¸ä¸Ĭ": 1188,
      "åĭ": 1189,
      "ä¸Ģä¸ĭ": 1190,
      "æľĿ": 1191,
      "ç¬¬ä¸Ģ": 1192,
      "ç§ĺ": 1193,
      "åİĭ": 1194,
      "ä»¿": 1195,
      "åĨ³": 1196,
      "ä¸įä½ı": 1197,
      "éº": 1198,
      "åı£æ°Ķ": 1199,
      "è§Ĥ": 1200,
      "ç´«": 1201,
      "å¨ģ": 1202,
      "æĪĸ": 1203,
      "æĬ¬": 1204,
      "ç©¿": 1205,
      "å¾ħ": 1206,
      "è§Ĵ": 1207,
      "éªĳ": 1208,
      "æľį": 1209,
      "çĦ¶åĲİ": 1210,
      "çĹĽ": 1211,
      "æ±ī": 1212,
      "äºĮäºº": 1213,
      "ä¸¤ä¸ª": 1214,
      "çľ¼çĿ": 1215,
      "å¯Ĩ": 1216,
      "åĲĮæĹ¶": 1217,
      "å¯¹æĸ¹": 1218,
      "é¡¶": 1219,
      "å¤Ł": 1220,
      "åįİ": 1221,
      "æ¬¢": 1222,
      "çľĭåĪ°": 1223,
      "èį¯": 1224,
      "çļĦå¤§": 1225,
      "ç½Ĺ": 1226,
      "å»": 1227,
      "èĢĮåĩº": 1228,
      "å¹½": 1229,
      "æľŁ": 1230,
      "æľ±": 1231,
      "æ¥¼": 1232,
      "é¹": 1233,
      "æķĮ": 1234,
      "åıĸ": 1235,
      "ä¸įå¾Ĺ": 1236,
      "æŃ£æĺ¯": 1237,
      "å¿Ļ": 1238,
      "æĸĹ": 1239,
      "è§Ĩ": 1240,
      "å¿į": 1241,
      "åĲ¦": 1242,
      "åŃ¦": 1243,
      "èĢģèĢħ": 1244,
      "åĩĨ": 1245,
      "ä¼¸": 1246,
      "è¿Ĳ": 1247,
      "ä»į": 1248,
      "çľ¼çĿĽ": 1249,
      "å¤©åľ°": 1250,
      "æľīäºº": 1251,
      "æĮģ": 1252,
      "å§ĵ": 1253,
      "å¥Ķ": 1254,
      "éª¨": 1255,
      "åĲĹ": 1256,
      "æĸ°": 1257,
      "èĤī": 1258,
      "æ¿": 1259,
      "è¿Ļæĺ¯": 1260,
      "æĭ³": 1261,
      "åįķ": 1262,
      "çħ§": 1263,
      "ç«ł": 1264,
      "åĵĪ": 1265,
      "èµµ": 1266,
      "çļĦæĺ¯": 1267,
      "è½¦": 1268,
      "æłĳ": 1269,
      "ä¸¤äºº": 1270,
      "å°ļ": 1271,
      "è¿ĩåİ»": 1272,
      "åĳ¢": 1273,
      "åĲ¸": 1274,
      "è£Ĥ": 1275,
      "æĽ´æĺ¯": 1276,
      "å¼Ģå§ĭ": 1277,
      "åľ¨éĤ£": 1278,
      "çĮĽ": 1279,
      "æĿ¨": 1280,
      "çļ®": 1281,
      "ç¾¤": 1282,
      "ä¸Ģæł·": 1283,
      "éŁ¦": 1284,
      "æ¡ĳ": 1285,
      "èĩªå·±çļĦ": 1286,
      "æģĲ": 1287,
      "åŃĺ": 1288,
      "æķħ": 1289,
      "è®¡": 1290,
      "ä¸įåĪ°": 1291,
      "éĤ£ä¹Ī": 1292,
      "éĽ¾": 1293,
      "çģŃ": 1294,
      "åĽ´": 1295,
      "å¾®å¾®": 1296,
      "çĩ": 1297,
      "ä½łçļĦ": 1298,
      "çĶļèĩ³": 1299,
      "é²": 1300,
      "æ¿Ģ": 1301,
      "éĻĪ": 1302,
      "èĭ¥æĺ¯": 1303,
      "èĢĮä¸Ķ": 1304,
      "ï¼ĮâĢľ": 1305,
      "ä¸ĭçļĦ": 1306,
      "è¯´è¯Ŀ": 1307,
      "å¦Ĥæŀľ": 1308,
      "ä¸´": 1309,
      "ä¹ĭéĹ´": 1310,
      "éĢı": 1311,
      "æģ¶": 1312,
      "è¿½": 1313,
      "ç¼ĵç¼ĵ": 1314,
      "åĴ±": 1315,
      "ç³»": 1316,
      "æŁĲ": 1317,
      "ä»»ä½ķ": 1318,
      "çº·": 1319,
      "æł¹æľ¬": 1320,
      "å½ĵçĦ¶": 1321,
      "åŃ©": 1322,
      "éģĵåıĭ": 1323,
      "çĽĺ": 1324,
      "ä¸ºä»Ģä¹Ī": 1325,
      "åĪ¹": 1326,
      "ä¸ĢéĹª": 1327,
      "âĢĿï¼Į": 1328,
      "ä¸įæķ¢": 1329,
      "é¡¾": 1330,
      "åıªè¦ģ": 1331,
      "åĻ¨": 1332,
      "ç®Ģ": 1333,
      "çļĦè¯Ŀ": 1334,
      "éĢĥ": 1335,
      "ä¸ºäºĨ": 1336,
      "ä¸ĢçĽ´": 1337,
      "å°±ç®Ĺ": 1338,
      "è¿ĩæĿ¥": 1339,
      "è°¢": 1340,
      "è±¡": 1341,
      "æĦ¿": 1342,
      "å¤ĩ": 1343,
      "æ³¢": 1344,
      "ä¸įçŁ¥éģĵ": 1345,
      "çĤ¹å¤´": 1346,
      "ä¸Ģç¬ĳ": 1347,
      "åľ¨ä¸Ģ": 1348,
      "çıł": 1349,
      "éĹ»": 1350,
      "ç¢İ": 1351,
      "å·®": 1352,
      "éļ¾éģĵ": 1353,
      "âĢĶâĢĶ": 1354,
      "æĬĵ": 1355,
      "å½ĵå¹´": 1356,
      "å°Ħ": 1357,
      "æ¨¡": 1358,
      "æĥ³åĪ°": 1359,
      "èĥľ": 1360,
      "ä¹ĭåīį": 1361,
      "åį°": 1362,
      "åºĶè¯¥": 1363,
      "èĢ³": 1364,
      "æĸ½": 1365,
      "æĸĻ": 1366,
      "æī¿": 1367,
      "ç«¹": 1368,
      "ä»¿ä½Ľ": 1369,
      "ä¿®ä¸º": 1370,
      "ä¸Ģéģĵ": 1371,
      "ç¥ŀèī²": 1372,
      "çŀ¬éĹ´": 1373,
      "å°ģ": 1374,
      "åľ°æĸ¹": 1375,
      "åľ¨äºĨ": 1376,
      "èĳ": 1377,
      "ä¸ĭåİ»": 1378,
      "çĽ´æİ¥": 1379,
      "ä¸Ģçľ¼": 1380,
      "ä»£": 1381,
      "åĪ©": 1382,
      "çķ¥": 1383,
      "èĤ¯": 1384,
      "æĿ¾": 1385,
      "å§ĳå¨ĺ": 1386,
      "æĮ¥": 1387,
      "åĩºæīĭ": 1388,
      "èµ¶": 1389,
      "çı£": 1390,
      "éĽ¨": 1391,
      "åıĳçİ°": 1392,
      "ä¸Ģå®ļ": 1393,
      "æĺİçĻ½": 1394,
      "æīĭä¸Ń": 1395,
      "åłĤ": 1396,
      "èįī": 1397,
      "éľ²åĩº": 1398,
      "çľŁçļĦ": 1399,
      "ä¸¾": 1400,
      "åĪĿ": 1401,
      "éĺ¿": 1402,
      "åħ¶ä¸Ń": 1403,
      "ç»Īäºİ": 1404,
      "å±ķ": 1405,
      "äº®": 1406,
      "åĴ±ä»¬": 1407,
      "åıªè§ģ": 1408,
      "æŃ¢": 1409,
      "é¡¿æĹ¶": 1410,
      "æĭį": 1411,
      "èĹı": 1412,
      "æĹłæķ°": 1413,
      "æ¸©": 1414,
      "å¦ĩ": 1415,
      "å·ŀ": 1416,
      "ç¤¼": 1417,
      "æ³¨": 1418,
      "åĩłä¹İ": 1419,
      "æ±Ĥ": 1420,
      "çº¿": 1421,
      "è¢į": 1422,
      "å°ĳå¹´": 1423,
      "æĪ¿": 1424,
      "æĿİçı£": 1425,
      "æķĳ": 1426,
      "éĻ©": 1427,
      "å¦Ĥä»Ĭ": 1428,
      "çļ±": 1429,
      "ç±": 1430,
      "åĥıæĺ¯": 1431,
      "å¸ĪåħĦ": 1432,
      "å¦¹": 1433,
      "ä¿Ŀ": 1434,
      "å¸ĥ": 1435,
      "éº»": 1436,
      "é¡»": 1437,
      "ä¸ľè¥¿": 1438,
      "å¼ķ": 1439,
      "å¥¹çļĦ": 1440,
      "èº«ä½ĵ": 1441,
      "èį¡": 1442,
      "æĻļ": 1443,
      "çĭ¬": 1444,
      "çľĭæĿ¥": 1445,
      "æĵ": 1446,
      "æľĢåĲİ": 1447,
      "èĦ±": 1448,
      "èĴ": 1449,
      "åı¯èĥ½": 1450,
      "ç©¶": 1451,
      "ç»Ń": 1452,
      "èĢĮæĺ¯": 1453,
      "éĥŃ": 1454,
      "å¿Į": 1455,
      "è¯¸": 1456,
      "æĪĳçļĦ": 1457,
      "æĢĢ": 1458,
      "æĦŁè§ī": 1459,
      "ç¥ŀéĢļ": 1460,
      "åŃĻ": 1461,
      "èĻļç©º": 1462,
      "æĶ»": 1463,
      "æı¡": 1464,
      "æ½": 1465,
      "è½»è½»": 1466,
      "çĭł": 1467,
      "æĬ¤": 1468,
      "æ²Ī": 1469,
      "åĿĹ": 1470,
      "èĩĤ": 1471,
      "ç¿»": 1472,
      "å±ĭ": 1473,
      "åľ¨ä»ĸ": 1474,
      "åľ£": 1475,
      "å§Ĳ": 1476,
      "åĩºåİ»": 1477,
      "èĦĳ": 1478,
      "åħ´": 1479,
      "çºµ": 1480,
      "åı³æīĭ": 1481,
      "ä½Ĩæĺ¯": 1482,
      "æ¢ģ": 1483,
      "æķ´ä¸ª": 1484,
      "åĨµ": 1485,
      "åŀ": 1486,
      "åŁŁ": 1487,
      "äº¬": 1488,
      "éĩĮçļĦ": 1489,
      "å¤©ä¸ĭ": 1490,
      "åĽ¢": 1491,
      "ä¸įè§ģ": 1492,
      "æĢĶ": 1493,
      "å¾Ĵ": 1494,
      "éĺ¶": 1495,
      "åľĨ": 1496,
      "ï¼Ľ": 1497,
      "çĥĪ": 1498,
      "ä¹ī": 1499,
      "çĵ": 1500,
      "é£ĺ": 1501,
      "åħ¶å®ŀ": 1502,
      "å½Ĵ": 1503,
      "èĭį": 1504,
      "å«": 1505,
      "æĥľ": 1506,
      "ä¹ĭä¸Ĭ": 1507,
      "åı°": 1508,
      "æµ®": 1509,
      "èĭ±": 1510,
      "åĩ¡": 1511,
      "ç»¿": 1512,
      "èĨ": 1513,
      "é¢¤": 1514,
      "å¡": 1515,
      "æ¨ª": 1516,
      "ç§°": 1517,
      "æİī": 1518,
      "å®ŀåľ¨": 1519,
      "æµª": 1520,
      "ä»½": 1521,
      "èĦ¸èī²": 1522,
      "èº«åĲİ": 1523,
      "éģĩ": 1524,
      "æŃ¦åĬŁ": 1525,
      "è·³": 1526,
      "åĽ¾": 1527,
      "æĹ¢çĦ¶": 1528,
      "æŁ³": 1529,
      "çģ°": 1530,
      "èĻİ": 1531,
      "åİŁæĿ¥": 1532,
      "èĢģäºº": 1533,
      "ç½®": 1534,
      "æī«": 1535,
      "é¢Ĩ": 1536,
      "çļĦéĤ£": 1537,
      "å¯Ł": 1538,
      "ä¼Ĺäºº": 1539,
      "çİ¯": 1540,
      "å¸¦çĿĢ": 1541,
      "ç«ŁçĦ¶": 1542,
      "çĭĲ": 1543,
      "é¸£": 1544,
      "ä¸ĢçĤ¹": 1545,
      "å¹»": 1546,
      "åĳĬ": 1547,
      "æĪĲäºĨ": 1548,
      "ä¹ĭäºº": 1549,
      "æķ¬": 1550,
      "æį¢": 1551,
      "å¤«äºº": 1552,
      "çĥŃ": 1553,
      "æľĽçĿĢ": 1554,
      "æĢģ": 1555,
      "æĬ±": 1556,
      "ä¹Łæ²¡æľī": 1557,
      "åĳĨ": 1558,
      "èĥ¸": 1559,
      "æĻ¯": 1560,
      "æİ¨": 1561,
      "çļĦæĹ¶åĢĻ": 1562,
      "ä¼¯": 1563,
      "å®Įåħ¨": 1564,
      "åı¥è¯Ŀ": 1565,
      "å®Ī": 1566,
      "åıªä¸įè¿ĩ": 1567,
      "ç«Łæĺ¯": 1568,
      "æ²³": 1569,
      "æīĢæľī": 1570,
      "åīįè¾Ī": 1571,
      "åģı": 1572,
      "äºĨèµ·æĿ¥": 1573,
      "éĹŃ": 1574,
      "éľĢ": 1575,
      "åĵªéĩĮ": 1576,
      "æĳĩå¤´": 1577,
      "é¢ĺ": 1578,
      "èĢĮåİ»": 1579,
      "çķª": 1580,
      "éĻ¤äºĨ": 1581,
      "çľŁæĺ¯": 1582,
      "æħķ": 1583,
      "çº¦": 1584,
      "å°ĸ": 1585,
      "æ¸ħæ¥ļ": 1586,
      "æĩ": 1587,
      "åĪ¹éĤ£": 1588,
      "åĲŁ": 1589,
      "èĪ¹": 1590,
      "æ¯ķ": 1591,
      "çĶ²": 1592,
      "ç¦»å¼Ģ": 1593,
      "ä¸Ģçīĩ": 1594,
      "å¹´è½»": 1595,
      "åı¸": 1596,
      "ä¸Ģéĺµ": 1597,
      "ç»ĥ": 1598,
      "åĮħ": 1599,
      "çľ¼ä¸Ń": 1600,
      "è¿ĩäºĨ": 1601,
      "ä¹ĭåĬĽ": 1602,
      "ä»ĬæĹ¥": 1603,
      "ä¸¥": 1604,
      "ä¹ĭèī²": 1605,
      "å¹¶ä¸į": 1606,
      "æĺ¥": 1607,
      "æŁĶ": 1608,
      "ä¸ĢäºĽ": 1609,
      "åĽĽåĳ¨": 1610,
      "ä»ħ": 1611,
      "å¿ĥéĩĮ": 1612,
      "å¸ĪçĪ¶": 1613,
      "æİ¥çĿĢ": 1614,
      "å¹ķ": 1615,
      "å±ħçĦ¶": 1616,
      "åĲĮæł·": 1617,
      "å°ıå®Ŀ": 1618,
      "åĲ¬å¾Ĺ": 1619,
      "åĩ¶": 1620,
      "çĪ¹": 1621,
      "èĸ": 1622,
      "åŃĲçļĦ": 1623,
      "æ¶Īå¤±": 1624,
      "çļĩå¸Ŀ": 1625,
      "åıĮæīĭ": 1626,
      "å°¸": 1627,
      "æĹłè®º": 1628,
      "éŀ": 1629,
      "ç´ł": 1630,
      "ç»§": 1631,
      "ä¸ģ": 1632,
      "èĦī": 1633,
      "é¢ľ": 1634,
      "èĿ": 1635,
      "ä½ıäºĨ": 1636,
      "æŃ¤äºº": 1637,
      "æ²īé»ĺ": 1638,
      "ä¸įåĩº": 1639,
      "åıĶ": 1640,
      "ç¬¬äºĮ": 1641,
      "ä¸įéĶĻ": 1642,
      "åĩłä¸ª": 1643,
      "çīĩåĪ»": 1644,
      "èĩ³äºİ": 1645,
      "è¹": 1646,
      "éŁ¦å°ıå®Ŀ": 1647,
      "çľ¼åīį": 1648,
      "æĭī": 1649,
      "ç£": 1650,
      "æ±Łæ¹ĸ": 1651,
      "éĻĨå°ı": 1652,
      "åĥ§": 1653,
      "è¯ķ": 1654,
      "ç§ĭ": 1655,
      "æ¸Ĳæ¸Ĳ": 1656,
      "éĤ£ä½į": 1657,
      "ç¨ĭ": 1658,
      "æ¸¸": 1659,
      "åħį": 1660,
      "çļĦå°ı": 1661,
      "å©Ĩ": 1662,
      "æĮ¡": 1663,
      "åĶĲ": 1664,
      "éĻĨå°ıåĩ¤": 1665,
      "èµ°äºĨ": 1666,
      "çī¹": 1667,
      "èŀ": 1668,
      "è´µ": 1669,
      "åľŁ": 1670,
      "å¼±": 1671,
      "æľīä»Ģä¹Ī": 1672,
      "èı": 1673,
      "è¢ĸ": 1674,
      "å°ĳå¥³": 1675,
      "æ¯į": 1676,
      "åħ¶ä»ĸ": 1677,
      "èįĴ": 1678,
      "åĮĹåĩī": 1679,
      "æ»ļ": 1680,
      "éĶĭ": 1681,
      "ä»ĩ": 1682,
      "æĬĸ": 1683,
      "çĶµ": 1684,
      "æĬ¥": 1685,
      "å¿ĺ": 1686,
      "èģļ": 1687,
      "çĥŁ": 1688,
      "éĥİ": 1689,
      "æĽ²": 1690,
      "çĸ¯": 1691,
      "æĺ¯ä¸ª": 1692,
      "ä¸įçĶ±": 1693,
      "ç½¢": 1694,
      "çĦ°": 1695,
      "åĢŁ": 1696,
      "åıĺåĮĸ": 1697,
      "éĽĦ": 1698,
      "ä¸īäºº": 1699,
      "åĩŃ": 1700,
      "æģ¨": 1701,
      "ç«¯": 1702,
      "çĶ·åŃĲ": 1703,
      "åħ·": 1704,
      "åĲ¬åĪ°": 1705,
      "åį·": 1706,
      "çļĦæīĭ": 1707,
      "éĨĴè¨Ģ": 1708,
      "éģ¿": 1709,
      "åħĪçĶŁ": 1710,
      "æł·åŃĲ": 1711,
      "çŁŃ": 1712,
      "éķĩ": 1713,
      "è¿ĻæĹ¶": 1714,
      "è¾¾": 1715,
      "åºĨ": 1716,
      "ç®Ń": 1717,
      "ä¸Ģäºº": 1718,
      "è¿Ľåħ¥": 1719,
      "çĪ±": 1720,
      "çļĦä¸Ģå£°": 1721,
      "åĩĨå¤ĩ": 1722,
      "æĳ¸": 1723,
      "æħ¢æħ¢": 1724,
      "é²ľ": 1725,
      "æŁĦ": 1726,
      "å£ģ": 1727,
      "èĴĻ": 1728,
      "é¡º": 1729,
      "å±Ģ": 1730,
      "çĽ¯": 1731,
      "å¤§äºº": 1732,
      "æŀľçĦ¶": 1733,
      "çľĭäºĨ": 1734,
      "åĨįæ¬¡": 1735,
      "ç´¢": 1736,
      "ç¨į": 1737,
      "ä¼Ļ": 1738,
      "æĻĥ": 1739,
      "åıĳåĩº": 1740,
      "åİ»äºĨ": 1741,
      "çķĻé¦Ļ": 1742,
      "æ¼«": 1743,
      "è½®": 1744,
      "éĴ±": 1745,
      "çľŁæŃ£": 1746,
      "æ¥ļçķĻé¦Ļ": 1747,
      "å¿Ĺ": 1748,
      "åĳ³": 1749,
      "è¢ĭ": 1750,
      "åıªèĥ½": 1751,
      "æ¬²": 1752,
      "åķ¸": 1753,
      "æĥ¨": 1754,
      "è´¥": 1755,
      "éļĨ": 1756,
      "èĭı": 1757,
      "æĸ©": 1758,
      "å¹³éĿĻ": 1759,
      "æľ¬æĿ¥": 1760,
      "æĹłå¿Į": 1761,
      "æĴŀ": 1762,
      "èľ": 1763,
      "åħĦå¼Ł": 1764,
      "æ°Ķæģ¯": 1765,
      "è¿ľå¤Ħ": 1766,
      "èħ°": 1767,
      "åĪļæīį": 1768,
      "åĪ«äºº": 1769,
      "èĥ½å¤Ł": 1770,
      "åĵ¼": 1771,
      "æļ´": 1772,
      "èĵĿ": 1773,
      "åį«": 1774,
      "æľīäºĨ": 1775,
      "è¿¹": 1776,
      "èĤ©": 1777,
      "ç¡¬": 1778,
      "è´Ł": 1779,
      "éĿĸ": 1780,
      "ä¹ĭæĹ¶": 1781,
      "ä»¥ä¸º": 1782,
      "éģģ": 1783,
      "æ¢ģèĲ§": 1784,
      "åİĨ": 1785,
      "èģĶ": 1786,
      "çĬ¹": 1787,
      "åıĺå¾Ĺ": 1788,
      "çĽĳ": 1789,
      "ç¢§": 1790,
      "æ´ª": 1791,
      "ç¼ĺ": 1792,
      "å´©": 1793,
      "çĦ¶èĢĮ": 1794,
      "çĶ»": 1795,
      "ç±»": 1796,
      "æĿ¥äºĨ": 1797,
      "ç©ºä¸Ń": 1798,
      "éĻĦ": 1799,
      "éĢł": 1800,
      "èī²çļĦ": 1801,
      "æł¼": 1802,
      "åĲ«": 1803,
      "æĮī": 1804,
      "æĦıæĢĿ": 1805,
      "åľ¨ä¸ĭ": 1806,
      "å¿ĥæĥ³": 1807,
      "éĥ½ä¸į": 1808,
      "è¯Ģ": 1809,
      "èº«è¾¹": 1810,
      "éªĤ": 1811,
      "å±ŀ": 1812,
      "åħ¨éĥ¨": 1813,
      "ä¸Ŀæ¯«": 1814,
      "èĩ´": 1815,
      "å¤§å¸Ī": 1816,
      "æīĳ": 1817,
      "è¿·": 1818,
      "å¿įä¸įä½ı": 1819,
      "åĸĥ": 1820,
      "æĻĵ": 1821,
      "ä¸ĸçķĮ": 1822,
      "åĬ²": 1823,
      "å¼ı": 1824,
      "è·Ŀ": 1825,
      "è§ģåĪ°": 1826,
      "åĴ¬": 1827,
      "çĩķ": 1828,
      "åĮĸä¸º": 1829,
      "é¢ĩ": 1830,
      "ä¸Ģä¸ªäºº": 1831,
      "èµ·äºĨ": 1832,
      "éĻħ": 1833,
      "åģĩ": 1834,
      "çĿ¡": 1835,
      "åħ¬åŃĲ": 1836,
      "éĿ¢åīį": 1837,
      "çľŁäºº": 1838,
      "çĪĨ": 1839,
      "éļıçĿĢ": 1840,
      "å¹¸": 1841,
      "æ®ĭ": 1842,
      "åŃ©åŃĲ": 1843,
      "ä¸ĢæŃ¥": 1844,
      "å¾Īå¤ļ": 1845,
      "åģ·": 1846,
      "ç«Ļåľ¨": 1847,
      "çļĦäºĭæĥħ": 1848,
      "æµĵ": 1849,
      "ç§»": 1850,
      "å²Ľ": 1851,
      "åľ¨è¿ĻéĩĮ": 1852,
      "éĹ®é¢ĺ": 1853,
      "çĨŁ": 1854,
      "æİ¢": 1855,
      "éĺģ": 1856,
      "èĵ¦": 1857,
      "å²Ĥ": 1858,
      "èŀį": 1859,
      "éĽĢ": 1860,
      "éĿ¢ä¸Ĭ": 1861,
      "ç¬ĳäºĨ": 1862,
      "è®¸å¤ļ": 1863,
      "ç³Ĭ": 1864,
      "åĵģ": 1865,
      "åįĩ": 1866,
      "éĩİ": 1867,
      "ä¸įè¦ģ": 1868,
      "çīĻ": 1869,
      "ä½ĵåĨħ": 1870,
      "å®ĭ": 1871,
      "èº«å½¢": 1872,
      "å©´": 1873,
      "ä¸ĢèĤ¡": 1874,
      "åı£ä¸Ń": 1875,
      "äºī": 1876,
      "è®²": 1877,
      "æĺ¯è°ģ": 1878,
      "æŃ»äºĨ": 1879,
      "æ²Ļ": 1880,
      "æĭľ": 1881,
      "åľ¨åľ°": 1882,
      "æĳĨ": 1883,
      "åĬ©": 1884,
      "çĬ¶": 1885,
      "æ·¡æ·¡": 1886,
      "ç¼©": 1887,
      "çĥ§": 1888,
      "åħ°": 1889,
      "æ··": 1890,
      "è¸ı": 1891,
      "åĲ¹": 1892,
      "çļĦäºĭ": 1893,
      "å°±åľ¨": 1894,
      "åĬŀ": 1895,
      "è·ĥ": 1896,
      "åħħ": 1897,
      "ç»ķ": 1898,
      "åħ¨èº«": 1899,
      "èļ": 1900,
      "ä¸įåĲĮ": 1901,
      "æĹ§": 1902,
      "è¿Ł": 1903,
      "è®©ä»ĸ": 1904,
      "åħĥç¥ŀ": 1905,
      "æĭħ": 1906,
      "éĿ¢çļĦ": 1907,
      "è¿ĻèĪ¬": 1908,
      "è¾ĥ": 1909,
      "å°ĺ": 1910,
      "æĬ¢": 1911,
      "ä¾§": 1912,
      "åĿĩ": 1913,
      "äºĨåı£æ°Ķ": 1914,
      "å½©": 1915,
      "åĲ¦åĪĻ": 1916,
      "ä¹ĭå¤ĸ": 1917,
      "å¤ļå°ĳ": 1918,
      "å²ģ": 1919,
      "ä¸Ģæ¬¡": 1920,
      "æī¬": 1921,
      "æĶ¯": 1922,
      "åºĦ": 1923,
      "åı«éģĵ": 1924,
      "æŀģä¸º": 1925,
      "æĺ¯ä¸įæĺ¯": 1926,
      "å¼Ģåı£": 1927,
      "ä¸Ģåıª": 1928,
      "æĹ©å·²": 1929,
      "ä¹ĭäºĭ": 1930,
      "éĿ¢èī²": 1931,
      "çļĦå£°éŁ³": 1932,
      "é¢Ĺ": 1933,
      "åĬĽéĩı": 1934,
      "ç¾½": 1935,
      "çĭĹ": 1936,
      "åıĮçĽ®": 1937,
      "æľºä¼ļ": 1938,
      "å¢Ļ": 1939,
      "äºĨåĩł": 1940,
      "ä¾ł": 1941,
      "æºĲ": 1942,
      "åį±": 1943,
      "çĽ¯çĿĢ": 1944,
      "æĿĤ": 1945,
      "è°Ī": 1946,
      "ç¦ģåĪ¶": 1947,
      "çĭ¼": 1948,
      "å°±è¦ģ": 1949,
      "ä¸ºä½ķ": 1950,
      "æĿ¿": 1951,
      "ä¸ĬäºĨ": 1952,
      "åı·": 1953,
      "æ¦": 1954,
      "æ¢¦": 1955,
      "éĻĽ": 1956,
      "ä¹ĭå¤Ħ": 1957,
      "ä¸ĢåĬ¨": 1958,
      "æºĥ": 1959,
      "è¡¨æĥħ": 1960,
      "è£ħ": 1961,
      "è°ĥ": 1962,
      "æ¡Į": 1963,
      "éģĵäºº": 1964,
      "æĥ³è¦ģ": 1965,
      "å¹¿": 1966,
      "ä¹Ĳ": 1967,
      "å¯¹äºİ": 1968,
      "ç½©": 1969,
      "æĿ¯": 1970,
      "ä¿®çĤ¼": 1971,
      "æİĴ": 1972,
      "èĽĩ": 1973,
      "åľĪ": 1974,
      "ä¸ĢåĪĩ": 1975,
      "çīĽ": 1976,
      "åŃĺåľ¨": 1977,
      "éĺ²": 1978,
      "åĵŃ": 1979,
      "ä¸īä¸ª": 1980,
      "éĥ½æ²¡æľī": 1981,
      "æĤŁ": 1982,
      "èº«åīį": 1983,
      "è¡«": 1984,
      "å¥ĩæĢª": 1985,
      "éľĢè¦ģ": 1986,
      "å¤º": 1987,
      "å¯º": 1988,
      "è²": 1989,
      "è¸ª": 1990,
      "ç¨³": 1991,
      "è¿ĺè¦ģ": 1992,
      "ä¸įç¦ģ": 1993,
      "æĬĺ": 1994,
      "ä»¥åĲİ": 1995,
      "å©ī": 1996,
      "åĲĲ": 1997,
      "åĲĳçĿĢ": 1998,
      "éĺ»": 1999,
      "ç«¥": 2000,
      "æĻº": 2001,
      "çĮľ": 2002,
      "èħ¿": 2003,
      "æĿĲ": 2004,
      "æĤĦ": 2005,
      "æĥ§": 2006,
      "äºĨä¸Ģå£°": 2007,
      "ç¬Ķ": 2008,
      "çĳ": 2009,
      "åĺ¿": 2010,
      "èĻ¹": 2011,
      "ä»ĺ": 2012,
      "è¿Ļæīį": 2013,
      "æ³ª": 2014,
      "æŃ£åľ¨": 2015,
      "æ°¸": 2016,
      "æģ©": 2017,
      "ç¥ŀæĥħ": 2018,
      "éĢī": 2019,
      "æ¶Į": 2020,
      "å¥½åĥı": 2021,
      "æģŃ": 2022,
      "åĮĸä½ľ": 2023,
      "ä¸ĢæĹ¶": 2024,
      "ä¸įå®ļ": 2025,
      "åĨ·åĨ·": 2026,
      "åİļ": 2027,
      "éĻĨæ¸Ĳ": 2028,
      "åı¯æĥľ": 2029,
      "åĸ·": 2030,
      "ç©´": 2031,
      "è¯¡": 2032,
      "èµ¤": 2033,
      "è¿İ": 2034,
      "çĺ": 2035,
      "åŃĶ": 2036,
      "æĻ®": 2037,
      "çĻ»": 2038,
      "ä¸Ģèµ·": 2039,
      "?âĢĿ": 2040,
      "äºĮåįģ": 2041,
      "éĴŁ": 2042,
      "å°º": 2043,
      "æĬµ": 2044,
      "èĢĮå·²": 2045,
      "ä¾ĿçĦ¶": 2046,
      "èĢĮæĿ¥": 2047,
      "ç»§ç»Ń": 2048,
      "çİ©": 2049,
      "åķĨ": 2050,
      "çĿĢä¸Ģ": 2051,
      "ä¹Łæľī": 2052,
      "éĿł": 2053,
      "å®¤": 2054,
      "çļĦè¯´éģĵ": 2055,
      "æĶ¹": 2056,
      "æ¯Ľ": 2057,
      "äºĨä¸Ģä¸ĭ": 2058,
      "ä¸¤ä½į": 2059,
      "ä¹ĥ": 2060,
      "å¾®ç¬ĳ": 2061,
      "ä¸Ĭä¸Ģ": 2062,
      "ä»¤çĭĲ": 2063,
      "è§¦": 2064,
      "è¶ĬæĿ¥": 2065,
      "åĿļ": 2066,
      "åĩĢ": 2067,
      "èª": 2068,
      "æľĭ": 2069,
      "è¶ħ": 2070,
      "åĲŀ": 2071,
      "åİŁæľ¬": 2072,
      "åĴĮå°ļ": 2073,
      "å¾Ĺå¾Ī": 2074,
      "å¢¨": 2075,
      "è¶ĬæĿ¥è¶Ĭ": 2076,
      "çĶ°": 2077,
      "ä¸įå°ĳ": 2078,
      "è¿Ļæ¬¡": 2079,
      "å¥³äºº": 2080,
      "éĢ¼": 2081,
      "èĵī": 2082,
      "éĤ£ä¸Ģ": 2083,
      "æ¢ħ": 2084,
      "æĬķ": 2085,
      "åıªæĢķ": 2086,
      "çĿģ": 2087,
      "éĩĮéĿ¢": 2088,
      "ä½łè¯´": 2089,
      "æ¨¡æł·": 2090,
      "æŃ¤äºĭ": 2091,
      "èĬĤ": 2092,
      "éķ¿èĢģ": 2093,
      "è½¬èº«": 2094,
      "å¸Į": 2095,
      "éĽĨ": 2096,
      "é¼İ": 2097,
      "ä¸įåĨį": 2098,
      "è¾°": 2099,
      "åıĮçľ¼": 2100,
      "å¿ĥç¥ŀ": 2101,
      "ä¼ı": 2102,
      "èĥĨ": 2103,
      "å°¤": 2104,
      "æ¤": 2105,
      "ç½ª": 2106,
      "äº¡": 2107,
      "å·§": 2108,
      "æİ§": 2109,
      "åĵĪåĵĪ": 2110,
      "æĿĢäºĨ": 2111,
      "ä¾į": 2112,
      "ç¼Ŀ": 2113,
      "åŃ¤": 2114,
      "èķ": 2115,
      "åħ¬ä¸»": 2116,
      "æ£®": 2117,
      "è§ģè¿ĩ": 2118,
      "ä¸ĭäºĨ": 2119,
      "éª¤": 2120,
      "å¢ĥçķĮ": 2121,
      "èĵ¦çĦ¶": 2122,
      "è¯ģ": 2123,
      "å·´": 2124,
      "éĻį": 2125,
      "æŁ¥": 2126,
      "åĸľæ¬¢": 2127,
      "åī§": 2128,
      "åıĤ": 2129,
      "åķ¦": 2130,
      "ä¹Į": 2131,
      "çģ¯": 2132,
      "åŁº": 2133,
      "åĲ¼": 2134,
      "åī¯": 2135,
      "äºĨä¸ĭæĿ¥": 2136,
      "æĺ¾çĦ¶": 2137,
      "åĪĴ": 2138,
      "åİīå®³": 2139,
      "æĽ¿": 2140,
      "äº¦": 2141,
      "åĢĴæĺ¯": 2142,
      "ä¸įäºĨ": 2143,
      "ä¹ĭå£°": 2144,
      "è¯´çĿĢ": 2145,
      "é«ĺæīĭ": 2146,
      "éĥŃéĿĸ": 2147,
      "å¤©ç©º": 2148,
      "éĤ£äºº": 2149,
      "æ¯ķç«Ł": 2150,
      "æĻ¶": 2151,
      "åĤħ": 2152,
      "å¾¡": 2153,
      "ä¸įå¥½": 2154,
      "æľĭåıĭ": 2155,
      "éģį": 2156,
      "éļĶ": 2157,
      "æĪª": 2158,
      "åħ»": 2159,
      "ç¥Ń": 2160,
      "è¶£": 2161,
      "æħķå®¹": 2162,
      "æĤ²": 2163,
      "éĢŁåº¦": 2164,
      "è®®": 2165,
      "çļĦæł·åŃĲ": 2166,
      "å¼¹": 2167,
      "è´¨": 2168,
      "åħĪåīį": 2169,
      "ä¼¸æīĭ": 2170,
      "åħīèĬĴ": 2171,
      "ä¸Ńå¹´": 2172,
      "åĽŀæĿ¥": 2173,
      "ä¹ĭåľ°": 2174,
      "å½»": 2175,
      "å¼ĢäºĨ": 2176,
      "æĭĶ": 2177,
      "åįĸ": 2178,
      "ä¸īåįģ": 2179,
      "äºİæĺ¯": 2180,
      "çĥ¦": 2181,
      "ä¾¯": 2182,
      "ä»Ĭå¤©": 2183,
      "ç§Ģ": 2184,
      "ä¸ĭä¸Ģ": 2185,
      "å¾·": 2186,
      "åıįèĢĮ": 2187,
      "åĲ´": 2188,
      "èĢģå¤«": 2189,
      "åĨĻ": 2190,
      "æį®": 2191,
      "æīŃ": 2192,
      "èº¯": 2193,
      "åıĪæĺ¯": 2194,
      "çªĹ": 2195,
      "æŃ¤åľ°": 2196,
      "ä»·": 2197,
      "èº«å½±": 2198,
      "è·Ŀç¦»": 2199,
      "èĮ¶": 2200,
      "é©¬ä¸Ĭ": 2201,
      "ãĢĢ": 2202,
      "è·ĳ": 2203,
      "çº·çº·": 2204,
      "ä¹Łæ²¡": 2205,
      "éĻĽä¸ĭ": 2206,
      "çĽĸ": 2207,
      "è·ŁçĿĢ": 2208,
      "å¼¥": 2209,
      "åĮº": 2210,
      "æĮĳ": 2211,
      "åĨ¥": 2212,
      "åįģåĪĨ": 2213,
      "æĬ¬èµ·": 2214,
      "ä¸½": 2215,
      "éľŀ": 2216,
      "è§ģä»ĸ": 2217,
      "å¼Ĥå¸¸": 2218,
      "é²ľè¡Ģ": 2219,
      "è¢ģ": 2220,
      "å¼Ħ": 2221,
      "ä¸įåĬ¨": 2222,
      "æĿ¥è¯´": 2223,
      "åĿı": 2224,
      "æĿ¨è¿ĩ": 2225,
      "å²³": 2226,
      "ç¢°": 2227,
      "æ£ł": 2228,
      "èİ²": 2229,
      "äºĨä¸ª": 2230,
      "åĲĳåīį": 2231,
      "å·²çĦ¶": 2232,
      "ä¿®è¡Į": 2233,
      "åŀĤ": 2234,
      "æĹĭ": 2235,
      "è½¯": 2236,
      "çľīå¤´": 2237,
      "è¿ĺä¸į": 2238,
      "ä¹ĺ": 2239,
      "èĪ¬çļĦ": 2240,
      "è´¼": 2241,
      "æ¡ĳæ¡ĳ": 2242,
      "è´¹": 2243,
      "ç¤º": 2244,
      "èİ½": 2245,
      "æ¾": 2246,
      "éĻĦè¿ĳ": 2247,
      "æĢľ": 2248,
      "çĶŁæŃ»": 2249,
      "ä¸įåģľ": 2250,
      "çİĭæŀĹçļĦ": 2251,
      "èĻ«": 2252,
      "éĿŀå¸¸": 2253,
      "åĪĥ": 2254,
      "åı¹äºĨåı£æ°Ķ": 2255,
      "å´©æºĥ": 2256,
      "æĬ½": 2257,
      "æĹłæ¯Ķ": 2258,
      "æµĳ": 2259,
      "è¡Ĺ": 2260,
      "åĩĮ": 2261,
      "èī¯": 2262,
      "èĲį": 2263,
      "æ¡ĥ": 2264,
      "éĹªåĬ¨": 2265,
      "åĶ¯": 2266,
      "ä¸Ģä¸Ŀ": 2267,
      "çĽ¸ä¿¡": 2268,
      "æ¯ģ": 2269,
      "èº²": 2270,
      "çĴ": 2271,
      "çĽĽ": 2272,
      "ä¸įå¤ļ": 2273,
      "è²Į": 2274,
      "åĲķ": 2275,
      "å¤§æ±ī": 2276,
      "ä¼łæĿ¥": 2277,
      "æĩĤ": 2278,
      "æĪĳä¹Ł": 2279,
      "åĻ¬": 2280,
      "ä¸įæĸŃ": 2281,
      "è§Ħ": 2282,
      "åĸĿéģĵ": 2283,
      "åī©": 2284,
      "æİ©": 2285,
      "çŀª": 2286,
      "ä»¤çĭĲåĨ²": 2287,
      "å°ĨåĨĽ": 2288,
      "æĺ¯ä»Ģä¹Ī": 2289,
      "åĨĴ": 2290,
      "èħ¾": 2291,
      "çļĦæĥħ": 2292,
      "ä¹ĭæĦı": 2293,
      "åĿĲåľ¨": 2294,
      "æŀĿ": 2295,
      "éģ¥": 2296,
      "éģĹ": 2297,
      "è¯´äºĨ": 2298,
      "èĪŀ": 2299,
      "é¸Ł": 2300,
      "ä»ĸä¸Ģ": 2301,
      "å¨ĩ": 2302,
      "èĪį": 2303,
      "æ³¥": 2304,
      "è¿Ļäºº": 2305,
      "ä¸įç®¡": 2306,
      "é±¼åĦ¿": 2307,
      "ä¸įçĶ¨": 2308,
      "ç¥ŀè¯Ĩ": 2309,
      "æŀ¶": 2310,
      "èµ°åĪ°": 2311,
      "äººéĥ½": 2312,
      "æĺ¯åľ¨": 2313,
      "å¤§å°ı": 2314,
      "å¹¶æ²¡æľī": 2315,
      "ä¹ĭä¸Ģ": 2316,
      "åħ³ç³»": 2317,
      "ä»¶äºĭ": 2318,
      "å°¤åħ¶": 2319,
      "ä½Ĩä»ĸ": 2320,
      "è±ª": 2321,
      "æĸ¹åĲĳ": 2322,
      "å¦ĤåĲĮ": 2323,
      "å§ĭç»Ī": 2324,
      "éĤ£è¾¹": 2325,
      "èµ·èº«": 2326,
      "åĩºçļĦ": 2327,
      "éĻµ": 2328,
      "åĶĩ": 2329,
      "éļĲéļĲ": 2330,
      "ä¸įä½Ĩ": 2331,
      "çľĭè§ģ": 2332,
      "æĭ¼": 2333,
      "ä¸Ģä½į": 2334,
      "éĺŁ": 2335,
      "çº¹": 2336,
      "æľīçļĦ": 2337,
      "æīĢåľ¨": 2338,
      "çĹħ": 2339,
      "ä¸Ĭåİ»": 2340,
      "æ±ł": 2341,
      "æķ°åįģ": 2342,
      "æĬĹ": 2343,
      "éĩĬ": 2344,
      "é»ĳèī²": 2345,
      "ä½¿å¾Ĺ": 2346,
      "é£Ł": 2347,
      "åĸĦ": 2348,
      "è¿ħ": 2349,
      "åĽ°": 2350,
      "æģ¢": 2351,
      "çĵ¶": 2352,
      "è¯´çļĦ": 2353,
      "åĬŁå¤«": 2354,
      "ä¼ļåĦ¿": 2355,
      "åıĳçĶŁ": 2356,
      "çŃīäºº": 2357,
      "èĩ£": 2358,
      "æŁ±": 2359,
      "æĿ¥åĪ°": 2360,
      "ä¸ĢåĲį": 2361,
      "æĹ©å°±": 2362,
      "çļĦå¿ĥ": 2363,
      "å°ıé±¼åĦ¿": 2364,
      "ç²Ĺ": 2365,
      "å°ıå¿ĥ": 2366,
      "å¯Ĥ": 2367,
      "æ´Ĺ": 2368,
      "çļĦåľ°æĸ¹": 2369,
      "æķĪ": 2370,
      "é¼»": 2371,
      "å¯¸": 2372,
      "å¤§å®¶": 2373,
      "çļĦåīĳ": 2374,
      "ä¼ĳ": 2375,
      "åĲĵ": 2376,
      "ä¹¦éĻ¢": 2377,
      "å®¹æĺĵ": 2378,
      "ä¸įèµ·": 2379,
      "åįģä¸ī": 2380,
      "èĤ¯å®ļ": 2381,
      "æľµ": 2382,
      "ç¬¼": 2383,
      "æ¸Ĭ": 2384,
      "å¥½ä¼¼": 2385,
      "åĪļåĪļ": 2386,
      "ä¹Łå°±": 2387,
      "æ»´": 2388,
      "ä¸ĢæĿ¡": 2389,
      "ä½Ĩåį´": 2390,
      "äºĨä¸Ģçľ¼": 2391,
      "èº«ä»½": 2392,
      "æµĭ": 2393,
      "åĽŀå¤´": 2394,
      "å´ĸ": 2395,
      "æľĢç»Ī": 2396,
      "å¤ļå¹´": 2397,
      "éĵľ": 2398,
      "æīįèĥ½": 2399,
      "çĨĬ": 2400,
      "çĻ½è¡£": 2401,
      "åĩºçİ°åľ¨": 2402,
      "éļ¾ä»¥": 2403,
      "è¿ľè¿ľ": 2404,
      "æĻĮ": 2405,
      "å·¦æīĭ": 2406,
      "ç»ª": 2407,
      "ä¸įæĥ³": 2408,
      "ä½łè¿Ļ": 2409,
      "å¾ĹåĪ°": 2410,
      "ä¹Łè®¸": 2411,
      "å®ĹéĹ¨": 2412,
      "éĻĲ": 2413,
      "æĤł": 2414,
      "å·¥": 2415,
      "åħ±": 2416,
      "åĪ°åºķ": 2417,
      "åºĬ": 2418,
      "å¸Īå¼Ł": 2419,
      "æ±Ĺ": 2420,
      "ä½łæĺ¯": 2421,
      "å¥½äºĨ": 2422,
      "è½¬çľ¼": 2423,
      "å¿ĥå¤´": 2424,
      "å¦Ī": 2425,
      "ç¬¬ä¸ī": 2426,
      "ç¯": 2427,
      "åĲ¯": 2428,
      "æ¶Īæģ¯": 2429,
      "å½ĵåį³": 2430,
      "åįĬæĻĮ": 2431,
      "è¿Ľåİ»": 2432,
      "æ³ī": 2433,
      "è¿ĺåľ¨": 2434,
      "æĢ¨": 2435,
      "æīĭæĮĩ": 2436,
      "èĪŁ": 2437,
      "åľ°éģĵ": 2438,
      "çĲĥ": 2439,
      "è¯¡å¼Ĥ": 2440,
      "åĩºæĿ¥çļĦ": 2441,
      "å¤ı": 2442,
      "è¯ī": 2443,
      "æĥĳ": 2444,
      "ä¸įåıĬ": 2445,
      "æįŁ": 2446,
      "çīĮ": 2447,
      "æīİ": 2448,
      "æĭ¥": 2449,
      "åľ¨åħ¶": 2450,
      "çĽ´å¥Ķ": 2451,
      "åŃŁ": 2452,
      "åĽŀçŃĶ": 2453,
      "éĤª": 2454,
      "ç¦ı": 2455,
      "çĹ´": 2456,
      "çº§": 2457,
      "åħ¥äºĨ": 2458,
      "åľ¨æŃ¤": 2459,
      "èµ«": 2460,
      "æŀª": 2461,
      "çĸ¾": 2462,
      "ä½©": 2463,
      "è®©äºº": 2464,
      "æĤ¬": 2465,
      "ç¼ľ": 2466,
      "é¥Ń": 2467,
      "éĤ£æĺ¯": 2468,
      "éĹ¹": 2469,
      "éĹ·": 2470,
      "æģĲæĢķ": 2471,
      "éĩįæĸ°": 2472,
      "é»Ħèĵī": 2473,
      "åĭ¾": 2474,
      "æģ¢å¤į": 2475,
      "åİħ": 2476,
      "å¥½çļĦ": 2477,
      "æĺ¾å¾Ĺ": 2478,
      "éŃĦ": 2479,
      "çº¯": 2480,
      "æļĤ": 2481,
      "æĢ§åĳ½": 2482,
      "éĥ¨åĪĨ": 2483,
      "çľĭçľĭ": 2484,
      "äºĨä»ĸ": 2485,
      "éĻ·": 2486,
      "æİł": 2487,
      "åı¦å¤ĸ": 2488,
      "æĸ½å±ķ": 2489,
      "æŃ¦æŀĹ": 2490,
      "èĢĥ": 2491,
      "ç¬ĳçĿĢ": 2492,
      "èħ¹": 2493,
      "çĹķ": 2494,
      "å¸ĮæľĽ": 2495,
      "æ°ĳ": 2496,
      "èĳĽ": 2497,
      "åīįæĸ¹": 2498,
      "è°ĵ": 2499,
      "æ²Īæµª": 2500,
      "ä¹ł": 2501,
      "åĳµ": 2502,
      "éķľ": 2503,
      "å°ıåŃĲ": 2504,
      "æĸľ": 2505,
      "è°·ç¼ľ": 2506,
      "ä»°": 2507,
      "åĽŀåİ»": 2508,
      "éĢĤ": 2509,
      "çĻ¾å¹´": 2510,
      "è¿ĽæĿ¥": 2511,
      "æĽ¾ç»ı": 2512,
      "ä¸Ģè·¯": 2513,
      "æĪĲä¸º": 2514,
      "æĦ¤": 2515,
      "å®¶ä¼Ļ": 2516,
      "æĿŁ": 2517,
      "ç¬ĳå®¹": 2518,
      "çĸ¯çĭĤ": 2519,
      "ä»¥åīį": 2520,
      "èĸĦ": 2521,
      "åı²": 2522,
      "ä¹Łä¸įä¼ļ": 2523,
      "ç¡®å®ŀ": 2524,
      "çĽŁ": 2525,
      "æ·±å¤Ħ": 2526,
      "äºĴ": 2527,
      "èĦļæŃ¥": 2528,
      "äºĨåĩºæĿ¥": 2529,
      "åħĥå©´": 2530,
      "è±«": 2531,
      "çŃĶåºĶ": 2532,
      "éĿĴå¹´": 2533,
      "å»º": 2534,
      "ç¼ł": 2535,
      "åı¶å¼Ģ": 2536,
      "æļĹä¸Ń": 2537,
      "æ£ĭ": 2538,
      "æ´Ľ": 2539,
      "åĢ¼": 2540,
      "ç¢Ĺ": 2541,
      "æīĭä¸Ģ": 2542,
      "çĽĪ": 2543,
      "å·¨å¤§": 2544,
      "ä¸įåľ¨": 2545,
      "èµĦ": 2546,
      "æ²»": 2547,
      "è¯´å®Į": 2548,
      "çģ«çĦ°": 2549,
      "å¼ĥ": 2550,
      "æĽ´åĬł": 2551,
      "ä¹ĭæŀģ": 2552,
      "åįģä¸Ģ": 2553,
      "éĢĶ": 2554,
      "èĶ": 2555,
      "å¤§åĵ¥": 2556,
      "åŃĲéĩĮ": 2557,
      "èĨĿ": 2558,
      "çļĦä¿®å£«": 2559,
      "çº¸": 2560,
      "æĥ³ä¸įåĪ°": 2561,
      "åĲ¬è¯´": 2562,
      "æī§": 2563,
      "åĪĺ": 2564,
      "è¿ĺèĥ½": 2565,
      "åı¹éģĵ": 2566,
      "èĢĮèµ·": 2567,
      "ä»ĸä»¬çļĦ": 2568,
      "ä»Ķ": 2569,
      "å°±ä¼ļ": 2570,
      "æıĴ": 2571,
      "æ¦Ĥ": 2572,
      "æĻ®éĢļ": 2573,
      "æµ®çİ°": 2574,
      "æľīæīĢ": 2575,
      "çĥģ": 2576,
      "çĩĥ": 2577,
      "çºª": 2578,
      "æĪĲçļĦ": 2579,
      "ä¸įæĦ¿": 2580,
      "çīµ": 2581,
      "æ²¡æľīä»»ä½ķ": 2582,
      "æĺı": 2583,
      "æĿĥ": 2584,
      "å°¾": 2585,
      "çĬ¹è±«": 2586,
      "æĹĹ": 2587,
      "æĦĪ": 2588,
      "å¾Īå¿«": 2589,
      "åĳĬè¯ī": 2590,
      "å½ĵæĹ¶": 2591,
      "åįĬçĤ¹": 2592,
      "éĴĪ": 2593,
      "åºĻ": 2594,
      "æĭ¦": 2595,
      "çħŀ": 2596,
      "å¼łæĹłå¿Į": 2597,
      "ç©ºéĹ´": 2598,
      "éª¤çĦ¶": 2599,
      "å½»åºķ": 2600,
      "çĥĤ": 2601,
      "ç®Ĺæĺ¯": 2602,
      "åºĹ": 2603,
      "æĢİæł·": 2604,
      "å°±åľ¨è¿Ļ": 2605,
      "çĤ¹äºĨ": 2606,
      "èķ´": 2607,
      "ãĢĬ": 2608,
      "ãĢĭ": 2609,
      "åĲįåŃĹ": 2610,
      "ä»İæĿ¥": 2611,
      "å¤§ç¬ĳ": 2612,
      "éĵº": 2613,
      "æĥ³èµ·": 2614,
      "åıĪæľī": 2615,
      "è¿Ļæł·çļĦ": 2616,
      "æĮ£": 2617,
      "æ¸ħæĻ": 2618,
      "èªī": 2619,
      "ä¹Łè¦ģ": 2620,
      "å¤ĸçļĦ": 2621,
      "ç»Ŀå¯¹": 2622,
      "éĶĲ": 2623,
      "è¾ĵ": 2624,
      "çł°": 2625,
      "ãĢĢĊ": 2626,
      "ä¸Ģç§į": 2627,
      "æ³ķå®Ŀ": 2628,
      "æĹģè¾¹": 2629,
      "ç»Ł": 2630,
      "æĬ¬å¤´": 2631,
      "åįł": 2632,
      "ä¸»äºº": 2633,
      "ä»Ķç»Ĩ": 2634,
      "éĿ¢å¯¹": 2635,
      "å¼¥æ¼«": 2636,
      "éģŃ": 2637,
      "å¥ī": 2638,
      "å®ŀåĬĽ": 2639,
      "ç²ī": 2640,
      "è·ª": 2641,
      "æłĩ": 2642,
      "ç§¯": 2643,
      "ä»¥åıĬ": 2644,
      "åª": 2645,
      "ä»ĸæĺ¯": 2646,
      "æĦŁåºĶ": 2647,
      "èĢģç¥ĸ": 2648,
      "å¿µå¤´": 2649,
      "éľľ": 2650,
      "æĭ©": 2651,
      "æ¤ħ": 2652,
      "æ²īåĲŁ": 2653,
      "åĨ·ç¬ĳ": 2654,
      "æ²¡æľīäºº": 2655,
      "ä¸įæĪĲ": 2656,
      "æĬ¹": 2657,
      "éĤ£éĩĮ": 2658,
      "ç¿ł": 2659,
      "éĹªçĥģ": 2660,
      "å¤ªå¤ļ": 2661,
      "å®ľ": 2662,
      "é¹¤": 2663,
      "åıªåĲ¬": 2664,
      "åĳĺ": 2665,
      "é¼ĵ": 2666,
      "ç©·": 2667,
      "ç»Ļä½ł": 2668,
      "éļıåį³": 2669,
      "åļ": 2670,
      "æ¡Ī": 2671,
      "æī¾åĪ°": 2672,
      "æĥ³çĿĢ": 2673,
      "åĬ¨æīĭ": 2674,
      "åı¤æĢª": 2675,
      "å¿ħé¡»": 2676,
      "åıįåºĶ": 2677,
      "æľ±éĽĢ": 2678,
      "å¸ĪåıĶ": 2679,
      "èĭįçĻ½": 2680,
      "æĪĸèĢħ": 2681,
      "ç»ĵæŀľ": 2682,
      "ä¸ĬéĿ¢": 2683,
      "æĪĳå°±": 2684,
      "å»¶": 2685,
      "æ¼ł": 2686,
      "ä¸ĢæĬĬ": 2687,
      "ä¸įå¦Ĥ": 2688,
      "æ³ķåŃĲ": 2689,
      "æĬĽ": 2690,
      "åĽº": 2691,
      "ç¬ĳäºĨç¬ĳ": 2692,
      "ä¸įåı¯èĥ½": 2693,
      "åĢį": 2694,
      "éĩĳèī²": 2695,
      "çľ¯": 2696,
      "ä¹°": 2697,
      "å£®": 2698,
      "çĶŁçļĦ": 2699,
      "åľ¨ä¸Ģèµ·": 2700,
      "é¢¤æĬĸ": 2701,
      "æĹ¦": 2702,
      "çĺ¦": 2703,
      "è¿Ļè¯Ŀ": 2704,
      "ä¼łåĩº": 2705,
      "âĢĻï¼Į": 2706,
      "å°¤åħ¶æĺ¯": 2707,
      "åĨħçļĦ": 2708,
      "æŀļ": 2709,
      "ä¸Ģè¾¹": 2710,
      "æĴķ": 2711,
      "è¿ĻçŃī": 2712,
      "å¾ĭ": 2713,
      "éĻª": 2714,
      "è¯´ä»Ģä¹Ī": 2715,
      "èµŀ": 2716,
      "æºľ": 2717,
      "ä¸ĸéĹ´": 2718,
      "èĿ¶": 2719,
      "ç¨Ģ": 2720,
      "æĭħå¿ĥ": 2721,
      "éĩĳåħī": 2722,
      "çļĦç¡®": 2723,
      "é©¬è½¦": 2724,
      "åįĹå®«": 2725,
      "éĵ¶åŃĲ": 2726,
      "ä¸įè¯´": 2727,
      "åĲİæĿ¥": 2728,
      "èĲ½åľ¨": 2729,
      "ç®Ģåįķ": 2730,
      "ç¿¼": 2731,
      "çĶ·äºº": 2732,
      "è¿Ļä¸¤": 2733,
      "æ½®": 2734,
      "åĩĦ": 2735,
      "åīĳåħī": 2736,
      "æĸ¹æīį": 2737,
      "ä¿±": 2738,
      "æ»¡äºĨ": 2739,
      "éģĵçĲĨ": 2740,
      "ç§¦": 2741,
      "å¥Ĺ": 2742,
      "æĮº": 2743,
      "éĩįè¦ģ": 2744,
      "èİ·": 2745,
      "å¹¶éĿŀ": 2746,
      "è¢Ń": 2747,
      "å¨ģåĬĽ": 2748,
      "å²©": 2749,
      "åĲİéĿ¢": 2750,
      "éĢĨ": 2751,
      "çļĨ": 2752,
      "çĦ¦": 2753,
      "èĮ«": 2754,
      "å·¨å¤§çļĦ": 2755,
      "çĹĽèĭ¦": 2756,
      "ä»¤äºº": 2757,
      "çľ¨": 2758,
      "åħ¨éĥ½": 2759,
      "æĢ»æĺ¯": 2760,
      "æĨ": 2761,
      "èĻĳ": 2762,
      "è¿ĺæ²¡æľī": 2763,
      "èĩ³å°ĳ": 2764,
      "åĮĹèİ½": 2765,
      "ä½łè¦ģ": 2766,
      "æĿĢäºº": 2767,
      "æĶ¾åľ¨": 2768,
      "çĮ«": 2769,
      "åį´åıĪ": 2770,
      "åłª": 2771,
      "ç»ĻæĪĳ": 2772,
      "è°ĭ": 2773,
      "è¢«äºº": 2774,
      "åİĮ": 2775,
      "è¯ļ": 2776,
      "éħį": 2777,
      "ç£¨": 2778,
      "æ¯«ä¸į": 2779,
      "åĸĬ": 2780,
      "è®¤ä¸º": 2781,
      "æ®Ĭ": 2782,
      "éŀŃ": 2783,
      "è®¨": 2784,
      "åĤ¨": 2785,
      "æĴĳ": 2786,
      "èµĮ": 2787,
      "åľ¨éĤ£éĩĮ": 2788,
      "å¿Ĩ": 2789,
      "è¿Ļåı¥è¯Ŀ": 2790,
      "éĨī": 2791,
      "è¿Ļåĩł": 2792,
      "äºĨä¸Ģä¸ª": 2793,
      "åºŃ": 2794,
      "æīĺ": 2795,
      "èº«èº¯": 2796,
      "åħĭ": 2797,
      "éªĩ": 2798,
      "é¬¼åİī": 2799,
      "å¿§": 2800,
      "å°Ķ": 2801,
      "èĥĮåĲİ": 2802,
      "é£ŀåīĳ": 2803,
      "è¾Ľ": 2804,
      "éĽķ": 2805,
      "æģ¼": 2806,
      "ä¸«": 2807,
      "æ³¨æĦı": 2808,
      "äºĨä¸¤": 2809,
      "çĿĢçļĦ": 2810,
      "åº·": 2811,
      "ä¸ĢéĿ¢": 2812,
      "ç»Ļä»ĸ": 2813,
      "æŀ¯": 2814,
      "å½¼": 2815,
      "æ°ı": 2816,
      "æĤ¨": 2817,
      "éĵģèĬ±": 2818,
      "å¸Ĳ": 2819,
      "èĥ¡éĵģèĬ±": 2820,
      "åºŁ": 2821,
      "ä¸Ģä¸ªä¸ª": 2822,
      "åı¹æģ¯": 2823,
      "åĺ¶": 2824,
      "èĲ¥": 2825,
      "èº«æĹģ": 2826,
      "è¯´æĺ¯": 2827,
      "å¥´": 2828,
      "å¼¯": 2829,
      "çľĭåİ»": 2830,
      "è¿ĽäºĨ": 2831,
      "å¤©çļĦ": 2832,
      "æī¯": 2833,
      "å»·": 2834,
      "å¢ŀ": 2835,
      "å°Ĩä»ĸ": 2836,
      "éķ¿åīĳ": 2837,
      "éĶģ": 2838,
      "å®¶çļĦ": 2839,
      "éĺµæ³ķ": 2840,
      "è¨Ģè¯Ń": 2841,
      "åĪĻæĺ¯": 2842,
      "ä¸ĢæĹ¦": 2843,
      "æīįæĺ¯": 2844,
      "æĪĳæĺ¯": 2845,
      "åĸĥåĸĥ": 2846,
      "è¿ħéĢŁ": 2847,
      "åĺ»": 2848,
      "ä¸ĵ": 2849,
      "ä½ķåĨµ": 2850,
      "å½ĵçľŁ": 2851,
      "çļĦå¤©": 2852,
      "å½ĵä¸ĭ": 2853,
      "é»¯": 2854,
      "å°±åĥı": 2855,
      "æīĭæİĮ": 2856,
      "é»ĳè¡£": 2857,
      "æĢĸ": 2858,
      "åı¯æĢķ": 2859,
      "çĿĢä»ĸ": 2860,
      "åįģäºĮ": 2861,
      "ä¸Ģå¼ł": 2862,
      "èĪĴ": 2863,
      "çļĦèĢģ": 2864,
      "æ»ĳ": 2865,
      "äº¬éĥ½": 2866,
      "çĪ¶äº²": 2867,
      "ç¥ŀæ®¿": 2868,
      "ä¸ĢæĥĬ": 2869,
      "ä¸ĸä¸Ĭ": 2870,
      "åĨ·ç¬ĳéģĵ": 2871,
      "è¿Ļä¸Ģæ¬¡": 2872,
      "ä¹Łä¸įæĺ¯": 2873,
      "çľĭå¾Ĺ": 2874,
      "ä¼´": 2875,
      "å¹´çºª": 2876,
      "æ¬§": 2877,
      "å¥ĭ": 2878,
      "ä¹Łä¸įçŁ¥": 2879,
      "éĢīæĭ©": 2880,
      "åĽŃ": 2881,
      "ä¸ĢæĿ¥": 2882,
      "æ°ĶçļĦ": 2883,
      "çľ¸": 2884,
      "åįĵ": 2885,
      "åĩłåĪĨ": 2886,
      "éĥģ": 2887,
      "æĪĳä¸į": 2888,
      "æ°¸è¿ľ": 2889,
      "é¹°": 2890,
      "å¤´é¡¶": 2891,
      "æĶ¾å¿ĥ": 2892,
      "ä¸ªäºº": 2893,
      "ä½įç½®": 2894,
      "æ¶Īæķ£": 2895,
      "ç½ĳ": 2896,
      "å¦»": 2897,
      "æŃ»çļĦ": 2898,
      "æµ©": 2899,
      "ä¸ĥåħ«": 2900,
      "åĲ¬äºĨ": 2901,
      "çĽ®ä¸Ń": 2902,
      "æľĽåİ»": 2903,
      "å§ļ": 2904,
      "éģ®": 2905,
      "å¥Ī": 2906,
      "åĨįè¯´": 2907,
      "èģª": 2908,
      "æĺ¯æĪĳ": 2909,
      "ä½łä¸į": 2910,
      "åıĪéģĵ": 2911,
      "å¤´é¢": 2912,
      "çķĻä¸ĭ": 2913,
      "åĬłä¸Ĭ": 2914,
      "åĽłä¸ºä»ĸ": 2915,
      "çĲ¼": 2916,
      "åºŀ": 2917,
      "çıį": 2918,
      "ä¹ĭçī©": 2919,
      "æĹłå£°": 2920,
      "çļĩåŃĲ": 2921,
      "åłĨ": 2922,
      "è¯¯": 2923,
      "ç§ģ": 2924,
      "è®¾": 2925,
      "åįģä½Ļ": 2926,
      "æī¶": 2927,
      "åĤĢ": 2928,
      "æ®¿ä¸ĭ": 2929,
      "éĶ¦": 2930,
      "å¡Ķ": 2931,
      "å·²æĺ¯": 2932,
      "åĮ¹": 2933,
      "èŁ": 2934,
      "çłį": 2935,
      "ä¸ĬæĿ¥": 2936,
      "æĿľ": 2937,
      "éĤ£åĲį": 2938,
      "å¥¹ä»¬": 2939,
      "èĻ½è¯´": 2940,
      "å¯ŁéĻ¢": 2941,
      "åĽŀåĪ°": 2942,
      "æīĭæ®µ": 2943,
      "ä¸Ģè§ģ": 2944,
      "ç½¢äºĨ": 2945,
      "éģĵå£«": 2946,
      "çĶĺ": 2947,
      "ä¸Ĭåīį": 2948,
      "åĤ¨çī©": 2949,
      "æ¬§éĺ³": 2950,
      "éĤ£ç§į": 2951,
      "å¯Į": 2952,
      "æĤī": 2953,
      "è¯»": 2954,
      "éªĹ": 2955,
      "å¤ĸéĿ¢": 2956,
      "å°±åĥıæĺ¯": 2957,
      "å°ıçļĦ": 2958,
      "æĮĤ": 2959,
      "æ¨¡ç³Ĭ": 2960,
      "åĭī": 2961,
      "æķı": 2962,
      "åĦ¡": 2963,
      "æľĽåĲĳ": 2964,
      "èĢĹ": 2965,
      "ä¸ĭæĸ¹": 2966,
      "äºŃ": 2967,
      "åĽłæŃ¤": 2968,
      "è£Ĥç¼Ŀ": 2969,
      "å¹¶æľª": 2970,
      "æĪ·": 2971,
      "ä¸Ģçľĭ": 2972,
      "ä¹ĭåĨħ": 2973,
      "ä»Ĺ": 2974,
      "èİ«éĿŀ": 2975,
      "å°ıåĩ¡": 2976,
      "ä¸ĢæĢĶ": 2977,
      "åīĳæ³ķ": 2978,
      "èµ°åĩº": 2979,
      "çļ±çľī": 2980,
      "æ´ŀåºľ": 2981,
      "èĽ®": 2982,
      "åħ¸": 2983,
      "å¯¹ä»ĺ": 2984,
      "æīĭéĩĮ": 2985,
      "è¯´åĪ°": 2986,
      "æĺ¯åĲ¦": 2987,
      "æľīçĤ¹": 2988,
      "è®¶": 2989,
      "æ¸ħæĻ°": 2990,
      "è¿Ī": 2991,
      "å®Ĺå¸Ī": 2992,
      "åħīä¸ĢéĹª": 2993,
      "éķ¿å®ī": 2994,
      "çĤ¹äºĨçĤ¹å¤´": 2995,
      "åħ¶åĨħ": 2996,
      "è¯´ä¸įå®ļ": 2997,
      "çĭłçĭł": 2998,
      "çļĦæĹ¶éĹ´": 2999,
      "æ³ķåĻ¨": 3000,
      "èĲ½ä¸ĭ": 3001,
      "æ±īåŃĲ": 3002,
      "æĢİä¼ļ": 3003,
      "è¯´å¾Ĺ": 3004,
      "æĻļè¾Ī": 3005,
      "å®ĩ": 3006,
      "åıĺæĪĲ": 3007,
      "æİ§åĪ¶": 3008,
      "ä»ĸåľ¨": 3009,
      "å¤§æ¦Ĥ": 3010,
      "åĨ²åĩ»": 3011,
      "éľĦ": 3012,
      "ä¸ĢæĻĥ": 3013,
      "åĦ¿åŃĲ": 3014,
      "ä»ģ": 3015,
      "æīĩ": 3016,
      "åĤ²": 3017,
      "åĤĢåĦ¡": 3018,
      "èıľ": 3019,
      "å¤§åįĬ": 3020,
      "éĹ¯": 3021,
      "è¡¥": 3022,
      "æĪĸè®¸": 3023,
      "ä¸Ĭå®ĺ": 3024,
      "çľĭåĪ°äºĨ": 3025,
      "é©°": 3026,
      "æĥ¹": 3027,
      "çĤ¹çĤ¹å¤´": 3028,
      "çľ¼ç¥ŀ": 3029,
      "çĽ´åĪ°": 3030,
      "è½¬è¿ĩ": 3031,
      "åľ¨è¿Ļä¸Ģ": 3032,
      "æĹ¶è¾°": 3033,
      "æ¯«æĹł": 3034,
      "éļıåĲİ": 3035,
      "éĻĨå°ıåĩ¤éģĵ": 3036,
      "æħĮ": 3037,
      "å±ł": 3038,
      "å¹´åīį": 3039,
      "é¢Ŀ": 3040,
      "å¹¶ä¸įæĺ¯": 3041,
      "å§Ĭ": 3042,
      "èĭ±éĽĦ": 3043,
      "åīįéĿ¢": 3044,
      "åĩĿèģļ": 3045,
      "æĺĬ": 3046,
      "æĭĤ": 3047,
      "ä¹ĭæ°Ķ": 3048,
      "å¾ĹäºĨ": 3049,
      "èĢģå¤´": 3050,
      "éķĸ": 3051,
      "éĥ½è¦ģ": 3052,
      "æĪĲåĬŁ": 3053,
      "æ¸¡": 3054,
      "æĻķ": 3055,
      "äºĨè¿ĩåİ»": 3056,
      "å¾®å¾®ä¸Ģç¬ĳ": 3057,
      "åĵ¥åĵ¥": 3058,
      "çĽĳå¯ŁéĻ¢": 3059,
      "çĦ¶éģĵ": 3060,
      "æ²¹": 3061,
      "æĹłäºº": 3062,
      "ç§ĺå¯Ĩ": 3063,
      "åĪ«çļĦ": 3064,
      "æ¬º": 3065,
      "è§£éĩĬ": 3066,
      "éĥ½ä¼ļ": 3067,
      "èĥĸ": 3068,
      "å¼łå°ıåĩ¡": 3069,
      "åĵĳ": 3070,
      "èĦĨ": 3071,
      "ä¸Ģåı£": 3072,
      "å¤´é¢ħ": 3073,
      "ä»įçĦ¶": 3074,
      "èĢĢ": 3075,
      "åĨįä¹Ł": 3076,
      "åĹ¯": 3077,
      "ä¸ļ": 3078,
      "åĲİéĢĢ": 3079,
      "éķ¿çļĦ": 3080,
      "èĥ¸åı£": 3081,
      "æ¼©": 3082,
      "éĥ½æľī": 3083,
      "çľĭçĿĢä»ĸ": 3084,
      "æĪĳè¦ģ": 3085,
      "é¸¡": 3086,
      "å°±è¿ŀ": 3087,
      "è´£": 3088,
      "æīĭèĩĤ": 3089,
      "åĴĲ": 3090,
      "èĬĿ": 3091,
      "æĹ¥åĲİ": 3092,
      "è¿ĻäºĽäºº": 3093,
      "éĺµéĺµ": 3094,
      "æŁı": 3095,
      "éĥ¡": 3096,
      "åĢĺ": 3097,
      "å§¿": 3098,
      "å¦ĩäºº": 3099,
      "äºı": 3100,
      "è£¹": 3101,
      "åį±éĻ©": 3102,
      "å¾Ħ": 3103,
      "ä»İæľª": 3104,
      "å¼ĢæĿ¥": 3105,
      "ç»ıè¿ĩ": 3106,
      "æ³ķåĪĻ": 3107,
      "çº¢éĽª": 3108,
      "èµı": 3109,
      "å¼ºå¤§": 3110,
      "å¯¹ä»ĸ": 3111,
      "ç¾ŀ": 3112,
      "åĵįèµ·": 3113,
      "å±ģ": 3114,
      "ç¬¼ç½©": 3115,
      "åħ¶ä½Ļ": 3116,
      "ä¸ĢåĽ¢": 3117,
      "æĺ¨": 3118,
      "æĶ»åĩ»": 3119,
      "ä¸Ĳ": 3120,
      "æĺİæĺ¾": 3121,
      "æĦģ": 3122,
      "åĴĴ": 3123,
      "éĥ½åľ¨": 3124,
      "å¨ĥ": 3125,
      "èµ«çĦ¶": 3126,
      "ä½łä¹Ł": 3127,
      "æ¶¡": 3128,
      "èı©": 3129,
      "âĢĿãĢĤ": 3130,
      "è¾ŀ": 3131,
      "çķı": 3132,
      "çľĭèµ·æĿ¥": 3133,
      "éĴ»": 3134,
      "åĤħçº¢éĽª": 3135,
      "çķĶ": 3136,
      "æīĢè°ĵ": 3137,
      "è®©æĪĳ": 3138,
      "ä¸Ģçķª": 3139,
      "ä»ĸä¹Ł": 3140,
      "æ®µèªī": 3141,
      "åĤ¬": 3142,
      "å®īéĿĻ": 3143,
      "ç½¡": 3144,
      "å°±ä¸į": 3145,
      "åĳĢ": 3146,
      "ä¹ĭéĻħ": 3147,
      "è§ģäºĨ": 3148,
      "èħķ": 3149,
      "åį³ä½¿": 3150,
      "å¤§éģĵ": 3151,
      "æĦ£": 3152,
      "ç´¯": 3153,
      "æĥ³æĿ¥": 3154,
      "å±±å³°": 3155,
      "å£°è¯´éģĵ": 3156,
      "è¿Ļè¾¹": 3157,
      "çº³": 3158,
      "åħĥæ°Ķ": 3159,
      "è·Į": 3160,
      "åĳ¼åķ¸": 3161,
      "å°Ŀ": 3162,
      "èĤļ": 3163,
      "ç¾Ĭ": 3164,
      "èĸĽ": 3165,
      "äººçī©": 3166,
      "æľĿå»·": 3167,
      "çī¢": 3168,
      "åĺ´è§Ĵ": 3169,
      "æĦŁåıĹ": 3170,
      "å±Ī": 3171,
      "å¿½åľ°": 3172,
      "ç¥ŀç§ĺ": 3173,
      "åĢ¾": 3174,
      "éº»çĥ¦": 3175,
      "åĬ¡": 3176,
      "å¤©éŃĶ": 3177,
      "æĭĸ": 3178,
      "ä¿Ĺ": 3179,
      "è¯´è¿ĩ": 3180,
      "åĨħå¿ĥ": 3181,
      "å¾Īä¹ħ": 3182,
      "å²¸": 3183,
      "æŃ£è¦ģ": 3184,
      "å¤´ä¸Ĭ": 3185,
      "åĵ¦": 3186,
      "æģ°": 3187,
      "åĤ»": 3188,
      "åľ°ä¸Ĭ": 3189,
      "æİĮéĹ¨": 3190,
      "å¥³åĦ¿": 3191,
      "å¼ĵ": 3192,
      "æİĲ": 3193,
      "ä¸Ģè½¬": 3194,
      "åĬĪ": 3195,
      "çĪ¹çĪ¹": 3196,
      "æĥħåĨµ": 3197,
      "å¤©åĲĽ": 3198,
      "å®Ŀçī©": 3199,
      "åĬŁæ³ķ": 3200,
      "åľ°è¯´éģĵ": 3201,
      "åı¤ç¥ŀ": 3202,
      "ä¾ĿæĹ§": 3203,
      "æĺ¯ä»ĸ": 3204,
      "çºµçĦ¶": 3205,
      "åĮĨ": 3206,
      "ä¸įä¸Ĭ": 3207,
      "ä¸įèĤ¯": 3208,
      "æ´Ĵ": 3209,
      "çļĦçģµ": 3210,
      "éĽ¾æ°Ķ": 3211,
      "æ¼©æ¶¡": 3212,
      "æĥ³å¿ħ": 3213,
      "è®°å¾Ĺ": 3214,
      "æĦıçļĦ": 3215,
      "ä¸Ģå¤Ħ": 3216,
      "ä¹Łåľ¨": 3217,
      "å¹¶ä¸Ķ": 3218,
      "ç¬¬ä¸Ģæ¬¡": 3219,
      "èĲ¨": 3220,
      "æĳ©": 3221,
      "æĦ§": 3222,
      "éĽ¶": 3223,
      "æ±ŁåįĹ": 3224,
      "éĻĮ": 3225,
      "éĩĩ": 3226,
      "æŁĵ": 3227,
      "çļĦæĦŁè§ī": 3228,
      "èµ°åİ»": 3229,
      "å°Ĩè¿Ļ": 3230,
      "æľīä¸ª": 3231,
      "èĢĲ": 3232,
      "å°ĳæŀĹ": 3233,
      "å¹´æĿ¥": 3234,
      "æĦıå¤ĸ": 3235,
      "æľĹ": 3236,
      "èŃ": 3237,
      "æľ¬èº«": 3238,
      "æīĵç®Ĺ": 3239,
      "ä¿®çľŁ": 3240,
      "æķĻä¸»": 3241,
      "æ½ľ": 3242,
      "æľ«": 3243,
      "æįī": 3244,
      "çļĦåľ°": 3245,
      "çŃĳ": 3246,
      "åĿĽ": 3247,
      "èĤīèº«": 3248,
      "å¯»å¸¸": 3249,
      "ä½³": 3250,
      "å®½": 3251,
      "è¢«ä»ĸ": 3252,
      "åģ¶": 3253,
      "çļĦè¡Ģ": 3254,
      "çŀĴ": 3255,
      "ä½İå¤´": 3256,
      "æī¿å¿Ĺ": 3257,
      "è¿Ķ": 3258,
      "ä¸ĥä¸ĥ": 3259,
      "éĢĲ": 3260,
      "åµ": 3261,
      "åīĳæ°Ķ": 3262,
      "çĻ½èī²": 3263,
      "æĥ¯": 3264,
      "ä¸ĩéĩĮ": 3265,
      "è®¸ä¹ħ": 3266,
      "åĳ¼åĲ¸": 3267,
      "éĿĴèī²": 3268,
      "å¤ªè¿ĩ": 3269,
      "æįı": 3270,
      "ä¹Łä¼ļ": 3271,
      "çĬ¯": 3272,
      "åĩłä½į": 3273,
      "å¯»æ¬¢": 3274,
      "æ¶Ĥ": 3275,
      "å¾®ç¬ĳéģĵ": 3276,
      "éĢĿ": 3277,
      "ä¸ŃéĹ´": 3278,
      "æĪĳçŁ¥éģĵ": 3279,
      "æĵ¦": 3280,
      "èĢĮè¿ĩ": 3281,
      "å¤©å°Ĭ": 3282,
      "éĢĴ": 3283,
      "å¤´æĿ¥": 3284,
      "å¤¹": 3285,
      "é¾Ł": 3286,
      "è¤": 3287,
      "æ»¡èĦ¸": 3288,
      "äºĨäºĽ": 3289,
      "å±ı": 3290,
      "ä¸ĸåŃĲ": 3291,
      "äº§": 3292,
      "æĿİå¯»æ¬¢": 3293,
      "ç²¾ç¥ŀ": 3294,
      "çĮĽåľ°": 3295,
      "è°¨": 3296,
      "åı¬": 3297,
      "å®ĥä»¬": 3298,
      "æµħ": 3299,
      "å¾Īæĺ¯": 3300,
      "æķĮäºº": 3301,
      "åĢĺèĭ¥": 3302,
      "åĪĽ": 3303,
      "èºº": 3304,
      "è¯´åĩº": 3305,
      "å®ĺåĳĺ": 3306,
      "ä¸įè§ī": 3307,
      "æ´ģ": 3308,
      "æĺĨ": 3309,
      "é£ŀåĩº": 3310,
      "éĹªçĶµ": 3311,
      "çľ¼è§ģ": 3312,
      "éľ²åĩºä¸Ģ": 3313,
      "æĺł": 3314,
      "éĢ¸": 3315,
      "éľį": 3316,
      "ä½ľä¸º": 3317,
      "æī°": 3318,
      "è¯Ĺ": 3319,
      "å¿ĺäºĨ": 3320,
      "å¿ħå®ļ": 3321,
      "å¹¼": 3322,
      "åıªè§ī": 3323,
      "éĺ´éĺ³": 3324,
      "è¿«": 3325,
      "ä¸¢": 3326,
      "æĸĲ": 3327,
      "èĢģäººå®¶": 3328,
      "åĬ³": 3329,
      "åĲ©": 3330,
      "è¿ĺæľª": 3331,
      "çĪª": 3332,
      "åĲ¬çĿĢ": 3333,
      "ç»Ŀä¸įä¼ļ": 3334,
      "åįģä¸Ģéĥİ": 3335,
      "æĳĶ": 3336,
      "é¬¼çİĭ": 3337,
      "ä¸įçĶ±å¾Ĺ": 3338,
      "è´´": 3339,
      "äº²èĩª": 3340,
      "åĴ³": 3341,
      "åĲ©åĴĲ": 3342,
      "çĮĽçĦ¶": 3343,
      "æģĲæĥ§": 3344,
      "èĲ§åįģä¸Ģéĥİ": 3345,
      "å¹»åĮĸ": 3346,
      "åĹ¡": 3347,
      "æĬĵä½ı": 3348,
      "é©±": 3349,
      "åįģåĩł": 3350,
      "ç«ĭåį³": 3351,
      "é¥®": 3352,
      "é©¾": 3353,
      "äºĨä¸ĭåİ»": 3354,
      "è¿ĺæ²¡": 3355,
      "èĽĭ": 3356,
      "å¤įæĿĤ": 3357,
      "æľ±ä¸ĥä¸ĥ": 3358,
      "ç©¶ç«Ł": 3359,
      "å½ĵåĪĿ": 3360,
      "åįģåħ«": 3361,
      "å½±åĵį": 3362,
      "å·Ŀ": 3363,
      "åį³ä¾¿æĺ¯": 3364,
      "å£°ä¸Ń": 3365,
      "ä»ª": 3366,
      "çľĭä¼¼": 3367,
      "çĨŁæĤī": 3368,
      "æŃ¤å¥³": 3369,
      "åĽĽäºº": 3370,
      "èŃ¦": 3371,
      "è¦ģæĺ¯": 3372,
      "æĪĴ": 3373,
      "éĿĻéĿĻ": 3374,
      "åĭĩ": 3375,
      "å¥¶": 3376,
      "æł·çļĦ": 3377,
      "æ®·": 3378,
      "çİīç®Ģ": 3379,
      "å·¦åı³": 3380,
      "æĥħå½¢": 3381,
      "èĦĳè¢ĭ": 3382,
      "åĬŀæ³ķ": 3383,
      "å¦¨": 3384,
      "äºĨä¸ĢäºĽ": 3385,
      "å°±åľ¨è¿ĻæĹ¶": 3386,
      "çľŁæŃ£çļĦ": 3387,
      "ä¹ĸ": 3388,
      "æ´ĭ": 3389,
      "æģĲæĢĸ": 3390,
      "åİ®": 3391,
      "ä½łèĭ¥": 3392,
      "æĪı": 3393,
      "éĩįçļĦ": 3394,
      "éĹ»è¨Ģ": 3395,
      "æĮ£æīİ": 3396,
      "åĪ¹éĤ£éĹ´": 3397,
      "çľĭåĲĳ": 3398,
      "è¿Ļä¸ªäºº": 3399,
      "æĪĳçŃī": 3400,
      "è½»æĺĵ": 3401,
      "åĭīå¼º": 3402,
      "è¶ģ": 3403,
      "å½¢æĪĲ": 3404,
      "é¢ĩä¸º": 3405,
      "æĵį": 3406,
      "å¸Ĥ": 3407,
      "ç¥¸": 3408,
      "çļĦèĦ¸": 3409,
      "çĭŀ": 3410,
      "å¤ļä¹ħ": 3411,
      "è´¯": 3412,
      "çĶ¨çļĦ": 3413,
      "çľĭåĩº": 3414,
      "çĶŁçĶŁ": 3415,
      "é¥¶": 3416,
      "é¢Ħ": 3417,
      "æľīäºĽä¸į": 3418,
      "æīĭä¸Ĭ": 3419,
      "è®©ä½ł": 3420,
      "æħİ": 3421,
      "èĥ¡æĸĲ": 3422,
      "æ¶²": 3423,
      "äºĨè¿ĩæĿ¥": 3424,
      "è¯´ä¸įåĩº": 3425,
      "åī²": 3426,
      "åĶ¤": 3427,
      "ä¸Ģä»¶": 3428,
      "èĪĮ": 3429,
      "åĴ§": 3430,
      "ç¿ħ": 3431,
      "åħīæĺİ": 3432,
      "çĻ»æĹ¶": 3433,
      "è´º": 3434,
      "æĿĸ": 3435,
      "æĻ´": 3436,
      "æĬĬæı¡": 3437,
      "çĪ¬": 3438,
      "èİº": 3439,
      "åĺ¿åĺ¿": 3440,
      "è¿ĺæľīä¸Ģ": 3441,
      "æľ¬æºĲ": 3442,
      "ä¹ĥæĺ¯": 3443,
      "å¯¿": 3444,
      "è¦": 3445,
      "èĭĹ": 3446,
      "é»ĳæļĹ": 3447,
      "æĪĳè¿Ļ": 3448,
      "å¿ĥæĢĿ": 3449,
      "èĭ¦ç¬ĳ": 3450,
      "çŃīåĪ°": 3451,
      "çİĩ": 3452,
      "åĬ¨ä½ľ": 3453,
      "åĲĦèĩª": 3454,
      "å©Ĩå©Ĩ": 3455,
      "å¹²åĩĢ": 3456,
      "éŃĶæĹı": 3457,
      "è½°çĦ¶": 3458,
      "ä¿Ĭ": 3459,
      "åį´å·²": 3460,
      "è¦Ĩ": 3461,
      "æ¼Ĩ": 3462,
      "èģªæĺİ": 3463,
      "åĪĹ": 3464,
      "ï¼ļâĢĺ": 3465,
      "ä¸įè§ģäºĨ": 3466,
      "è¿ĩçļĦ": 3467,
      "èĩŃ": 3468,
      "å¸ĺ": 3469,
      "æ°Ķæľº": 3470,
      "è¿Ļä¸ĢåĪĩ": 3471,
      "åĽĽä¸ª": 3472,
      "æľīä¸Ģä¸ª": 3473,
      "çľ¼ä¸ĭ": 3474,
      "çļĦç¥ŀ": 3475,
      "æ³ķåĬĽ": 3476,
      "èı©èĲ¨": 3477,
      "åĤ¨çī©è¢ĭ": 3478,
      "åĴĨ": 3479,
      "åĪ¤": 3480,
      "å¯¹æīĭ": 3481,
      "çĽĴ": 3482,
      "å¹´è½»äºº": 3483,
      "é³": 3484,
      "å°±èĥ½": 3485,
      "æĦıè¯Ĩ": 3486,
      "æĲľ": 3487,
      "åĿł": 3488,
      "èĢģåŃĲ": 3489,
      "å¾Īå¥½": 3490,
      "æģŃæķ¬": 3491,
      "çļĦå¥½": 3492,
      "åį´ä¸į": 3493,
      "èĢģçĪ·": 3494,
      "èİ¹": 3495,
      "çŁ¥æĻĵ": 3496,
      "äºĨè§£": 3497,
      "æ·±æ·±": 3498,
      "ä¸Ģéľĩ": 3499,
      "çĭ±": 3500,
      "å¥½å¥½": 3501,
      "åĴ½": 3502,
      "è¿Łçĸĳ": 3503,
      "åĳ¨åĽ´": 3504,
      "æĭĴ": 3505,
      "ä¸Ńäºº": 3506,
      "æĹłå½¢": 3507,
      "æĶ¹åıĺ": 3508,
      "æĬ«": 3509,
      "åŁĭ": 3510,
      "ä¸¤åĲį": 3511,
      "ä¼¼çļĦ": 3512,
      "æĤĶ": 3513,
      "èĽŁ": 3514,
      "ä¸Ĭäºº": 3515,
      "æļĤæĹ¶": 3516,
      "å¹´çļĦ": 3517,
      "çĸ¯çĭĤçļĦ": 3518,
      "çİĭçĪ·": 3519,
      "æĹ¥åŃĲ": 3520,
      "å°±æŃ¤": 3521,
      "çĸ¼": 3522,
      "éĽħ": 3523,
      "å´ĩ": 3524,
      "è¡°": 3525,
      "åĬ¨çļĦ": 3526,
      "åĸī": 3527,
      "è½¬å¤´": 3528,
      "ä¸įåİ»": 3529,
      "éĥ½å·²": 3530,
      "æ¯Ķè¾ĥ": 3531,
      "èį£": 3532,
      "çªį": 3533,
      "æĢĴéģĵ": 3534,
      "æľ¬äºĭ": 3535,
      "ç»Īç©¶": 3536,
      "é»Ľ": 3537,
      "ä»Ģä¹Īäºĭ": 3538,
      "å§Ķ": 3539,
      "ä¹ĭæľ¯": 3540,
      "ä½ķå¿ħ": 3541,
      "çĥĪçļĦ": 3542,
      "å¿ĥçļĦ": 3543,
      "ä¸ĳ": 3544,
      "å¤ļäºĨ": 3545,
      "èĤľ": 3546,
      "æķĽ": 3547,
      "åĽŀèį¡": 3548,
      "éĻĢ": 3549,
      "åĨ·åĨ·éģĵ": 3550,
      "ï¼ģï¼ģ": 3551,
      "ç²Ĵ": 3552,
      "å°ĨéĤ£": 3553,
      "æķ£äºº": 3554,
      "å¸®ä¸»": 3555,
      "è®¤å¾Ĺ": 3556,
      "äººå®¶": 3557,
      "çģ¿": 3558,
      "å¹¡": 3559,
      "è´¤": 3560,
      "æ¿Ģå°Ħ": 3561,
      "çĲ¼èĤľ": 3562,
      "è½½": 3563,
      "ä¹Łä¸įèĥ½": 3564,
      "åĩºçİ°äºĨ": 3565,
      "å¥¸": 3566,
      "å§¬": 3567,
      "åĸĺ": 3568,
      "ä¸Ģèº«": 3569,
      "ä¸Ģæī«": 3570,
      "çľŁæ°Ķ": 3571,
      "æīįä¼ļ": 3572,
      "ä»ĸå°±": 3573,
      "ä½łåı¯": 3574,
      "æľªå¿ħ": 3575,
      "åĮ»": 3576,
      "åĪĨæĺİ": 3577,
      "è¾Ł": 3578,
      "è´ª": 3579,
      "çĳ¶": 3580,
      "åĵ®": 3581,
      "ä¸Ģå®ļè¦ģ": 3582,
      "æ¶¨": 3583,
      "éĹ¨çļĦ": 3584,
      "æħ§": 3585,
      "ä»įæĺ¯": 3586,
      "ä¾¿åľ¨": 3587,
      "ä¸Ģæł¹": 3588,
      "è±¹": 3589,
      "ä¸Ģåīĳ": 3590,
      "èĢĮä¸ĭ": 3591,
      "æĺŁç©º": 3592,
      "ä¹Łå¥½": 3593,
      "æİĪ": 3594,
      "éĹªè¿ĩ": 3595,
      "éĹ¨ä¸ĭ": 3596,
      "éĺ´æ²ī": 3597,
      "çĽĹ": 3598,
      "çļĦä¸ľè¥¿": 3599,
      "åıªå¥½": 3600,
      "æīŃæĽ²": 3601,
      "è®°å¿Ĩ": 3602,
      "åĴĨåĵ®": 3603,
      "æī©": 3604,
      "æĪ´": 3605,
      "å¤©éģĵ": 3606,
      "æĿĢæŃ»": 3607,
      "çļĦåĬĽéĩı": 3608,
      "æĺ¯ä½ł": 3609,
      "ä¸ŃåİŁ": 3610,
      "çĲ´": 3611,
      "ç½ĹåĪ¹": 3612,
      "æĬļ": 3613,
      "æĦ¿æĦı": 3614,
      "éĢļè¿ĩ": 3615,
      "åİŁåĽł": 3616,
      "æģį": 3617,
      "å°½ç®¡": 3618,
      "èī³": 3619,
      "å°±æľī": 3620,
      "æ³Ľ": 3621,
      "æīĵéĩı": 3622,
      "æķħèĢĮ": 3623,
      "å¤§åĸľ": 3624,
      "æĮ¯": 3625,
      "çĿģå¼Ģ": 3626,
      "äºĨåĩºåİ»": 3627,
      "çĭĦ": 3628,
      "éĩįéĩį": 3629,
      "ä¸Ģé½Ĳ": 3630,
      "èĤĥ": 3631,
      "çģµåħī": 3632,
      "å¥ĩå¼Ĥ": 3633,
      "ä¸«å¤´": 3634,
      "é¾Ļå¥³": 3635,
      "çĽĺèĨĿ": 3636,
      "åĩºäºĨä¸Ģ": 3637,
      "éĤ£æĹ¶": 3638,
      "åıªå¾Ĺ": 3639,
      "åĽĽå¨ĺ": 3640,
      "æ¡¥": 3641,
      "ä¹¾": 3642,
      "éĵĥ": 3643,
      "å¼ºèĢħ": 3644,
      "éľĩæĥĬ": 3645,
      "éĤĵ": 3646,
      "éľĨ": 3647,
      "ä»ĭ": 3648,
      "æĿĳ": 3649,
      "æ£º": 3650,
      "èĩªèº«": 3651,
      "æĳĩäºĨ": 3652,
      "éªģ": 3653,
      "åĩĽ": 3654,
      "å¦ĥ": 3655,
      "èł": 3656,
      "å¤©åĬ«": 3657,
      "èĵ¬": 3658,
      "éĶĻäºĨ": 3659,
      "çĤ¼åĪ¶": 3660,
      "åľ¨åľ°ä¸Ĭ": 3661,
      "æĸ¹æ³ķ": 3662,
      "éªĮ": 3663,
      "çļĦåħī": 3664,
      "è§ģæŃ¤": 3665,
      "æĢİä¹Īä¼ļ": 3666,
      "çļĦçĽ®åħī": 3667,
      "æīĵå¼Ģ": 3668,
      "ç©¶ç«Łæĺ¯": 3669,
      "æĽ¹": 3670,
      "åĥµ": 3671,
      "ç»´": 3672,
      "æŃ»äº¡": 3673,
      "ä¸§": 3674,
      "è¾ķ": 3675,
      "åĨ³å®ļ": 3676,
      "åģıåģı": 3677,
      "åĨł": 3678,
      "çŃĸ": 3679,
      "ä¸Ĭæ¸ħ": 3680,
      "ä½Ĩè¿Ļ": 3681,
      "æ²¡æľīä»Ģä¹Ī": 3682,
      "èĩªçĦ¶æĺ¯": 3683,
      "ç®ĢçĽ´": 3684,
      "äººéĹ´": 3685,
      "ä¼łéĢģ": 3686,
      "çļĦæĦıæĢĿ": 3687,
      "å¦Ħ": 3688,
      "çł¸": 3689,
      "åľ°éĿ¢": 3690,
      "æŁľ": 3691,
      "çĤī": 3692,
      "ä¸įçĿĢ": 3693,
      "å£¶": 3694,
      "çŁ®": 3695,
      "éľ¸": 3696,
      "èĮĥåĽ´": 3697,
      "èĢģå®ŀ": 3698,
      "åıĮæĸ¹": 3699,
      "æŃ£å¥½": 3700,
      "å°ļæľª": 3701,
      "åľ¨å¥¹": 3702,
      "æĥ³æ³ķ": 3703,
      "çļĦéģĵ": 3704,
      "éħ¸": 3705,
      "åı¦ä¸Ģ": 3706,
      "å¸Ń": 3707,
      "åıªåī©": 3708,
      "è¾£": 3709,
      "ä»ĻåŃĲ": 3710,
      "å¤§åľ°": 3711,
      "éĿ¢å®¹": 3712,
      "çķ¥ä¸Ģ": 3713,
      "äººå½±": 3714,
      "è½°é¸£": 3715,
      "ä¸Ģåı¥": 3716,
      "æĦ¤æĢĴ": 3717,
      "åªļ": 3718,
      "äºĨè¿Ļ": 3719,
      "å¸Īå¦¹": 3720,
      "æİĢ": 3721,
      "è¡į": 3722,
      "è¡£æľį": 3723,
      "å¤ªçĽĳ": 3724,
      "å¤§å£°": 3725,
      "åĦĴ": 3726,
      "åĵªæĢķ": 3727,
      "æĿ¥å¾Ĺ": 3728,
      "å¾Īéļ¾": 3729,
      "æ³°": 3730,
      "çīĩåĪ»åĲİ": 3731,
      "åķª": 3732,
      "æĥĬäºº": 3733,
      "å¾ģ": 3734,
      "åį¿": 3735,
      "æ¹¿": 3736,
      "éĹ¨å¤ĸ": 3737,
      "çĶ©": 3738,
      "çĴ§": 3739,
      "è¶³ä»¥": 3740,
      "æĺ¯ä»¥": 3741,
      "è´«": 3742,
      "ä¸Ģå±Ĥ": 3743,
      "å°¸ä½ĵ": 3744,
      "ç¬¦æĸĩ": 3745,
      "æĲŃ": 3746,
      "ä¸¤åıª": 3747,
      "è¿Ļå°ı": 3748,
      "ä¹Łå°±æĺ¯": 3749,
      "èº«ä¸ĬçļĦ": 3750,
      "è¸¢": 3751,
      "è¾ī": 3752,
      "äºĽä»Ģä¹Ī": 3753,
      "é¢Ī": 3754,
      "éļĻ": 3755,
      "éķ¿éĿĴ": 3756,
      "ç¦ħ": 3757,
      "åĵĢ": 3758,
      "æĽ´å¤ļ": 3759,
      "æŃ¦å½ĵ": 3760,
      "ä¸ĢæĮĩ": 3761,
      "åįģå¹´": 3762,
      "èµ¶ç´§": 3763,
      "è¿Ļä¸ĢçĤ¹": 3764,
      "ä»ĻçķĮ": 3765,
      "ä¾Ħ": 3766,
      "å°Ĩåħ¶": 3767,
      "æİ·": 3768,
      "ä¸įå¯¹": 3769,
      "åĲī": 3770,
      "ä½łå°±": 3771,
      "åĨ°åĨ·": 3772,
      "ç´§å¼ł": 3773,
      "éŀĺ": 3774,
      "ä¾¿è¦ģ": 3775,
      "ä¸¹èį¯": 3776,
      "æĤĦæĤĦ": 3777,
      "æ³ķéĺµ": 3778,
      "çĮ¿": 3779,
      "åįĹæµ·": 3780,
      "é²ģ": 3781,
      "èĥ¡åŃĲ": 3782,
      "ä¸Ģåľº": 3783,
      "äºĨä¸Ģåı¥": 3784,
      "æĸ¥": 3785,
      "å¡ŀ": 3786,
      "åħµåĪĥ": 3787,
      "æºª": 3788,
      "èĤ¤": 3789,
      "æĵĴ": 3790,
      "å¯Łè§ī": 3791,
      "çº¤": 3792,
      "åĢĴä¹Ł": 3793,
      "å¤§æľī": 3794,
      "è¢ģæī¿å¿Ĺ": 3795,
      "æļĸ": 3796,
      "æŃ¤çī©": 3797,
      "çŀİ": 3798,
      "ç¾İä¸½": 3799,
      "çŁ©": 3800,
      "çļĦäººçī©": 3801,
      "æ¼Ĥ": 3802,
      "æĦŁè§īåĪ°": 3803,
      "å½¼æŃ¤": 3804,
      "æķ´ä¸ªäºº": 3805,
      "æ±¤": 3806,
      "åºĨåĽ½": 3807,
      "æİĲè¯Ģ": 3808,
      "åĩºåı£": 3809,
      "èĤĮ": 3810,
      "åıĺæĪĲäºĨ": 3811,
      "å®ĹçļĦ": 3812,
      "ä¹Łä¸įæķ¢": 3813,
      "åĨħåĬĽ": 3814,
      "å®¢æ°Ķ": 3815,
      "ä¸»æĦı": 3816,
      "å¢ĵ": 3817,
      "è·ŁæĪĳ": 3818,
      "ä»ħä»ħ": 3819,
      "ç»£": 3820,
      "ç»µ": 3821,
      "ç¢į": 3822,
      "åĬĿ": 3823,
      "ç¼ķ": 3824,
      "ä¸Ģåº§": 3825,
      "èĹ¤": 3826,
      "è¿ĺçľŁ": 3827,
      "å°ģåį°": 3828,
      "åįĴ": 3829,
      "å¤§ä¾ł": 3830,
      "è½©è¾ķ": 3831,
      "éģĩåĪ°": 3832,
      "æĺĶ": 3833,
      "æ³Ħ": 3834,
      "åħ¬åŃĻ": 3835,
      "æ¼Ķ": 3836,
      "åĸĿéħĴ": 3837,
      "åį´æ²¡æľī": 3838,
      "åĴ¬çīĻ": 3839,
      "éĽ·éľĨ": 3840,
      "çĽ®çļĦ": 3841,
      "èī°": 3842,
      "çĥĽ": 3843,
      "æĦķ": 3844,
      "æ²¡æĥ³åĪ°": 3845,
      "çĪĨåıĳ": 3846,
      "å¹ħ": 3847,
      "éĿĴè¡£": 3848,
      "æķ²": 3849,
      "æĳĩäºĨæĳĩå¤´": 3850,
      "åĲĥæĥĬ": 3851,
      "ä¸ĢæĹ¶éĹ´": 3852,
      "åħħæ»¡äºĨ": 3853,
      "å·¥å¤«": 3854,
      "è´§": 3855,
      "é¢ľèī²": 3856,
      "çļĦåĪ¹éĤ£": 3857,
      "åħ¨åĬĽ": 3858,
      "ä¾ĭ": 3859,
      "ä¸Ģé¡¿": 3860,
      "é¢Ĭ": 3861,
      "è¶³å¤Ł": 3862,
      "æ´»çĿĢ": 3863,
      "æķħæĦı": 3864,
      "ä¹Łä¸įçŁ¥éģĵ": 3865,
      "ä¸ĢæĮ¥": 3866,
      "å·«": 3867,
      "æĥħç»ª": 3868,
      "æĢ¥å¿Ļ": 3869,
      "èĤ©å¤´": 3870,
      "çŃĭ": 3871,
      "è´¢": 3872,
      "æĿĨ": 3873,
      "æķ°çĻ¾": 3874,
      "å¤§äºĨ": 3875,
      "ç»Ħ": 3876,
      "å¤§å£°éģĵ": 3877,
      "åīįæĿ¥": 3878,
      "å®īæİĴ": 3879,
      "å¾ĹæĦı": 3880,
      "ç¨ĭåº¦": 3881,
      "ä¸ĢèĦ¸": 3882,
      "å¿ĥæĥħ": 3883,
      "æĤ¦": 3884,
      "åĮĹé½Ĳ": 3885,
      "ä¸°": 3886,
      "æĭ¾": 3887,
      "å¥½å¥ĩ": 3888,
      "çļĦä¸ĢåĪĩ": 3889,
      "ä¸įæ¸ħ": 3890,
      "è·¯ä¸Ĭ": 3891,
      "åĶ¯ä¸Ģ": 3892,
      "éĤ£éģĵ": 3893,
      "éĶ®": 3894,
      "èĦļä¸ĭ": 3895,
      "åı¸å¾Ĵ": 3896,
      "éĴ¢": 3897,
      "èĭ¥éĿŀ": 3898,
      "ç¬ĳå£°": 3899,
      "ä¹Ķ": 3900,
      "å¤·": 3901,
      "åįĹå®«å¹³": 3902,
      "åĲİçļĦ": 3903,
      "æŃĮ": 3904,
      "ä¹Łèĥ½": 3905,
      "åįĥä¸ĩ": 3906,
      "åĩı": 3907,
      "ä½łæĪĳ": 3908,
      "ç«Ļèµ·èº«": 3909,
      "åħ³éĶ®": 3910,
      "å·®ä¸įå¤ļ": 3911,
      "åħ´è¶£": 3912,
      "åĺ²": 3913,
      "æĩĴ": 3914,
      "æĿ¥èĩª": 3915,
      "ä¸ĢåĿĹ": 3916,
      "è¿Ļä»¶äºĭ": 3917,
      "çĸĳæĥĳ": 3918,
      "ä¸ºä»Ģä¹Īè¦ģ": 3919,
      "éĵ®": 3920,
      "æĭĵ": 3921,
      "æ»ĭ": 3922,
      "çĸ²": 3923,
      "ä¸Ľ": 3924,
      "æĢ»ç®Ĺ": 3925,
      "å°¼": 3926,
      "å®ı": 3927,
      "éļĲçº¦": 3928,
      "å«£": 3929,
      "ç®ĵ": 3930,
      "äºĶè¡Į": 3931,
      "æī®": 3932,
      "æ¯įäº²": 3933,
      "åľ¨çİĭæŀĹ": 3934,
      "ä¸ĥå½©": 3935,
      "åĿĲä¸ĭ": 3936,
      "éĹ¨åı£": 3937,
      "æĮīçħ§": 3938,
      "éĴī": 3939,
      "é¹ı": 3940,
      "çľŁåĲĽ": 3941,
      "è£³": 3942,
      "åĲĳä»ĸ": 3943,
      "æľĢå¥½": 3944,
      "ä¸įæĸŃåľ°": 3945,
      "æª": 3946,
      "æĶ¾ä¸ĭ": 3947,
      "åīĬ": 3948,
      "æĺİæĺİ": 3949,
      "èĦı": 3950,
      "åıĽ": 3951,
      "ä¹¡": 3952,
      "ç«ĭæĹ¶": 3953,
      "æ³½": 3954,
      "åģļäºĨ": 3955,
      "æĹłå°½": 3956,
      "è½°éļĨ": 3957,
      "ä¸ĢåĲ¬": 3958,
      "éĩįä¼¤": 3959,
      "å¼ºè¡Į": 3960,
      "ä»¿èĭ¥": 3961,
      "éªĳåħµ": 3962,
      "ä¸ĢåĲĳ": 3963,
      "æĥĬå¤©": 3964,
      "æĹ¨": 3965,
      "ç¦»éĺ³": 3966,
      "çļĦéĢŁåº¦": 3967,
      "ä¸ľæĸ¹": 3968,
      "ä¸Ģåĩ»": 3969,
      "æĸ¹éĿ¢": 3970,
      "åįĥéĩĮ": 3971,
      "åıªåı¯æĥľ": 3972,
      "é£İåĽĽå¨ĺ": 3973,
      "åģļä»Ģä¹Ī": 3974,
      "ä¸įå¿ħ": 3975,
      "ç¥ĸå¸Ī": 3976,
      "å¯¹éĿ¢": 3977,
      "åĩĳ": 3978,
      "çŀ¥": 3979,
      "å«ģ": 3980,
      "é«ĺåħ´": 3981,
      "æĳĩå¤´éģĵ": 3982,
      "åĹ¤": 3983,
      "ä¸İä»ĸ": 3984,
      "éķ¿å®īåŁİ": 3985,
      "å¼§": 3986,
      "çļĦæ°Ķæģ¯": 3987,
      "ä½Ĩè§ģ": 3988,
      "åĬ¨äºĨ": 3989,
      "åĨ¬": 3990,
      "å·¨åĵį": 3991,
      "ä¿ĿæĮģ": 3992,
      "åľ¨ä»ĸçļĦ": 3993,
      "åĪĨåĪ«": 3994,
      "ç»ĻäºĨ": 3995,
      "æ£Ĵ": 3996,
      "æķ£åıĳ": 3997,
      "çļĩå®«": 3998,
      "æĭ³å¤´": 3999,
      "å¿ĺè®°": 4000,
      "çļĦçŀ¬éĹ´": 4001,
      "æľŁä¿®å£«": 4002,
      "è¥¿éĻµ": 4003,
      "ç®±": 4004,
      "å®ŀåľ¨æĺ¯": 4005,
      "çľīå¿ĥ": 4006,
      "çĻ¾å§ĵ": 4007,
      "ä¸ĢæĭĽ": 4008,
      "èħ¥": 4009,
      "çļĦæ¨¡æł·": 4010,
      "è¾±": 4011,
      "åį´ä¹Ł": 4012,
      "éĥĳ": 4013,
      "æĻĭ": 4014,
      "è¯Ńå£°": 4015,
      "å¿ł": 4016,
      "æīĢæľīäºº": 4017,
      "éŃı": 4018,
      "åĲŀåĻ¬": 4019,
      "æĪĳæĥ³": 4020,
      "åŃ©åĦ¿": 4021,
      "ç»½": 4022,
      "åĿ¦": 4023,
      "èµ¢": 4024,
      "èĭ¦ç¬ĳéģĵ": 4025,
      "æī¹": 4026,
      "çŀ³": 4027,
      "åĲįçļĦ": 4028,
      "æĿĲæĸĻ": 4029,
      "éĢĬ": 4030,
      "ä¾¿æľī": 4031,
      "æĥĬè®¶": 4032,
      "è¹Ħ": 4033,
      "ä»ĸåıĪ": 4034,
      "ä¸Ģå¤´": 4035,
      "ç°": 4036,
      "ä½İå£°éģĵ": 4037,
      "æ»Ķ": 4038,
      "èĬ¦": 4039,
      "è¯¦": 4040,
      "æĪĲå°±": 4041,
      "çªŁ": 4042,
      "è¿Ļå°±æĺ¯": 4043,
      "ç¦»åİ»": 4044,
      "éĤ£å°±": 4045,
      "èģĬ": 4046,
      "åĩºä¸Ģä¸ª": 4047,
      "å§ľ": 4048,
      "åĺ´åĶĩ": 4049,
      "è¿Ļä»¶": 4050,
      "æ´¾çļĦ": 4051,
      "å¯¹æĪĳ": 4052,
      "æīĢæľīçļĦ": 4053,
      "æĢĢçĸĳ": 4054,
      "èķ´åĲ«": 4055,
      "åĶī": 4056,
      "åĽ½å¸Ī": 4057,
      "ä¼°": 4058,
      "ç¬¦ç®ĵ": 4059,
      "éŁ¦å°ıå®Ŀéģĵ": 4060,
      "å¤«åŃĲ": 4061,
      "åħģ": 4062,
      "çĽ¸å½ĵ": 4063,
      "è¥¿éĹ¨": 4064,
      "åĿĬ": 4065,
      "å·²è¢«": 4066,
      "æĽ´æľī": 4067,
      "åį´è§ģ": 4068,
      "è¡£è¡«": 4069,
      "äºķ": 4070,
      "åľ¨å¤§": 4071,
      "çŀ§çŀ§": 4072,
      "å®³æĢķ": 4073,
      "ç¥ŀéŃĤ": 4074,
      "æĪ®": 4075,
      "æħ°": 4076,
      "æį§": 4077,
      "åıĹäºĨ": 4078,
      "æĢ¥éĢŁ": 4079,
      "æĭ¥æľī": 4080,
      "ç¥ŀå¿µ": 4081,
      "æ£į": 4082,
      "çĩĥçĥ§": 4083,
      "éĩĳä¸¹": 4084,
      "èįīåİŁ": 4085,
      "ä¸ĺ": 4086,
      "èĻļå½±": 4087,
      "å®¿": 4088,
      "è¿ĻæĹ¶åĢĻ": 4089,
      "ä¹ĭå¿ĥ": 4090,
      "ä¸įè¯Ń": 4091,
      "å¤§ç¬ĳéģĵ": 4092,
      "ä¸İæŃ¤": 4093,
      "æħ¨": 4094,
      "å®£": 4095,
      "æŀĦ": 4096,
      "åĩºçİ°åľ¨äºĨ": 4097,
      "æħ¢æħ¢çļĦ": 4098,
      "ä¸įæĺĵ": 4099,
      "åįĬä¸ª": 4100,
      "é¥°": 4101,
      "éĵģä¸Ń": 4102,
      "åĴĮä»ĸ": 4103,
      "åĵªçŁ¥": 4104,
      "ä¸Ĭä¸ĭ": 4105,
      "éĺģä¸ĭ": 4106,
      "æīĭä¸ĭ": 4107,
      "éľ²åĩºäºĨ": 4108,
      "å°ıé¾Ļå¥³": 4109,
      "åŃĲä¸Ĭ": 4110,
      "éļıæĹ¶": 4111,
      "å¤§åı«": 4112,
      "æ¡Ĥ": 4113,
      "å®Ŀçİī": 4114,
      "è½°è½°": 4115,
      "éĹ´çļĦ": 4116,
      "åĽĽåįģ": 4117,
      "ä½ĵç³»": 4118,
      "éªĳåĨĽ": 4119,
      "åĽĽéĿ¢": 4120,
      "è§ĦçŁ©": 4121,
      "éĵģä¸Ńæ£ł": 4122,
      "å¿ĥä¸ĭ": 4123,
      "æĹłå¥Ī": 4124,
      "å½Ń": 4125,
      "ä¸īä½į": 4126,
      "æ¬£": 4127,
      "èŀįåĲĪ": 4128,
      "é«ĺçļĦ": 4129,
      "éĺĶ": 4130,
      "ä¸įè¶³": 4131,
      "å¸ħ": 4132,
      "å¤ªåĲİ": 4133,
      "éĤ£æł·": 4134,
      "æīĢåĮĸ": 4135,
      "çľĭäºĨä¸Ģçľ¼": 4136,
      "æĭ¼åĳ½": 4137,
      "å¤§éĻĨ": 4138,
      "è¯´æĿ¥": 4139,
      "éļĨåºĨ": 4140,
      "å¾Ĳéªģ": 4141,
      "ä¸Ĭç©º": 4142,
      "äºĶèī²": 4143,
      "å¤§å¸ĪåħĦ": 4144,
      "ä¹ĭæ³ķ": 4145,
      "æ¼ı": 4146,
      "æĹıäºº": 4147,
      "å¤©è¿Ĳ": 4148,
      "å½±åŃĲ": 4149,
      "è½¬çľ¼éĹ´": 4150,
      "çľŁå®ŀ": 4151,
      "çıĬ": 4152,
      "åıįæŃ£": 4153,
      "æ³¢åĬ¨": 4154,
      "åħ¨æĹł": 4155,
      "æĬĢ": 4156,
      "çŃīçĿĢ": 4157,
      "æľīä½ķ": 4158,
      "åįĬç©º": 4159,
      "æĥ³è±¡": 4160,
      "äºĨä¸Ģåı£æ°Ķ": 4161,
      "å¯»æī¾": 4162,
      "çĽĬ": 4163,
      "æ²¿": 4164,
      "å¯¹çĿĢ": 4165,
      "ç¹": 4166,
      "å®ŀéĻħ": 4167,
      "æ¼Ĩé»ĳ": 4168,
      "åľ¨æĪĳ": 4169,
      "çļĦå¥³åŃĲ": 4170,
      "éķ¿æĹ¶éĹ´": 4171,
      "çŀ§çĿĢ": 4172,
      "ä¸Ģä¼ļåĦ¿": 4173,
      "ä¾Ľ": 4174,
      "åĺĽ": 4175,
      "å¤ļåįĬ": 4176,
      "çĤİ": 4177,
      "å¤ļè°¢": 4178,
      "å¦ĤæŃ¤ä¸ĢæĿ¥": 4179,
      "æ¬¢åĸľ": 4180,
      "è¯¸ä½į": 4181,
      "çĽ¸å¯¹": 4182,
      "é»Ħæ³ī": 4183,
      "ç»ĵä¸¹": 4184,
      "åĻĹ": 4185,
      "æµĳèº«": 4186,
      "éĥ½è¢«": 4187,
      "è¾ĪåŃĲ": 4188,
      "åĲĦä½į": 4189,
      "ä»ĸä¸į": 4190,
      "èº«ä¸º": 4191,
      "æĢİèĥ½": 4192,
      "åĲĳåĲİ": 4193,
      "æ¸©æŁĶ": 4194,
      "èŀįåħ¥": 4195,
      "æĥ³äºĨ": 4196,
      "å¦ĸåħ½": 4197,
      "çļĦé»ĳ": 4198,
      "ä¸Ńå¿ĥ": 4199,
      "éªĦ": 4200,
      "åĩłäºº": 4201,
      "å¹¶æĹł": 4202,
      "é½¿": 4203,
      "æĭ¨": 4204,
      "å£°åĵį": 4205,
      "ç½ķ": 4206,
      "çĲ³": 4207,
      "çľģ": 4208,
      "æŃĩ": 4209,
      "èĻļæĹł": 4210,
      "å°ıæĸ¹": 4211,
      "æŃ¤å¤Ħ": 4212,
      "ç¼ĵç¼ĵéģĵ": 4213,
      "ä¸Ģå®ļä¼ļ": 4214,
      "ä¸ĭéĿ¢": 4215,
      "æĪĺåľº": 4216,
      "çĲĨä¼ļ": 4217,
      "å¸ĪåĤħ": 4218,
      "è¿ŀå¿Ļ": 4219,
      "æļĹæļĹ": 4220,
      "èĤĸ": 4221,
      "ä½ľçĶ¨": 4222,
      "ä¸Ģåıĺ": 4223,
      "è¯į": 4224,
      "ä¸¤ä¸ªäºº": 4225,
      "çĮ«åĦ¿": 4226,
      "å·ħ": 4227,
      "æĦŁåĪ°": 4228,
      "æļĹåĻ¨": 4229,
      "çĬ¶æĢģ": 4230,
      "åį¢": 4231,
      "æģĴ": 4232,
      "åįĥå¹´": 4233,
      "åºĵ": 4234,
      "ç¿ģ": 4235,
      "æĶ¶åĽŀ": 4236,
      "æ³ķéĹ¨": 4237,
      "åĩŃç©º": 4238,
      "éģĵéķ¿": 4239,
      "åĥ§äºº": 4240,
      "ä½łæĥ³": 4241,
      "éĻ¡": 4242,
      "æīĭä¸ŃçļĦ": 4243,
      "åĽĬ": 4244,
      "éĤ£åıª": 4245,
      "éĿĴéĿĴ": 4246,
      "å¥½å¤Ħ": 4247,
      "èĢģéģĵ": 4248,
      "çĻ½åıĳ": 4249,
      "åħ´å¥ĭ": 4250,
      "æĮ¤": 4251,
      "æĢģåº¦": 4252,
      "åįĪ": 4253,
      "åŁİçļĦ": 4254,
      "ä¸įä¹ħ": 4255,
      "å¼¦": 4256,
      "å¾Ĺå¤ļ": 4257,
      "åľ°çļĦ": 4258,
      "ä¸»çļĦ": 4259,
      "çĶ¨åĬĽ": 4260,
      "æ°ĶåĬ¿": 4261,
      "æĺ¯è¦ģ": 4262,
      "è·Łä½ł": 4263,
      "ä¹Łå·²": 4264,
      "åı¯è§ģ": 4265,
      "æİ¥è¿ĩ": 4266,
      "è¡¡": 4267,
      "è¡Įèµ°": 4268,
      "ç¹ģ": 4269,
      "éĿĴåħī": 4270,
      "çĶŁåĳ½": 4271,
      "è¥Ħ": 4272,
      "è§ģè¯Ĩ": 4273,
      "ç³Ł": 4274,
      "èīº": 4275,
      "ä¸Ģæĭį": 4276,
      "ç»ĩ": 4277,
      "è¶Ĭæĺ¯": 4278,
      "é¬¼åİĮ": 4279,
      "æŁĲç§į": 4280,
      "æĥ¶": 4281,
      "éĢļéģĵ": 4282,
      "ä¸´è¿ĳ": 4283,
      "æŃ»åľ¨": 4284,
      "åĬŁåĬĽ": 4285,
      "ä½łæĢİä¹Ī": 4286,
      "éĻĪå®¶": 4287,
      "éĿ¢çĽ®": 4288,
      "é»ĺé»ĺ": 4289,
      "éľ²åĩºä¸Ģä¸Ŀ": 4290,
      "å¼ºå¤§çļĦ": 4291,
      "åıªåĲ¬å¾Ĺ": 4292,
      "çĽ¸æ¯Ķ": 4293,
      "æľīåħ³": 4294,
      "åĨ·æ¼ł": 4295,
      "æŁ´": 4296,
      "èĲ½åľ¨äºĨ": 4297,
      "æĲģ": 4298,
      "åľ¨ä¸ĢæĹģ": 4299,
      "è¿°": 4300,
      "å¤§äºĭ": 4301,
      "èĭ¥ä¸įæĺ¯": 4302,
      "çĪ·çĪ·": 4303,
      "åıĹä¼¤": 4304,
      "å¼©": 4305,
      "éĥ½æ²¡": 4306,
      "èĮĥéĹ²çļĦ": 4307,
      "åįİå±±": 4308,
      "æ¯ıä¸ª": 4309,
      "åºĶè¯¥æĺ¯": 4310,
      "æ¶©": 4311,
      "è¿ĻæĿ¡": 4312,
      "éŃĶå¤´": 4313,
      "èªĵ": 4314,
      "ä¸²": 4315,
      "åŃ£": 4316,
      "çī¹åĪ«": 4317,
      "éĵ¶èī²": 4318,
      "ä¸įå¤§": 4319,
      "èĦĸ": 4320,
      "ç¢İçīĩ": 4321,
      "ä¸įåħį": 4322,
      "ä»ĸå·²": 4323,
      "åĪĨèº«": 4324,
      "äººä»¬": 4325,
      "æľĢè¿ĳ": 4326,
      "å¤§éĩı": 4327,
      "éĺİ": 4328,
      "ä¸Ģåı£æ°Ķ": 4329,
      "åģļçļĦ": 4330,
      "è¯Ńæ°Ķ": 4331,
      "éĻĪå®¶æ´Ľ": 4332,
      "èĬ·": 4333,
      "å±±ä¸Ĭ": 4334,
      "åį³ä¾¿": 4335,
      "å¤§æ®¿": 4336,
      "éĴ©": 4337,
      "ä»Ĩ": 4338,
      "ä¸įå·²": 4339,
      "éģģåħī": 4340,
      "èº¬": 4341,
      "ç´§ç´§": 4342,
      "èĩªå®¶": 4343,
      "éľĩåĬ¨": 4344,
      "é¡ºçĿĢ": 4345,
      "èĻļç©ºä¸Ń": 4346,
      "åĮħè£¹": 4347,
      "ä½©æľį": 4348,
      "æĿ¥åİĨ": 4349,
      "åĿĳ": 4350,
      "æĿĢæĪ®": 4351,
      "èµĲ": 4352,
      "ç©´éģĵ": 4353,
      "çļĦé£İ": 4354,
      "å¾Ģå¾Ģ": 4355,
      "èģĮ": 4356,
      "æĤį": 4357,
      "å¿ĥå¿µ": 4358,
      "ä¸Ģæīĭ": 4359,
      "å°ıå§Ĳ": 4360,
      "åĲĳæĿ¥": 4361,
      "éļıä¹ĭ": 4362,
      "ä½łåİ»": 4363,
      "èĢĮè¨Ģ": 4364,
      "åľ¨å¤©": 4365,
      "çĦļ": 4366,
      "æıĲèµ·": 4367,
      "è¾¨": 4368,
      "è®Ń": 4369,
      "ä¼į": 4370,
      "çľ¼çľĭ": 4371,
      "æĺİçĻ½äºĨ": 4372,
      "æĬµæĮ¡": 4373,
      "æĸ§": 4374,
      "èĩªè¯Ń": 4375,
      "èĢģæĢª": 4376,
      "å¤ªåŃĲ": 4377,
      "ç¦Ģ": 4378,
      "èĩªè¡Į": 4379,
      "æĹ¶åħī": 4380,
      "ä¾įåį«": 4381,
      "æİĮæŁľ": 4382,
      "çł´å¤©": 4383,
      "åİŁåľ°": 4384,
      "åīįçļĦ": 4385,
      "åıĳè§ī": 4386,
      "æ¡Įä¸Ĭ": 4387,
      "ä»ĸèĩªå·±": 4388,
      "åĨįæĹł": 4389,
      "åĨ²åĩº": 4390,
      "éĺ³åħī": 4391,
      "çĽ®æłĩ": 4392,
      "æĪĳåİ»": 4393,
      "çłĶ": 4394,
      "åĽŀäºĭ": 4395,
      "ä¸įè®º": 4396,
      "å¤§å¤ļ": 4397,
      "æ±¹": 4398,
      "èĥĮä¸Ĭ": 4399,
      "çļĦæĥħåĨµ": 4400,
      "å¤´åıĳ": 4401,
      "ä¸¤éģĵ": 4402,
      "åģļåĪ°": 4403,
      "éļĲèĹı": 4404,
      "æĬĬè¿Ļ": 4405,
      "å°ıå¼Ł": 4406,
      "äºĭå®ŀ": 4407,
      "æĺ¯ä¸Ģä¸ª": 4408,
      "å°ĨæĿ¥": 4409,
      "ä¸ĢçĶŁ": 4410,
      "ä¸ŃäºĨ": 4411,
      "æ¸Ķ": 4412,
      "æĺŁåŁŁ": 4413,
      "çī¹æ®Ĭ": 4414,
      "åĪ·": 4415,
      "è¡Įäºĭ": 4416,
      "ä¸İéĤ£": 4417,
      "èļĬ": 4418,
      "éĤ£èĪ¬": 4419,
      "å§Ĳå§Ĳ": 4420,
      "æĺ¯ä½ķ": 4421,
      "çĭ°": 4422,
      "èİ«åĲį": 4423,
      "ï¼ģï¼ģâĢĿ": 4424,
      "çĻ½åħī": 4425,
      "æĸŃäºĨ": 4426,
      "æıī": 4427,
      "åĩĿéĩį": 4428,
      "ä¸İæŃ¤åĲĮæĹ¶": 4429,
      "çķĻåľ¨": 4430,
      "æĢĿç´¢": 4431,
      "åĺ´éĩĮ": 4432,
      "å±±çļĦ": 4433,
      "åİ»çļĦ": 4434,
      "å¸Īå§Ĳ": 4435,
      "éĿĴäºĳ": 4436,
      "æĺĬå¤©": 4437,
      "¾æ°Ķ": 4438,
      "èµ´": 4439,
      "ä¹Ļ": 4440,
      "è¯§": 4441,
      "å¤«å¦ĩ": 4442,
      "æĭ¢": 4443,
      "çļĦå°ĳå¹´": 4444,
      "ç«Ļèµ·": 4445,
      "çĭ°çĭŀ": 4446,
      "ä¸įä¿¡": 4447,
      "ä½Ĩåľ¨": 4448,
      "å®ļäºĨ": 4449,
      "çĶļæĺ¯": 4450,
      "æłª": 4451,
      "çĮ´": 4452,
      "å¹²ä»Ģä¹Ī": 4453,
      "è¶Ł": 4454,
      "åŀĭ": 4455,
      "æł¹æľ¬å°±": 4456,
      "ä¸ºä¹ĭ": 4457,
      "è·¨": 4458,
      "å®Ľ": 4459,
      "åĨ¤": 4460,
      "å··": 4461,
      "ä½¿çĶ¨": 4462,
      "çģµçŁ³": 4463,
      "ç¬¬åĽĽ": 4464,
      "å¸ĥç½®": 4465,
      "çļĦé«ĺ": 4466,
      "çŁĽ": 4467,
      "æĳĺ": 4468,
      "å¿ĥéģĵ": 4469,
      "é¾Ħ": 4470,
      "æ²īå£°éģĵ": 4471,
      "é¹¿": 4472,
      "å·²æľī": 4473,
      "æĦŁæ¿Ģ": 4474,
      "ä¸įæĸĻ": 4475,
      "ä½łè¿ĺ": 4476,
      "èĻ½æĺ¯": 4477,
      "çľ¼åħī": 4478,
      "æ²¡ä»Ģä¹Ī": 4479,
      "æ¶ī": 4480,
      "æı´": 4481,
      "çĽ¼": 4482,
      "æĸ¹åľĨ": 4483,
      "çľ¼ä¸Ńéľ²åĩº": 4484,
      "æĸ¤": 4485,
      "è§ģå¥¹": 4486,
      "çļĦçľ¼çĿĽ": 4487,
      "ä¸įåłª": 4488,
      "å¤§åıĺ": 4489,
      "è®©å¥¹": 4490,
      "éļ¾å¾Ĺ": 4491,
      "çļĦä¿®ä¸º": 4492,
      "çĦ¶çļĦ": 4493,
      "å°±å°Ĩ": 4494,
      "é¡¾åīĳ": 4495,
      "çĤ¸": 4496,
      "çļĦæľºä¼ļ": 4497,
      "èº«ç©¿": 4498,
      "å¤©äºº": 4499,
      "éķ¿çĶŁ": 4500,
      "èł¢": 4501,
      "è¿Ľè¡Į": 4502,
      "åĬ¿åĬĽ": 4503,
      "æĮĩçĤ¹": 4504,
      "æĢİä¹Īæł·": 4505,
      "æŁıéķ¿éĿĴ": 4506,
      "çº±": 4507,
      "èĥģ": 4508,
      "ä¼ļæľī": 4509,
      "æ»ŀ": 4510,
      "æ´²": 4511,
      "å±±è°·": 4512,
      "ä½ķæĹ¶": 4513,
      "è®¤è¯Ĩ": 4514,
      "ä¼ĺ": 4515,
      "è¿ŀè¿ŀ": 4516,
      "æĬ±æĭ³": 4517,
      "åĮºåŁŁ": 4518,
      "åĳµåĳµ": 4519,
      "éĽģ": 4520,
      "èµĦæł¼": 4521,
      "æĵħ": 4522,
      "ä¸įå¤ª": 4523,
      "çĿĢèĦ¸": 4524,
      "åıªåĽł": 4525,
      "ä¾µ": 4526,
      "äº«": 4527,
      "äºĶåįģ": 4528,
      "æ¯ģçģŃ": 4529,
      "å¯¼": 4530,
      "æľ´": 4531,
      "è´Ŀ": 4532,
      "å½¹": 4533,
      "æ¥ļçķĻé¦Ļéģĵ": 4534,
      "è¡¨éĿ¢": 4535,
      "å²ĤéĿŀ": 4536,
      "å½ĵæĹ¥": 4537,
      "ä¸įçĦ¶": 4538,
      "åı¯æĢľ": 4539,
      "æĮ¨": 4540,
      "ä½ķå¤Ħ": 4541,
      "åĶ±": 4542,
      "åĲĦç§į": 4543,
      "å®ħ": 4544,
      "ä¸ĢæĬĸ": 4545,
      "æ³ķçĽ¸": 4546,
      "èĿ¶åħ°": 4547,
      "æİ¥è§¦": 4548,
      "å°±è¢«": 4549,
      "é£ŀå¿«": 4550,
      "ä»ĸæ²¡æľī": 4551,
      "åĲ¬ä»ĸ": 4552,
      "æĺŁè¾°": 4553,
      "å¾Īæľī": 4554,
      "éĿŀä½Ĩ": 4555,
      "æ®µæĹ¶éĹ´": 4556,
      "èģĶç³»": 4557,
      "å®Ĺä¸»": 4558,
      "äº¬åŁİ": 4559,
      "æĭ¬": 4560,
      "æŃ£å¸¸": 4561,
      "è¿Ļä¹Īå¤ļ": 4562,
      "çĶľ": 4563,
      "è½»æĿ¾": 4564,
      "èĢĥèĻĳ": 4565,
      "ä¸įå®ī": 4566,
      "æľīå¦Ĥ": 4567,
      "æĹłåıĮ": 4568,
      "èĽĽ": 4569,
      "èĲįèĲį": 4570,
      "æľķ": 4571,
      "ç»ıåİĨ": 4572,
      "ä¸Ģä¸Ģ": 4573,
      "æľ¬æĺ¯": 4574,
      "åıĹåĪ°": 4575,
      "åĸĤ": 4576,
      "æŀ«": 4577,
      "çİĭåºľ": 4578,
      "ä»İä¸Ń": 4579,
      "çļĩä¸Ĭ": 4580,
      "éĻĪèĲįèĲį": 4581,
      "ä»ĸçŁ¥éģĵ": 4582,
      "æĭ±": 4583,
      "è¿Ĳè½¬": 4584,
      "æŃ¤è¨Ģ": 4585,
      "æĿ°": 4586,
      "ä»¥æĿ¥": 4587,
      "è¡Ģèī²": 4588,
      "ç»³": 4589,
      "ä½İå£°": 4590,
      "çİ°åĩº": 4591,
      "å¦¹å¦¹": 4592,
      "æīĵå¾Ĺ": 4593,
      "ä»Ļäºº": 4594,
      "åĢı": 4595,
      "èĬ³": 4596,
      "ç±į": 4597,
      "çªģçł´": 4598,
      "èĳ«": 4599,
      "éĢ¢": 4600,
      "åĽŀéģĵ": 4601,
      "èĦ¸ä¸ĬçļĦ": 4602,
      "æİ¥è¿ĳ": 4603,
      "ä¼łè¯´": 4604,
      "éļıæĦı": 4605,
      "åĲĥäºĨä¸Ģ": 4606,
      "æķ£å¼Ģ": 4607,
      "æĻĵéľľ": 4608,
      "ä¸Ńå¹´çĶ·åŃĲ": 4609,
      "çŀ¬æģ¯": 4610,
      "ä¿ĥ": 4611,
      "åīįè¡Į": 4612,
      "ä¼ŀ": 4613,
      "ä»İéĤ£": 4614,
      "å¿ĥä¸Ńä¸Ģ": 4615,
      "ä¸Ģé¢Ĺ": 4616,
      "æĹłçĸĳ": 4617,
      "éĤĢ": 4618,
      "å¦¥": 4619,
      "éºŁ": 4620,
      "å¤ªéĺ³": 4621,
      "å·²ç»ıæĺ¯": 4622,
      "æ·³": 4623,
      "æµģè½¬": 4624,
      "çĥŃéĹ¹": 4625,
      "åľ¨åĵªéĩĮ": 4626,
      "åĪ°è¿ĻéĩĮ": 4627,
      "æł¸": 4628,
      "æ±ĩ": 4629,
      "åı«åģļ": 4630,
      "å¤§æĪĺ": 4631,
      "åıł": 4632,
      "å¤§éĥ¨åĪĨ": 4633,
      "çļĦæīĭæ®µ": 4634,
      "åı¶å¼Ģéģĵ": 4635,
      "çº¢èī²": 4636,
      "å¤§éĹ¨": 4637,
      "æ²¾": 4638,
      "éģĵçļĦ": 4639,
      "çĶŁæ°Ķ": 4640,
      "å¤±æľĽ": 4641,
      "èĢģæĿ¿": 4642,
      "åĢļ": 4643,
      "æĻļä¸Ĭ": 4644,
      "èĹ©": 4645,
      "ä»ĸå¿½çĦ¶": 4646,
      "äºĨä½ł": 4647,
      "ç´§æİ¥çĿĢ": 4648,
      "å«Į": 4649,
      "ä¸ĢèĪ¬çļĦ": 4650,
      "ç«Ļèµ·èº«æĿ¥": 4651,
      "æī¿è®¤": 4652,
      "ä¸ĢåĪĢ": 4653,
      "æ²§": 4654,
      "å¯ĩ": 4655,
      "æ½Ń": 4656,
      "èĬ±æĹł": 4657,
      "ä¸įæĢķ": 4658,
      "é»ĳè¢į": 4659,
      "ä¾¿ä¼ļ": 4660,
      "å¿ħçĦ¶": 4661,
      "æĴ¼": 4662,
      "åģľä¸ĭ": 4663,
      "å¤§éĺµ": 4664,
      "æŃ»äºº": 4665,
      "å¯Ĩå¯Ĩ": 4666,
      "è¾Ĩ": 4667,
      "æ¼ª": 4668,
      "åıªæľīä¸Ģ": 4669,
      "æīĭèħķ": 4670,
      "å¤´çļĦ": 4671,
      "çĶŁæĢķ": 4672,
      "é£İæļ´": 4673,
      "æµ·æ£ł": 4674,
      "çĹķè¿¹": 4675,
      "ä¸įåĩºæĿ¥": 4676,
      "åįĬå¤©": 4677,
      "è½®åĽŀ": 4678,
      "é¡·": 4679,
      "åĴ¦": 4680,
      "åĴ¯": 4681,
      "ä½ĨæĪĳ": 4682,
      "æ¶Ľ": 4683,
      "é¥¿": 4684,
      "èĢģå¸Ī": 4685,
      "åĸ·åĩº": 4686,
      "åĬĽæ°Ķ": 4687,
      "èĳ«èĬ¦": 4688,
      "åĽĽä¸ĭ": 4689,
      "æĪĸæĺ¯": 4690,
      "å¿ĥåºķ": 4691,
      "éĻĩ": 4692,
      "éĿ¢æĹł": 4693,
      "è¿Ļçķª": 4694,
      "çıŃ": 4695,
      "åĺ»åĺ»": 4696,
      "ä¸Ģé¢¤": 4697,
      "åľ°ä¸ĭ": 4698,
      "å¿½åĲ¬": 4699,
      "ä¸įè¡Į": 4700,
      "ä½łèĥ½": 4701,
      "çĪ½": 4702,
      "ç©¿çĿĢ": 4703,
      "éĥ½èĥ½": 4704,
      "é»¯æ·¡": 4705,
      "æ±¡": 4706,
      "è½¬åĬ¨": 4707,
      "åı±": 4708,
      "èĲ§å³°": 4709,
      "çĽ¾": 4710,
      "å¥ĳ": 4711,
      "çŀ§è§ģ": 4712,
      "ç´«èī²": 4713,
      "çļĦæ°´": 4714,
      "æľīæ²¡æľī": 4715,
      "éŃĶæķĻ": 4716,
      "ä¸Īå¤«": 4717,
      "çĸĨ": 4718,
      "é£İåĲ¹": 4719,
      "æĢĢä¸Ń": 4720,
      "åĮĸç¥ŀ": 4721,
      "å¡Į": 4722,
      "å©īåĦ¿": 4723,
      "åİ»æī¾": 4724,
      "åıĺäºĨ": 4725,
      "çĲª": 4726,
      "ç§ĺæľ¯": 4727,
      "èģĶæīĭ": 4728,
      "æİ¥éģĵ": 4729,
      "è·Łä»ĸ": 4730,
      "éĺ»æŃ¢": 4731,
      "åİ¢": 4732,
      "èĥ½åĬĽ": 4733,
      "æĥĬåĳ¼": 4734,
      "ä¸įæĩĤ": 4735,
      "è¯Ŀè¯Ń": 4736,
      "å°±åı¯ä»¥": 4737,
      "å±ĭåŃĲ": 4738,
      "çĶļèĩ³è¿ŀ": 4739,
      "åľ°çľĭçĿĢ": 4740,
      "åı¶çº¢": 4741,
      "ä¿©": 4742,
      "è®¯": 4743,
      "æĹģäºº": 4744,
      "çĨĬçĮ«åĦ¿": 4745,
      "èĢ»": 4746,
      "è¾¹ç¼ĺ": 4747,
      "è®¡åĪĴ": 4748,
      "ç¬¨": 4749,
      "å°±ç®Ĺæĺ¯": 4750,
      "è¯¢": 4751,
      "æµİ": 4752,
      "èĥİ": 4753,
      "èĳ£": 4754,
      "å¦¾": 4755,
      "åģļåĩº": 4756,
      "ä»£è¡¨": 4757,
      "æ§": 4758,
      "èĨĢ": 4759,
      "å±ĢéĿ¢": 4760,
      "ä¸Ģåĩº": 4761,
      "äººå¿ĥ": 4762,
      "å¤§åĨĽ": 4763,
      "çĻ½çļĦ": 4764,
      "æĹ¶åĪ»": 4765,
      "è§Ĩçº¿": 4766,
      "èĢ³è¾¹": 4767,
      "å±ŀäºİ": 4768,
      "ä¸¸": 4769,
      "éĤ£å°ı": 4770,
      "çŁ¥éģĵäºĨ": 4771,
      "æĬ±çĿĢ": 4772,
      "å¤§æĥĬ": 4773,
      "æĪĲä¸ºäºĨ": 4774,
      "å¤ĦçļĦ": 4775,
      "æºħ": 4776,
      "åĨ²å¤©": 4777,
      "é¼»åŃĲ": 4778,
      "æīĶ": 4779,
      "çĸı": 4780,
      "çļĦè¡¨æĥħ": 4781,
      "æľ¬å°±": 4782,
      "å¥³ä¿®": 4783,
      "çıłåŃĲ": 4784,
      "çģ¾": 4785,
      "ç«¥åŃĲ": 4786,
      "çŃĳåŁº": 4787,
      "åı¶çº¢é±¼": 4788,
      "çĭ®": 4789,
      "ä¼¤åĬ¿": 4790,
      "å°ī": 4791,
      "è¿ĻåĲį": 4792,
      "æĦıä¹ī": 4793,
      "æĪļ": 4794,
      "ä¼¸åĩº": 4795,
      "åĲ¸æĶ¶": 4796,
      "åįģåħŃ": 4797,
      "ä»İæŃ¤": 4798,
      "æĦĪåıĳ": 4799,
      "ç¬ĳæĦı": 4800,
      "ä¸ĭä¸ĢåĪ»": 4801,
      "çģ«åħī": 4802,
      "æ¡ĥèĬ±": 4803,
      "æĬĳ": 4804,
      "è¿Ļä¸Ģå¹ķ": 4805,
      "æĪĺæĸĹ": 4806,
      "éªĤéģĵ": 4807,
      "åĶ¯æľī": 4808,
      "çĽ¸è²Į": 4809,
      "è¿ĩç¨ĭ": 4810,
      "åĩłæŃ¥": 4811,
      "éŃĶå®Ĺ": 4812,
      "å¹²èĦĨ": 4813,
      "ä»ĸè¦ģ": 4814,
      "çĮİ": 4815,
      "è¯±": 4816,
      "çŃīå¾ħ": 4817,
      "äºĨåĲ§": 4818,
      "éŃģ": 4819,
      "æ»¡æĦı": 4820,
      "åĳ³éģĵ": 4821,
      "ä¸Ģçļ±": 4822,
      "ä¹ŁæĹłæ³ķ": 4823,
      "ç¥ŀä»Ļ": 4824,
      "åĲ¬è§ģ": 4825,
      "ç§įç§į": 4826,
      "å¤§é»ĳ": 4827,
      "è¯»ä¹¦": 4828,
      "ç»ľ": 4829,
      "æĭĽåĳ¼": 4830,
      "ä¸įçĽ¸": 4831,
      "åģ¥": 4832,
      "å°ıäºº": 4833,
      "è¯Ħ": 4834,
      "ä¹ŁæĹł": 4835,
      "æ³ķè¯Ģ": 4836,
      "ä¸ĩå¹´": 4837,
      "å¯¨": 4838,
      "ä¸Ĳå¸®": 4839,
      "ä¸ĢæİĮ": 4840,
      "ä¸ĢåıĮ": 4841,
      "æĪĳåıª": 4842,
      "è¸ªå½±": 4843,
      "æĪĳåľ¨": 4844,
      "å®¶æĹı": 4845,
      "éĹŃåħ³": 4846,
      "ä¼Ł": 4847,
      "åįģäºĶ": 4848,
      "ç«ĭåĪ»å°±": 4849,
      "ä¹łæĥ¯": 4850,
      "åħīå¹ķ": 4851,
      "å¯¹æĸ¹çļĦ": 4852,
      "ä¹ĭéģĵ": 4853,
      "éĢļå¤©": 4854,
      "ç©¿éĢı": 4855,
      "çĿĢå¤´": 4856,
      "éħ·": 4857,
      "è¿Ļåľº": 4858,
      "èļģ": 4859,
      "éī": 4860,
      "è½°éļĨéļĨ": 4861,
      "éī´": 4862,
      "æ¶ħ": 4863,
      "å¾Ĺä¸Ĭ": 4864,
      "çĤ¹åĦ¿": 4865,
      "åĨ»": 4866,
      "ä¸įæŃ»": 4867,
      "çĿ¹": 4868,
      "ä¿¯": 4869,
      "å°Ĩå¥¹": 4870,
      "å¾Ĺç½ª": 4871,
      "èħ°éĹ´": 4872,
      "è£Ļ": 4873,
      "çļĦæĹł": 4874,
      "çļĦçŁ³": 4875,
      "ä¸Ģåī¯": 4876,
      "è¸©": 4877,
      "åıī": 4878,
      "èĢĮæĿ¥çļĦ": 4879,
      "é¾Ļéª": 4880,
      "å¿«æ´»": 4881,
      "æĭ¿çĿĢ": 4882,
      "ä¸Ģåı¥è¯Ŀ": 4883,
      "æĸ¹å¼ı": 4884,
      "æ¿ĢåĬ¨": 4885,
      "çĤ¹å¤´éģĵ": 4886,
      "å¤§ä¸º": 4887,
      "åıĪæĺ¯ä¸Ģ": 4888,
      "æľªæĽ¾": 4889,
      "!âĢĿ": 4890,
      "ç¿»æ»ļ": 4891,
      "æŀ¢": 4892,
      "ä¸ĸåŃĲæ®¿ä¸ĭ": 4893,
      "è°¨æħİ": 4894,
      "æīĭçļĦ": 4895,
      "äºĨæĪĳ": 4896,
      "å¼ĢåĲ¯": 4897,
      "å°ĳçĪ·": 4898,
      "æī£": 4899,
      "è®½": 4900,
      "åıªè§īå¾Ĺ": 4901,
      "è¯Ľ": 4902,
      "å¤§å°ĨåĨĽ": 4903,
      "æĪĳçľĭ": 4904,
      "åİ»çľĭ": 4905,
      "ç¥ŀåħī": 4906,
      "çĶŁæľº": 4907,
      "äºĨä¸ī": 4908,
      "ä½Ĩä¹Ł": 4909,
      "æĪĳè¯´": 4910,
      "ä¸įå¾Ĺä¸į": 4911,
      "ä¹ĭéĹ´çļĦ": 4912,
      "çºł": 4913,
      "åĬĽçļĦ": 4914,
      "æĴ¤": 4915,
      "èº«çļĦ": 4916,
      "èĢģå¤ª": 4917,
      "åĵ¼ä¸Ģå£°": 4918,
      "çĮľæµĭ": 4919,
      "èĢģä¼¯": 4920,
      "è¡Ģåħī": 4921,
      "ä»ĸä¾¿": 4922,
      "è¿Ļä¸¤ä¸ª": 4923,
      "æľ¬åĳ½": 4924,
      "æĿĢæľº": 4925,
      "éļıä¾¿": 4926,
      "çĶ»éĿ¢": 4927,
      "æĺ¯åĽłä¸º": 4928,
      "ä»Ļæľ¯": 4929,
      "èĤĨ": 4930,
      "èĤł": 4931,
      "é£ŀåİ»": 4932,
      "äººäºº": 4933,
      "èĴĻèĴĻ": 4934,
      "è½»åĬŁ": 4935,
      "éļľ": 4936,
      "æĺİäº®": 4937,
      "åĪĳ": 4938,
      "æ°´èĿ¶åħ°": 4939,
      "æ·¡æ·¡çļĦ": 4940,
      "ä¸Ģå¤©": 4941,
      "ä½łçŁ¥éģĵ": 4942,
      "æľīä¸ĢèĤ¡": 4943,
      "æĢĢéĩĮ": 4944,
      "ä¸įç»Ŀ": 4945,
      "äºĮä½į": 4946,
      "éĢį": 4947,
      "é¸¾": 4948,
      "çĶ·å¥³": 4949,
      "ä¹Łéĥ½": 4950,
      "å¥½çĶŁ": 4951,
      "è¡ĮåĬ¨": 4952,
      "æĬĬä»ĸ": 4953,
      "é¢ł": 4954,
      "æľĢå¤§çļĦ": 4955,
      "ä¹ĭæīĢä»¥": 4956,
      "æĪĳåĴĮ": 4957,
      "ä¸ĭæĿ¥çļĦ": 4958,
      "ä¿¡æģ¯": 4959,
      "å±ķå¼Ģ": 4960,
      "æĿ¥åĪ°äºĨ": 4961,
      "ç«ĻçĿĢ": 4962,
      "åĽŀè¿ĩ": 4963,
      "éĴ¦": 4964,
      "é¾Ļéª§": 4965,
      "çĽĨ": 4966,
      "å¨ĺåŃĲ": 4967,
      "åľĨæ»¡": 4968,
      "å¿½çĦ¶éĹ´": 4969,
      "ä¹¦çĶŁ": 4970,
      "è½»å£°": 4971,
      "ç³Ĭæ¶Ĥ": 4972,
      "ä¸¤æĿ¡": 4973,
      "èĭ¥æĹł": 4974,
      "å®ŀéĻħä¸Ĭ": 4975,
      "çļĦéĿĴ": 4976,
      "æĢİåľ°": 4977,
      "åıĸåĩº": 4978,
      "ä¼Ĺå¤ļ": 4979,
      "å±Ĥæ¬¡": 4980,
      "é»ĺçĦ¶": 4981,
      "åĨįåĬłä¸Ĭ": 4982,
      "åı¦ä¸Ģä¸ª": 4983,
      "çļĩå¸ĿéĻĽä¸ĭ": 4984,
      "èĪ±": 4985,
      "æ¢§": 4986,
      "è¿Ĳæ°Ķ": 4987,
      "èº«æĿĲ": 4988,
      "è½»å£°éģĵ": 4989,
      "åĮħæĭ¬": 4990,
      "æ··ä¹±": 4991,
      "è¥¿éĻµç¥ŀæ®¿": 4992,
      "å¤§åĶĲ": 4993,
      "å·²å°Ĩ": 4994,
      "åīĳçļĦ": 4995,
      "æĴĴ": 4996,
      "æŀģåħ¶": 4997,
      "ä¸ĢåŃĹ": 4998,
      "æĭĨ": 4999,
      "åĲĥäºĨä¸ĢæĥĬ": 5000,
      "å¯Ħ": 5001,
      "èĢĮè¡Į": 5002,
      "èµ°è¿Ľ": 5003,
      "åħ«æĸ¹": 5004,
      "æĻ¨": 5005,
      "ä»Ģä¹ĪæĹ¶åĢĻ": 5006,
      "è¾¾åĪ°": 5007,
      "çĽı": 5008,
      "è¿ĺä¼ļ": 5009,
      "ç»ĵæĿŁ": 5010,
      "èĦ¾æ°Ķ": 5011,
      "éĻ¤éĿŀ": 5012,
      "èĪĴæľį": 5013,
      "æ¢µ": 5014,
      "éº»éº»": 5015,
      "è¿Ļçīĩ": 5016,
      "æĥ®": 5017,
      "ç¬¬ä¸Ģä¸ª": 5018,
      "èī°éļ¾": 5019,
      "ä¸»åĬ¨": 5020,
      "å¯¹æŃ¤": 5021,
      "é©»": 5022,
      "æĭ¿åĩº": 5023,
      "æ¶¦": 5024,
      "æĮĸ": 5025,
      "åķ§": 5026,
      "çł´ç©º": 5027,
      "å¿ĸ": 5028,
      "å¼Ģå¿ĥ": 5029,
      "éļ¾æĢª": 5030,
      "ä¹Łåıªæľī": 5031,
      "çģµæ°Ķ": 5032,
      "çľ¨çľ¼": 5033,
      "ä¸įèĩª": 5034,
      "åħĨ": 5035,
      "è¶Ĭåıĳ": 5036,
      "åİĭåĬĽ": 5037,
      "èŁĴ": 5038,
      "åģ¶å°Ķ": 5039,
      "åĪ¤æĸŃ": 5040,
      "æĹłæĦı": 5041,
      "èĩªä»İ": 5042,
      "æĢĿè®®": 5043,
      "æ²¡äºĨ": 5044,
      "ä¾¿å¦Ĥ": 5045,
      "èµ°çļĦ": 5046,
      "é½Ĳé½Ĳ": 5047,
      "èĢ¸": 5048,
      "æĺ¥ç§ĭ": 5049,
      "ä½łåľ¨": 5050,
      "ä¸ĢåĲĮ": 5051,
      "çŀ³åŃĶ": 5052,
      "åīĳéĺµ": 5053,
      "éģĵéĹ¨": 5054,
      "è¾¹çļĦ": 5055,
      "å·ħå³°": 5056,
      "å¯Ĩå¯Ĩéº»éº»": 5057,
      "è¿Ļä¸ī": 5058,
      "æľīæĹ¶": 5059,
      "èµĸ": 5060,
      "æĸ¯": 5061,
      "æµ¸": 5062,
      "æĮĩçĿĢ": 5063,
      "çªģçĦ¶éĹ´": 5064,
      "åĵĪåĵĪå¤§ç¬ĳ": 5065,
      "ä¸ĭæĦıè¯Ĩ": 5066,
      "è®©ä»ĸä»¬": 5067,
      "ä½łçľĭ": 5068,
      "é¸¦": 5069,
      "ä¸ĢçĽ´åľ¨": 5070,
      "ä¼łæī¿": 5071,
      "æ¨Ĭ": 5072,
      "éĽªçĲª": 5073,
      "åıªåī©ä¸ĭ": 5074,
      "å§¥": 5075,
      "ä¸ĢæĬĵ": 5076,
      "è¿Ļå°±": 5077,
      "æ·ĭ": 5078,
      "æ»¡æĺ¯": 5079,
      "çĽĺæĹĭ": 5080,
      "éĿ¢æĹłè¡¨æĥħ": 5081,
      "ä¸įç®Ĺ": 5082,
      "ä¸įæĺİçĻ½": 5083,
      "å¥ı": 5084,
      "æĹłç©·": 5085,
      "çĻ½å¤©": 5086,
      "åĩĿç¥ŀ": 5087,
      "æĪĳåı¯": 5088,
      "æĦŁæħ¨": 5089,
      "ç¬¬ä¸ĢçĻ¾": 5090,
      "èĦĳä¸Ń": 5091,
      "å¸½": 5092,
      "åºĬä¸Ĭ": 5093,
      "ä¾¿åı¯": 5094,
      "éĩĳåĪļ": 5095,
      "åįĩèµ·": 5096,
      "åĸĥåĸĥéģĵ": 5097,
      "ä¸Ģè¨Ģ": 5098,
      "å®ļçĦ¶": 5099,
      "ç»Ļäºº": 5100,
      "æĶ¾åĩº": 5101,
      "æīĢä»¥ä»ĸ": 5102,
      "æ¨ªæī«": 5103,
      "æĹłè®ºå¦Ĥä½ķ": 5104,
      "æľĢå¤ļ": 5105,
      "æĺŁéŃĤ": 5106,
      "æĺİæľĪ": 5107,
      "ç»Ŀä¸į": 5108,
      "éĢĢåĲİ": 5109,
      "ä¹ĭç±»": 5110,
      "åı¸é©¬": 5111,
      "åŃĲå¼Ł": 5112,
      "åĲĳéĤ£": 5113,
      "éĶ¤": 5114,
      "å°±è¿Ļæł·": 5115,
      "èĻļå¹»": 5116,
      "æĹ¶çļĦ": 5117,
      "åįĬæŃ¥": 5118,
      "éķ¿éķ¿": 5119,
      "åħ¶ä¸Ĭ": 5120,
      "çĻ¾éĩĮ": 5121,
      "åģ·åģ·": 5122,
      "ä¸įå°ı": 5123,
      "ä¹Łå¾Ī": 5124,
      "åĲİæľŁ": 5125,
      "çĨĻ": 5126,
      "çªľ": 5127,
      "çĻ¾ä¸Ī": 5128,
      "ä¿ŀ": 5129,
      "ç¼ļ": 5130,
      "æĿĢæĪĳ": 5131,
      "çĶŁæĦı": 5132,
      "é»ĳæ°Ķ": 5133,
      "æ¡Ĳ": 5134,
      "éĻįä¸´": 5135,
      "è¯¡å¼ĤçļĦ": 5136,
      "çĻ¾ä½Ļ": 5137,
      "ç¾İäºº": 5138,
      "èĻļç«¹": 5139,
      "å¹¸å¥½": 5140,
      "ç¬¬äºĶ": 5141,
      "éĤ£å¼ł": 5142,
      "çĶŁæ´»": 5143,
      "çŃīä»ĸ": 5144,
      "æ¸ħæ°´": 5145,
      "å¤ĸäºº": 5146,
      "æ·±åĲ¸": 5147,
      "å°ıå§ĳå¨ĺ": 5148,
      "å¯¹äºĨ": 5149,
      "æĢķæĺ¯": 5150,
      "ä¹¦æĪ¿": 5151,
      "èĳĽé¾Ļéª§": 5152,
      "æīĢè¯´": 5153,
      "è§£åĨ³": 5154,
      "ä¸įåı¯æĢĿè®®": 5155,
      "èĨĽ": 5156,
      "ä¸ªä¸ª": 5157,
      "åĮĸèº«": 5158,
      "è§Ĥå¯Ł": 5159,
      "ä¸ĢæĪĺ": 5160,
      "æĮª": 5161,
      "çľĭäºĨçľĭ": 5162,
      "çİĭæŀĹçĽ®åħī": 5163,
      "èĴĻåı¤": 5164,
      "èľĤ": 5165,
      "å¯¹ä½ł": 5166,
      "èĮħ": 5167,
      "é±¼é¾Ļ": 5168,
      "å°½æķ°": 5169,
      "å¦Ĥå¸¸": 5170,
      "è¥Ł": 5171,
      "ç´«è¡£": 5172,
      "ç±³": 5173,
      "åĩłæ¬¡": 5174,
      "éŁ©åħĦ": 5175,
      "ç£ķ": 5176,
      "å±ĳ": 5177,
      "ç¡®è®¤": 5178,
      "çļ®çļ®": 5179,
      "ç¢°åĪ°": 5180,
      "æµ®çİ°èĢĮåĩº": 5181,
      "æĪĳæĿ¥": 5182,
      "åĪ°å¤Ħ": 5183,
      "åĹĵ": 5184,
      "è¿Ļåº§": 5185,
      "æĸ¹çļĦ": 5186,
      "èĭ¥æľī": 5187,
      "è¡Įäºº": 5188,
      "èħĲ": 5189,
      "çĵ¦": 5190,
      "æķĪæŀľ": 5191,
      "èº¬èº«": 5192,
      "ä¸ĭæīĭ": 5193,
      "æįķ": 5194,
      "æİĮæı¡": 5195,
      "ç¥ŃçĤ¼": 5196,
      "éĢĤæīį": 5197,
      "åį§": 5198,
      "æĥŁ": 5199,
      "æķħäºĭ": 5200,
      "åĲĥäºĨ": 5201,
      "èİ±": 5202,
      "å®ĥçļĦ": 5203,
      "èĬ±æĻĵéľľ": 5204,
      "ä¹Ŀå¹½": 5205,
      "å°ĳå¦ĩ": 5206,
      "æĲº": 5207,
      "å¥¥": 5208,
      "ç§ĥ": 5209,
      "æĦıæĸĻ": 5210,
      "å¤§åİħ": 5211,
      "åľ¨è¿Ļä¸ª": 5212,
      "åºķä¸ĭ": 5213,
      "åİĭåĪ¶": 5214,
      "ç¼ĺæķħ": 5215,
      "æıı": 5216,
      "æĶ¾å¼ĥ": 5217,
      "é¢ĩæľī": 5218,
      "æ²Ĳ": 5219,
      "ç¬ĳäºĨèµ·æĿ¥": 5220,
      "åĮ£": 5221,
      "éĻĨéĽªçĲª": 5222,
      "åħĢ": 5223,
      "éĤ£èĢģ": 5224,
      "èºģ": 5225,
      "æĢĿéĩı": 5226,
      "æĥķ": 5227,
      "åĴķ": 5228,
      "èĦĤ": 5229,
      "å©¢": 5230,
      "ä¼¦": 5231,
      "æĬ¥ä»ĩ": 5232,
      "ä½łåıĪ": 5233,
      "å¹³æĹ¥": 5234,
      "ä¼¤åı£": 5235,
      "è¦ģåİ»": 5236,
      "åįĬç©ºä¸Ń": 5237,
      "è§Ĥä¸»": 5238,
      "æĹĭè½¬": 5239,
      "å¤§çīĩ": 5240,
      "èĢĮåľ¨": 5241,
      "åį´ä¸įçŁ¥": 5242,
      "éŃĤéŃĦ": 5243,
      "åİīå£°éģĵ": 5244,
      "åĲ«ç¬ĳ": 5245,
      "åŃŁæĺŁéŃĤ": 5246,
      "æĦļ": 5247,
      "åĿĲçĿĢ": 5248,
      "èįĴåİŁ": 5249,
      "çĢ": 5250,
      "æĽ´ä¸º": 5251,
      "é»ĳèī²çļĦ": 5252,
      "ä¸ĩä¸Ģ": 5253,
      "åĳ½çļĦ": 5254,
      "å¯¥": 5255,
      "åıªä¸įè¿ĩæĺ¯": 5256,
      "ä»ĸè¯´": 5257,
      "åĳľ": 5258,
      "ä¸įä¸ĭ": 5259,
      "åĦ¿çļĦ": 5260,
      "åī§çĥĪ": 5261,
      "è¿Ŀ": 5262,
      "èĤ¢": 5263,
      "åĩłåı¥": 5264,
      "é»ĳè¡£äºº": 5265,
      "çŃ¹": 5266,
      "çĽ¸åĬ©": 5267,
      "ç¦»å¼ĢäºĨ": 5268,
      "æ»ļæ»ļ": 5269,
      "æ¯Ķå¦Ĥ": 5270,
      "è£ĺ": 5271,
      "ä¸ºäºº": 5272,
      "çĶŁåĩº": 5273,
      "æĳĬ": 5274,
      "ä¹ŁçŁ¥éģĵ": 5275,
      "åĩºå£°": 5276,
      "åĩ¡äºº": 5277,
      "æŃ¤è¯Ŀ": 5278,
      "å£°å¤§": 5279,
      "çĶŁçģµ": 5280,
      "åĬ¨éĿĻ": 5281,
      "åħĪå¤©": 5282,
      "å¸®åĬ©": 5283,
      "æĤłæĤł": 5284,
      "åľ¨ç©ºä¸Ń": 5285,
      "æ¬ł": 5286,
      "åı£éģĵ": 5287,
      "éĻĪçļ®çļ®": 5288,
      "æł¹æľ¬æ²¡æľī": 5289,
      "éŀĭ": 5290,
      "ä½ĨéĤ£": 5291,
      "æĻ¶èİ¹": 5292,
      "å±±èĦī": 5293,
      "çľ¼éĩĮ": 5294,
      "çĶ¨äºĨ": 5295,
      "æ¯«ä¸įçĬ¹è±«": 5296,
      "æĹłéĩı": 5297,
      "ä¸ĢåĪĨ": 5298,
      "ä¸įé¡¾": 5299,
      "éļ¾åħį": 5300,
      "åįľ": 5301,
      "å½¢å®¹": 5302,
      "è¦ģæ±Ĥ": 5303,
      "åĵĹ": 5304,
      "æıĲéĨĴ": 5305,
      "æĽ¼": 5306,
      "è¯§å¼Ĥ": 5307,
      "ä¸ĢçĻ¾": 5308,
      "æ·»": 5309,
      "èī¯ä¹ħ": 5310,
      "å§ļæĻ´": 5311,
      "å¤§èĥ½": 5312,
      "çŁ³çł´å¤©": 5313,
      "åģľé¡¿": 5314,
      "æĲ¬": 5315,
      "åħ¶ä»ĸäºº": 5316,
      "çľŁæľī": 5317,
      "éķ¿åħ¬ä¸»": 5318,
      "å¦»åŃĲ": 5319,
      "è¯´åĪ°è¿ĻéĩĮ": 5320,
      "åŃ½": 5321,
      "ä¹ĭè¨Ģ": 5322,
      "æŁ¯": 5323,
      "æ¸ħéĨĴ": 5324,
      "åĲĵå¾Ĺ": 5325,
      "ä¸ĢäºĮ": 5326,
      "ä»ĸä¸Ģçľ¼": 5327,
      "å¯ŀ": 5328,
      "éŁ©éģĵåıĭ": 5329,
      "æĿ¥ä¸įåıĬ": 5330,
      "æĺİè¿ľ": 5331,
      "é©Ń": 5332,
      "èİ«è¦ģ": 5333,
      "ä¼¼æĺ¯": 5334,
      "è§ģçļĦ": 5335,
      "æķ°ä¸Ī": 5336,
      "ä¹ĭåĬ¿": 5337,
      "èĢ½": 5338,
      "èĤ¥": 5339,
      "çĽ®åīį": 5340,
      "èĵ¬èİ±": 5341,
      "çļĦåĲį": 5342,
      "çİ¯ç»ķ": 5343,
      "åĢ¼å¾Ĺ": 5344,
      "è¯¸å¤ļ": 5345,
      "æĪĳä¾¿": 5346,
      "åŁİä¸Ń": 5347,
      "èĵ¦çĦ¶éĹ´": 5348,
      "æĤ£": 5349,
      "ä»ĸå·²ç»ı": 5350,
      "éĻ¨": 5351,
      "è¿ĺå¥½": 5352,
      "åĲ±": 5353,
      "ä¸ĢåĪ»": 5354,
      "æĥ¨åı«": 5355,
      "å®°": 5356,
      "çľ¼æ³ª": 5357,
      "çľŁè¦ģ": 5358,
      "è¹²": 5359,
      "ä¸Ģæ²ī": 5360,
      "æľªåħį": 5361,
      "éķĩåİĭ": 5362,
      "æĢľèĬ±": 5363,
      "åįģåĽĽ": 5364,
      "å®«ä¸Ń": 5365,
      "çº¢åħī": 5366,
      "è®¤çľŁ": 5367,
      "ç¢İè£Ĥ": 5368,
      "åĳĪ": 5369,
      "äºĨä¸Ģä¸Ŀ": 5370,
      "çĵľ": 5371,
      "æ£ºæĿĲ": 5372,
      "æľīå¤ļ": 5373,
      "å°±åı¯": 5374,
      "ç«ĸ": 5375,
      "çļĦéĩĳ": 5376,
      "ä»İå®¹": 5377,
      "å¾Īå°ĳ": 5378,
      "èį·": 5379,
      "å®¢äºº": 5380,
      "æ·¡æ·¡éģĵ": 5381,
      "ãĢĤâĢĻ": 5382,
      "è¡Įç¤¼": 5383,
      "èĳ¬": 5384,
      "çļĦèº«å½±": 5385,
      "è¯º": 5386,
      "å¤©ä¸Ĭ": 5387,
      "åĽŀåºĶ": 5388,
      "åı¹ä¸Ģå£°": 5389,
      "éĹŃä¸Ĭ": 5390,
      "åħħæ»¡": 5391,
      "çĽĪçĽĪ": 5392,
      "åĲĪä½ĵ": 5393,
      "çļĦéĺ´": 5394,
      "ä¹Łç®Ĺ": 5395,
      "æ²¡åħ¥": 5396,
      "æĥ³èµ·äºĨ": 5397,
      "çĸ¯åŃĲ": 5398,
      "ä¼łéĢģéĺµ": 5399,
      "åı«æĪĳ": 5400,
      "ç¡®å®ļ": 5401,
      "éªĩçĦ¶": 5402,
      "ä¸įæŃ¢": 5403,
      "æŃ¹": 5404,
      "æ¾ľ": 5405,
      "çĸ¾é©°": 5406,
      "åı®": 5407,
      "çĮª": 5408,
      "è·Łéļı": 5409,
      "ä¸Ģæĭ³": 5410,
      "çĿĢéģĵ": 5411,
      "æ¯Ļ": 5412,
      "ç¦½": 5413,
      "çĲĨçĶ±": 5414,
      "ä»ĸæīį": 5415,
      "çª¥": 5416,
      "æµ·ä¸Ń": 5417,
      "èĬ±æĹłç¼º": 5418,
      "éĺ¿é£ŀ": 5419,
      "æī©æķ£": 5420,
      "åĨįæĿ¥": 5421,
      "çļĦéŃĶ": 5422,
      "æĶĢ": 5423,
      "èĭ¥ä¸į": 5424,
      "åĨįçľĭ": 5425,
      "éĵ¸": 5426,
      "è§ĨçĿĢ": 5427,
      "ä¸Ĭåı¤": 5428,
      "æĦıå¿Ĺ": 5429,
      "ä»²": 5430,
      "æĿ¥ä¸´": 5431,
      "è½¬è¿ĩèº«": 5432,
      "é©¼": 5433,
      "æ¸Ĺ": 5434,
      "èĥĮå½±": 5435,
      "åºĲ": 5436,
      "äºĨä¸Ģåı£": 5437,
      "å¾Ĵå¼Ł": 5438,
      "å¸Īå°Ĭ": 5439,
      "æĺŁåħī": 5440,
      "åĵªæľī": 5441,
      "ä¼ĳæģ¯": 5442,
      "æİīäºĨ": 5443,
      "éĵ¾": 5444,
      "çİĭæĢľèĬ±": 5445,
      "æŁĲä¸ª": 5446,
      "çļĦä¸Ģä¸ª": 5447,
      "åįĳ": 5448,
      "åıĳæĮ¥": 5449,
      "è¿Ľéĺ¶": 5450,
      "åłĤä¸»": 5451,
      "åľ¨èĩªå·±": 5452,
      "åı¯ä¸įæĺ¯": 5453,
      "éĽ·åħī": 5454,
      "æİ¥çĿĢéģĵ": 5455,
      "åĩłåĲį": 5456,
      "è¯ĿéŁ³": 5457,
      "éĽ·é¸£": 5458,
      "äº²çľ¼": 5459,
      "æ¯ıæ¬¡": 5460,
      "çł´äºĨ": 5461,
      "éŁ¦æĺİè¿ľ": 5462,
      "çģĮ": 5463,
      "éĵģéªĳ": 5464,
      "å°¬": 5465,
      "å°´": 5466,
      "å¾ª": 5467,
      "æĪĳä¼ļ": 5468,
      "ä¿®å£«çļĦ": 5469,
      "å°ıå°ı": 5470,
      "æ²īéĩį": 5471,
      "åģľæŃ¢": 5472,
      "æĹłä¸į": 5473,
      "åĴĮæĪĳ": 5474,
      "çĻ½çİī": 5475,
      "èµĶ": 5476,
      "æłĪ": 5477,
      "ç¼Ń": 5478,
      "èĥ¸èĨĽ": 5479,
      "éĻĮçĶŁ": 5480,
      "ä¸¤éĵ¶åŃĲ": 5481,
      "ä¸¾åĬ¨": 5482,
      "çĦ¶ä¸Ģç¬ĳ": 5483,
      "åłµ": 5484,
      "æľºç¼ĺ": 5485,
      "æĭĽå¼ı": 5486,
      "è´«éģĵ": 5487,
      "è¯´ç½¢": 5488,
      "éŁ©ç«ĭçļĦ": 5489,
      "çłģ": 5490,
      "ä¸ĢæĹ¥": 5491,
      "æİ¥ä¸ĭæĿ¥": 5492,
      "è¡ĢèĤī": 5493,
      "æ¼«å¤©": 5494,
      "å°´å°¬": 5495,
      "çĽ´èĩ³": 5496,
      "ç£ģ": 5497,
      "ä¸įåģĩ": 5498,
      "ä¸įå®¹æĺĵ": 5499,
      "è¾ħ": 5500,
      "ä¸ĢæĹģ": 5501,
      "éĤ£åº§": 5502,
      "çĿĢå®ŀ": 5503,
      "ç¬ĳå¾Ĺ": 5504,
      "å§Ķå®ŀ": 5505,
      "å±Ĥå±Ĥ": 5506,
      "çļĦéĤ£ä¸ª": 5507,
      "ä¹ĭè¾Ī": 5508,
      "çŁ³å¤´": 5509,
      "æĹłåı¯": 5510,
      "å¦ĸéŃĶ": 5511,
      "èİ·å¾Ĺ": 5512,
      "çĴ§åĲĽ": 5513,
      "å¤§æĢĴ": 5514,
      "æĲı": 5515,
      "ä¸ĩä¸ĩ": 5516,
      "æĪĳè¿ĺ": 5517,
      "æ²ĪçĴ§åĲĽ": 5518,
      "çļĦéĤ£äºĽ": 5519,
      "åı¤éŁ³": 5520,
      "å¸ĸ": 5521,
      "è°¦": 5522,
      "ä»İä»ĸ": 5523,
      "ç¢ĳ": 5524,
      "åĿŁ": 5525,
      "éħįåĲĪ": 5526,
      "æĹłè¸ª": 5527,
      "åīĳæĦı": 5528,
      "çļĦä¸Ģå¹ķ": 5529,
      "ä¸ĭå±±": 5530,
      "æŀĹä¸Ń": 5531,
      "é£ŀèµ·": 5532,
      "è°ģçŁ¥": 5533,
      "å¯Ĵåħī": 5534,
      "å¤®": 5535,
      "è¯´æĺİ": 5536,
      "èĲ½åľ°": 5537,
      "åĮĸä¸ºä¸Ģéģĵ": 5538,
      "ä¸įè§£": 5539,
      "å¾Ĺä½ı": 5540,
      "åĽ½çļĦ": 5541,
      "æį·": 5542,
      "ç»ĿæľĽ": 5543,
      "è¡¨çİ°": 5544,
      "éĢłåĮĸ": 5545,
      "çĭĦäºĳ": 5546,
      "é£ŀè¡Į": 5547,
      "çªĿ": 5548,
      "å´Ķ": 5549,
      "å£ģä¸Ĭ": 5550,
      "æŀģå¤§": 5551,
      "ç©Ĩ": 5552,
      "è¤ļ": 5553,
      "éĤ£å¤©": 5554,
      "éĤ£å¥³åŃĲ": 5555,
      "ä¸ĭå¤´": 5556,
      "è°ģéĥ½": 5557,
      "è¯ĿæĿ¥": 5558,
      "è®¥": 5559,
      "æī¿åıĹ": 5560,
      "åľ¨åľ°ä¸ĭ": 5561,
      "çĪ¶æ¯į": 5562,
      "å¨¶": 5563,
      "ç¼ĵæħ¢": 5564,
      "çĬĢ": 5565,
      "å¦ĻçļĦ": 5566,
      "æµĵéĥģ": 5567,
      "è®¿": 5568,
      "ä¸Ńå¹´äºº": 5569,
      "åĪ°æĿ¥": 5570,
      "ä¾¿åį³": 5571,
      "æĳĩæĳĩå¤´": 5572,
      "å¿½åıĪ": 5573,
      "å¸Īä¼¯": 5574,
      "è®©éŁ©ç«ĭ": 5575,
      "æį®è¯´": 5576,
      "ç½ļ": 5577,
      "ç²®": 5578,
      "ä¼łéĹ»": 5579,
      "ä¾¿å®ľ": 5580,
      "çĤ¼åĮĸ": 5581,
      "æ²īé»ĺäºĨ": 5582,
      "èĶ½": 5583,
      "çľĭçļĦ": 5584,
      "èĩ³æŀģ": 5585,
      "èĥĸåŃĲ": 5586,
      "å°½å¤´": 5587,
      "éĻ©äºĽ": 5588,
      "è±Ĩ": 5589,
      "çļĦè¯Ŀè¯Ń": 5590,
      "éľŀåħī": 5591,
      "ç¯Ĩ": 5592,
      "çļĦå·¨": 5593,
      "ä¸įåıĳ": 5594,
      "è¯´åĩºæĿ¥": 5595,
      "æıŃ": 5596,
      "é¼ł": 5597,
      "çļĦæ°Ķ": 5598,
      "æľīç§į": 5599,
      "æ¬§éĺ³éĶĭ": 5600,
      "ä»ĸå¿ĥä¸Ń": 5601,
      "è§ĳ": 5602,
      "åľ¨è¿Ļç§į": 5603,
      "éĵ¶åħī": 5604,
      "è´Łè´£": 5605,
      "èģĶçĽŁ": 5606,
      "åĪ°æĹ¶åĢĻ": 5607,
      "ä¿®çľŁæĺŁ": 5608,
      "æĪĳå·²": 5609,
      "ä¼ļä¸įä¼ļ": 5610,
      "èļĬåħ½": 5611,
      "è¿Ļå°ıåŃĲ": 5612,
      "ä½Ĩå¥¹": 5613,
      "æ¯ħ": 5614,
      "æ¾Ħ": 5615,
      "è¿ĶåĽŀ": 5616,
      "æĺ¯çļĦ": 5617,
      "åľ¨åĨħ": 5618,
      "å¤ĦçĲĨ": 5619,
      "åı°ä¸Ĭ": 5620,
      "çļ±çľīéģĵ": 5621,
      "æĺ¯éĤ£": 5622,
      "èĢģå¤§": 5623,
      "åĪ°äºĨæŀģ": 5624,
      "çĿ£": 5625,
      "æĹłæĥħ": 5626,
      "æ³¼": 5627,
      "åįģä¸ĥ": 5628,
      "ç¾¤è±ª": 5629,
      "è¾Ľèĭ¦": 5630,
      "æĥĬå¤©åĬ¨": 5631,
      "çĶ³": 5632,
      "äºĨä¸Ģä¼ļåĦ¿": 5633,
      "æĹıçļĦ": 5634,
      "é£ĺé£ĺ": 5635,
      "ä¸įè¿ľå¤Ħ": 5636,
      "æ²Į": 5637,
      "å±±å±±": 5638,
      "é»ĳçĻ½": 5639,
      "äºĪ": 5640,
      "èĥĨåŃĲ": 5641,
      "äº§çĶŁ": 5642,
      "æĥ³äºĨæĥ³": 5643,
      "çļĦåĲĮæĹ¶": 5644,
      "ä¹Łä¸įè¿ĩ": 5645,
      "åĮĨåĮĨ": 5646,
      "åĩłåįģ": 5647,
      "æĢ§åŃĲ": 5648,
      "æĶ¯æĴĳ": 5649,
      "ä¹Łè¢«": 5650,
      "è¡¨ç¤º": 5651,
      "æľīå¾Īå¤ļ": 5652,
      "å¾Ĳå¾Ĳ": 5653,
      "åĩĮåİī": 5654,
      "ä¸įåĥı": 5655,
      "æİ¥è¿ŀ": 5656,
      "ä¸ģçģµ": 5657,
      "ä»ĸå¯¹": 5658,
      "æİª": 5659,
      "éĢıåĩº": 5660,
      "äºĴçĽ¸": 5661,
      "æ»ĭåĳ³": 5662,
      "åĨ¯": 5663,
      "åĪ°ä»ĸ": 5664,
      "ä¸¤å£°": 5665,
      "è´±": 5666,
      "å¤ĸåĽ´": 5667,
      "æľ¬ä½ĵ": 5668,
      "å¹³æ·¡": 5669,
      "æľīä¸ĢäºĽ": 5670,
      "ä»£ä»·": 5671,
      "åĨľ": 5672,
      "è¯´èµ·": 5673,
      "éĿĴé¾Ļ": 5674,
      "å¼łä¸ī": 5675,
      "çļĩåĲİ": 5676,
      "è¸ıåħ¥": 5677,
      "èİºèİº": 5678,
      "å¤ªå¤§": 5679,
      "åĩĦåİī": 5680,
      "è¯´æ³ķ": 5681,
      "èĢ³ä¸Ń": 5682,
      "è¿¸": 5683,
      "ä¸įå¤Ł": 5684,
      "ä»ĸåį´": 5685,
      "é»ĳæļĹä¸Ń": 5686,
      "æĢªçī©": 5687,
      "èĵĦ": 5688,
      "æ°Ľ": 5689,
      "èĩªä¿¡": 5690,
      "ä¸İæĪĳ": 5691,
      "è§ĴèĲ½": 5692,
      "åĵ¼äºĨä¸Ģå£°": 5693,
      "åİŁæĿ¥æĺ¯": 5694,
      "æŃª": 5695,
      "æŀģå¿«": 5696,
      "åĵªä¸ª": 5697,
      "çĶµåħī": 5698,
      "æĬµæĬĹ": 5699,
      "æĮ½": 5700,
      "åĨ·æ±Ĺ": 5701,
      "å¤§åĸĿ": 5702,
      "ä¸¤çľ¼": 5703,
      "çº¢çļĦ": 5704,
      "é£ŀèĪŀ": 5705,
      "çķıæĥ§": 5706,
      "è¡Ļ": 5707,
      "å¥¹æĺ¯": 5708,
      "å©ļ": 5709,
      "å®īåħ¨": 5710,
      "ä¼Ĳ": 5711,
      "æŀī": 5712,
      "å½ĵçľŁæĺ¯": 5713,
      "éĶħ": 5714,
      "åĪ«è¯´": 5715,
      "ç©¿è¿ĩ": 5716,
      "çļĦåŃĺåľ¨": 5717,
      "ç¦Ħ": 5718,
      "æ¸©åĴĮ": 5719,
      "åįģä¹Ŀ": 5720,
      "çİ°èº«": 5721,
      "éķ¿è¡Ĺ": 5722,
      "å¤©è¿ĲåŃĲ": 5723,
      "éĤ£å°ĳå¥³": 5724,
      "å¦ª": 5725,
      "åĨ·éĿĻ": 5726,
      "æľīä½Ļ": 5727,
      "æĸĳ": 5728,
      "çļĦèĦ¸ä¸Ĭ": 5729,
      "è¿ĻäºĽå¹´": 5730,
      "åľ°ä½į": 5731,
      "åĥ»": 5732,
      "è¿ĺæľīä»Ģä¹Ī": 5733,
      "äºĨä»Ģä¹Ī": 5734,
      "å°ıä»Ļ": 5735,
      "ä¾¿å·²": 5736,
      "ä¸ºä»ĸ": 5737,
      "ä½łèĩªå·±": 5738,
      "éĽªå±±": 5739,
      "æĦŁåıĹåĪ°": 5740,
      "æľīå¤ļå°ĳ": 5741,
      "çİĳ": 5742,
      "æłı": 5743,
      "çľ¼è§Ĵ": 5744,
      "åĽŀåĪ°äºĨ": 5745,
      "æļĹèĩª": 5746,
      "çĲĨè§£": 5747,
      "çĪĨè£Ĥ": 5748,
      "äºĶæĮĩ": 5749,
      "å°ļä¹¦": 5750,
      "çľĭä¸Ĭåİ»": 5751,
      "åĽºçĦ¶": 5752,
      "å¤§åı£": 5753,
      "çľ¼çļĦ": 5754,
      "æĳĦ": 5755,
      "æķ£ä¿®": 5756,
      "å¿Įæĥ®": 5757,
      "åĢŁçĿĢ": 5758,
      "æ¾¹": 5759,
      "å½ķ": 5760,
      "è°±": 5761,
      "åħ¨æĺ¯": 5762,
      "çİ°åľ¨çļĦ": 5763,
      "è¾©": 5764,
      "äºĶç«¹": 5765,
      "å®¢æłĪ": 5766,
      "éģĵè·¯": 5767,
      "è¿ĻçĤ¹": 5768,
      "çĽ¸äºĴ": 5769,
      "èĵĿèī²": 5770,
      "èĢĮèĩ³": 5771,
      "éªĨ": 5772,
      "ç»Ĩç»Ĩ": 5773,
      "çģµåĬĽ": 5774,
      "è¿Ļä¹Īä¸Ģ": 5775,
      "åĮĸä¸ºäºĨ": 5776,
      "å·¡": 5777,
      "æ±Łæ¹ĸä¸Ń": 5778,
      "æĿı": 5779,
      "ç¥ŀå®ĺ": 5780,
      "åĴ¬çĿĢ": 5781,
      "çļĦçģ«": 5782,
      "æ¶ĪèĢĹ": 5783,
      "ä¸Ģä¸ĭåŃĲ": 5784,
      "æĹłæīĢ": 5785,
      "é¡¹": 5786,
      "å¤ľèī²": 5787,
      "ä¿ĿæĬ¤": 5788,
      "èĢģå¼Ł": 5789,
      "èĹ©çİĭ": 5790,
      "æĺ¯å¥½": 5791,
      "éĩĳä»Ļ": 5792,
      "åľ¨æĦı": 5793,
      "ä¸ľæµ·": 5794,
      "ä¸ģçģµçĲ³": 5795,
      "é¢Ŀå¤´": 5796,
      "æĹłæģ¯": 5797,
      "æľĢä¸º": 5798,
      "èĢ³æľµ": 5799,
      "æľīçĿĢ": 5800,
      "æĿĢä½ł": 5801,
      "æİĮæķĻ": 5802,
      "ä¿¡å¿ĥ": 5803,
      "åĳĨäºĨ": 5804,
      "å²ģæľĪ": 5805,
      "çľĭä¸įåĩº": 5806,
      "ä½Ĩä½ł": 5807,
      "çĶ±äºİ": 5808,
      "äºĨä¹Ī": 5809,
      "æĮŁ": 5810,
      "åĽĽå¤§": 5811,
      "è¿Ļä¹Īæł·": 5812,
      "çĤ¹çĤ¹": 5813,
      "çļĦçĻ½": 5814,
      "èµ°åĲ§": 5815,
      "è¿Ļä»¶äºĭæĥħ": 5816,
      "è¿ĩåĲİ": 5817,
      "è°ģèĥ½": 5818,
      "è¾½": 5819,
      "çĭĪ": 5820,
      "äº¤ç»Ļ": 5821,
      "..": 5822,
      "åħīåįİ": 5823,
      "åĸĩ": 5824,
      "çĭ¼çĭĪ": 5825,
      "ä¸įè¯¥": 5826,
      "äºĨè®¸å¤ļ": 5827,
      "æĭĲ": 5828,
      "ç¬¬ä¸ĥ": 5829,
      "å®´": 5830,
      "åĲĳå¤ĸ": 5831,
      "çľīå¤´ä¸Ģçļ±": 5832,
      "æ´Ľéĺ³": 5833,
      "è½»è½»ä¸Ģ": 5834,
      "çĸĳéĹ®": 5835,
      "å±±éģĵ": 5836,
      "èįĨ": 5837,
      "å¤ıä¾¯": 5838,
      "æĭĴç»Ŀ": 5839,
      "å¯¡": 5840,
      "åĪļä¸Ģ": 5841,
      "æį¢äºĨ": 5842,
      "å°±å¥½åĥı": 5843,
      "æ³ķæľ¯": 5844,
      "æ°´ä¸Ń": 5845,
      "æ²īæĢĿ": 5846,
      "ä¹ĭæĦŁ": 5847,
      "ç«Ń": 5848,
      "ä¾¿èĥ½": 5849,
      "æķ°éĩı": 5850,
      "çĭĤé£İ": 5851,
      "ç½Ĺå¤©": 5852,
      "ä½łä¸ºä»Ģä¹Ī": 5853,
      "éĿĴè¡«": 5854,
      "æĢªå¼Ĥ": 5855,
      "å²Ľä¸Ĭ": 5856,
      "ä¸ĢåįĬ": 5857,
      "éľ¹": 5858,
      "æľĽäºĨä¸Ģçľ¼": 5859,
      "åĽłä¸ºæĪĳ": 5860,
      "ä¸ºéļ¾": 5861,
      "èĳĹ": 5862,
      "èµł": 5863,
      "è¿ľæĸ¹": 5864,
      "ä¼°è®¡": 5865,
      "éĻ¶": 5866,
      "åĮķ": 5867,
      "åĿ¤": 5868,
      "å®ļçļĦ": 5869,
      "åįķæīĭ": 5870,
      "çĿĢäºĨ": 5871,
      "çļĦæĥħç»ª": 5872,
      "æĺ¯åķĬ": 5873,
      "å¿½åĲ¬å¾Ĺ": 5874,
      "èĢĮå¼Ģ": 5875,
      "å¹½å¹½": 5876,
      "ä¿Ŀè¯ģ": 5877,
      "ç¥¥": 5878,
      "äºĶä¸ª": 5879,
      "ç³ķ": 5880,
      "æĹłå¿Įéģĵ": 5881,
      "ä¸Ģäºĭ": 5882,
      "èĢĮä¸į": 5883,
      "å§ĵèĢģèĢħ": 5884,
      "æĦıåĳ³": 5885,
      "éª¸": 5886,
      "å°Ħåĩº": 5887,
      "æ¸©é»Ľ": 5888,
      "çļĦæľĽçĿĢ": 5889,
      "è¿Ļåıª": 5890,
      "åİ¿": 5891,
      "å¥¶å¥¶": 5892,
      "å¤§å¤«": 5893,
      "çģµæ¼ª": 5894,
      "ä¸ĵéĹ¨": 5895,
      "æ³£": 5896,
      "åħ¥åı£": 5897,
      "åħ¬åħ¬": 5898,
      "å¦Īå¦Ī": 5899,
      "æĹłåĬĽ": 5900,
      "æİı": 5901,
      "å¤ªæŀģ": 5902,
      "å¤ªéĺ¿": 5903,
      "åĨ³å¿ĥ": 5904,
      "çİ¯å¢ĥ": 5905,
      "æģ¢å¤įäºĨ": 5906,
      "æĺ¯ä»İ": 5907,
      "æĥĬåĸľ": 5908,
      "æħ¢æħ¢åľ°": 5909,
      "æŃī": 5910,
      "å¤§ä¹ĺ": 5911,
      "å¯¹èĩªå·±": 5912,
      "èĬĻ": 5913,
      "æīĵäºĨä¸ª": 5914,
      "ä¸ĥåħ¬": 5915,
      "æĢİä¹ĪåĬŀ": 5916,
      "è¯¢éĹ®": 5917,
      "çļĦä¸ī": 5918,
      "æµĬ": 5919,
      "æĶ¶ç¼©": 5920,
      "æł¹æľ¬æĹłæ³ķ": 5921,
      "æĮ¥æīĭ": 5922,
      "éĻ·åħ¥": 5923,
      "æĹłå£°æĹłæģ¯": 5924,
      "èį¯å¸Ī": 5925,
      "æ²¡æľīä¸Ŀæ¯«": 5926,
      "æ±ª": 5927,
      "éĢĥèµ°": 5928,
      "çļĦç¥ŀæĥħ": 5929,
      "ä¸Ģå¯¹": 5930,
      "å¤ķ": 5931,
      "æĥ«": 5932,
      "æĭ¿èµ·": 5933,
      "ä¸ĢæŁĦ": 5934,
      "åĬ¨å¼¹": 5935,
      "é«ĺäºº": 5936,
      "æīĭèĦļ": 5937,
      "å·²ç»ıè¢«": 5938,
      "æŃ¤æ¬¡": 5939,
      "æĦī": 5940,
      "æĹģè§Ĥ": 5941,
      "æ±Łæ¹ĸä¸Ĭ": 5942,
      "å´ĩæĸĩ": 5943,
      "éĦ": 5944,
      "åĪ°åĵªéĩĮ": 5945,
      "å£°åĬ¿": 5946,
      "é»Ħéĩĳ": 5947,
      "å¿ĥæĥĬ": 5948,
      "åį´è¿ĺæĺ¯": 5949,
      "é¥±": 5950,
      "ä¸įéĢļ": 5951,
      "æĺ¯æľī": 5952,
      "ä¿®éģĵ": 5953,
      "å½±é¬¼": 5954,
      "é»Ħèī²": 5955,
      "å¾®å¾®ä¸Ģ": 5956,
      "å¿ĥæĦı": 5957,
      "èīĺ": 5958,
      "çħĮ": 5959,
      "ç§»åĬ¨": 5960,
      "ä»°å¤©": 5961,
      "èº«åľ¨": 5962,
      "æĿĢçļĦ": 5963,
      "ä½¿èĢħ": 5964,
      "çł´ç»½": 5965,
      "åŃ¦å£«": 5966,
      "æĢĶæĢĶ": 5967,
      "åĩ¶åħ½": 5968,
      "ä¸ľå¤·": 5969,
      "æĶ¿": 5970,
      "åĿª": 5971,
      "æĺİçŁ¥": 5972,
      "æľĪåħī": 5973,
      "éĽ³": 5974,
      "æ¯ıä¸Ģä¸ª": 5975,
      "åĨħåĬŁ": 5976,
      "å³¨": 5977,
      "æŁĶå£°éģĵ": 5978,
      "çªĹå¤ĸ": 5979,
      "éĤ£æĿ¡": 5980,
      "çĿĢæĢ¥": 5981,
      "åį´åľ¨": 5982,
      "ä¸įæĹ¶": 5983,
      "åĪ«äººçļĦ": 5984,
      "çºµæ¨ª": 5985,
      "åİŁåħĪ": 5986,
      "éľ¹éĽ³": 5987,
      "éĤ£èĢģèĢħ": 5988,
      "å°ıé©¬": 5989,
      "ä¿º": 5990,
      "åĮª": 5991,
      "åĽĽå¤Ħ": 5992,
      "çł´å¼Ģ": 5993,
      "å¿½è§ģ": 5994,
      "åįłæį®": 5995,
      "è°ħ": 5996,
      "æĺ¯å¦ĤæŃ¤": 5997,
      "ä¹ĭä½Ļ": 5998,
      "çľĭä¸įåĪ°": 5999,
      "åıĮèĩĤ": 6000,
      "çĭ¬åŃ¤": 6001,
      "æŁ³èİºèİº": 6002,
      "äºĭçļĦ": 6003,
      "è¯ģæĺİ": 6004,
      "å¤§å°ıçļĦ": 6005,
      "è¯´ä¸įåĩºçļĦ": 6006,
      "éªĦåĤ²": 6007,
      "çģµåĦ¿": 6008,
      "çģµå®Ŀ": 6009,
      "æ²¸": 6010,
      "åıĪæĥĬ": 6011,
      "åįĥä¸ĸçķĮ": 6012,
      "å®«ä¸»": 6013,
      "å¨ģèĥ½": 6014,
      "éģ¿å¼Ģ": 6015,
      "ä¹ŁæľīäºĽ": 6016,
      "æİĮåĬĽ": 6017,
      "çĩķåįĹ": 6018,
      "èĦĸåŃĲ": 6019,
      "èİ²èĬ±": 6020,
      "è¦ģä¹Ī": 6021,
      "æ¯Ķèµ·": 6022,
      "å¨ģèĥģ": 6023,
      "äººä¹ĭ": 6024,
      "éĤ£å°±æĺ¯": 6025,
      "æķ°ä¸ĩ": 6026,
      "ä¸įæĺİ": 6027,
      "åĩłå£°": 6028,
      "çĶ¨æĿ¥": 6029,
      "éĺ´æ£®": 6030,
      "æľīä¸Ģç§į": 6031,
      "çļĦä¸ĭ": 6032,
      "äºĨå¾Ĺ": 6033,
      "å¤§ä¼Ļ": 6034,
      "ç»ĵæŀĦ": 6035,
      "åĭĥ": 6036,
      "æ··æ²Į": 6037,
      "çļĦå¥³": 6038,
      "åĵŁ": 6039,
      "è¿ŀç»Ń": 6040,
      "å¤±åİ»äºĨ": 6041,
      "æ¨±": 6042,
      "æĨ¾": 6043,
      "èĢĮä¸Ĭ": 6044,
      "åĽłæŀľ": 6045,
      "åħ«ä¹Ŀ": 6046,
      "ç¾İå¦ĩ": 6047,
      "è¦ģçŁ¥éģĵ": 6048,
      "èĢĮåħ¥": 6049,
      "çĶ°ä¸įæĺĵ": 6050,
      "æĹłä¸Ģ": 6051,
      "å¸Īå¤ª": 6052,
      "åĲķå´ĩæĸĩ": 6053,
      "çļĦéĹ®é¢ĺ": 6054,
      "åįı": 6055,
      "çĮ®": 6056,
      "æ·±åħ¥": 6057,
      "ç§°åĳ¼": 6058,
      "ä¸Ĭæĸ¹": 6059,
      "éľĵ": 6060,
      "çĽ¸è§ģ": 6061,
      "åıĮæİĮ": 6062,
      "èµµæķı": 6063,
      "èĵ¦åľ°": 6064,
      "çļĦçľŁ": 6065,
      "è¢«è¿Ļ": 6066,
      "åı¦æľī": 6067,
      "æ³¢çº¹": 6068,
      "çļĦéĿ¢": 6069,
      "æı¡çĿĢ": 6070,
      "èº«æ³ķ": 6071,
      "èĩ³ä»Ĭ": 6072,
      "çŀ§å¾Ĺ": 6073,
      "åīĳæľ¯": 6074,
      "å±ŀä¸ĭ": 6075,
      "æľīè¶£": 6076,
      "æµĨ": 6077,
      "åıĪå¦Ĥä½ķ": 6078,
      "çĻ½äºĳ": 6079,
      "å¹½çģµ": 6080,
      "çļ±äºĨ": 6081,
      "çļĦäºĨ": 6082,
      "ç©ºæ°Ķ": 6083,
      "åįĬæĪª": 6084,
      "éĵģå¿ĥ": 6085,
      "åĳĬè¯īä½ł": 6086,
      "å¥Īä½ķ": 6087,
      "ä»ĸåĴĮ": 6088,
      "ç¥ŀæĦı": 6089,
      "ä¿ı": 6090,
      "åµ©": 6091,
      "ä»ĸæĥ³": 6092,
      "æŀĲ": 6093,
      "çķħ": 6094,
      "èĲ½åĪ°": 6095,
      "éħĴæ¥¼": 6096,
      "ä¸įå¼Ģ": 6097,
      "æİĢèµ·": 6098,
      "éĹ®ä½ł": 6099,
      "çĻ¾ä¸ĩ": 6100,
      "æĶ¶æĭ¾": 6101,
      "ç¡¬çĶŁçĶŁ": 6102,
      "æł¡": 6103,
      "æīįçŁ¥éģĵ": 6104,
      "æľĽäºĨ": 6105,
      "éĽªå®ľ": 6106,
      "é³ŀ": 6107,
      "æ³Ľèµ·": 6108,
      "å±±åºĦ": 6109,
      "ç¬¬åħŃ": 6110,
      "ç¼Ńç»ķ": 6111,
      "åħ¶ä¸ŃçļĦ": 6112,
      "ä¿®è¡ĮèĢħ": 6113,
      "èĶĵ": 6114,
      "æ²Ľ": 6115,
      "è£ģ": 6116,
      "æīĭæ³ķ": 6117,
      "åĮĸæĪĲ": 6118,
      "é«ĺç©º": 6119,
      "å¯Ĵæ°Ķ": 6120,
      "èŃ¦æĥķ": 6121,
      "æĭĻ": 6122,
      "å°ĳè®¸": 6123,
      "ä½¿åĩº": 6124,
      "æī¾åĪ°äºĨ": 6125,
      "ç½ĹåĪ¹é¬¼çİĭ": 6126,
      "é«ĵ": 6127,
      "éĥ½åı¯ä»¥": 6128,
      "æı¡ä½ı": 6129,
      "æªĢ": 6130,
      "ä½ĨæŃ¤åĪ»": 6131,
      "åĲ¬éĹ»": 6132,
      "èĮ¹": 6133,
      "é©¬è¹Ħ": 6134,
      "æ»¡éĿ¢": 6135,
      "å°ıçģ°": 6136,
      "ç©¹": 6137,
      "çĳŁ": 6138,
      "åĮºåĮº": 6139,
      "æŃ¦æŀĹä¸Ń": 6140,
      "ä¸įè¿ľ": 6141,
      "çļĦå°±æĺ¯": 6142,
      "ä¸įåıĺ": 6143,
      "åĨ°äºĳ": 6144,
      "å¹³æĹ¶": 6145,
      "èķĬ": 6146,
      "å¾Īå¿«å°±": 6147,
      "ä¿®ä»Ļ": 6148,
      "æĿİæħķ": 6149,
      "åĩĮç©º": 6150,
      "èĢģå¦ª": 6151,
      "æķ°åįĥ": 6152,
      "å¼łåı£": 6153,
      "æĿİæħķå©ī": 6154,
      "éģĤ": 6155,
      "é£ŀå°Ħ": 6156,
      "è¿Ļä¸Ģä¸ĭ": 6157,
      "æĹłè®ºæĺ¯": 6158,
      "çĶ«": 6159,
      "ä¸ºä¹ĭä¸Ģ": 6160,
      "å¸Īåĵ¥": 6161,
      "æ´ªä¸ĥåħ¬": 6162,
      "ç»Ŀä¸įæĺ¯": 6163,
      "å¯ĴæĦı": 6164,
      "ä»·åĢ¼": 6165,
      "çģµéŃĤ": 6166,
      "åħĥåĬĽ": 6167,
      "å¤©åľ°æ³ķåĪĻ": 6168,
      "åº·çĨĻ": 6169,
      "åºŀå¤§çļĦ": 6170,
      "ä»ĻèĬĿ": 6171,
      "åĮĹæĸ¹": 6172,
      "ä¸İä¹ĭ": 6173,
      "çªģåľ°": 6174,
      "å¿ħè¦ģ": 6175,
      "ç»¿èī²": 6176,
      "åħ·ä½ĵ": 6177,
      "èĩªæĺ¯": 6178,
      "äºĨä¸Ģéģĵ": 6179,
      "æĢ§æĥħ": 6180,
      "æĪ¿éĹ´": 6181,
      "åı³æīĭæĬ¬èµ·": 6182,
      "è¹Ļ": 6183,
      "å¹¿åľº": 6184,
      "æľ½": 6185,
      "åįģå¤ļ": 6186,
      "æºľæºľ": 6187,
      "æĵįæİ§": 6188,
      "èĢ¶": 6189,
      "å¤§å¤©å°Ĭ": 6190,
      "æ²¡æľīäºĨ": 6191,
      "å®ŀæĺ¯": 6192,
      "æİ¥åıĹ": 6193,
      "åĲĽåŃĲ": 6194,
      "éĽ¨æ°´": 6195,
      "åĳ¨ä¼¯": 6196,
      "ï¼Łï¼ģâĢĿ": 6197,
      "éĻĭ": 6198,
      "å½ĵåľº": 6199,
      "èº«åĲİçļĦ": 6200,
      "çŀªçĿĢ": 6201,
      "è´¦": 6202,
      "åĲĦäºº": 6203,
      "çº¢äºĨ": 6204,
      "ä¼¤å¿ĥ": 6205,
      "èĩªåľ¨": 6206,
      "äºĶåħŃ": 6207,
      "æİ¨å¼Ģ": 6208,
      "æĻĥåĬ¨": 6209,
      "æĴķè£Ĥ": 6210,
      "èĩªå·²": 6211,
      "è£¸": 6212,
      "ä»İæĿ¥æ²¡æľī": 6213,
      "å¯¹å¥¹": 6214,
      "èĪµ": 6215,
      "æĶ¾è¿ĩ": 6216,
      "åĩºä¸Ģéģĵ": 6217,
      "ä¸įç¾¤": 6218,
      "èĢģå©Ĩ": 6219,
      "çĻ½éª¨": 6220,
      "äºĨä¸Ģéĺµ": 6221,
      "èµ°åĲĳ": 6222,
      "åºĶéģĵ": 6223,
      "çĹĴ": 6224,
      "çİĦé»Ħ": 6225,
      "ãĢĢãĢĢĊ": 6226,
      "éľĵè£³": 6227,
      "ä½Ĩçİ°åľ¨": 6228,
      "åĲĥä¸ĢæĥĬ": 6229,
      "åįģä¸ĩ": 6230,
      "éĹªéĹª": 6231,
      "è´¾": 6232,
      "äº¿": 6233,
      "åĲİæĤĶ": 6234,
      "åľ¨è¿Ļä¸ĢåĪ»": 6235,
      "ä¾¿å°Ĩ": 6236,
      "æ¢Ń": 6237,
      "çļĦåıĺåĮĸ": 6238,
      "ç¬Ľ": 6239,
      "çİĭä»ĻèĬĿ": 6240,
      "åĩłä¸ĭ": 6241,
      "åŁİéĹ¨": 6242,
      "æī¾ä¸įåĪ°": 6243,
      "äº¤æĺĵ": 6244,
      "åĪºå®¢": 6245,
      "ä¸¾èµ·": 6246,
      "æĪĳåıĪ": 6247,
      "ä½łæĿ¥": 6248,
      "åīįåĲİ": 6249,
      "ä½İåĲ¼": 6250,
      "èĿİ": 6251,
      "åĩºèº«": 6252,
      "é©´": 6253,
      "åĸľéģĵ": 6254,
      "ä¸Ģæł·çļĦ": 6255,
      "ç¼ĵç¼ĵè¯´éģĵ": 6256,
      "å¥½åľ¨": 6257,
      "çļĦå±±": 6258,
      "çľŁçķĮ": 6259,
      "åĹ½": 6260,
      "æ¤į": 6261,
      "ä¸Ģå¹´": 6262,
      "å«©": 6263,
      "åįļ": 6264,
      "å°ıåı¯": 6265,
      "èĢģåīįè¾Ī": 6266,
      "å°ĳæŀĹå¯º": 6267,
      "ä¸Ĭæ¬¡": 6268,
      "èĮĤ": 6269,
      "äº¤éĶĻ": 6270,
      "ä¸Ģéģĵéģĵ": 6271,
      "ä¹Ķå³°": 6272,
      "æĦķçĦ¶": 6273,
      "åħīæŁ±": 6274,
      "æ·«": 6275,
      "éĹªéģ¿": 6276,
      "ä¸Ģä¸¾": 6277,
      "åĿ¡": 6278,
      "é¡½": 6279,
      "æľ¬éĹ¨": 6280,
      "å®īæħ°": 6281,
      "é¢¤å£°éģĵ": 6282,
      "æĪĳä¹Łä¸į": 6283,
      "èĥ½åĲ¦": 6284,
      "å¹¶èĤ©": 6285,
      "æĮģç»Ń": 6286,
      "çļĦéķ¿": 6287,
      "ä»¥ä¸Ĭ": 6288,
      "åĮķé¦ĸ": 6289,
      "å¤§æŃ¥": 6290,
      "æľ¬å°±æĺ¯": 6291,
      "éħĴæĿ¯": 6292,
      "åķĨéĩı": 6293,
      "è¿Ļä¹Īè¯´": 6294,
      "åĴ³åĹ½": 6295,
      "çļĦå¼ŁåŃĲ": 6296,
      "çļĦç¥ŀéĢļ": 6297,
      "é¦Ĩ": 6298,
      "èĩªæľī": 6299,
      "æ²¡æľīåįĬçĤ¹": 6300,
      "å®ĮäºĨ": 6301,
      "çļĦä¸¤": 6302,
      "å²Ń": 6303,
      "å¤±è´¥": 6304,
      "å®ĮæĪĲ": 6305,
      "æº¢": 6306,
      "äºĭå®ŀä¸Ĭ": 6307,
      "å¤¸": 6308,
      "ä¸įå¦¨": 6309,
      "äºĨä¸įèµ·": 6310,
      "ä¸İä½ł": 6311,
      "çł´ç¢İ": 6312,
      "äººäºĨ": 6313,
      "ä¸ŃæľŁ": 6314,
      "åħ³å¿ĥ": 6315,
      "çħ§ç¥ŀ": 6316,
      "äºĨåĩłåı¥": 6317,
      "å¤§å¤ļæķ°": 6318,
      "æľīä¸ī": 6319,
      "çļĦä»ĸ": 6320,
      "éĥ½ä¸įä¼ļ": 6321,
      "åıĪåľ¨": 6322,
      "ç»ıéªĮ": 6323,
      "åı¯çĪ±": 6324,
      "å¯¹è¿Ļ": 6325,
      "èĲ½åħ¥": 6326,
      "éĢļä½ĵ": 6327,
      "è¦ģæĪĳ": 6328,
      "éĿ¢çĽ¸": 6329,
      "æīĢè¨Ģ": 6330,
      "åį°è®°": 6331,
      "å²Ĥèĥ½": 6332,
      "äºĨä¸įå°ĳ": 6333,
      "åĪ©çĶ¨": 6334,
      "âĢĿãĢģ": 6335,
      "ä¼Ĭ": 6336,
      "å¦Ĥé¾Ļ": 6337,
      "èħĶ": 6338,
      "çŀİåŃĲ": 6339,
      "æ³¡": 6340,
      "æīįæľī": 6341,
      "åĵªåĦ¿": 6342,
      "éļĲç§ĺ": 6343,
      "ä½ĻæħĪçļĦ": 6344,
      "å¹¿éĻµ": 6345,
      "éŃĶéĹ¨": 6346,
      "éļıæīĭ": 6347,
      "èµĭ": 6348,
      "å¾ĹçŁ¥": 6349,
      "è¶ĭ": 6350,
      "æķ´åº§": 6351,
      "åī§çĥĪçļĦ": 6352,
      "äººç±»": 6353,
      "éĺ´æķ£äºº": 6354,
      "é¡·åĪ»": 6355,
      "äººç¾¤": 6356,
      "å°Ĩèĩªå·±": 6357,
      "ç¿¼ç¿¼": 6358,
      "å¥½ç¬ĳ": 6359,
      "é£İä¸Ń": 6360,
      "åĲ¸å¼ķ": 6361,
      "è°¢éĢĬ": 6362,
      "çļĦå¥³äºº": 6363,
      "åľ¨å±±": 6364,
      "æĴĩ": 6365,
      "çļĦåĨ²": 6366,
      "äºĮå¸ĪåħĦ": 6367,
      "çŀħ": 6368,
      "éŁ©æŁĲ": 6369,
      "æľīä¸¤": 6370,
      "äºĭåĦ¿": 6371,
      "åĩĨç¡®": 6372,
      "èľĢ": 6373,
      "å¾ĹæĽ´": 6374,
      "è½¿": 6375,
      "åŁ¹": 6376,
      "å°ıå¿ĥç¿¼ç¿¼": 6377,
      "ç»°": 6378,
      "èĢģåĥ§": 6379,
      "ä¹Łä¸įç¦ģ": 6380,
      "ä»Ļåīĳ": 6381,
      "ç¬¬ä¹Ŀ": 6382,
      "åĲ¬è¯´è¿ĩ": 6383,
      "éģĵç¥ĸ": 6384,
      "å¿ĥçŁ¥": 6385,
      "äºĨä¸Ģéģį": 6386,
      "æĿ¡ä»¶": 6387,
      "åĩºä¸ĢèĤ¡": 6388,
      "è¾¾åĪ°äºĨ": 6389,
      "éĿłè¿ĳ": 6390,
      "åıĪæĥĬåıĪ": 6391,
      "ä¸įè¿ĩæĺ¯": 6392,
      "å®¹é¢ľ": 6393,
      "åıĳçİ°äºĨ": 6394,
      "ä¸įçĶ±èĩª": 6395,
      "éĺ»æĮ¡": 6396,
      "çļĦéĹ®éģĵ": 6397,
      "æĿ¥äºº": 6398,
      "è¿Ļä¸ĢæĭĽ": 6399,
      "åĨ·ç¬ĳä¸Ģå£°": 6400,
      "åĴ½åĸī": 6401,
      "å®ļæĺ¯": 6402,
      "é«ĺå¤§": 6403,
      "åı¯æĺ¯ä»ĸ": 6404,
      "éľĩæĴ¼": 6405,
      "éĢıæĺİ": 6406,
      "æĬĦ": 6407,
      "æµģåĬ¨": 6408,
      "éĹŃçĽ®": 6409,
      "å²Ĥä¸įæĺ¯": 6410,
      "ä¸ĢèĦļ": 6411,
      "æ¶¯": 6412,
      "æŃ¦åŃ¦": 6413,
      "ä¸įæĥľ": 6414,
      "ä¼ª": 6415,
      "å¥½æ±ī": 6416,
      "æĳĩæĻĥ": 6417,
      "ä½łéļ¾éģĵ": 6418,
      "é£İå£°": 6419,
      "èĩªçĦ¶ä¸įä¼ļ": 6420,
      "çºłç¼ł": 6421,
      "åħĶ": 6422,
      "éĥ½æĹłæ³ķ": 6423,
      "æ¸Ń": 6424,
      "æħĳ": 6425,
      "ç«Łä¼¼": 6426,
      "æħķå®¹åĪļ": 6427,
      "å¦Ĥçİī": 6428,
      "å®Įæķ´": 6429,
      "åĽĽåĳ¨çļĦ": 6430,
      "åĽĽéĿ¢åħ«æĸ¹": 6431,
      "æ²¡æľīè¯´è¯Ŀ": 6432,
      "æĬ¬èµ·å¤´æĿ¥": 6433,
      "å¤§ä¼ļ": 6434,
      "æľ¬èĥ½": 6435,
      "æĳ¸äºĨ": 6436,
      "éĢįéģ¥": 6437,
      "å¤§æµ·": 6438,
      "ç¥ŀåĲĽ": 6439,
      "å®ł": 6440,
      "åĩłå¤©": 6441,
      "è¿Ļä¸ĢåĪ»": 6442,
      "å¼Ĥæł·": 6443,
      "å³¡": 6444,
      "èµ¶åĪ°": 6445,
      "åĩºç¥ŀ": 6446,
      "çľĭçĿĢå¥¹": 6447,
      "éĨĴæĿ¥": 6448,
      "èĪ¹ä¸Ĭ": 6449,
      "æŀľçĦ¶æĺ¯": 6450,
      "èĮ«çĦ¶": 6451,
      "åĸĺæģ¯": 6452,
      "å·²åľ¨": 6453,
      "æŃ£æĥ³": 6454,
      "æ´ŀå¤©": 6455,
      "å²³ä¸įç¾¤": 6456,
      "ä¸įä»ħ": 6457,
      "äºĨæķ°": 6458,
      "åĲĬ": 6459,
      "äºĮè¯Ŀ": 6460,
      "åį±æľº": 6461,
      "åĽ°éļ¾": 6462,
      "è´ŀ": 6463,
      "åĽĽé¡¾åīĳ": 6464,
      "ç»Ļå¥¹": 6465,
      "å¼łå¼Ģ": 6466,
      "åįķæīĭä¸Ģ": 6467,
      "éĺ²å¾¡": 6468,
      "ãĢĭï¼Į": 6469,
      "æģ³": 6470,
      "è¢«éĤ£": 6471,
      "çķ¥æľī": 6472,
      "æ¼Ĥäº®": 6473,
      "çļĦèº«ä½ĵ": 6474,
      "ä½łäºĨ": 6475,
      "å¤©åľ°éĹ´": 6476,
      "çľ¼çĿĽéĩĮ": 6477,
      "çłĶç©¶": 6478,
      "çľ¼çľ¸": 6479,
      "å¨ĺå¨ĺ": 6480,
      "åĨĴéĻ©": 6481,
      "å±ģèĤ¡": 6482,
      "èµ·ä¼ı": 6483,
      "é»Ŀ": 6484,
      "çĶ±æŃ¤": 6485,
      "éģµ": 6486,
      "åĴĮä½ł": 6487,
      "è£´": 6488,
      "æĬ¬èµ·å¤´": 6489,
      "çģ¼": 6490,
      "èĭįèĢģ": 6491,
      "çĸ²æĥ«": 6492,
      "å¿«æ´»çİĭ": 6493,
      "ä¹į": 6494,
      "åĪĨæ¯«": 6495,
      "æ¶Īå¤±äºĨ": 6496,
      "åħ¼": 6497,
      "è§ģéĿ¢": 6498,
      "ç¿»èº«": 6499,
      "çļĦåĲİ": 6500,
      "çļĦåĪĢ": 6501,
      "æľīæŃ¤": 6502,
      "æĥ³çļĦ": 6503,
      "åı«ä»ĸ": 6504,
      "åĳ½ä»¤": 6505,
      "éĻ¢åŃĲ": 6506,
      "èĮĥå¤§äºº": 6507,
      "æĢĶäºĨ": 6508,
      "çļĦå¹´è½»": 6509,
      "å°ıçĻ½": 6510,
      "å®«éĩĮ": 6511,
      "åıĤåĬł": 6512,
      "éĻ¡çĦ¶": 6513,
      "æľīè¿ĩ": 6514,
      "å¿ĥåĨħ": 6515,
      "ä»¥æŃ¤": 6516,
      "éª¨å¤´": 6517,
      "çļĦæ¶Īæģ¯": 6518,
      "ä¸įåĩ¡": 6519,
      "å¤Ħäºİ": 6520,
      "æ¢¢": 6521,
      "è§ĦåĪĻ": 6522,
      "èĤļåŃĲ": 6523,
      "çļĦèº«åŃĲ": 6524,
      "éľİ": 6525,
      "æĲħ": 6526,
      "æ½ĩ": 6527,
      "ä¸ĢåĩĿ": 6528,
      "ä»ĸè¿ĺ": 6529,
      "å·į": 6530,
      "äºĳä¸Ń": 6531,
      "å¨ģåİĭ": 6532,
      "èı²": 6533,
      "æ¡ĮåŃĲ": 6534,
      "ç¤ºæĦı": 6535,
      "è¿Ļä¸įæĺ¯": 6536,
      "åĩºéĹ¨": 6537,
      "ä¹Łåıªæĺ¯": 6538,
      "è®©èĩªå·±": 6539,
      "åĿļæĮģ": 6540,
      "çģ¯åħī": 6541,
      "éķĸå±Ģ": 6542,
      "èĢ¶å¾ĭ": 6543,
      "çĶ¨ä¸įçĿĢ": 6544,
      "è¿Ļå¥³åŃĲ": 6545,
      "åľ¨ä½ł": 6546,
      "ä¸Ńå¤®": 6547,
      "çŁŃçŁŃ": 6548,
      "è¿Ļä¸¤äºº": 6549,
      "å£³": 6550,
      "çľ¼çıł": 6551,
      "åĿļå®ļ": 6552,
      "åļ·": 6553,
      "èĤĮèĤ¤": 6554,
      "çĿĢä¸Ģä¸ª": 6555,
      "ä¹³": 6556,
      "åŃĿ": 6557,
      "è®©åħ¶": 6558,
      "ä¸ĩåĪĨ": 6559,
      "ç¡®æĺ¯": 6560,
      "çĨĦ": 6561,
      "å¿Ļéģĵ": 6562,
      "å®Ľå¦Ĥ": 6563,
      "å¤§ä¼ĻåĦ¿": 6564,
      "æĹłè¾¹": 6565,
      "çļĦæľĢ": 6566,
      "çļĦæµ·": 6567,
      "çļĦå·¨å¤§": 6568,
      "ä¸īå¹´": 6569,
      "æ¹ĺ": 6570,
      "å¾Īæ¸ħæ¥ļ": 6571,
      "è¿Ļä»½": 6572,
      "èĻļå¼±": 6573,
      "å¼łç¿ł": 6574,
      "æĮĩå°ĸ": 6575,
      "æīĢä»¥æĪĳ": 6576,
      "ï¼ĽâĢľ": 6577,
      "æľīåĩłåĪĨ": 6578,
      "ä¸ĭé©¬": 6579,
      "å¹³å¸¸": 6580,
      "ä¼¤å®³": 6581,
      "èº«å¤Ħ": 6582,
      "è¿Ļä¸ªä¸ĸçķĮ": 6583,
      "æĢİä¹ĪåĽŀäºĭ": 6584,
      "éĢłæĪĲ": 6585,
      "å®¾": 6586,
      "éĺ¿ç´«": 6587,
      "åĳĨåĳĨ": 6588,
      "ä¸Ģè¿ŀ": 6589,
      "é»Ħèį¯å¸Ī": 6590,
      "æł¹åŁº": 6591,
      "ç¯·": 6592,
      "è¾ĵäºĨ": 6593,
      "çĬ¬": 6594,
      "ç¾¤éĽĦ": 6595,
      "åĩ¶éĻ©": 6596,
      "éĻ¨èĲ½": 6597,
      "ä¸ĩä¸Ī": 6598,
      "äºĳéĽ¾": 6599,
      "æĪĳèĭ¥": 6600,
      "æŃ¤çķª": 6601,
      "æķ£åıĳåĩº": 6602,
      "åł¡": 6603,
      "æ¯ĴèĽĩ": 6604,
      "èĢģå¤«äºº": 6605,
      "ç¾¡": 6606,
      "åĲĮéĹ¨": 6607,
      "è½¦åİ¢": 6608,
      "è¡Ģèħ¥": 6609,
      "æģįçĦ¶": 6610,
      "ä¸įæĽ¾": 6611,
      "äºĨä¸Ĭåİ»": 6612,
      "èµ·çļĦ": 6613,
      "ä»¥å¾Ģ": 6614,
      "åĮ¿": 6615,
      "çģµèį¯": 6616,
      "å¯»æĢĿ": 6617,
      "åĵĪåĵĪä¸Ģç¬ĳ": 6618,
      "å¯Ĥå¯ŀ": 6619,
      "è¿ĻåĦ¿": 6620,
      "çĿĢéĤ£": 6621,
      "å¾Īå¤§": 6622,
      "èİ«å±±å±±": 6623,
      "æĭįåįĸ": 6624,
      "æīįå¥½": 6625,
      "åĪ®": 6626,
      "çļĦä¸ĢäºĽ": 6627,
      "æ£µ": 6628,
      "ä¸įçŁ¥ä¸ºä½ķ": 6629,
      "èĿī": 6630,
      "åĮĹåĩīçİĭ": 6631,
      "æİ©é¥°": 6632,
      "å®«æ®¿": 6633,
      "äºĨåĩłåĪĨ": 6634,
      "ç¼Ī": 6635,
      "åį³éĢĿ": 6636,
      "æ£ī": 6637,
      "è¿½æĿĢ": 6638,
      "æĴŀåĩ»": 6639,
      "å°±å·²": 6640,
      "ä¾¥": 6641,
      "çŃ·": 6642,
      "éĿŀåĲĮ": 6643,
      "ä¸įçŁ¥ä½ķæĹ¶": 6644,
      "çļĦå¯¹": 6645,
      "è¿ĩæĿ¥çļĦ": 6646,
      "å°ıçİ¯": 6647,
      "å¤ªåı¤": 6648,
      "çİīéĥİ": 6649,
      "è¶³è¶³": 6650,
      "ä¸¤æ¬¡": 6651,
      "ä»Ģä¹Īäºº": 6652,
      "å¥ĩéģĵ": 6653,
      "å·¨äºº": 6654,
      "æĢ¦": 6655,
      "çĶŁå¹³": 6656,
      "åıĳåĬ¨": 6657,
      "äºĮåŃĹ": 6658,
      "åĳ¨è¾¹": 6659,
      "èµ¶æĿ¥": 6660,
      "ä¸įæĦ§": 6661,
      "ç¬¬åħ«": 6662,
      "è§£å¼Ģ": 6663,
      "åĹħ": 6664,
      "ä¸įåĬ¨å£°": 6665,
      "åĪ°äºĨä¸Ģ": 6666,
      "çľĭä»ĸ": 6667,
      "åıĪè¦ģ": 6668,
      "æĿ¯éħĴ": 6669,
      "åĢ©": 6670,
      "è°İ": 6671,
      "å®ŀçļĦ": 6672,
      "åķ¥": 6673,
      "æĦŁåħ´è¶£": 6674,
      "ä»»ä½ķäºº": 6675,
      "å½ĵå¹´çļĦ": 6676,
      "æģķ": 6677,
      "ä»ĸèº«åŃĲ": 6678,
      "æīĢèĥ½": 6679,
      "å¤§åĲĥä¸ĢæĥĬ": 6680,
      "èĩ³æŃ¤": 6681,
      "ä¼łæİĪ": 6682,
      "ç¨įå¾®": 6683,
      "ä¸Ģåį·": 6684,
      "æļ®": 6685,
      "ç¬ĳè¯Ŀ": 6686,
      "åĲ¬åĪ°äºĨ": 6687,
      "è¥¿åĮĹ": 6688,
      "éĶ¦è¡£": 6689,
      "çļĦç²¾": 6690,
      "ä¸ºé¦ĸ": 6691,
      "ä¸īåĲį": 6692,
      "ä¸īçĻ¾": 6693,
      "æĥĬäººçļĦ": 6694,
      "åĭĴ": 6695,
      "èĭįæĿ¾": 6696,
      "èĥ½ä¸įèĥ½": 6697,
      "çİĭæŀĹç¥ŀèī²": 6698,
      "å¾Ĳå¤©": 6699,
      "èĵ¬èİ±æ´¾": 6700,
      "è§ħ": 6701,
      "å¤ªèĻļ": 6702,
      "çł°çł°": 6703,
      "æ¸ħæĻ°çļĦ": 6704,
      "æĥ³åĪ°äºĨ": 6705,
      "ä¸¤æŃ¥": 6706,
      "åĳĬè¾ŀ": 6707,
      "æĪĳä¸Ģ": 6708,
      "æĢ¯": 6709,
      "æĺİå¤©": 6710,
      "æ°´æľĪ": 6711,
      "ä¸ĸäºº": 6712,
      "çļĦæŃ¦åĬŁ": 6713,
      "å¤ļä¹Ī": 6714,
      "æī«è¿ĩ": 6715,
      "åĤħçº¢éĽªéģĵ": 6716,
      "åľ¨å¤ĸ": 6717,
      "åĨħåºĵ": 6718,
      "æ¡©": 6719,
      "åĩºæĿ¥äºĨ": 6720,
      "ç«Ļèµ·æĿ¥": 6721,
      "æ±Łçİīéĥİ": 6722,
      "éĥŃè¥Ħ": 6723,
      "ä¸īå¤©": 6724,
      "è¯Ŀè¯´": 6725,
      "æł¸å¿ĥ": 6726,
      "åīĳå°ĸ": 6727,
      "æ¢³": 6728,
      "æ¿Ģå°ĦèĢĮåĩº": 6729,
      "åı¯ä¸į": 6730,
      "ç§½": 6731,
      "æĽ°": 6732,
      "åĬ¨å®¹": 6733,
      "éĹ¨æ´¾": 6734,
      "æıĲåįĩ": 6735,
      "ä»ĸèĢģäººå®¶": 6736,
      "ä½łä¸Ģ": 6737,
      "æĹłå½±": 6738,
      "çĤ®": 6739,
      "å¥³åŃ©": 6740,
      "é£ŀæĿ¥": 6741,
      "åĲĮæł·çļĦ": 6742,
      "æ´Ĺçİī": 6743,
      "æģ°å¥½": 6744,
      "ä¹ŀ": 6745,
      "éĤ£çīĩ": 6746,
      "èĻŀ": 6747,
      "å½ĵä»ĸ": 6748,
      "çº¢è¡£": 6749,
      "å¦Ĥä»ĬçļĦ": 6750,
      "ä»ĵ": 6751,
      "æĥļ": 6752,
      "åĨįåº¦": 6753,
      "åĽŀäºĨ": 6754,
      "é£İéĽ¨": 6755,
      "æ¯Ķä¹ĭ": 6756,
      "çĽ¸ä¼¼": 6757,
      "æĿĢä»ĸ": 6758,
      "ä¿¡ä»»": 6759,
      "éģ®æİ©": 6760,
      "å¤©èī²": 6761,
      "æªĲ": 6762,
      "éĤ£æĹ¶åĢĻ": 6763,
      "æ´¾äºº": 6764,
      "çķ¥å¾®": 6765,
      "éģĩä¸Ĭ": 6766,
      "ä¹ı": 6767,
      "ä¹Łåı¯ä»¥": 6768,
      "å¤©å¤ĸ": 6769,
      "æķ£åĩº": 6770,
      "çºµèº«": 6771,
      "ç´łåįİ": 6772,
      "æĭīçĿĢ": 6773,
      "è¡ĢèĦī": 6774,
      "çķĮåĨħ": 6775,
      "è¿ĺæľīäºĽ": 6776,
      "æľĽæľĪ": 6777,
      "æ¿Ģåıĳ": 6778,
      "ä¸ĢçĤ¹åĦ¿": 6779,
      "è¶ħè¿ĩ": 6780,
      "åĲĵäºĨä¸Ģ": 6781,
      "æĭĪ": 6782,
      "é¦Ļå·Ŀ": 6783,
      "æ»Ķå¤©": 6784,
      "ä¹ĭå¤§": 6785,
      "ç¨ļ": 6786,
      "æ¦»": 6787,
      "å°ĸéĶĲ": 6788,
      "æĻĵå³°": 6789,
      "åıĺèī²": 6790,
      "ä¸ĢçĶ©": 6791,
      "äºĨå¥½": 6792,
      "äºĨè¿Ľåİ»": 6793,
      "ç»Łé¢Ĩ": 6794,
      "å¾ĭé¦Ļå·Ŀ": 6795,
      "å¤§å¨ĺ": 6796,
      "å¤©ä¸ĭçļĦ": 6797,
      "æĺ¯ä¸Ģç§į": 6798,
      "å®ģç¼ºè¯´éģĵ": 6799,
      "éĺ¿æľ±": 6800,
      "æľ¬åº§": 6801,
      "ä¹Łåıªèĥ½": 6802,
      "å®ļè¦ģ": 6803,
      "é«ĺéĺ¶": 6804,
      "ä½İæ²ī": 6805,
      "ä¸įåģľåľ°": 6806,
      "åŃŁéľĵè£³": 6807,
      "è¿ĺä¸¹": 6808,
      "å°ĨæĪĳ": 6809,
      "å§¨": 6810,
      "çķĻä¸ĭçļĦ": 6811,
      "ä¸Ŀæ¯«ä¸į": 6812,
      "æ¼Ĥæµ®": 6813,
      "æ¹Ľ": 6814,
      "æĺ¯ä¸ºäºĨ": 6815,
      "éģĵä¸Ĭ": 6816,
      "åıªä¼ļ": 6817,
      "é«ĺé«ĺ": 6818,
      "åºĶä»ĺ": 6819,
      "åĬłæĮģ": 6820,
      "å·¾": 6821,
      "å¼ĺ": 6822,
      "ä¼łéŁ³": 6823,
      "éĻĨç´łåįİ": 6824,
      "éĺ»æĭ¦": 6825,
      "éĻµå·ŀ": 6826,
      "å§Ĭå§Ĭ": 6827,
      "è¿ĺç®Ĺ": 6828,
      "åĲĳä¸ĭ": 6829,
      "åĳ¨èº«": 6830,
      "ç«Ļåľ¨éĤ£éĩĮ": 6831,
      "åľ¨åīį": 6832,
      "è¾ĩ": 6833,
      "éļ¾çľĭ": 6834,
      "ç²īç¢İ": 6835,
      "æľ±éĽĢæĺŁ": 6836,
      "çĻ½å¤©èĻ¹": 6837,
      "èººåľ¨": 6838,
      "æ¸©é»Ľé»Ľ": 6839,
      "ä¸Ģçº¿": 6840,
      "è¿ĻéĩĮçļĦ": 6841,
      "ç®±åŃĲ": 6842,
      "äºĨå¥¹": 6843,
      "ä¸Ģä¸ªåŃĹ": 6844,
      "æ·®": 6845,
      "åĨħå¤ĸ": 6846,
      "å»Ĭ": 6847,
      "åŃ¦çĶŁ": 6848,
      "ä½łä¸įæĺ¯": 6849,
      "éªļ": 6850,
      "åĽĽæµ·": 6851,
      "å¾®ç¬ĳçĿĢ": 6852,
      "ä¸Ńæľī": 6853,
      "é¡¾ä¸įå¾Ĺ": 6854,
      "æ¸©æļĸ": 6855,
      "æĤ¬ç©º": 6856,
      "âĢĿãĢģâĢľ": 6857,
      "æĳ¸äºĨæĳ¸": 6858,
      "å¬": 6859,
      "æĸ¹ä¸Ģ": 6860,
      "æĺĶæĹ¥": 6861,
      "æĹłå¿§": 6862,
      "ç»´æĮģ": 6863,
      "ä¾¥å¹¸": 6864,
      "ä¸Ģå¤§": 6865,
      "ä»ĸçİ°åľ¨": 6866,
      "å¸Ĩ": 6867,
      "è¾Ļ": 6868,
      "æĬĬä½ł": 6869,
      "åįĬåĪĨ": 6870,
      "èĦ¸ä¸Ĭéľ²åĩº": 6871,
      "å¤©åľ°åħĥæ°Ķ": 6872,
      "éĺģæ¥¼": 6873,
      "èĢį": 6874,
      "ä¹ĭèĬĴ": 6875,
      "åī¥": 6876,
      "ä¸Ģä¸ªå°ı": 6877,
      "éĴµ": 6878,
      "éĵ¶æľĪ": 6879,
      "å°¸èº«": 6880,
      "åıªéģĵ": 6881,
      "èĦĬ": 6882,
      "çŃĶæ¡Ī": 6883,
      "å®µ": 6884,
      "ä½łæľī": 6885,
      "åĽŀæĿ¥äºĨ": 6886,
      "æīĵåĿĲ": 6887,
      "é«ĺæĺİ": 6888,
      "æŀģå¤§çļĦ": 6889,
      "äºĶäºº": 6890,
      "æŁĲäºĽ": 6891,
      "æ¯ķç«Łæĺ¯": 6892,
      "æĶ¯æĮģ": 6893,
      "èµ¤çº¢": 6894,
      "è¿Ļä¹Łæĺ¯": 6895,
      "åľ¨ä»ĸä»¬": 6896,
      "æĪ¿ä¸Ń": 6897,
      "æĺ¨å¤©": 6898,
      "å®¶äºº": 6899,
      "ä½ľåĵį": 6900,
      "æĢĿèĢĥ": 6901,
      "è¿ĳä¹İ": 6902,
      "ç¢§çĳ¶": 6903,
      "éĺŁä¼į": 6904,
      "åĬŁå¾·": 6905,
      "æ¯Ĵæīĭ": 6906,
      "åıĶåıĶ": 6907,
      "ç»į": 6908,
      "ä½łçİ°åľ¨": 6909,
      "çĶŁçĶŁçļĦ": 6910,
      "ä»Ģä¹Īåľ°æĸ¹": 6911,
      "èİ«åĲįåħ¶": 6912,
      "åĳ¨ä¼¯éĢļ": 6913,
      "æĬ¿": 6914,
      "æĻ¦": 6915,
      "å¾Īéķ¿æĹ¶éĹ´": 6916,
      "çĽ¸åħ¬": 6917,
      "è¿ľçļĦ": 6918,
      "è¿Ļç§įäºĭæĥħ": 6919,
      "ä¸Īè®¸": 6920,
      "çħ§é¡¾": 6921,
      "åĨī": 6922,
      "è¦ģè¯´": 6923,
      "é½Ĳå£°": 6924,
      "éģĵåı¤": 6925,
      "æĥ³åĥı": 6926,
      "è§ģå¾Ĺ": 6927,
      "çļĦèĦ¸èī²": 6928,
      "ä¸įçĶĺ": 6929,
      "æĹ¶åĪĨ": 6930,
      "æĦŁæĤŁ": 6931,
      "ä¸īåįģåħŃ": 6932,
      "æĭ±æīĭ": 6933,
      "ä¸İåħ¶": 6934,
      "éĺ³ç¥ŀ": 6935,
      "è¿ĺæľīéĤ£": 6936,
      "åĪ°æŃ¤": 6937,
      "åı«ä½ł": 6938,
      "åĳ¨ä¸Ģ": 6939,
      "çĬ¹å¦Ĥ": 6940,
      "çĭłçĭłåľ°": 6941,
      "å°Ŀè¯ķ": 6942,
      "ä¹Łå¾Ĺ": 6943,
      "æĭĩ": 6944,
      "ç²¹": 6945,
      "é¦ĸåº§": 6946,
      "åįĹæĸ¹": 6947,
      "å¿ĥä¸Ĭ": 6948,
      "çī§": 6949,
      "ä¸įè§ģäºĨè¸ªå½±": 6950,
      "æ·±åĲ¸åı£æ°Ķ": 6951,
      "æĿ¥æī¾": 6952,
      "åľ°éĿ¢ä¸Ĭ": 6953,
      "å½¢æĪĲäºĨ": 6954,
      "è¡£è¢ĸ": 6955,
      "éĺ´å½±": 6956,
      "èĢģçĪ·åŃĲ": 6957,
      "æĺĤ": 6958,
      "çķľ": 6959,
      "æĺİå®¶": 6960,
      "åķ¼": 6961,
      "åį´è¢«": 6962,
      "é»İ": 6963,
      "åĨ²åħ¥": 6964,
      "åħµåĻ¨": 6965,
      "éĢģåĪ°": 6966,
      "ç±»ä¼¼": 6967,
      "é»¯çĦ¶": 6968,
      "è¿ĺè¯·": 6969,
      "çģµåħ½": 6970,
      "é£İéĽª": 6971,
      "è¨Ģéģĵ": 6972,
      "ç«Ļç«ĭ": 6973,
      "ä¹Łæ²¡ä»Ģä¹Ī": 6974,
      "æĥŃ": 6975,
      "éĶĢ": 6976,
      "éŃĶæ°Ķ": 6977,
      "å¯Ĩå®¤": 6978,
      "æĭįäºĨ": 6979,
      "åĳ¨ä¸Ģä»Ļ": 6980,
      "æĬĬéĤ£": 6981,
      "æĿ¥å¾ĹåıĬ": 6982,
      "ä¸ĬéĹ¨": 6983,
      "éĥ½çŁ¥éģĵ": 6984,
      "çŁ³å®¤": 6985,
      "çĵ£": 6986,
      "éĽĢåĦ¿": 6987,
      "ä½łåĪ«": 6988,
      "é»ĳå½±": 6989,
      "å¿½çĦ¶éģĵ": 6990,
      "ä¸ĢèĦī": 6991,
      "åı¤éŃĶ": 6992,
      "æŁĶåĴĮ": 6993,
      "ç¨³å®ļ": 6994,
      "éĤĵå®ļ": 6995,
      "åĲİå±±": 6996,
      "åįģä¸Ī": 6997,
      "æŃ£éģĵ": 6998,
      "åħĪæĺ¯": 6999,
      "æŃ¦éģĵ": 7000,
      "æ³¨æĦıåĪ°": 7001,
      "ä»İå°ı": 7002,
      "æĳ§": 7003,
      "æ¯ıä¸Ģ": 7004,
      "çļĦä½įç½®": 7005,
      "ä¹ĭæĥħ": 7006,
      "å¦®": 7007,
      "å¤©åįĹ": 7008,
      "ä¸īåĪĨ": 7009,
      "çģµçķĮ": 7010,
      "æĽ´ä½ķåĨµ": 7011,
      "åĨ³ä¸į": 7012,
      "æ£ĭçĽĺ": 7013,
      "éĤĵå®ļä¾¯": 7014,
      "æ²¡äºº": 7015,
      "ä¾¿è¢«": 7016,
      "ä½ķçŃī": 7017,
      "å®¶éĩĮ": 7018,
      "å¯ĴåĨ·": 7019,
      "ä¸Ģè·ĥ": 7020,
      "æŃ»åİ»": 7021,
      "èİ«æĦģ": 7022,
      "å¾Ĺåĩº": 7023,
      "æĹ¶æĹ¥": 7024,
      "å¤©çĶŁ": 7025,
      "åŁİå¢Ļ": 7026,
      "åĳ½è¿Ĳ": 7027,
      "åĨ°éĽª": 7028,
      "çĿĢä»Ģä¹Ī": 7029,
      "çĭ¸": 7030,
      "åĪ»æĦı": 7031,
      "çģµç´ł": 7032,
      "éĻĪèĬĿ": 7033,
      "çļĦå®¶ä¼Ļ": 7034,
      "æ²īæ²ī": 7035,
      "å¹½å·ŀ": 7036,
      "çļĦæĺ¯ä»Ģä¹Ī": 7037,
      "ä¸ĢéĹªçļĦ": 7038,
      "åĲ¾": 7039,
      "çŃīçŃī": 7040,
      "èĹıåľ¨": 7041,
      "å¤§éĩıçļĦ": 7042,
      "å¥½äºº": 7043,
      "åį´æľī": 7044,
      "äºĨä¸ĢèĤ¡": 7045,
      "ä¸ĢåĬ¨ä¸įåĬ¨": 7046,
      "éĹªè¿ĩä¸Ģä¸Ŀ": 7047,
      "è¿ĻèĤ¡": 7048,
      "çªĥ": 7049,
      "æŃ¤æĹ¶æŃ¤åĪ»": 7050,
      "åĤ¬åĬ¨": 7051,
      "å¤§æĶ¾": 7052,
      "åĪ°çİ°åľ¨": 7053,
      "æĿİèİ«æĦģ": 7054,
      "éĺ´ç¥ŀ": 7055,
      "ä½ĽéĹ¨": 7056,
      "æł¹æľ¬ä¸į": 7057,
      "åħįå¾Ĺ": 7058,
      "æĺ§": 7059,
      "å¤§æīĭ": 7060,
      "åľ°çĭ±": 7061,
      "éļ¾åıĹ": 7062,
      "å®ĿåĦ¿": 7063,
      "èĥľè´Ł": 7064,
      "åºŀå¤§": 7065,
      "éĤ£æĹ¥": 7066,
      "æĪĳæľī": 7067,
      "ä¼Ļè®¡": 7068,
      "äººéģĵ": 7069,
      "åĢ¦": 7070,
      "åĨįå¤ļ": 7071,
      "æŀģäºĨ": 7072,
      "æĪĳä»¬çļĦ": 7073,
      "è°¢æĻĵå³°": 7074,
      "è¯ķæİ¢": 7075,
      "äºīæĸĹ": 7076,
      "åª³": 7077,
      "æĭĩæĮĩ": 7078,
      "è¿ĩä¸Ģ": 7079,
      "å°Ĩä½ł": 7080,
      "çŁ¥éģĵèĩªå·±": 7081,
      "æ¢¯": 7082,
      "é¢ĦæĸĻ": 7083,
      "åĲµ": 7084,
      "åİ¨": 7085,
      "æĹłæķĮ": 7086,
      "è¿ĺä¸įæĺ¯": 7087,
      "åĨįä¸į": 7088,
      "å¿«è¦ģ": 7089,
      "è¢ĸåŃĲ": 7090,
      "éĻĽä¸ĭçļĦ": 7091,
      "çļĦåĽŀéģĵ": 7092,
      "åĬ£": 7093,
      "ç¬ĳåĺ»åĺ»": 7094,
      "å§¿æĢģ": 7095,
      "å¤§åŃ¦å£«": 7096,
      "èĥĢ": 7097,
      "èµ°å¾Ĺ": 7098,
      "ä½Ľç¥ĸ": 7099,
      "æģ¨ä¸įå¾Ĺ": 7100,
      "éĢĲæ¸Ĳ": 7101,
      "è¦ģæĥ³": 7102,
      "åı¯å°±": 7103,
      "åıĪæľīä»Ģä¹Ī": 7104,
      "æ·¹": 7105,
      "ä¸»æĮģ": 7106,
      "åİ»åģļ": 7107,
      "åħ¶åĲİ": 7108,
      "æľĢéĩįè¦ģ": 7109,
      "å·®çĤ¹": 7110,
      "ä¸īä¸ªäºº": 7111,
      "éĻĪèĬĿè±¹": 7112,
      "çļĦéĵģ": 7113,
      "æľ¦": 7114,
      "è¿ĺæĥ³": 7115,
      "ç¥ŀä¸»": 7116,
      "åĨħéĥ¨": 7117,
      "å¤Ħå¤Ħ": 7118,
      "çŁ¥éģĵçļĦ": 7119,
      "äº¤æīĭ": 7120,
      "åĩĿç»ĵ": 7121,
      "è¨ĢåĨ°äºĳ": 7122,
      "éĶĭåĪ©": 7123,
      "åİ®æĿĢ": 7124,
      "çļĦåĬŁå¤«": 7125,
      "è·Ħ": 7126,
      "æĪĳåĢĴ": 7127,
      "ä¹Łæľª": 7128,
      "æ³Ĭ": 7129,
      "æ²ħ": 7130,
      "æİĮå¿ĥ": 7131,
      "ç¿ĺ": 7132,
      "çĭ¬èĩª": 7133,
      "æģįæĥļ": 7134,
      "å¿ĥéŃĶ": 7135,
      "æģĭ": 7136,
      "éĿĴå±±": 7137,
      "æĸĩåŃĹ": 7138,
      "æĺ¯ä¸Ģçīĩ": 7139,
      "åħ®": 7140,
      "æĿ¥çľĭ": 7141,
      "å°±å·²ç»ı": 7142,
      "åĲİèĢħ": 7143,
      "å±±æ´¾": 7144,
      "èĭ¥èĥ½": 7145,
      "æĿĢæīĭ": 7146,
      "å¿«éĢŁ": 7147,
      "åŁİå¤ĸ": 7148,
      "è§£èį¯": 7149,
      "åĪĿæľŁ": 7150,
      "éĤ£æŁĦ": 7151,
      "åĪ°çļĦ": 7152,
      "ä¸¤è¾¹": 7153,
      "å·¨çĮ¿": 7154,
      "æķĻè®Ń": 7155,
      "é©³": 7156,
      "å¸®å¿Ļ": 7157,
      "è¯¸èĳĽ": 7158,
      "å«Ĥ": 7159,
      "å¤ªå¹³": 7160,
      "åĽłä¸ºå¥¹": 7161,
      "åıĳæĬĸ": 7162,
      "ä»ĸçļĦæīĭ": 7163,
      "è¿ĺæĺ¯è¦ģ": 7164,
      "çĨ¬": 7165,
      "æ¸ħæ¥ļæ¥ļ": 7166,
      "æĺ¯ä¸į": 7167,
      "æŃ¥èĻļ": 7168,
      "äºĳæ®Ĭ": 7169,
      "çĽ®çĿ¹": 7170,
      "åĿĩéĥ½": 7171,
      "éģĵçİĦ": 7172,
      "è¯´èµ·æĿ¥": 7173,
      "æŃ¤åħ½": 7174,
      "æĢİä¹Īåı¯èĥ½": 7175,
      "åĲĥé¥Ń": 7176,
      "éĿ¢èī²èĭįçĻ½": 7177,
      "äººçĶŁ": 7178,
      "çľĭæ¸ħ": 7179,
      "éŃħ": 7180,
      "åı¶èĭı": 7181,
      "æĲĤ": 7182,
      "èĦ±èº«": 7183,
      "è¿¹è±¡": 7184,
      "çĴĥ": 7185,
      "éĤ£ä¸¤ä¸ª": 7186,
      "ç¥Ŀ": 7187,
      "æľĢå¥½çļĦ": 7188,
      "äº²æīĭ": 7189,
      "éľĩèį¡": 7190,
      "éĽķåĥı": 7191,
      "ï¼ĮâĢĺ": 7192,
      "ç»ŀ": 7193,
      "ä¹Łç½¢": 7194,
      "å¤ĸçķĮ": 7195,
      "æ¯Ķä»ĸ": 7196,
      "æĲŀ": 7197,
      "èĤ©èĨĢ": 7198,
      "è½»å£°è¯´éģĵ": 7199,
      "ä¼¼å·²": 7200,
      "å¿ħé¡»è¦ģ": 7201,
      "åĸĢ": 7202,
      "äºĨä¸Ģä¼ļ": 7203,
      "æ¸ħæ¸ħæ¥ļæ¥ļ": 7204,
      "æıĸ": 7205,
      "æİłè¿ĩ": 7206,
      "æľīæĦı": 7207,
      "ä»Ļå¸Ī": 7208,
      "ä¸Ģç¿»": 7209,
      "æ²Ł": 7210,
      "è½´": 7211,
      "æīĭéĩĮçļĦ": 7212,
      "å·²ä¹ħ": 7213,
      "ä»İè¿Ļ": 7214,
      "æĢ§çļĦ": 7215,
      "çİĦéĹ¨": 7216,
      "è¯ķè¯ķ": 7217,
      "ä¸Ģåıªæīĭ": 7218,
      "ä¸įæĦ¿æĦı": 7219,
      "ç»ĳ": 7220,
      "äºĨä¸Ģçīĩ": 7221,
      "åĲĽéĻĮ": 7222,
      "çŃĶéģĵ": 7223,
      "åīįå¾Ģ": 7224,
      "è¹¿": 7225,
      "æľīä¸Ģéģĵ": 7226,
      "æ¯ıå¤©": 7227,
      "çİ©æĦı": 7228,
      "è°ķ": 7229,
      "èµ°è¿ĳ": 7230,
      "è·Łåľ¨": 7231,
      "ä¸¹åĩ¤": 7232,
      "æĤ²ä¼¤": 7233,
      "çļĦèº«ä»½": 7234,
      "çİĭåºŃ": 7235,
      "é«¯": 7236,
      "æļĩ": 7237,
      "æĢİçļĦ": 7238,
      "åıªè§ģä»ĸ": 7239,
      "è²Ĥ": 7240,
      "äº¦æĺ¯": 7241,
      "æĥ³è¿ĩ": 7242,
      "å¥ĩçī¹": 7243,
      "æĺŃ": 7244,
      "å°±è¿Ļä¹Ī": 7245,
      "å¤´éĻĢ": 7246,
      "åĴĶ": 7247,
      "æ¸º": 7248,
      "èī¾": 7249,
      "åĴĮéĤ£": 7250,
      "çĥĻ": 7251,
      "çŁ¥éģĵä»ĸ": 7252,
      "åĹĶ": 7253,
      "åı©": 7254,
      "ä¸Ģäº®": 7255,
      "åį¦": 7256,
      "æ¸ħåĩī": 7257,
      "é¾ĻéĹ¨": 7258,
      "ä¸įçŁ¥ä¸įè§ī": 7259,
      "ç«ĻäºĨèµ·æĿ¥": 7260,
      "åı³èĩĤ": 7261,
      "ç¼ĿéļĻ": 7262,
      "åı£åĳĨ": 7263,
      "éķ¿åį¿": 7264,
      "çİĭæŀĹèº«åŃĲ": 7265,
      "äºĳæµ·": 7266,
      "æŃ£å¦Ĥ": 7267,
      "çĶµå¼§": 7268,
      "è¿Ļéģĵ": 7269,
      "äººåľ¨": 7270,
      "åĲĳä¸Ĭ": 7271,
      "åĺī": 7272,
      "åĹĸ": 7273,
      "å«¡": 7274,
      "ä½ĵåĨħçļĦ": 7275,
      "å¿ĥåį°": 7276,
      "ç¥ŀåīĳ": 7277,
      "èĬ±æ»¡": 7278,
      "å¤±åİ»": 7279,
      "çļĦæĸ¹åĲĳ": 7280,
      "éĿĴéĶĭ": 7281,
      "çĿģå¼ĢåıĮçľ¼": 7282,
      "ä»ĭç»į": 7283,
      "ä¸įæĿ¥": 7284,
      "è¿ĻèĢģ": 7285,
      "çĭ¡": 7286,
      "åĢĴåľ¨åľ°": 7287,
      "é¾ĻèĻİ": 7288,
      "ç¬¬ä¸Ģåįĥ": 7289,
      "åłĤåłĤ": 7290,
      "åĩŃåĢŁ": 7291,
      "æĺ¯è¢«": 7292,
      "ä¹ĭä¸ĬçļĦ": 7293,
      "ç»ıèĦī": 7294,
      "åŃ¦ä¼ļ": 7295,
      "èį¡èį¡": 7296,
      "æĽ¹éķ¿åį¿": 7297,
      "å¤©æľº": 7298,
      "æĹłèĢ»": 7299,
      "ç«Łæľī": 7300,
      "å¼ºçĥĪ": 7301,
      "åĩºä¸Ģä¸Ŀ": 7302,
      "åĭĩæ°Ķ": 7303,
      "å¥½çľĭ": 7304,
      "æĸ¹ä¾¿": 7305,
      "ä¸īåįĥ": 7306,
      "åįĬå±±": 7307,
      "æ²¿çĿĢ": 7308,
      "æĺĮ": 7309,
      "åıĪæĥ³": 7310,
      "æ·Į": 7311,
      "çĲ¢": 7312,
      "å¾Ĺè¿ĩ": 7313,
      "éĹ¨æĪ·": 7314,
      "èµ°è¿ĩ": 7315,
      "æĢİä¹Īèĥ½": 7316,
      "é¸ł": 7317,
      "çĪ¶åŃĲ": 7318,
      "åıĤä¸İ": 7319,
      "åŁºæľ¬": 7320,
      "æĻ®éĢļçļĦ": 7321,
      "ä¸Ĭå®ĺå°ıä»Ļ": 7322,
      "åĨĮ": 7323,
      "ä¸ºä¸Ģ": 7324,
      "é»ĳå¤ľ": 7325,
      "ä»»åĬ¡": 7326,
      "èĴ¸": 7327,
      "å»ºçŃĳ": 7328,
      "çĦ¦æĢ¥": 7329,
      "åĽĽæĸ¹": 7330,
      "é«ħ": 7331,
      "å¤ªå®ī": 7332,
      "ä¸Ĭå±±": 7333,
      "éĢĹ": 7334,
      "èĢĮæŃ»": 7335,
      "èĢĮèµ°": 7336,
      "åĺ±": 7337,
      "è¿Ļä¸Ģåīĳ": 7338,
      "æ¶Īå¤±ä¸įè§ģ": 7339,
      "å²Ĥä¸į": 7340,
      "åıĪæĢİä¼ļ": 7341,
      "æĸ¹ä½į": 7342,
      "éĩĳèĻ«": 7343,
      "èĬ±çĶŁ": 7344,
      "éĤ£äºĽäºº": 7345,
      "åĭ¤": 7346,
      "åĲ´ä¸ī": 7347,
      "ä¸įå¿į": 7348,
      "ä»ĸçľĭçĿĢ": 7349,
      "å®Įé¢ľ": 7350,
      "ä»¤çīĮ": 7351,
      "è¯·ä½ł": 7352,
      "åī§çĹĽ": 7353,
      "éľ¸éģĵ": 7354,
      "ä¸įçŃī": 7355,
      "åĩ³": 7356,
      "ä»İåħ¶": 7357,
      "çļĦéĤ£ä½į": 7358,
      "äºĨéĤ£": 7359,
      "æľīå¿ĥ": 7360,
      "çĽ¸åıį": 7361,
      "äº²è¿ĳ": 7362,
      "æıĲåīį": 7363,
      "å¯ĤéĿĻ": 7364,
      "å¤§åĲį": 7365,
      "æĥĬæģĲ": 7366,
      "æł¹æīĭæĮĩ": 7367,
      "åģľçķĻ": 7368,
      "çħŀæ°Ķ": 7369,
      "èĢ½æĲģ": 7370,
      "ä¸įç©º": 7371,
      "æŃ¤åĲİ": 7372,
      "åĽŀå¤į": 7373,
      "æĬĬæĪĳ": 7374,
      "éĢļçº¢": 7375,
      "æĥħåĨµä¸ĭ": 7376,
      "·é«ħ": 7377,
      "æĪĳä¸įæĺ¯": 7378,
      "æŃ»æŃ»": 7379,
      "æľ¬çİĭ": 7380,
      "éª·é«ħ": 7381,
      "åı«å£°": 7382,
      "èĢģå¤´åŃĲ": 7383,
      "çľĭä¸į": 7384,
      "åĢª": 7385,
      "çĻ½é©¬": 7386,
      "ä½ĵè¡¨": 7387,
      "å§ĳå§ĳ": 7388,
      "è®ºåīĳ": 7389,
      "æĹłæľĽ": 7390,
      "æŀĹä»Ļ": 7391,
      "åľ¨è¿ĻäºĽ": 7392,
      "è¡£è¥Ł": 7393,
      "è¦ĨçĽĸ": 7394,
      "åĽĽåĲį": 7395,
      "å¤±äºĨ": 7396,
      "çĽ®åħīéĹªåĬ¨": 7397,
      "å¹½æļĹ": 7398,
      "åĲ´ä¸īæ¡Ĥ": 7399,
      "äººæĹı": 7400,
      "çľĭä¸įè§ģ": 7401,
      "çĹĽå¿«": 7402,
      "å½ĵçĦ¶æĺ¯": 7403,
      "åľ¨æīĭ": 7404,
      "çĿĽ": 7405,
      "åīįåİ»": 7406,
      "å¥¢": 7407,
      "å¥¹åľ¨": 7408,
      "æĦŁæĥħ": 7409,
      "èħ»": 7410,
      "é¾Ļè±¡": 7411,
      "æ´ŀä¸Ń": 7412,
      "ä¼¸åĩºæīĭ": 7413,
      "å¦¹åŃĲ": 7414,
      "ä¸Ģå¤ľ": 7415,
      "æķ´æķ´": 7416,
      "èº«ä½ĵåĨħ": 7417,
      "éģĵå¿ĥ": 7418,
      "è¿Ļä¸ĢçĶŁ": 7419,
      "åĲİæĸ¹": 7420,
      "åĲĮä¼´": 7421,
      "åģļäºĭ": 7422,
      "èĲ½çļĦ": 7423,
      "åį°è±¡": 7424,
      "èŁ¹": 7425,
      "åı¨": 7426,
      "ä¸įå°½": 7427,
      "æķĿ": 7428,
      "éĿ¢éĿ¢çĽ¸": 7429,
      "åīĳå®¢": 7430,
      "çĭŃ": 7431,
      "åĦĴçĶŁ": 7432,
      "çŀ¬æģ¯éĹ´": 7433,
      "åĬª": 7434,
      "æķĸ": 7435,
      "è®¸ç«ĭ": 7436,
      "è§īå¾Ĺèĩªå·±": 7437,
      "åĲ¹éĽª": 7438,
      "è·ĥèµ·": 7439,
      "ä¹ĸä¹ĸ": 7440,
      "æĥ³æĥ³": 7441,
      "å¼ķèµ·": 7442,
      "åıĳåĩºä¸Ģå£°": 7443,
      "æĩĤå¾Ĺ": 7444,
      "åĩłå¹´": 7445,
      "æľ¬å°Ĭ": 7446,
      "çĽ®çŀª": 7447,
      "å·¦æİĮ": 7448,
      "è¥¿éĹ¨åĲ¹éĽª": 7449,
      "ä¸ĢæĦ£": 7450,
      "å¤©éĽ·": 7451,
      "ä½Ĩèĭ¥": 7452,
      "ä¾¿éģĵ": 7453,
      "æ£Ģ": 7454,
      "çĽ®åħīä¸ĢéĹª": 7455,
      "å¼łç¿łå±±": 7456,
      "åĨįåİ»": 7457,
      "çŁ³å£ģ": 7458,
      "æĢĴåĲ¼": 7459,
      "ç¬ĶçĽ´": 7460,
      "ä¹Įé»ĳ": 7461,
      "èĢģåħĪçĶŁ": 7462,
      "å¸ĪéĹ¨": 7463,
      "èĭ¥èĭ¥": 7464,
      "ä»Ĭå¤ľ": 7465,
      "è®¡ç®Ĺ": 7466,
      "ç³Łç³ķ": 7467,
      "è½¨": 7468,
      "æĹłç¤¼": 7469,
      "é£ŀéģģ": 7470,
      "ä»ħä»ħæĺ¯": 7471,
      "èĤº": 7472,
      "ä¹Łä¸įåı¯èĥ½": 7473,
      "å±ĭåŃĲéĩĮ": 7474,
      "çĭĲçĭ¸": 7475,
      "èĶĵå»¶": 7476,
      "çļĦç¥ŀèī²": 7477,
      "åıĳä½ľ": 7478,
      "æīĵæī®": 7479,
      "æ¸ħçİĦ": 7480,
      "å®Ŀè´Ŀ": 7481,
      "å¤«å¦»": 7482,
      "è¿½åĩ»": 7483,
      "åĮ¹é©¬": 7484,
      "éĤ£å°ĳå¹´": 7485,
      "æĿĢäººçļĦ": 7486,
      "åįĥä¸Ī": 7487,
      "è°·ä¸Ń": 7488,
      "èĿł": 7489,
      "çģ¯çģ«": 7490,
      "åĻ¬éĩĳèĻ«": 7491,
      "ä»ĸåıª": 7492,
      "æĹłåĲį": 7493,
      "ä¸İäºº": 7494,
      "çŁŃæĹ¶éĹ´": 7495,
      "éª¤çĦ¶éĹ´": 7496,
      "ä¸ºä½ł": 7497,
      "éĿ¢éľ²": 7498,
      "æł¼å¤ĸ": 7499,
      "æ¯ıä¸ªäººéĥ½": 7500,
      "è¿ĩå¾Ĺ": 7501,
      "è¿ĩäºİ": 7502,
      "åĵĦ": 7503,
      "æ²¡æľīæĥ³åĪ°": 7504,
      "ä»İå¤©": 7505,
      "å±±éĹ¨": 7506,
      "å±ĤçļĦ": 7507,
      "æ»´æºľæºľ": 7508,
      "åįģä½Ļä¸Ī": 7509,
      "ç¥ŀåºĻ": 7510,
      "è¥¿æ¥ļ": 7511,
      "éĻĨéĿĴ": 7512,
      "çļĦäººä»¬": 7513,
      "ä¼¤äºĨ": 7514,
      "è½°çļĦä¸Ģå£°": 7515,
      "åĨµä¸Ķ": 7516,
      "ç½®ä¿¡": 7517,
      "æ³ªæ°´": 7518,
      "åįĬä¸ªæĹ¶è¾°": 7519,
      "çľ¶": 7520,
      "éĤ£ä¸ªäºº": 7521,
      "éĻĲåĪ¶": 7522,
      "æĺ¯å¤§": 7523,
      "æīĭæĮģ": 7524,
      "åı¯æ¯Ķ": 7525,
      "æĶ¾å¼Ģ": 7526,
      "ç´¢æĢ§": 7527,
      "èº«è¾¹çļĦ": 7528,
      "åĵİ": 7529,
      "è·ĭ": 7530,
      "çłĸ": 7531,
      "éŃĶåĲĽ": 7532,
      "å®¹è²Į": 7533,
      "è¯Ńå«£": 7534,
      "èĥ¡è¯´": 7535,
      "æŁ³éķ¿è¡Ĺ": 7536,
      "ç¥ŃåĿĽ": 7537,
      "çļĦå¿ĥæĢĿ": 7538,
      "éģ£": 7539,
      "èĩªçŁ¥": 7540,
      "è¦ģç´§": 7541,
      "ç¥Ī": 7542,
      "å·²æŀģ": 7543,
      "ç®¡äºĭ": 7544,
      "ç¯ĩ": 7545,
      "è¾ŁéĤª": 7546,
      "èĥ¡åŃĲçİī": 7547,
      "ä»ĸèĥ½": 7548,
      "ä¹Łæĥ³": 7549,
      "äºĨä¸ĢæĿ¡": 7550,
      "éŃĶéģĵ": 7551,
      "æµģæ°´": 7552,
      "å°ıé±¼åĦ¿éģĵ": 7553,
      "æµ©çĦ¶": 7554,
      "æ¸¡è¿ĩ": 7555,
      "ãĢĤâĢľ": 7556,
      "åĺ´å·´": 7557,
      "ç¼ĵç¼ĵåľ°": 7558,
      "æ°ĶæľŁ": 7559,
      "æĸĻåĪ°": 7560,
      "èº²åľ¨": 7561,
      "çļĦæĪĺ": 7562,
      "èĦ±ç¦»": 7563,
      "éĤ£æĬĬ": 7564,
      "å¥³çļĦ": 7565,
      "ä¸Ŀä¸Ŀ": 7566,
      "åĸ·åĩºä¸Ģ": 7567,
      "èĢĮæĪĲ": 7568,
      "éĥ½å¾Ī": 7569,
      "çĸĹ": 7570,
      "ç¾İçļĦ": 7571,
      "éĿ¢éĿ¢çĽ¸è§ĳ": 7572,
      "ä½łæĺ¯ä¸įæĺ¯": 7573,
      "çģµçıĬ": 7574,
      "çľ¼çĿģ": 7575,
      "å¡ĺ": 7576,
      "æĺĶå¹´": 7577,
      "ä¹ĭä¸ŃçļĦ": 7578,
      "éĹ®é¼İ": 7579,
      "ä»ĸä¸İ": 7580,
      "åĳ»": 7581,
      "äº¤æį¢": 7582,
      "å½ĵä½ľ": 7583,
      "æľ¬äºº": 7584,
      "éĵŃ": 7585,
      "çĽ¸åħ³": 7586,
      "æķ°æĹ¥": 7587,
      "ä¸ľå¤·åŁİ": 7588,
      "å¤§å¤§": 7589,
      "éĥ½è¯´": 7590,
      "èģĭ": 7591,
      "åľ£ç¥ĸ": 7592,
      "åª³å¦ĩ": 7593,
      "çļĦæŃ»": 7594,
      "ä»ĳ": 7595,
      "æµ·æ°´": 7596,
      "å±ĢåĬ¿": 7597,
      "åĲĳäºĨ": 7598,
      "å¨ģä¸¥": 7599,
      "èĦļæŃ¥å£°": 7600,
      "ä¸Ģéģį": 7601,
      "ä¸įçĲĨ": 7602,
      "æ¸İ": 7603,
      "åįĬæŃ¥éĩĳä»Ļ": 7604,
      "è£ģåĨ³": 7605,
      "æŀĹä»ĻåĦ¿": 7606,
      "çļĦçľ¼ç¥ŀ": 7607,
      "äºĨçļĦ": 7608,
      "æĪĳçİ°åľ¨": 7609,
      "æĦıå¢ĥ": 7610,
      "è¡ĮäºĨ": 7611,
      "æĶ¶èµ·": 7612,
      "ä¸įèĥľ": 7613,
      "é©¬å¦Ĥé¾Ļ": 7614,
      "èĭ¦æ¶©": 7615,
      "äº¤æĥħ": 7616,
      "åı·ç§°": 7617,
      "æĮł": 7618,
      "æĺ¾çĦ¶æĺ¯": 7619,
      "çĢĳ": 7620,
      "å¤§è¢ĸ": 7621,
      "åĽļ": 7622,
      "éĿ¢åŃĲ": 7623,
      "ä»ĸçļĦäºº": 7624,
      "ç¿İ": 7625,
      "è¸ī": 7626,
      "èİ«æµĭ": 7627,
      "çľ¼åīįçļĦ": 7628,
      "æĬĺç£¨": 7629,
      "è¿ģ": 7630,
      "çİĭå¦ĥ": 7631,
      "éľī": 7632,
      "ç²¾åħī": 7633,
      "äºĮåįģå¹´": 7634,
      "åĲĵäºĨä¸Ģè·³": 7635,
      "ä¹ŁåĲĮæł·": 7636,
      "è°ģä¹Ł": 7637,
      "è¿Ļç§įäºº": 7638,
      "æĭįäºĨæĭį": 7639,
      "ä¸ĢåľĪ": 7640,
      "ä»ĸäºĮäºº": 7641,
      "å¤§çº¦": 7642,
      "å°ıåħ¬ä¸»": 7643,
      "çİĦå¦Ļ": 7644,
      "å®ŀåľ¨å¤ª": 7645,
      "ä»ĸæīĢ": 7646,
      "å·¢": 7647,
      "ç¥ŀæĢģ": 7648,
      "é«ĺæ·±": 7649,
      "ç»Ŀé¡¶": 7650,
      "æģ©å¸Ī": 7651,
      "æĹłäºĮ": 7652,
      "çļĦä¸į": 7653,
      "éģĵè¢į": 7654,
      "æŀ³": 7655,
      "åĵī": 7656,
      "é£ŀåĪĢ": 7657,
      "é©¬è´¼": 7658,
      "å¤©ä¸ĭç¬¬ä¸Ģ": 7659,
      "éķĩå®ļ": 7660,
      "åļ¼": 7661,
      "ä¸ĢçļĦ": 7662,
      "æľīåĩł": 7663,
      "æŃ¤éĹ´": 7664,
      "éĥ½å·²ç»ı": 7665,
      "è£¤": 7666,
      "å¾ĲåĮĹ": 7667,
      "å®ĺåħµ": 7668,
      "åĪºæ¿Ģ": 7669,
      "éģ¥éģ¥": 7670,
      "èĤĮèĤī": 7671,
      "åĪ°è¿ĻéĩĮæĿ¥": 7672,
      "æĪŁ": 7673,
      "ä»ĸèĻ½çĦ¶": 7674,
      "æłĸ": 7675,
      "çıĳ": 7676,
      "è¯·æķĻ": 7677,
      "æµĵæµĵ": 7678,
      "å¦¾èº«": 7679,
      "æļĹéģĵ": 7680,
      "æĳĨæīĭ": 7681,
      "æŀĹå¹³": 7682,
      "åıĳåĩºäºĨ": 7683,
      "èĤĺ": 7684,
      "çĻ½è¢į": 7685,
      "ç»Ŀå£ģ": 7686,
      "çķĮå¤ĸ": 7687,
      "çªģåĲ¬": 7688,
      "åĩºçİ°çļĦ": 7689,
      "ç¬ĳçĿĢè¯´éģĵ": 7690,
      "åĳ»åĲŁ": 7691,
      "ä¸īå¤§": 7692,
      "åĽŀå®¶": 7693,
      "åį³å°Ĩ": 7694,
      "åĩīå·ŀ": 7695,
      "åĲŁéĽª": 7696,
      "æķ°åįģä¸Ī": 7697,
      "æĦīå¿«": 7698,
      "ç®«": 7699,
      "èĤ²": 7700,
      "çĽ¸åĲĮ": 7701,
      "éĩĳèĻ¹": 7702,
      "æĢªäºº": 7703,
      "åŁŁå¤ĸ": 7704,
      "èģļéĽĨ": 7705,
      "è®²ç©¶": 7706,
      "åıĪä¸įæĺ¯": 7707,
      "äºĭåħĪ": 7708,
      "åĢĴéĢĢ": 7709,
      "è¸ªè¿¹": 7710,
      "ä¸Ģä¼ļ": 7711,
      "ç»¾": 7712,
      "æ¸´": 7713,
      "åıĺæķħ": 7714,
      "èĬ±è´¹": 7715,
      "åģľäºĨä¸ĭæĿ¥": 7716,
      "é¦ĸé¢Ĩ": 7717,
      "å¾ĲåĮĹæŀ³": 7718,
      "èĥ§": 7719,
      "åħ¨çĦ¶": 7720,
      "ä»»çĶ±": 7721,
      "ä¾ĭå¤ĸ": 7722,
      "éĦĻ": 7723,
      "ç»®": 7724,
      "è·º": 7725,
      "ç»ıå¸¸": 7726,
      "åıĮèħ¿": 7727,
      "æĿĢæ°Ķ": 7728,
      "éĿŀåĲĮå°ıåı¯": 7729,
      "ä¸ºæĪĳ": 7730,
      "çľ¼èī²": 7731,
      "äºĭåĲİ": 7732,
      "åīĳä»Ļ": 7733,
      "åģļå¾Ĺ": 7734,
      "èĥ¸åīį": 7735,
      "è®®è®º": 7736,
      "çļĦç¬ĳå®¹": 7737,
      "äºĨå¾Īå¤ļ": 7738,
      "åĩłæĹ¥": 7739,
      "å¯ĴèĬĴ": 7740,
      "åºĦä¸»": 7741,
      "æĪ³": 7742,
      "çİ°ä¸ĭ": 7743,
      "æµģéĢĿ": 7744,
      "ä¸įåĲĮçļĦ": 7745,
      "çİ²": 7746,
      "ç¥ŀåĬŁ": 7747,
      "ä¸ĩçī©": 7748,
      "åĩºä¹İ": 7749,
      "å½ĵåħĪ": 7750,
      "å¾®ä¸Ģ": 7751,
      "ç»ĿéĿŀ": 7752,
      "åĪĢéĶĭ": 7753,
      "åħĥç£ģ": 7754,
      "å¾ĢæĹ¥": 7755,
      "ç¼©å°ı": 7756,
      "åľĪåŃĲ": 7757,
      "æĭĶåĩº": 7758,
      "å²³çģµçıĬ": 7759,
      "ä¸Ģè¡Įäºº": 7760,
      "å¥½äºĭ": 7761,
      "çİĭæľĿ": 7762,
      "åĲĮæĦı": 7763,
      "è¿ľåİ»": 7764,
      "é¦Ļçģ«": 7765,
      "äº¤æµģ": 7766,
      "æĻ¯è±¡": 7767,
      "ç¬¬äºĮæ¬¡": 7768,
      "ä»¤çĭĲåĨ²éģĵ": 7769,
      "å¤§çĪ·": 7770,
      "èĩªå¹¼": 7771,
      "æ²¡èĥ½": 7772,
      "çİĭè¯Ńå«£": 7773,
      "åı³æİĮ": 7774,
      "æĪĪ": 7775,
      "ä½łä»¥ä¸º": 7776,
      "å¤©åŃĲ": 7777,
      "ç»ĿæĹł": 7778,
      "åı¤åīĳ": 7779,
      "å°ĬèĢħ": 7780,
      "å¹½åĨ¥": 7781,
      "è®¸ç«ĭåĽ½": 7782,
      "ä¸Ģå®¶": 7783,
      "å¤§æĦŁ": 7784,
      "åıªåľ¨": 7785,
      "æł½": 7786,
      "ä¸ľæĿ¥": 7787,
      "åĲ¯å¹´": 7788,
      "åĹ¡åĹ¡": 7789,
      "éĹº": 7790,
      "è¾¹åĨĽ": 7791,
      "ä»¶äºĭæĥħ": 7792,
      "è®¤åĩº": 7793,
      "æĺ¯æĥ³": 7794,
      "éģĵåĲĽ": 7795,
      "æ·±åİļ": 7796,
      "å®Ļ": 7797,
      "ä½łåħĪ": 7798,
      "å½ª": 7799,
      "åİ»åĲ§": 7800,
      "èĢĮç«ĭ": 7801,
      "æĶ¶èİ·": 7802,
      "çļ®èĤ¤": 7803,
      "äºĨä»ĸçļĦ": 7804,
      "å¤±å£°éģĵ": 7805,
      "ä»ĩæģ¨": 7806,
      "ä¸ľæĸ¹éĢ¸": 7807,
      "ä»ĸè¿Ļ": 7808,
      "éĤ£ä¸¤": 7809,
      "å°Ĩé¢Ĩ": 7810,
      "äºĮäººçļĦ": 7811,
      "é»ĳéĽ¾": 7812,
      "ç¿Ł": 7813,
      "å¿įåıĹ": 7814,
      "åľ¨ä¸Ģå¤Ħ": 7815,
      "åģ·è¢Ń": 7816,
      "éģĵæľ¯": 7817,
      "æĥĬæħĮ": 7818,
      "è¿Ļæĺ¯ä»Ģä¹Ī": 7819,
      "éĢĶä¸Ń": 7820,
      "æĺĨä»ĳ": 7821,
      "åı¸å¾ĴåįĹ": 7822,
      "æĢ¡": 7823,
      "æīĵäºĨ": 7824,
      "è¡Ģæ¶²": 7825,
      "æ¢ħåĲŁéĽª": 7826,
      "æ¸ħæĻ¨": 7827,
      "æīĢè°ĵçļĦ": 7828,
      "ä¸įå¦Ļ": 7829,
      "å¿ĥåĬ¨": 7830,
      "è¦ģä¸įæĺ¯": 7831,
      "éĩĮéĿ¢çļĦ": 7832,
      "çľŁèº«": 7833,
      "éŃĶä¸»": 7834,
      "çıįè´µ": 7835,
      "çĿĢçľ¼çĿĽ": 7836,
      "éĹ¨å¼ŁåŃĲ": 7837,
      "æŃ»å¾Ĺ": 7838,
      "äºĮå¥³": 7839,
      "ä»Ļç¢§": 7840,
      "åĲĦå¤Ħ": 7841,
      "ä¸įèĥ½åĨį": 7842,
      "é¦ĸåħĪ": 7843,
      "ä¸įå¤ļæĹ¶": 7844,
      "å¥´æīį": 7845,
      "ä¸įä¾¿": 7846,
      "çľŁçģµ": 7847,
      "ä¸Ģæĸ¹": 7848,
      "ç´łç´ł": 7849,
      "ç¾½æ¸ħçİĦ": 7850,
      "éĤĵå¤ªéĺ¿": 7851,
      "çļĦéŁ©ç«ĭ": 7852,
      "è¯ŀ": 7853,
      "æīĭè¶³": 7854,
      "ä½ķä»¥": 7855,
      "ç¢Į": 7856,
      "æµģæĺŁ": 7857,
      "çŀ§äºĨ": 7858,
      "æ®µçİī": 7859,
      "åıĸåĩºä¸Ģ": 7860,
      "æľīçĤ¹åĦ¿": 7861,
      "åıĻ": 7862,
      "è¿Ļå°ĳå¹´": 7863,
      "æľĢé«ĺ": 7864,
      "å¤±å£°": 7865,
      "éº»è¡£": 7866,
      "é¡»å¾Ĺ": 7867,
      "å½ĴèĹı": 7868,
      "åħ¸ç±į": 7869,
      "ç¼¥": 7870,
      "è½»ç¬ĳ": 7871,
      "ä¾Ŀç¨Ģ": 7872,
      "æľĢåĲİçļĦ": 7873,
      "çĮľåĪ°": 7874,
      "èĬ·èĭ¥": 7875,
      "çŁ«": 7876,
      "æ°Ķæ°Ľ": 7877,
      "éŁµ": 7878,
      "å®¶èĢģç¥ĸ": 7879,
      "ä¹ĭéŁ³": 7880,
      "å°±å¥½": 7881,
      "å¾Ĺä»ĸ": 7882,
      "æĹłéĻĲ": 7883,
      "ä»¥èĩ³äºİ": 7884,
      "åī©ä¸ĭçļĦ": 7885,
      "å¤§èĩ£": 7886,
      "éĢĽ": 7887,
      "è¦ģå°Ĩ": 7888,
      "èĤ¿": 7889,
      "æŀģéĻĲ": 7890,
      "åĸĿäºĨ": 7891,
      "å±ĭé¡¶": 7892,
      "è®¸ä¹ħä¹ĭåĲİ": 7893,
      "çļĦåĲĳ": 7894,
      "ä¸įè®¸": 7895,
      "ä¸įå®¹": 7896,
      "åĲģ": 7897,
      "æķ°çĻ¾å¹´": 7898,
      "çİ©ç¬ĳ": 7899,
      "æħķå®¹å¤į": 7900,
      "çĽ´å¥ĶçİĭæŀĹ": 7901,
      "åı¯æĢķçļĦ": 7902,
      "å§ľæ³¥": 7903,
      "åĩ¸": 7904,
      "æ´ŀåı£": 7905,
      "æ¾Ī": 7906,
      "æĬ½åĩº": 7907,
      "ä¸Ńä¸Ģ": 7908,
      "çĶ¨å¤Ħ": 7909,
      "çļĦæĥħå½¢": 7910,
      "çĦī": 7911,
      "æĬ¼": 7912,
      "é£ĵ": 7913,
      "äºĨä¸Ģçķª": 7914,
      "åķĬåĵŁ": 7915,
      "è¡Ĺä¸Ĭ": 7916,
      "çļĦå°ĳå¥³": 7917,
      "ä¸ºå¸Ī": 7918,
      "è¿Ļç§įäºĭ": 7919,
      "éĤ£ä¹Īå¤ļ": 7920,
      "ä¸´æĹ¶": 7921,
      "ç°Į": 7922,
      "è¯»ä¹¦äºº": 7923,
      "ï½": 7924,
      "çŁ¥ä»ĸ": 7925,
      "åĮł": 7926,
      "æ¯ĶæĪĳ": 7927,
      "éĢĢåĩº": 7928,
      "å¤ľéĩĮ": 7929,
      "äº«åıĹ": 7930,
      "åı¯è°ĵ": 7931,
      "ä»¥ä»ĸ": 7932,
      "éķ¿è¾Ī": 7933,
      "çĥ¤": 7934,
      "æķ¬çķı": 7935,
      "æĽ¿ä»ĸ": 7936,
      "æĤ¬æµ®": 7937,
      "ï½ŀ": 7938,
      "ä¸Ģå¼Ģå§ĭ": 7939,
      "çľĭæ¸ħæ¥ļ": 7940,
      "èĢģéŃĶ": 7941,
      "ä½Ļåľ°": 7942,
      "åĮħåĽ´": 7943,
      "é¡ºåĪ©": 7944,
      "çŁ¿": 7945,
      "å¦ĤæĦı": 7946,
      "åĽłä¸ºä½ł": 7947,
      "åłķ": 7948,
      "æĹ¢å·²": 7949,
      "éĵģå¿ĥåħ°": 7950,
      "çĶ¸": 7951,
      "å°±æ²¡æľī": 7952,
      "è¡·": 7953,
      "èĥ½åľ¨": 7954,
      "åį´ä¸įæĺ¯": 7955,
      "åıĪéĹ®": 7956,
      "æĮ«": 7957,
      "åĽĽä½į": 7958,
      "åħ¨çľŁ": 7959,
      "é¸¿": 7960,
      "çĮĽçļĦ": 7961,
      "èĦĳåŃĲ": 7962,
      "å®ĪæĬ¤": 7963,
      "èµ°æĿ¥": 7964,
      "æĬ¬æīĭ": 7965,
      "éģĹæĨ¾": 7966,
      "æĺıè¿·": 7967,
      "çļĦæĥħåĨµä¸ĭ": 7968,
      "è¯´äºĽä»Ģä¹Ī": 7969,
      "å°ıçº¢": 7970,
      "ä¸¤ä¾§": 7971,
      "ä¸īå¨ĺ": 7972,
      "çĽ¸æķĳ": 7973,
      "åħĪåĲİ": 7974,
      "å¢Ł": 7975,
      "è¡£è£³": 7976,
      "æļĹç®Ĺ": 7977,
      "å¿ĥä¸ŃçļĦ": 7978,
      "åĥµç¡¬": 7979,
      "ä¸ĢæĶ¶": 7980,
      "è¿Ļä¹Ł": 7981,
      "å¤§å°ĳ": 7982,
      "ä¹ĭå¿«": 7983,
      "æĸĭ": 7984,
      "éĿ¢åŃĶ": 7985,
      "åıįæĬĹ": 7986,
      "æ¶Īå¤±åľ¨": 7987,
      "æĮ¡ä½ı": 7988,
      "ä¹Įäºĳ": 7989,
      "æŃ¤å®Ŀ": 7990,
      "å¯¹æĬĹ": 7991,
      "çī²": 7992,
      "çŁ³éĹ¨": 7993,
      "éĶ¡": 7994,
      "åĬłåħ¥": 7995,
      "æłĳä¸ĭ": 7996,
      "ä¸¥èĤĥ": 7997,
      "äºĨåĽŀæĿ¥": 7998,
      "æŃ¤çķĮ": 7999,
      "éĥ½ä¸įæķ¢": 8000,
      "æĥĬçĸĳ": 8001,
      "éĵģåīĳ": 8002,
      "ä»įåľ¨": 8003,
      "æĸ°çļĦ": 8004,
      "ä¸ĢéĹªåį³éĢĿ": 8005,
      "è¿ĪæŃ¥": 8006,
      "æĽ´å¤ļçļĦ": 8007,
      "è¿ĻæĬĬ": 8008,
      "çº¯ç²¹": 8009,
      "èĩªè¯Ńéģĵ": 8010,
      "ä½łéĤ£": 8011,
      "åĵĩ": 8012,
      "è¯Ŀé¢ĺ": 8013,
      "æĺİçİĳ": 8014,
      "å°ĳèĭ±": 8015,
      "è¿ĩåİ»äºĨ": 8016,
      "æĮĳæĪĺ": 8017,
      "æ²Īæµªéģĵ": 8018,
      "ä¸Ģç¼©": 8019,
      "å¾Ĺæīĭ": 8020,
      "è¡ĮçļĦ": 8021,
      "è½¬ä¸ĸ": 8022,
      "ä¸ºä½ķè¦ģ": 8023,
      "çģ¿çĥĤ": 8024,
      "çªĦ": 8025,
      "åĨ·åĵ¼ä¸Ģå£°": 8026,
      "çł´åĿı": 8027,
      "æł¡å°ī": 8028,
      "å¿ĥåĨħèĻļç©º": 8029,
      "çľ¼çĿģçĿģ": 8030,
      "åı¯ç¬ĳ": 8031,
      "çīĩåĪ»ä¹ĭåĲİ": 8032,
      "åļİ": 8033,
      "ç»¾åĦ¿": 8034,
      "ä½łçŀ§": 8035,
      "èĩªçĶ±": 8036,
      "ä¼ļçļĦ": 8037,
      "åĩłçľ¼": 8038,
      "æĽ´å¿«": 8039,
      "æİĮæİ§": 8040,
      "æĸĹæ³ķ": 8041,
      "æĹ¶èĢĮ": 8042,
      "å°ıåįĬ": 8043,
      "æŀģæĺ¯": 8044,
      "åĢĴä¹Łä¸į": 8045,
      "ç»Ŀä¸ĸ": 8046,
      "è¥¿åŁŁ": 8047,
      "åħŃä¸ĥ": 8048,
      "æ³¥åľŁ": 8049,
      "ç¼İ": 8050,
      "è¢«çİĭæŀĹ": 8051,
      "æ¸ħæ²³": 8052,
      "åı¹äºĨä¸Ģåı£æ°Ķ": 8053,
      "çģ°èī²": 8054,
      "éľįçĦ¶": 8055,
      "å¤§æ³ķ": 8056,
      "èĻ¬": 8057,
      "èµ°ä¸Ĭ": 8058,
      "æľĢå¤§": 8059,
      "å¾Ģä¸ĭ": 8060,
      "éĥŃèĬĻ": 8061,
      "åĩłä¸ªäºº": 8062,
      "èĭıæ¨±": 8063,
      "çļĦèĢģèĢħ": 8064,
      "åħľ": 8065,
      "è¿Ļå¤©": 8066,
      "æĿ¥æŃ¤": 8067,
      "æĸŁ": 8068,
      "è¦ģä»ĸ": 8069,
      "æĥ³åĪ°è¿ĻéĩĮ": 8070,
      "èĭıéĨĴ": 8071,
      "æĺİæĹ¥": 8072,
      "çĨĶ": 8073,
      "å¤§å°ıå§Ĳ": 8074,
      "èİ«åĲįåħ¶å¦Ļ": 8075,
      "ä¿®ç½Ĺ": 8076,
      "åĪĨå¼Ģ": 8077,
      "æľºåħ³": 8078,
      "éĽªèĬ±": 8079,
      "æĸ½ä¸»": 8080,
      "ç§ĭæ°´": 8081,
      "çļĦå¿µå¤´": 8082,
      "ä¾®": 8083,
      "äºĨä¸Ģå±Ĥ": 8084,
      "ä»Ļç½¡": 8085,
      "æµģå·ŀ": 8086,
      "å®«å¥³": 8087,
      "æłĳæŀĿ": 8088,
      "ä¸įä¼ĳ": 8089,
      "çŁ³ä¸Ĭ": 8090,
      "æ»©": 8091,
      "é£İæµģ": 8092,
      "å°½æĺ¯": 8093,
      "åħŃéģĵ": 8094,
      "æĹłæ¯ĶçļĦ": 8095,
      "èĥ¡éĵģèĬ±éģĵ": 8096,
      "æĺ¯ä¹Ī": 8097,
      "å¥½ä¸įå®¹æĺĵ": 8098,
      "æĦıè§ģ": 8099,
      "å¤ĸéģĵ": 8100,
      "é©¶": 8101,
      "ç¬¦æ³ķ": 8102,
      "æŁıéĿĴéĿĴ": 8103,
      "éĤ£å§ĵ": 8104,
      "å½ĵä¸Ń": 8105,
      "å±±é¡¶": 8106,
      "æĬĬèĩªå·±": 8107,
      "å¤«äººçļĦ": 8108,
      "åŁİéĩĮ": 8109,
      "å¦ĸåĩ¤": 8110,
      "ä¸Ģè·¯ä¸Ĭ": 8111,
      "ç£ķå¤´": 8112,
      "åľ°ä¸Ģå£°": 8113,
      "äºĶå²³": 8114,
      "å®īçĦ¶": 8115,
      "è®¡è¾ĥ": 8116,
      "éĩİçĭĹ": 8117,
      "åıĳçĶŁäºĨ": 8118,
      "èĪĮå¤´": 8119,
      "ä½łåĨį": 8120,
      "åĵ§": 8121,
      "åħ¶éĹ´": 8122,
      "æĭĽæķ°": 8123,
      "éĻ¤æŃ¤": 8124,
      "çĽ®çŀªåı£åĳĨ": 8125,
      "åľ¨åįĬç©º": 8126,
      "éĤ£å¥³": 8127,
      "è®·": 8128,
      "å¤©æĺŁ": 8129,
      "ä¸ºæŃ¢": 8130,
      "èĩªç§°": 8131,
      "ä¸īéģĵ": 8132,
      "è¿ŀç»µ": 8133,
      "æĹ©æľī": 8134,
      "æĤ²åĵĢ": 8135,
      "åľ¨åħ¶ä¸Ń": 8136,
      "å¤©çİĭ": 8137,
      "èĭ¥æľīæīĢ": 8138,
      "æĭľè§ģ": 8139,
      "æĩĴå¾Ĺ": 8140,
      "è¿ĻåĢĴ": 8141,
      "èº«æīĭ": 8142,
      "ä½Ĩè§ī": 8143,
      "ä¸īå°º": 8144,
      "å¿«æŃ¥": 8145,
      "æį¡": 8146,
      "å®ģä¸įç©º": 8147,
      "æģ¶äºº": 8148,
      "åģĩçļĦ": 8149,
      "å¤§åĬĽ": 8150,
      "éĺħ": 8151,
      "åıĮèĦļ": 8152,
      "åŁİåĨħ": 8153,
      "å¼ºæĤį": 8154,
      "åĮĹèįĴ": 8155,
      "éŃĤå¹¡": 8156,
      "å¦Ĥæŀľä¸įæĺ¯": 8157,
      "åĲı": 8158,
      "éĶ¥": 8159,
      "éĥ¡ä¸»": 8160,
      "ä»ĸè¿ĺæĺ¯": 8161,
      "å°Ĩè¦ģ": 8162,
      "äºĮçļĩåŃĲ": 8163,
      "ä¸Ģæŀļ": 8164,
      "è¿ĻåĽŀ": 8165,
      "æĪĳæ²¡æľī": 8166,
      "æĸ¹èĩª": 8167,
      "ä»Ģä¹Īéĥ½": 8168,
      "åįģè¶³": 8169,
      "çİ°åľ¨è¿Ļ": 8170,
      "æīįå¯¹": 8171,
      "å¸¦æĿ¥": 8172,
      "äº¤æĪĺ": 8173,
      "è¿Ľåħ¥äºĨ": 8174,
      "éģįå¸ĥ": 8175,
      "çľ©": 8176,
      "ä¹Łæľªå¿ħ": 8177,
      "æĸ¹ä¸Ī": 8178,
      "æĶ¾æĿ¾": 8179,
      "åĲĥçļĦ": 8180,
      "ä½İéĺ¶": 8181,
      "è¿Ļå£°éŁ³": 8182,
      "ä¼¶": 8183,
      "èĩªåĺ²": 8184,
      "èµ·çłģ": 8185,
      "åıªæĺ¯åľ¨": 8186,
      "é¦Ļæ°Ķ": 8187,
      "åı¶å®¶": 8188,
      "çĸ¼çĹĽ": 8189,
      "ï¼Łï¼ģ": 8190,
      "åº¸": 8191,
      "è¾ľ": 8192,
      "çĶ¨æĦı": 8193,
      "èĭ¥è¦ģ": 8194,
      "è§ĤéŁ³": 8195,
      "æ´ĭæ´ĭ": 8196,
      "æĺ¯å¤©": 8197,
      "éķ¿èĻ¹": 8198,
      "ç£ħ": 8199,
      "åĹ¡é¸£": 8200,
      "é¡¾åīĳæ£ł": 8201,
      "å¤±èī²": 8202,
      "æĢ¥çĿĢ": 8203,
      "è§ģæŃ¤æĥħå½¢": 8204,
      "çļĦåĲįåŃĹ": 8205,
      "å°ıå±±": 8206,
      "ä¾¿çŁ¥": 8207,
      "å°ĳäºĨ": 8208,
      "ä½ıä»ĸ": 8209,
      "æ¸¸åİĨ": 8210,
      "éĢ¾": 8211,
      "å¦Ĥæ°´": 8212,
      "æĿİæ·³": 8213,
      "ä¹īçĪ¶": 8214,
      "èĨľ": 8215,
      "è¯ķåĽ¾": 8216,
      "åĨ·åĨ·çļĦ": 8217,
      "ä¹ĭæŀģçļĦ": 8218,
      "å®ĩæĸĩ": 8219,
      "èķ´åĲ«äºĨ": 8220,
      "æĿİæ·³ç½¡": 8221,
      "å½ĵå¤´": 8222,
      "å¸Īå¨ĺ": 8223,
      "çĻ½èī²çļĦ": 8224,
      "æ¸ħé£İ": 8225,
      "æµģä¸ĭ": 8226,
      "æ¸¸èµ°": 8227,
      "ç«ĭåľ¨": 8228,
      "èľľ": 8229,
      "å¢Ļå£ģ": 8230,
      "åĨ¢": 8231,
      "æĪĳåį´": 8232,
      "ä½łè¿ĺæĺ¯": 8233,
      "ç¥¨": 8234,
      "åĳĥ": 8235,
      "è·Ľ": 8236,
      "ä¼¼æľī": 8237,
      "å¦ĤæŃ¤å¤ļ": 8238,
      "è¶³æľī": 8239,
      "ä»¤ä»ĸ": 8240,
      "æĬĵä½ıäºĨ": 8241,
      "åĢŁåĬ©": 8242,
      "ç¬¬ä¸īæŃ¥": 8243,
      "ä¸įçĶ±èĩªä¸»": 8244,
      "æĹłå¼Ĥ": 8245,
      "ç¥ŀéĽ·": 8246,
      "èĲ§å°ĳèĭ±": 8247,
      "éļĶçĿĢ": 8248,
      "ç¢°æĴŀ": 8249,
      "æĨĭ": 8250,
      "çļĦæĸ¹æ³ķ": 8251,
      "ç¥ŀé¾Ļ": 8252,
      "ä¸»è¦ģ": 8253,
      "æŀģå°ĳ": 8254,
      "åĨ³ä¸įä¼ļ": 8255,
      "å¢ŀåĬł": 8256,
      "åįģäºĮç«ł": 8257,
      "éĤ»": 8258,
      "ä¾įå¥³": 8259,
      "å¯Łè§īåĪ°": 8260,
      "è½°éļĨéļĨçļĦ": 8261,
      "ä¸Ģæ®µ": 8262,
      "è¿Ļåľ°æĸ¹": 8263,
      "è¦ģä½ł": 8264,
      "åĨįä¹Łæ²¡æľī": 8265,
      "å¤Ħæľº": 8266,
      "ä¸ĩå½ĴèĹı": 8267,
      "ä»¤ä¸»": 8268,
      "ä¸įåģĩæĢĿç´¢": 8269,
      "æľīåı¯èĥ½": 8270,
      "æĹłåħ³": 8271,
      "ä¸Ģä¸ªå¤§": 8272,
      "äºĨä¸ĢæŃ¥": 8273,
      "å¼Łå¼Ł": 8274,
      "æĢİä¹Īè¯´": 8275,
      "éĹ·åĵį": 8276,
      "åŃĲéģĵ": 8277,
      "å¸Īå¾Ĵ": 8278,
      "å¾®å¼±": 8279,
      "åĲįå£°": 8280,
      "æīĵæŀ¶": 8281,
      "è¿ĩäºĨå¾Īä¹ħ": 8282,
      "æīĢåľ¨çļĦ": 8283,
      "å¤§éĥ½": 8284,
      "æĹłè¯Ń": 8285,
      "éªı": 8286,
      "ç»Ļèĩªå·±": 8287,
      "å²Ķ": 8288,
      "æľªæĿ¥": 8289,
      "åįĥçĻ¾": 8290,
      "ç¤´": 8291,
      "ç£ħç¤´": 8292,
      "çİĭçļĦ": 8293,
      "çľŁçļĦæĺ¯": 8294,
      "ä¸ĩèĢģå¤«äºº": 8295,
      "ç²¾éĶĲ": 8296,
      "å¹»åĮĸèĢĮåĩº": 8297,
      "æĪĳéĥ½": 8298,
      "æĪĳå·²ç»ı": 8299,
      "çļĦäººå½±": 8300,
      "å¦Ļå¦Ļ": 8301,
      "èļĢ": 8302,
      "å¾®ç¬ĳè¯´éģĵ": 8303,
      "æ¤ħåŃĲ": 8304,
      "ä¸ĺå¤Ħæľº": 8305,
      "è¸īè·Ħ": 8306,
      "æĺİæķĻ": 8307,
      "ç»ĥæĪĲ": 8308,
      "æīŃå¤´": 8309,
      "åĳĬè¯īæĪĳ": 8310,
      "åįģåĢį": 8311,
      "æ»¡å¤´": 8312,
      "å¤§åĬ«": 8313,
      "ä¸ŃåľŁ": 8314,
      "çĿĢå¥¹": 8315,
      "è§ģçĬ¶": 8316,
      "é¡µ": 8317,
      "äºĮèĢħ": 8318,
      "çĥ«": 8319,
      "åĮĸçļĦ": 8320,
      "å¾Ģåīį": 8321,
      "æ¹ĸçķĶ": 8322,
      "åĴ§åĺ´": 8323,
      "åĲ¬å¥¹": 8324,
      "æĹ¢çĦ¶å¦ĤæŃ¤": 8325,
      "åı¸ç©º": 8326,
      "æĳĨèĦ±": 8327,
      "æ¤ħä¸Ĭ": 8328,
      "æĥĬå¤©åĬ¨åľ°": 8329,
      "åĬªåĬĽ": 8330,
      "è¯ı": 8331,
      "éĤ£åıĮ": 8332,
      "åĨįä¹Łä¸į": 8333,
      "å±±ä¸ĭ": 8334,
      "èµ°åĩºäºĨ": 8335,
      "æį£": 8336,
      "æ¿ĢçĥĪ": 8337,
      "æĿ¾äºĨåı£æ°Ķ": 8338,
      "çļĦæľ¨": 8339,
      "çļĦå¨ģåĬĽ": 8340,
      "è¿Ń": 8341,
      "ä¸įæıĲ": 8342,
      "åĩ°": 8343,
      "åįģä¸ª": 8344,
      "åľºéĿ¢": 8345,
      "ä¸¥éĩį": 8346,
      "çļĦç¦ģåĪ¶": 8347,
      "æĹ¶æľº": 8348,
      "å¥½æŃ¹": 8349,
      "æīĵæī°": 8350,
      "æįŀ": 8351,
      "ä»ĬæĻļ": 8352,
      "æĢĴçģ«": 8353,
      "è¯¯ä¼ļ": 8354,
      "éĴ»åħ¥": 8355,
      "ç¥Ł": 8356,
      "èĢģå¤©": 8357,
      "å§ĵåĲį": 8358,
      "æĪ¿éĩĮ": 8359,
      "æ¢ħèĬ±": 8360,
      "ç¼¥ç¼Ī": 8361,
      "ä¸Ģè¯´": 8362,
      "åľ¨æĥ³": 8363,
      "ä¹Łåı¯": 8364,
      "å¼Ģè¾Ł": 8365,
      "æĥĬå¥ĩ": 8366,
      "æ®µæŃ£": 8367,
      "çīĽèĤī": 8368,
      "ä¸Ģæĥ³": 8369,
      "æĹħ": 8370,
      "æıĲåı¸": 8371,
      "æ´ŀç©¿": 8372,
      "åŃĶéĽĢ": 8373,
      "èĭĹäºº": 8374,
      "å¤§çļĩåŃĲ": 8375,
      "èµ°è¿ĩåİ»": 8376,
      "éĿĴèĻ¹": 8377,
      "çŁ³éĺ¶": 8378,
      "ç´§éĹŃ": 8379,
      "çĵ¶åĦ¿": 8380,
      "çĬ¹è±«äºĨä¸Ģä¸ĭ": 8381,
      "å¯¿åħĥ": 8382,
      "é£ĵé£İ": 8383,
      "çļĦç¼ĺæķħ": 8384,
      "å¾½": 8385,
      "æľĢå¼º": 8386,
      "é»ĳå¤©": 8387,
      "åģļæ¢¦": 8388,
      "æľªèĥ½": 8389,
      "éĴ°": 8390,
      "éħĴå£¶": 8391,
      "çļĦé¬¼": 8392,
      "çļĦåħīèĬĴ": 8393,
      "åľ°è¯´": 8394,
      "åĵ©": 8395,
      "é£ŀåįĩ": 8396,
      "æ¯Ĵèį¯": 8397,
      "èĸĩ": 8398,
      "æĸ©æĿĢ": 8399,
      "å®Ŀåīĳ": 8400,
      "å¦ĸäºº": 8401,
      "æ¹ĸæ°´": 8402,
      "è®°è½½": 8403,
      "èĤĸæģ©": 8404,
      "å¤ªå®īåŁİ": 8405,
      "æŃ§": 8406,
      "èĢ¿": 8407,
      "è¦ģå®³": 8408,
      "éĵģéĿĴ": 8409,
      "é¦Ļä¸»": 8410,
      "åľ¨èº«": 8411,
      "ç«¿": 8412,
      "ä¸´æŃ»": 8413,
      "ä»¿ä½Ľæĺ¯": 8414,
      "èº«ä½ĵå¤ĸ": 8415,
      "è¿İéĿ¢": 8416,
      "è±ªæĿ°": 8417,
      "çļĦåİŁåĽł": 8418,
      "å°±å¦ĤåĲĮ": 8419,
      "å¾Ĺä¸į": 8420,
      "æłĭ": 8421,
      "åĨįæľī": 8422,
      "çŁ¥éģĵè¿Ļ": 8423,
      "åı¤å¦ĸ": 8424,
      "åıįåĻ¬": 8425,
      "ä¸įçŁ¥å¦Ĥä½ķ": 8426,
      "èµĦè´¨": 8427,
      "åºŁè¯Ŀ": 8428,
      "è½©è¾ķéĿĴéĶĭ": 8429,
      "éģĵè¡Į": 8430,
      "å¼ĢçļĦ": 8431,
      "è¶´": 8432,
      "ä¼¼ç¬ĳ": 8433,
      "åºĶå¯¹": 8434,
      "å®Ĺæ´¾": 8435,
      "åıįæīĭ": 8436,
      "å°ıèĮĥå¤§äºº": 8437,
      "å¿ħæľī": 8438,
      "æĢĴæ°Ķ": 8439,
      "åĲŁåĲŁ": 8440,
      "æĺ¨å¤ľ": 8441,
      "é»Ħæ³īå¤«äºº": 8442,
      "èĲİ": 8443,
      "çŃīæĪĳ": 8444,
      "å®«çļĦ": 8445,
      "æīĢä»¥ä½ł": 8446,
      "åĢ©æ¢ħ": 8447,
      "äºĨåĲĹ": 8448,
      "éģĵå°Ĭ": 8449,
      "éĹµ": 8450,
      "éĤ£ä¾¿": 8451,
      "å¥³å¨ĥ": 8452,
      "åıĮåıĮ": 8453,
      "çģ«çĲĥ": 8454,
      "åĸľèī²": 8455,
      "åĬ²åĬĽ": 8456,
      "ä¿±æĺ¯": 8457,
      "é¤": 8458,
      "å¾Īåı¯èĥ½": 8459,
      "ç¦¹": 8460,
      "éĢıè¿ĩ": 8461,
      "èº²éģ¿": 8462,
      "çĿ¬": 8463,
      "åĸ§": 8464,
      "è¿ŀå£°": 8465,
      "èľ¡": 8466,
      "æģ¼æĢĴ": 8467,
      "ï¼ĮâĢĿ": 8468,
      "åľ¨åľº": 8469,
      "å¾ĹåĪ°äºĨ": 8470,
      "èĢĮåĿĲ": 8471,
      "ç¬ĳèĦ¸": 8472,
      "æīĢè¯´çļĦ": 8473,
      "äºĳå±Ĥ": 8474,
      "åĳ¼åĳ¼": 8475,
      "å®Įåħ¨æ²¡æľī": 8476,
      "ä¸įåľ¨ä¹İ": 8477,
      "åºı": 8478,
      "çľŁæĦı": 8479,
      "ä»İä¸į": 8480,
      "åĨħå®¹": 8481,
      "æİĮä¸Ń": 8482,
      "ä¹ĭåīįçļĦ": 8483,
      "èĦ±åı£": 8484,
      "äºĨåĩłä¸ĭ": 8485,
      "æ£®æ£®": 8486,
      "èĮ«èĮ«": 8487,
      "åľ¨è¿Ļä¸Ģçŀ¬éĹ´": 8488,
      "åıĳäºĨ": 8489,
      "ä½ıçļĦ": 8490,
      "åıĮçľī": 8491,
      "åįĹæľĿ": 8492,
      "éĽ·çĶµ": 8493,
      "æłĳæŀĹ": 8494,
      "èĬ±æ»¡æ¥¼": 8495,
      "ä¸Ģæī¬": 8496,
      "åħļ": 8497,
      "è¯´çļĦè¯Ŀ": 8498,
      "åħ¶ä»ĸçļĦ": 8499,
      "ç«Łä¼ļ": 8500,
      "çłĤ": 8501,
      "å¥ĩå¦Ļ": 8502,
      "éļĲçŀĴ": 8503,
      "åĨ¶": 8504,
      "å¯¹éĿ¢çļĦ": 8505,
      "æŃ£éĿ¢": 8506,
      "å½¢åĬ¿": 8507,
      "åħ«ä¸ª": 8508,
      "èĴ²": 8509,
      "èĻļç©ºä¸ĢæĬĵ": 8510,
      "éĿĴäºĳéĹ¨": 8511,
      "½åŃĲ": 8512,
      "å³»": 8513,
      "åĪºçĽ®": 8514,
      "åıĮæīĭæİĲè¯Ģ": 8515,
      "çİĩé¢Ĩ": 8516,
      "å¤§åħĪçĶŁ": 8517,
      "æĭ§": 8518,
      "çĪ¸": 8519,
      "æĿİåħĥ": 8520,
      "åħŃä¸ª": 8521,
      "éĹŃä¸ĬäºĨ": 8522,
      "ä¸Ģä»£": 8523,
      "æĹ·": 8524,
      "è¯£": 8525,
      "å¤§ç¥ŀå®ĺ": 8526,
      "ä¹ĭå¤ļ": 8527,
      "æĥĺ": 8528,
      "ä»¬çļĦ": 8529,
      "åĬ¨çĶ¨": 8530,
      "å·¨åīĳ": 8531,
      "åİĭæĬĳ": 8532,
      "éĿłçĿĢ": 8533,
      "æĹłå°½çļĦ": 8534,
      "çļĦå¹´è½»äºº": 8535,
      "ä¸Ģçº¢": 8536,
      "ä¸Ģåįĥ": 8537,
      "ä¸įä¸Ģæł·": 8538,
      "ä¹Łä¸įæĥ³": 8539,
      "çģ«æµ·": 8540,
      "éľĩå¾Ĺ": 8541,
      "åħĢèĩª": 8542,
      "åı¯åĲ¦": 8543,
      "è¿ĺå¾Ĺ": 8544,
      "çĽ¸åºĶ": 8545,
      "å¸¸å¸¸": 8546,
      "åĳ¨èĬ·èĭ¥": 8547,
      "éŀĳ": 8548,
      "ä¹ĭåħī": 8549,
      "æĪĳå¸ĪçĪ¶": 8550,
      "åıĪèĥ½": 8551,
      "ä»İå¤´": 8552,
      "ä¸İå¥¹": 8553,
      "åıĮè¶³": 8554,
      "åı«äºº": 8555,
      "å®ĺåľº": 8556,
      "çļĦç¡®æĺ¯": 8557,
      "ä¸Ĭå®ĺéĩĳèĻ¹": 8558,
      "è¯¦ç»Ĩ": 8559,
      "è¿Ļè®©": 8560,
      "å¤§åĸĿéģĵ": 8561,
      "æĪĳåı¯ä»¥": 8562,
      "æľĢæĺ¯": 8563,
      "åºľçļĦ": 8564,
      "åħĭåĪ¶": 8565,
      "æĭĵæ£®": 8566,
      "æĢł": 8567,
      "éĵł": 8568,
      "äºĮåĵ¥": 8569,
      "æ¸ħèĦĨ": 8570,
      "æĥĬç¾½": 8571,
      "è§Ĵèī²": 8572,
      "æİĮéĹ¨äºº": 8573,
      "ä¸įæľį": 8574,
      "æ²¡äºĭ": 8575,
      "æŀĹå©īåĦ¿": 8576,
      "å¤ªå¿«": 8577,
      "å¹³å¹³": 8578,
      "äº¤è°Ī": 8579,
      "èĥľè¿ĩ": 8580,
      "åĲĲåĩº": 8581,
      "çĮ´åŃĲ": 8582,
      "ä¹Łç®Ĺæĺ¯": 8583,
      "å¿ĥæĢ§": 8584,
      "è¿ĺçľŁæĺ¯": 8585,
      "æ°Ķå¾Ĺ": 8586,
      "çŃĴ": 8587,
      "å¤±è¸ª": 8588,
      "æĹģçļĦ": 8589,
      "æŃ¤æĹ¶çļĦ": 8590,
      "éĢĥåĩº": 8591,
      "éĺ¿éĽª": 8592,
      "æĹłè®ºè°ģ": 8593,
      "æķ°åįģå¹´": 8594,
      "ä¸Ģä»¶äºĭ": 8595,
      "è¿Ļåı¯": 8596,
      "ä½łå·²": 8597,
      "çĶ¬": 8598,
      "çī©çļĦ": 8599,
      "éħĴå¾Ĵ": 8600,
      "ä½łä»¬çļĦ": 8601,
      "æĪ¿éĹ¨": 8602,
      "æı¡ç´§": 8603,
      "å±ĭéĩĮ": 8604,
      "å±ĭåĨħ": 8605,
      "ç¨įç¨į": 8606,
      "é£ŁæĮĩ": 8607,
      "éĥ½æľīäºĽ": 8608,
      "ä½Ĩå°±åľ¨è¿ĻæĹ¶": 8609,
      "çİĭåħ«": 8610,
      "åĬĽéģĵ": 8611,
      "çĭĤå¥Ķ": 8612,
      "å±ħçĽĪ": 8613,
      "æºĥæķ£": 8614,
      "éĩĳä¸¹å®Ĺå¸Ī": 8615,
      "ä½łå°±æĺ¯": 8616,
      "ç¬ĳåĲŁåĲŁ": 8617,
      "ä¸¤æīĭ": 8618,
      "äºİä»ĸ": 8619,
      "åĽĽèĤ¢": 8620,
      "å£«åŃĲ": 8621,
      "æ¡¶": 8622,
      "å®ĩå®Ļ": 8623,
      "ç¿ŁéĽĢåĦ¿": 8624,
      "è¿ĻæŁĦ": 8625,
      "å°±ç«ĭåĪ»": 8626,
      "æıĲçĿĢ": 8627,
      "åĪĿæĹ¶": 8628,
      "æ³¨è§Ĩ": 8629,
      "è¿Ļå¯¹": 8630,
      "æĹłè¨Ģ": 8631,
      "èµ°åħ¥": 8632,
      "éĹ®ä»ĸ": 8633,
      "ä¼łæĿ¥çļĦ": 8634,
      "åĪĢæ³ķ": 8635,
      "åĬłä»¥": 8636,
      "è¿ĺæľīä¸Ģä¸ª": 8637,
      "æ¶Īå¤±åľ¨äºĨ": 8638,
      "é£İåĽĽå¨ĺéģĵ": 8639,
      "æŀķ": 8640,
      "çŁ¢": 8641,
      "èĭĩ": 8642,
      "åıĪå°Ĩ": 8643,
      "ä¸¤å¹´": 8644,
      "æŃ£å¼ı": 8645,
      "å¥³åŃ©åŃĲ": 8646,
      "ç«Łä¹Ł": 8647,
      "éŁ©ç«ĭåĴĮ": 8648,
      "ä»ĸçļĦè¯Ŀ": 8649,
      "åĨ²çĿĢ": 8650,
      "èĢģå¤´åĦ¿": 8651,
      "åīª": 8652,
      "å®ĿèĬ±": 8653,
      "äºĶçĻ¾": 8654,
      "åħ«éģĵ": 8655,
      "æī§äºĭ": 8656,
      "äºĨä¸ĬæĿ¥": 8657,
      "è¿Ļæ®µ": 8658,
      "è¿Ļè®¸å¤ļ": 8659,
      "æŃ£èĩª": 8660,
      "å¸¸äºº": 8661,
      "å°Ĭæķ¬": 8662,
      "éĢĥéģģ": 8663,
      "éĺ²æĬ¤": 8664,
      "çİ²çıĳ": 8665,
      "æŃ£ä¸Ń": 8666,
      "åįĹæĻĭ": 8667,
      "å®ģåĩĿ": 8668,
      "å¦ĸå¼Ĥ": 8669,
      "æłĳä¸Ĭ": 8670,
      "èĭ±ä¿Ĭ": 8671,
      "èĲ§åįģä¸Ģéĥİéģĵ": 8672,
      "æĵħéķ¿": 8673,
      "çİ©æĦıåĦ¿": 8674,
      "æĪĳæľ¬æĿ¥": 8675,
      "åĽŀå¿Ĩ": 8676,
      "è¿ľåľ¨": 8677,
      "åħ³äºİ": 8678,
      "åĨ°åĨ°": 8679,
      "å²Ľä¸»": 8680,
      "ä¸įå±ĳ": 8681,
      "çľ·": 8682,
      "ä½łåĴĮ": 8683,
      "åıĪè¢«": 8684,
      "æĶ¶æķĽ": 8685,
      "åİĭä¸ĭ": 8686,
      "æ¬ºè´Ł": 8687,
      "å¤§å¤´": 8688,
      "å¹³æ²»": 8689,
      "éĥŃçİī": 8690,
      "è·ªä¸ĭ": 8691,
      "æĹłä¸Ĭ": 8692,
      "ä¸īåĬ«": 8693,
      "ç¬¬äºĮä¸ª": 8694,
      "çĲ¢ç£¨": 8695,
      "ä½ĳ": 8696,
      "æŀģéĺ´": 8697,
      "ç¦»å°ĺ": 8698,
      "å½¢çĬ¶": 8699,
      "çº¿ç´¢": 8700,
      "æ¦ľ": 8701,
      "ä¸Ģä¸ĩ": 8702,
      "å¿ĥäºĭ": 8703,
      "æīĢæľīäººéĥ½": 8704,
      "ä¼¼ç¬ĳéĿŀ": 8705,
      "åľ°å°Ĩ": 8706,
      "ç¬ĳçľ¯": 8707,
      "æŀĹæĥĬç¾½": 8708,
      "ä»İèĢĮ": 8709,
      "åįĹçĸĨ": 8710,
      "éĽªçĻ½": 8711,
      "é¡ºåĬ¿": 8712,
      "åĲ¬è¿ĩ": 8713,
      "çļĩåŁİ": 8714,
      "åĺ¶åĲ¼": 8715,
      "èº«å¤ĸ": 8716,
      "èĩªè¨Ģ": 8717,
      "åģ¿": 8718,
      "æīĢæľª": 8719,
      "è¯¸èĪ¬": 8720,
      "å¦Ĥå±±": 8721,
      "åŁİä¸»": 8722,
      "ä¸ĢæŃ¥æŃ¥": 8723,
      "åĪ°æĹ¶": 8724,
      "åħīçļĦ": 8725,
      "å¸¦æĿ¥çļĦ": 8726,
      "ç¨ĭçģµç´ł": 8727,
      "éĩİåħ½": 8728,
      "æĬķåħ¥": 8729,
      "çľĭå¾Ĺåĩº": 8730,
      "ä¸Ģå¿ĥ": 8731,
      "ä¸Ģå¹²": 8732,
      "æĺ¯äºĨ": 8733,
      "ç§ĳ": 8734,
      "æīĵåľ¨": 8735,
      "åĲĦä¸ª": 8736,
      "ä¼¼ä¹İæĺ¯": 8737,
      "æŁĲå¤Ħ": 8738,
      "åıªè¦ģä½ł": 8739,
      "èĦ±æīĭ": 8740,
      "æŁ¥çľĭ": 8741,
      "æ®µæŃ£æ·³": 8742,
      "å¤©å¤©": 8743,
      "åı¯æľī": 8744,
      "æīįåıĳçİ°": 8745,
      "éĩĳçĵ¶åĦ¿": 8746,
      "è¡Ģå½±": 8747,
      "éŃĶåħ½": 8748,
      "åľ¨è¿ĻåĦ¿": 8749,
      "åĸľæĤ¦": 8750,
      "ç»Ĩå¾®": 8751,
      "èĥĮçĿĢ": 8752,
      "è£ĺåįĥ": 8753,
      "ä»ĸå¿ĥéĩĮ": 8754,
      "ä¸Ĭåĵģ": 8755,
      "çľ¼çļ®": 8756,
      "èĢģæľ½": 8757,
      "å¯¹ä¸įèµ·": 8758,
      "çĤ¯": 8759,
      "è¿ľæ¯Ķ": 8760,
      "è·¯çļĦ": 8761,
      "è¯¸äºº": 8762,
      "ä¼ļè¢«": 8763,
      "æŃ»åĲİ": 8764,
      "æĽ´æµĵ": 8765,
      "åĪĨæŀĲ": 8766,
      "åĨ²çªģ": 8767,
      "æ·±çļĦ": 8768,
      "æīĢä»¥æīį": 8769,
      "åľ¨äºİ": 8770,
      "æĪĳå®¶": 8771,
      "åĵ¨": 8772,
      "çľŁèĥ½": 8773,
      "åīĳéģĵ": 8774,
      "çĶ¨å¿ĥ": 8775,
      "æľŁéĹ´": 8776,
      "ä¸Ľä¸Ń": 8777,
      "ä¸Ģè¶Ł": 8778,
      "ä¸įå¹³": 8779,
      "å¤§ä¸ĸçķĮ": 8780,
      "ç¢¾": 8781,
      "ä¸ľåįĹ": 8782,
      "ä¼¤äºº": 8783,
      "æĬĵçĿĢ": 8784,
      "æķĳåĳ½": 8785,
      "å¦ĪçļĦ": 8786,
      "éĢĤåĲĪ": 8787,
      "è¿ĻäºĮäºº": 8788,
      "ä¹Łæĺ¯ä¸ª": 8789,
      "çħ®": 8790,
      "æ²Ļæ¼ł": 8791,
      "åī©ä¸ĭ": 8792,
      "æ£ĭåŃĲ": 8793,
      "çī¢çī¢": 8794,
      "åħģè®¸": 8795,
      "å¤§çĲĨ": 8796,
      "å°±æ²¡": 8797,
      "éĿĴåĲŁ": 8798,
      "èĦ¸é¢Ĭ": 8799,
      "é¡ºæīĭ": 8800,
      "æĮªç§»": 8801,
      "å¤§åĸĿä¸Ģå£°": 8802,
      "æĪĳèĩªå·±": 8803,
      "æĭŁ": 8804,
      "æģĻ": 8805,
      "çļĦä¸Ģä¸ĭ": 8806,
      "è¯´ä¸įåĩºè¯ĿæĿ¥": 8807,
      "ç¬ĳçľ¯çľ¯": 8808,
      "çļĦå°Ĩ": 8809,
      "ï¼ŁâĢĻ": 8810,
      "è¾¹å¢ĥ": 8811,
      "åĩ»æĿĢ": 8812,
      "åĲĪéĢĤ": 8813,
      "èº«åŃĲä¸ĢæĻĥ": 8814,
      "å°ģä¿¡": 8815,
      "éķĸå¤´": 8816,
      "è¤ļç¦Ħ": 8817,
      "ä¸Ģç¬ĳéģĵ": 8818,
      "è¿Ļå¼ł": 8819,
      "èĻĲ": 8820,
      "çĤ½": 8821,
      "æĺİæĤŁ": 8822,
      "è¿ľäºĨ": 8823,
      "åħĪè¡Į": 8824,
      "æ·±æ¸Ĭ": 8825,
      "è¥¿æĸ¹": 8826,
      "æĹ¢æĺ¯": 8827,
      "å¸®ä½ł": 8828,
      "è¢ĸè¢į": 8829,
      "æ²¡æľīäººèĥ½": 8830,
      "äºĮè¯Ŀä¸įè¯´": 8831,
      "åĢĴåĲ¸": 8832,
      "æľīä¸Ģå¤©": 8833,
      "äº¤ç»ĩ": 8834,
      "èµ°äºĨåĩºæĿ¥": 8835,
      "å¹³éĿĻçļĦ": 8836,
      "æ¸ĬèĻļ": 8837,
      "æ½ĩæ´Ĵ": 8838,
      "çļĦå®ŀåĬĽ": 8839,
      "æĥ³åİ»": 8840,
      "å½ĵä»Ĭ": 8841,
      "åĴĮå¥¹": 8842,
      "åĮºåĪ«": 8843,
      "éģŃéģĩ": 8844,
      "é©±ä½¿": 8845,
      "åĩºéŀĺ": 8846,
      "çģµçĬĢ": 8847,
      "æĪĺé©¬": 8848,
      "ä¼¯ä¼¯": 8849,
      "æ¸ĬèĻļå¤©åĲĽ": 8850,
      "ä¸įè®©": 8851,
      "å¤§å®Ĺå¸Ī": 8852,
      "èº«åıĹ": 8853,
      "éĹ®äºĨä¸Ģåı¥": 8854,
      "éĩĳæĹłæľĽ": 8855,
      "ä¸ĥä¸ª": 8856,
      "å®ģç¼ºçļĦ": 8857,
      "å½ĵå¹´åľ¨": 8858,
      "åľ£äºº": 8859,
      "åķ§åķ§": 8860,
      "ä¸ĢåĨ²": 8861,
      "ä¸įéĹ®": 8862,
      "åıĪè¯´": 8863,
      "å¾Īå¥ĩæĢª": 8864,
      "åĽĽæ¸İ": 8865,
      "è¿Ľä¸ĢæŃ¥": 8866,
      "å·®è·Ŀ": 8867,
      "åİŁæĿ¥å¦ĤæŃ¤": 8868,
      "çļĦæīĭæİĮ": 8869,
      "åŃ£ä¸ľ": 8870,
      "æľ¦èĥ§": 8871,
      "çļĦåĳ³éģĵ": 8872,
      "ä¸Ģåħ±": 8873,
      "ä¸įå¹¸": 8874,
      "å°¹": 8875,
      "éķ¿å¤§": 8876,
      "èµ°åĪ°äºĨ": 8877,
      "æĹ¥æľĪ": 8878,
      "ä¸ĸå®¶": 8879,
      "é¬Ł": 8880,
      "æĪĸèĢħè¯´": 8881,
      "ä¸ĢæķĽ": 8882,
      "æĺ¯åĵª": 8883,
      "å¾Ĺèµ·": 8884,
      "å®ŀè´¨": 8885,
      "å¼łåı¬": 8886,
      "è¿Ļä¸ĢæĹ¥": 8887,
      "äºĳéĵ®": 8888,
      "ç¿Ķ": 8889,
      "èĭ¦èĭ¦": 8890,
      "è¿ľå¤ĦçļĦ": 8891,
      "åįłäºĨ": 8892,
      "ä¸Ģå¼łåı£": 8893,
      "åĹĵéŁ³": 8894,
      "å¤©é¹ı": 8895,
      "æĹłäºĭ": 8896,
      "å°ıå°ıçļĦ": 8897,
      "å¦ĤçĶµ": 8898,
      "çľ¼ä¸ŃçļĦ": 8899,
      "æīĢè§ģ": 8900,
      "å¾Īç®Ģåįķ": 8901,
      "è¿ĻäºĽè¯Ŀ": 8902,
      "éĻĨåľ°": 8903,
      "ä¸Ģå®ļæĺ¯": 8904,
      "åİļçļĦ": 8905,
      "ä¼¼ç¬ĳéĿŀç¬ĳ": 8906,
      "åĪģ": 8907,
      "ä¹ĭå®Ŀ": 8908,
      "åĩºå¥ĩ": 8909,
      "ä½łæĹ¢çĦ¶": 8910,
      "æ²«": 8911,
      "ä¾£": 8912,
      "åĴļ": 8913,
      "åıĺå¹»": 8914,
      "åĢĴåľ¨": 8915,
      "çĿ¡è§ī": 8916,
      "å©´åıĺ": 8917,
      "æĺ¾å¾ĹæľīäºĽ": 8918,
      "éĹªçĶµèĪ¬": 8919,
      "ç¾¡æħķ": 8920,
      "è¿Ļäºĭ": 8921,
      "åīĳæŁĦ": 8922,
      "æ°´å¸Ī": 8923,
      "åħĦåı°": 8924,
      "æĢ§æł¼": 8925,
      "äºĮåįģä½Ļ": 8926,
      "ä¸įèĪį": 8927,
      "æ²¦": 8928,
      "åħīç½©": 8929,
      "çº¢èĿ¶": 8930,
      "åŁİå¤´": 8931,
      "æĸ½æ³ķ": 8932,
      "åļ£": 8933,
      "ç¬ł": 8934,
      "æĦıå¿µ": 8935,
      "è½¬å¿µ": 8936,
      "æľīä¸Ģä¸Ŀ": 8937,
      "é¡¾å¿Į": 8938,
      "åıªæĥ³": 8939,
      "éļ¾è¿ĩ": 8940,
      "æĮĩæĮ¥": 8941,
      "åıĬæĹ¶": 8942,
      "åĩĿæ³¨": 8943,
      "æĺ¯ä¸Ģä½į": 8944,
      "åįķçĭ¬": 8945,
      "éļ¾éģĵæĺ¯": 8946,
      "æĬ¤èº«": 8947,
      "æĻ¯ç§ĭ": 8948,
      "ä¸įä½ľ": 8949,
      "åıįåĩ»": 8950,
      "ä¼¼ä¹İåľ¨": 8951,
      "å©īæ¸ħ": 8952,
      "åŃ£ä¸ľå¹³": 8953,
      "æīĢçŁ¥": 8954,
      "æĪĲä¸Ģ": 8955,
      "çĪµ": 8956,
      "åĶĶ": 8957,
      "æķ£åİ»": 8958,
      "å¦ĸçģµ": 8959,
      "å¹²æī°": 8960,
      "éº¾": 8961,
      "çļĦèĬ±": 8962,
      "ä½ķæ¸ħ": 8963,
      "æŃ¦å£«": 8964,
      "åıªæľīä¸Ģä¸ª": 8965,
      "çŃĶè¯Ŀ": 8966,
      "æ¥¼ä¸Ĭ": 8967,
      "åĶĩè§Ĵ": 8968,
      "ç¡®å®ŀæĺ¯": 8969,
      "äºĨèĩªå·±": 8970,
      "ä¹ĭä¸»": 8971,
      "ä¹ĭæĪĺ": 8972,
      "å¾Ĺç´§": 8973,
      "çŁ¥åĳ½": 8974,
      "åĩĿè§Ĩ": 8975,
      "éĢģç»Ļ": 8976,
      "ç¢İçŁ³": 8977,
      "æµªè´¹": 8978,
      "æĪĳåħĪ": 8979,
      "æĪĳåıªæĺ¯": 8980,
      "çĦķ": 8981,
      "éĥ½ä¸įæĺ¯": 8982,
      "çİĭæŀĹåı³æīĭ": 8983,
      "ä¼łéĢĴ": 8984,
      "å¸ĪåħĦå¼Ł": 8985,
      "æģĲæĢĸçļĦ": 8986,
      "ä¸ĢçŃī": 8987,
      "å·²åĪ°äºĨ": 8988,
      "çľ¼çľĭçĿĢ": 8989,
      "å¥³åŃ©åĦ¿": 8990,
      "åĨ·åĵ¼": 8991,
      "æĿİåĢ©æ¢ħ": 8992,
      "åįĹéĻĩ": 8993,
      "åı°éĺ¶": 8994,
      "å¤§æ²³": 8995,
      "ä»¥ä»ĸçļĦ": 8996,
      "é¢Ĥ": 8997,
      "æīĵåĲ¬": 8998,
      "éŁ©ç«ĭå¿ĥä¸Ń": 8999,
      "æ¢¨": 9000,
      "åĮĹåľ°": 9001,
      "è°ģçŁ¥éģĵ": 9002,
      "çĤ¼èĻļ": 9003,
      "çļĦè·Ŀç¦»": 9004,
      "ä»ĸåıªæĺ¯": 9005,
      "å¤§çŁ³": 9006,
      "ä¹Łä¸įçĶ¨": 9007,
      "å¯ĨçļĦ": 9008,
      "çĽ¯çĿĢä»ĸ": 9009,
      "å¿ĥå¤´ä¸Ģ": 9010,
      "æ²§æ¡ĳ": 9011,
      "äºĨå¤ļå°ĳ": 9012,
      "åľ¨åĲİ": 9013,
      "å¿ĥæ³ķ": 9014,
      "åĳķ": 9015,
      "èĥŃ": 9016,
      "æľ¨å©īæ¸ħ": 9017,
      "çĦ¶åĲİä»ĸ": 9018,
      "æłĳæľ¨": 9019,
      "éļĨåºĨçļĩåŃĲ": 9020,
      "éĤĢè¯·": 9021,
      "æĢĶäºĨæĢĶ": 9022,
      "å¼łåı¬éĩį": 9023,
      "çļĦåīį": 9024,
      "åľ°ä»Ļ": 9025,
      "éļıåı£": 9026,
      "å©´åĦ¿": 9027,
      "ä¸ĢæĹ¶ä¹ĭéĹ´": 9028,
      "æĶ¾åľ¨å¿ĥä¸Ĭ": 9029,
      "èĴĻèĴĻçļĦ": 9030,
      "é¾ĻèĻİå±±": 9031,
      "çľĭåĩºäºĨ": 9032,
      "æĭĺ": 9033,
      "çº¢èī²çļĦ": 9034,
      "æ»¡è¶³": 9035,
      "åĲĦæľī": 9036,
      "å±ĭä¸Ń": 9037,
      "æ¸Ĳæ¸Ĳåľ°": 9038,
      "çļĦçĶ·åŃĲ": 9039,
      "å¤§æĹĹ": 9040,
      "ä¹ĭä½į": 9041,
      "åį´ä¾ĿçĦ¶": 9042,
      "åħ¶æĹ¶": 9043,
      "ä¸Ģä¸ªæľĪ": 9044,
      "èĥ¡ä¹±": 9045,
      "æķĮæīĭ": 9046,
      "éĺ¿çı": 9047,
      "åİīå®³çļĦ": 9048,
      "é»Ħèĵīéģĵ": 9049,
      "ä¸įåĬ¨å£°èī²": 9050,
      "èĥŃèĦĤ": 9051,
      "æĺ¯æĢİä¹Ī": 9052,
      "æĥħæĦ¿": 9053,
      "èĭ¦èį·": 9054,
      "ç»ĵåĲĪ": 9055,
      "åĽ¢åĽ¢": 9056,
      "çĶ°ä¼¯": 9057,
      "åĩĦåĩī": 9058,
      "å²©çŁ³": 9059,
      "æ²§æµ·": 9060,
      "æľ¬æĥ³": 9061,
      "çŁ³åĥı": 9062,
      "æĢªä¸įå¾Ĺ": 9063,
      "æĬ¤åį«": 9064,
      "åıįåºĶè¿ĩæĿ¥": 9065,
      "æī³": 9066,
      "å¤§åįĥä¸ĸçķĮ": 9067,
      "è¦ģä¸įçĦ¶": 9068,
      "èµ°åľ¨": 9069,
      "é¬¼çģµ": 9070,
      "å¾ĴåĦ¿": 9071,
      "éĨĴè¨Ģä¾¿": 9072,
      "ç¬Ī": 9073,
      "ä»Ģä¹Īä¸ľè¥¿": 9074,
      "æĪĲäºĨä¸Ģ": 9075,
      "ä¹ĿçĥŁ": 9076,
      "è¶³ä¸ĭ": 9077,
      "æĹłå£°æģ¯": 9078,
      "è¿Ļå®¶ä¼Ļ": 9079,
      "çŁ£": 9080,
      "åĻ©": 9081,
      "è¢ĸä¸Ń": 9082,
      "åĿļç¡¬": 9083,
      "ä¿ĿæĮģçĿĢ": 9084,
      "è¿Ļä¸¤ä½į": 9085,
      "èĥ½è®©": 9086,
      "æµģäºĳ": 9087,
      "æ¹Ħ": 9088,
      "å¦ĸçī©": 9089,
      "åı¯æĺ¯æĪĳ": 9090,
      "éļ¾éģĵä½ł": 9091,
      "çļ±èµ·": 9092,
      "éĢ¼å¾Ĺ": 9093,
      "åĨĻçļĦ": 9094,
      "éĵľéī´": 9095,
      "åįģä¸Ģç«ł": 9096,
      "å¤§æ¦Ĥæĺ¯": 9097,
      "çħ§ç¥ŀéĵľéī´": 9098,
      "ï¼İ": 9099,
      "ä¹ĭåĲį": 9100,
      "èĥ½æľī": 9101,
      "å½ĵä¸ĸ": 9102,
      "éķ¿å¾Ĺ": 9103,
      "ä½İä½İ": 9104,
      "å¹²åĲĹ": 9105,
      "æ¯ıä¸Ģæ¬¡": 9106,
      "ä¸ĢçĤ¹çĤ¹": 9107,
      "çľ¨äºĨ": 9108,
      "çıįçıł": 9109,
      "åĴ¯åĴ¯": 9110,
      "éķ¿åı¹ä¸Ģå£°": 9111,
      "ä»ĸçļĦèº«ä½ĵ": 9112,
      "çº¢èĬĴ": 9113,
      "åħ³æ³¨": 9114,
      "è¯¸å¤©": 9115,
      "èļ£": 9116,
      "æĿĢäºĨä»ĸ": 9117,
      "éĻªçĿĢ": 9118,
      "ä¸ļå·²": 9119,
      "å§Ķå±Ī": 9120,
      "æĪĳå°±æĺ¯": 9121,
      "å¤©é¾Ļ": 9122,
      "éĥ½ç»Ļ": 9123,
      "èĢģäºĮ": 9124,
      "å¼ĢéĹ¨": 9125,
      "æķ°æľĪ": 9126,
      "çīµå¼ķ": 9127,
      "å¯Įè´µ": 9128,
      "ä»ªçĲ³": 9129,
      "éĥĳéĩį": 9130,
      "æ¬£åĸľ": 9131,
      "æ©": 9132,
      "æīĽ": 9133,
      "éĤ£åı¯": 9134,
      "æŃ¤çĶŁ": 9135,
      "è¿ŀæİ¥": 9136,
      "éĽ¾ä¸Ń": 9137,
      "æ±ĩèģļ": 9138,
      "èĢĮéĤ£": 9139,
      "å°ıå¦¹": 9140,
      "å±±ä¸Ń": 9141,
      "éª°": 9142,
      "ç»Ŀä¸įèĥ½": 9143,
      "è¯¥å¦Ĥä½ķ": 9144,
      "æ¯ıæĹ¥": 9145,
      "çŃĶåħģ": 9146,
      "æŃ£æĺ¯éĤ£": 9147,
      "åıªè§ģéĤ£": 9148,
      "çĵ·": 9149,
      "æīĳéĿ¢": 9150,
      "çļĦæ¸ħ": 9151,
      "çļĦèĢģäºº": 9152,
      "ä»ĸå°Ĩ": 9153,
      "ä¹ĭèº«": 9154,
      "æĪĳäºĨ": 9155,
      "éĿ´": 9156,
      "åı¯åľ¨": 9157,
      "æĭ½": 9158,
      "é£ŀèº«": 9159,
      "æľĽä¸Ģçľ¼": 9160,
      "éĴĵ": 9161,
      "èĩªçĦ¶è¦ģ": 9162,
      "ç§ĺæ³ķ": 9163,
      "æĭįæīĭ": 9164,
      "é¢¤åĬ¨": 9165,
      "çł°çļĦä¸Ģå£°": 9166,
      "éģĵçİĦçľŁäºº": 9167,
      "æĿ¥åĽŀ": 9168,
      "åĪ°è¾¾": 9169,
      "åīįäºĽ": 9170,
      "é¢ĳ": 9171,
      "å®ļä¼ļ": 9172,
      "é¬ĵ": 9173,
      "è±ģ": 9174,
      "æĭĽæĥ¹": 9175,
      "åĿıäºĨ": 9176,
      "è®¾æ³ķ": 9177,
      "èĽŁé¾Ļ": 9178,
      "æīĵæĸŃ": 9179,
      "ä»ĻåĬĽ": 9180,
      "æľīäººåľ¨": 9181,
      "çģ°è¡£": 9182,
      "ç«¯åĢª": 9183,
      "è¶ĬæĿ¥è¶Ĭå¤ļ": 9184,
      "ä¹°åįĸ": 9185,
      "åĿĬå¸Ĥ": 9186,
      "åĩºè¨Ģ": 9187,
      "åľ°åĲĳ": 9188,
      "ä¸İèĩªå·±": 9189,
      "çĲħ": 9190,
      "èµ·æĿ¥äºĨ": 9191,
      "æĲĵ": 9192,
      "é¡¶å°ĸ": 9193,
      "æĪĳçŁ¥éģĵä½ł": 9194,
      "æĹłæģĻ": 9195,
      "çªĴ": 9196,
      "è§īå¾ĹæľīäºĽ": 9197,
      "ä¸įåģľçļĦ": 9198,
      "çº¯éĺ³": 9199,
      "èĸĽå¹³æ²»": 9200,
      "æŀĹå¹³ä¹ĭ": 9201,
      "åıĪä½ķå¿ħ": 9202,
      "åįĹä¸ĭ": 9203,
      "ç½Ĺæµ®": 9204,
      "è¿·èĮ«": 9205,
      "èµ¤è£¸": 9206,
      "æĽ¿ä½ł": 9207,
      "æĺ¨æĹ¥": 9208,
      "æĳĺæĺŁ": 9209,
      "è¤ļç¦Ħå±±": 9210,
      "çµ": 9211,
      "å¤§çİĭ": 9212,
      "çī©åĵģ": 9213,
      "çĶļä¹Ī": 9214,
      "åĳ¼éģĵ": 9215,
      "åĪºåħ¥": 9216,
      "çĶ¬éģĵ": 9217,
      "ç¥ŀæĻº": 9218,
      "å¥½åĥıæĺ¯": 9219,
      "ç¼¸": 9220,
      "æ·±çŁ¥": 9221,
      "çķĮçļĦ": 9222,
      "è¿Ļä¹Īå¤ļå¹´": 9223,
      "çģŃç»Ŀ": 9224,
      "æŁ³çľī": 9225,
      "å¢Ļä¸Ĭ": 9226,
      "å±¥": 9227,
      "è§ģéĤ£": 9228,
      "èĢģåħ¬": 9229,
      "ä¸¤èĢħ": 9230,
      "ç«Łæĺ¯ä¸Ģ": 9231,
      "åıĮç¿ħ": 9232,
      "æľĪæ¥¼": 9233,
      "çĤ¼éŃĤ": 9234,
      "ä¸¹çĶ°": 9235,
      "å½Ĵäºİ": 9236,
      "åħ·å¤ĩ": 9237,
      "æĬµå¾¡": 9238,
      "äºĨåĽŀåİ»": 9239,
      "ä½łå¿«": 9240,
      "èĩªè§ī": 9241,
      "çľĭåľ¨": 9242,
      "å°ıæłĳ": 9243,
      "æŃ¦åĻ¨": 9244,
      "å¼ºçĥĪçļĦ": 9245,
      "æĹ¢çĦ¶æĺ¯": 9246,
      "çľĭè§ģäºĨ": 9247,
      "å·¥å¤«åĲİ": 9248,
      "ä¿®ä»ĻèĢħ": 9249,
      "çµ®": 9250,
      "ä¸Ĭé£İ": 9251,
      "çĤŃ": 9252,
      "æ´¥": 9253,
      "æĪĲåĲį": 9254,
      "çĻ¾é¬¼": 9255,
      "æķĻçļĦ": 9256,
      "å¿įèĢĲ": 9257,
      "èħ¾ç©º": 9258,
      "ä¸įåľ¨æĦı": 9259,
      "åķªåķª": 9260,
      "æ¬£èµı": 9261,
      "ä¸ĭå·´": 9262,
      "ä¸¤ç§į": 9263,
      "æľ¬å·²": 9264,
      "ä»Ĭå¹´": 9265,
      "éĥ¨èĲ½": 9266,
      "ç§ĺå®Ŀ": 9267,
      "æĤĦçĦ¶": 9268,
      "å¢¨æĻ¯ç§ĭ": 9269,
      "è¿Ļåĩłåı¥è¯Ŀ": 9270,
      "è®ºåīĳè½©": 9271,
      "ä¸Ģä¾§": 9272,
      "åľ°åĽ¾": 9273,
      "åľ°æŃ¥": 9274,
      "åīĳç¥ŀ": 9275,
      "éľĸ": 9276,
      "çŁ³æ¸ħ": 9277,
      "å¾®åıĺ": 9278,
      "åŁİæ±ł": 9279,
      "æµģéľ²åĩº": 9280,
      "æĿ¿ä¸Ĭ": 9281,
      "ä¿±éĥ½": 9282,
      "æī¶çĿĢ": 9283,
      "è¯´ä»ĸ": 9284,
      "éĺĢ": 9285,
      "éĥ½ä¸įçŁ¥éģĵ": 9286,
      "åįģæĸ¹": 9287,
      "æŀģé«ĺ": 9288,
      "è°ģæķ¢": 9289,
      "ç¨½": 9290,
      "éļĲåĮ¿": 9291,
      "åħŃäºº": 9292,
      "ä¸įéĢı": 9293,
      "åĽŀèº«": 9294,
      "æı£": 9295,
      "å¤ŁäºĨ": 9296,
      "åĲ¦åĪĻçļĦè¯Ŀ": 9297,
      "ä¿®çĤ¼çļĦ": 9298,
      "èĪµä¸»": 9299,
      "éĺ¿çıĤ": 9300,
      "ä¸įåĪ©": 9301,
      "éĤ¸": 9302,
      "å¤§æ°Ķ": 9303,
      "çĽĲ": 9304,
      "åľ°æľĽçĿĢ": 9305,
      "æĹłæŀģ": 9306,
      "çľĭè¿ĩ": 9307,
      "ç¼ĵæŃ¥": 9308,
      "ä¼Ĺä½į": 9309,
      "çģ¿çģ¿": 9310,
      "ä¹ĭæīĢ": 9311,
      "çĽ²": 9312,
      "èĢģé¬¼": 9313,
      "è¡Įè¸ª": 9314,
      "æĶ¶éĽĨ": 9315,
      "åĽ´çĿĢ": 9316,
      "çīĻé½¿": 9317,
      "åįģä¸īç«ł": 9318,
      "å¼¯èħ°": 9319,
      "æĪĴå¤ĩ": 9320,
      "å¿ĸéģĵ": 9321,
      "æĺ¯æľĢ": 9322,
      "ä¹ŁæĽ¾": 9323,
      "è®³": 9324,
      "ç¥ŀå¥ĩ": 9325,
      "çİĭåĲ¯å¹´": 9326,
      "äºĮå¨ĺ": 9327,
      "å®ŀè¯Ŀ": 9328,
      "éŃĶåĬ«": 9329,
      "éĺµåĬ¿": 9330,
      "åĲ¦è®¤": 9331,
      "ç¨įä¸Ģ": 9332,
      "åį«å£«": 9333,
      "æ·±æ·±çļĦ": 9334,
      "ä¾¿åľ¨æŃ¤æĹ¶": 9335,
      "æ±¹æ±¹": 9336,
      "çļĦåĨ²åĩ»": 9337,
      "æĪĳåĨį": 9338,
      "éĿ¢åħ·": 9339,
      "ä¾¿ä¼¼": 9340,
      "æģĥ": 9341,
      "é¢Ķ": 9342,
      "éĿĴçŁ³": 9343,
      "å¼ĤæĹı": 9344,
      "çĹĽæ¥ļ": 9345,
      "éģ¿åħį": 9346,
      "æĳ¸çĿĢ": 9347,
      "è¿İæİ¥": 9348,
      "ä¸Ģè¨Ģä¸įåıĳ": 9349,
      "çļĦé»Ħ": 9350,
      "å¤§äººçļĦ": 9351,
      "å£°åĲį": 9352,
      "å¿įä½ı": 9353,
      "åŀĴ": 9354,
      "å±ŀæĢ§": 9355,
      "æĺ¯å¥¹": 9356,
      "ä¹ĭå¨ģ": 9357,
      "æĪĳéĤ£": 9358,
      "èĢĮåĽŀ": 9359,
      "å¸Īä¾Ħ": 9360,
      "äºĶéģĵ": 9361,
      "ä½İçĿĢå¤´": 9362,
      "çŁ³è½©çļĦ": 9363,
      "å¤įä»ĩ": 9364,
      "è¯´è¯ĿçļĦ": 9365,
      "æ³¨çĽ®": 9366,
[...]
