{
    "version": "1.0",
    "truncation": null,
    "padding": null,
    "added_tokens": [
      {
        "id": 0,
        "content": "<|pad|>",
        "single_word": false,
        "lstrip": false,
        "rstrip": false,
        "normalized": false,
        "special": true
      },
      {
        "id": 1,
        "content": "<|cls|>",
        "single_word": false,
        "lstrip": false,
        "rstrip": false,
        "normalized": false,
        "special": true
      },
      {
        "id": 2,
        "content": "<|sep|>",
        "single_word": false,
        "lstrip": false,
        "rstrip": false,
        "normalized": false,
        "special": true
      },
      {
        "id": 3,
        "content": "<|mask|>",
        "single_word": false,
        "lstrip": false,
        "rstrip": false,
        "normalized": false,
        "special": true
      },
      {
        "id": 4,
        "content": "<|endoftext|>",
        "single_word": false,
        "lstrip": false,
        "rstrip": false,
        "normalized": false,
        "special": true
      }
    ],
    "normalizer": null,
    "pre_tokenizer": {
      "type": "ByteLevel",
      "add_prefix_space": false,
      "trim_offsets": true,
      "use_regex": true
    },
    "post_processor": null,
    "decoder": {
      "type": "ByteLevel",
      "add_prefix_space": true,
      "trim_offsets": true,
      "use_regex": true
    },
    "model": {
      "type": "BPE",
      "dropout": null,
      "unk_token": null,
      "continuing_subword_prefix": null,
      "end_of_word_suffix": null,
      "fuse_unk": false,
      "byte_fallback": false,
      "ignore_merges": false,
      "vocab": {
        "<|pad|>": 0,
        "<|cls|>": 1,
        "<|sep|>": 2,
        "<|mask|>": 3,
        "<|endoftext|>": 4,
        "!": 5,
        "\"": 6,
        "#": 7,
        "$": 8,
        "%": 9,
        "&": 10,
        "'": 11,
        "(": 12,
        ")": 13,
        "*": 14,
        "+": 15,
        ",": 16,
        "-": 17,
        ".": 18,
        "/": 19,
        "0": 20,
        "1": 21,
        "2": 22,
        "3": 23,
        "4": 24,
        "5": 25,
        "6": 26,
        "7": 27,
        "8": 28,
        "9": 29,
        ":": 30,
        ";": 31,
        "<": 32,
        "=": 33,
        ">": 34,
        "?": 35,
        "@": 36,
        "A": 37,
        "B": 38,
        "C": 39,
        "D": 40,
        "E": 41,
        "F": 42,
        "G": 43,
        "H": 44,
        "I": 45,
        "J": 46,
        "K": 47,
        "L": 48,
        "M": 49,
        "N": 50,
        "O": 51,
        "P": 52,
        "Q": 53,
        "R": 54,
        "S": 55,
        "T": 56,
        "U": 57,
        "V": 58,
        "W": 59,
        "X": 60,
        "Y": 61,
        "Z": 62,
        "[": 63,
        "\\": 64,
        "]": 65,
        "^": 66,
        "_": 67,
        "`": 68,
        "a": 69,
        "b": 70,
        "c": 71,
        "d": 72,
        "e": 73,
        "f": 74,
        "g": 75,
        "h": 76,
        "i": 77,
        "j": 78,
        "k": 79,
        "l": 80,
        "m": 81,
        "n": 82,
        "o": 83,
        "p": 84,
        "q": 85,
        "r": 86,
        "s": 87,
        "t": 88,
        "u": 89,
        "v": 90,
        "w": 91,
        "x": 92,
        "y": 93,
        "z": 94,
        "{": 95,
        "|": 96,
        "}": 97,
        "~": 98,
        "¡": 99,
        "¢": 100,
        "£": 101,
        "¤": 102,
        "¥": 103,
        "¦": 104,
        "§": 105,
        "¨": 106,
        "©": 107,
        "ª": 108,
        "«": 109,
        "¬": 110,
        "®": 111,
        "¯": 112,
        "°": 113,
        "±": 114,
        "²": 115,
        "³": 116,
        "´": 117,
        "µ": 118,
        "¶": 119,
        "·": 120,
        "¸": 121,
        "¹": 122,
        "º": 123,
        "»": 124,
        "¼": 125,
        "½": 126,
        "¾": 127,
        "¿": 128,
        "À": 129,
        "Á": 130,
        "Â": 131,
        "Ã": 132,
        "Ä": 133,
        "Å": 134,
        "Æ": 135,
        "Ç": 136,
        "È": 137,
        "É": 138,
        "Ê": 139,
        "Ë": 140,
        "Ì": 141,
        "Í": 142,
        "Î": 143,
        "Ï": 144,
        "Ð": 145,
        "Ñ": 146,
        "Ò": 147,
        "Ó": 148,
        "Ô": 149,
        "Õ": 150,
        "Ö": 151,
        "×": 152,
        "Ø": 153,
        "Ù": 154,
        "Ú": 155,
        "Û": 156,
        "Ü": 157,
        "Ý": 158,
        "Þ": 159,
        "ß": 160,
        "à": 161,
        "á": 162,
        "â": 163,
        "ã": 164,
        "ä": 165,
        "å": 166,
        "æ": 167,
        "ç": 168,
        "è": 169,
        "é": 170,
        "ê": 171,
        "ë": 172,
        "ì": 173,
        "í": 174,
        "î": 175,
        "ï": 176,
        "ð": 177,
        "ñ": 178,
        "ò": 179,
        "ó": 180,
        "ô": 181,
        "õ": 182,
        "ö": 183,
        "÷": 184,
        "ø": 185,
        "ù": 186,
        "ú": 187,
        "û": 188,
        "ü": 189,
        "ý": 190,
        "þ": 191,
        "ÿ": 192,
        "Ā": 193,
        "ā": 194,
        "Ă": 195,
        "ă": 196,
        "Ą": 197,
        "ą": 198,
        "Ć": 199,
        "ć": 200,
        "Ĉ": 201,
        "ĉ": 202,
        "Ċ": 203,
        "ċ": 204,
        "Č": 205,
        "č": 206,
        "Ď": 207,
        "ď": 208,
        "Đ": 209,
        "đ": 210,
        "Ē": 211,
        "ē": 212,
        "Ĕ": 213,
        "ĕ": 214,
        "Ė": 215,
        "ė": 216,
        "Ę": 217,
        "ę": 218,
        "Ě": 219,
        "ě": 220,
        "Ĝ": 221,
        "ĝ": 222,
        "Ğ": 223,
        "ğ": 224,
        "Ġ": 225,
        "ġ": 226,
        "Ģ": 227,
        "ģ": 228,
        "Ĥ": 229,
        "ĥ": 230,
        "Ħ": 231,
        "ħ": 232,
        "Ĩ": 233,
        "ĩ": 234,
        "Ī": 235,
        "ī": 236,
        "Ĭ": 237,
        "ĭ": 238,
        "Į": 239,
        "į": 240,
        "İ": 241,
        "ı": 242,
        "Ĳ": 243,
        "ĳ": 244,
        "Ĵ": 245,
        "ĵ": 246,
        "Ķ": 247,
        "ķ": 248,
        "ĸ": 249,
        "Ĺ": 250,
        "ĺ": 251,
        "Ļ": 252,
        "ļ": 253,
        "Ľ": 254,
        "ľ": 255,
        "Ŀ": 256,
        "ŀ": 257,
        "Ł": 258,
        "ł": 259,
        "Ń": 260,
        "ï¼": 261,
        "ä¸": 262,
        "ï¼Į": 263,
        "äº": 264,
        "çļ": 265,
        "âĢ": 266,
        "çļĦ": 267,
        "ãĢ": 268,
        "ãĢĤ": 269,
        "ä»": 270,
        "å¤": 271,
        "è¿": 272,
        "åı": 273,
        "ä¸Ģ": 274,
        "æĺ": 275,
        "ä¹": 276,
        "æľ": 277,
        "æĺ¯": 278,
        "ä¸į": 279,
        "ä½": 280,
        "äºĨ": 281,
        "åľ": 282,
        "å°": 283,
        "åĲ": 284,
        "åħ": 285,
        "åĪ": 286,
        "éģ": 287,
        "âĢľ": 288,
        "âĢĿ": 289,
        "čĊ": 290,
        "éģĵ": 291,
        "æĿ": 292,
        "å®": 293,
        "åĩ": 294,
        "æī": 295,
        "è¿Ļ": 296,
        "æĹ": 297,
        "äºº": 298,
        "ä»ĸ": 299,
        "æĪ": 300,
        "è¯": 301,
        "åľ¨": 302,
        "æľī": 303,
        "åį": 304,
        "å¾": 305,
        "çľ": 306,
        "æŃ": 307,
        "å¥": 308,
        "å¿": 309,
        "åĬ": 310,
        "æĿ¥": 311,
        "ï¼ļ": 312,
        "åŃ": 313,
        "èĢ": 314,
        "ï¼ļâĢľ": 315,
        "ä¼": 316,
        "åĨ": 317,
        "å·": 318,
        "å¤§": 319,
        "éĹ": 320,
        "ĥ½": 321,
        "ç»": 322,
        "å¼": 323,
        "æĥ": 324,
        "éĤ": 325,
        "æĪĳ": 326,
        "çİ": 327,
        "ä¸Ĭ": 328,
        "ä¹ĭ": 329,
        "éĤ£": 330,
        "ä½ł": 331,
        "åĩº": 332,
        "ãĢĤâĢĿ": 333,
        "ä¸Ń": 334,
        "åİ": 335,
        "ä¹Ł": 336,
        "æĢ": 337,
        "éĩ": 338,
        "çĿ": 339,
        "çĦ": 340,
        "èµ": 341,
        "èĩ": 342,
        "ä¸ª": 343,
        "çĶ": 344,
        "ä¸ĭ": 345,
        "æ²": 346,
        "åĪ°": 347,
        "çĦ¶": 348,
        "éĿ": 349,
        "å¹": 350,
        "åĽ": 351,
        "å°±": 352,
        "åŃĲ": 353,
        "è§": 354,
        "åī": 355,
        "å¯": 356,
        "å¦": 357,
        "çĿĢ": 358,
        "è¯´": 359,
        "çĽ": 360,
        "éĢ": 361,
        "æĸ": 362,
        "å¤©": 363,
        "ï¼Ł": 364,
        "èº": 365,
        "æķ": 366,
        "å¸": 367,
        "æŀ": 368,
        "è®": 369,
        "å½": 370,
        "å£": 371,
        "ç¬": 372,
        "¦ģ": 373,
        "å¾Ĺ": 374,
        "æīĭ": 375,
        "èº«": 376,
        "å±": 377,
        "ç¥": 378,
        "ç«": 379,
        "æĹ¶": 380,
        "çŁ": 381,
        "èĩª": 382,
        "æ°": 383,
        "è¿ĩ": 384,
        "å¿ĥ": 385,
        "åº": 386,
        "è¡": 387,
        "æĬ": 388,
        "è¦ģ": 389,
        "åĲİ": 390,
        "åı¯": 391,
        "ï¼ģ": 392,
        "ä¹Ī": 393,
        "è½": 394,
        "ä»¬": 395,
        "åİ»": 396,
        "çľĭ": 397,
        "æĦ": 398,
        "åľ°": 399,
        "æ²¡": 400,
        "ä¸º": 401,
        "æ³": 402,
        "æĹł": 403,
        "åıª": 404,
        "è¿ĺ": 405,
        "éĻ": 406,
        "èĥ½": 407,
        "éĺ": 408,
        "èĢĮ": 409,
        "åĳ": 410,
        "éĥ½": 411,
        "å¦Ĥ": 412,
        "æİ": 413,
        "åĴ": 414,
        "âĢ¦": 415,
        "å¤´": 416,
        "ä¾": 417,
        "ç¥ŀ": 418,
        "æĭ": 419,
        "å£°": 420,
        "æł": 421,
        "å°ı": 422,
        "æĥ³": 423,
        "æŃ¤": 424,
        "ä»¥": 425,
        "ï¼ŁâĢĿ": 426,
        "é»": 427,
        "éļ": 428,
        "è¾": 429,
        "èµ·": 430,
        "çģ": 431,
        "å¥½": 432,
        "æ¯": 433,
        "åĵ": 434,
        "ä¼ļ": 435,
        "éĩĮ": 436,
        "å¯¹": 437,
        "äºĽ": 438,
        "ç§": 439,
        "é£": 440,
        "ä¿": 441,
        "æ°Ķ": 442,
        "ç¬ĳ": 443,
        "çĤ": 444,
        "å·²": 445,
        "çŁ¥": 446,
        "åīį": 447,
        "æģ": 448,
        "çĻ": 449,
        "èĦ": 450,
        "è¢": 451,
        "éĿ¢": 452,
        "èĢģ": 453,
        "æ³ķ": 454,
        "ä½Ĩ": 455,
        "èĭ": 456,
        "æµ": 457,
        "å¥¹": 458,
        "éĽ": 459,
        "ä¸¤": 460,
        "å¤ļ": 461,
        "çİĭ": 462,
        "æĮ": 463,
        "åĮ": 464,
        "åĢ": 465,
        "çº": 466,
        "æ¸": 467,
        "çľ¼": 468,
        "æ²¡æľī": 469,
        "åĬĽ": 470,
        "èĻ": 471,
        "åħī": 472,
        "çİ°": 473,
        "åį´": 474,
        "çī": 475,
        "åĴĮ": 476,
        "ç©": 477,
        "éŃ": 478,
        "è·": 479,
        "å·±": 480,
        "è§ģ": 481,
        "çľŁ": 482,
        "å¹´": 483,
        "èĩªå·±": 484,
        "æ´": 485,
        "åıĪ": 486,
        "äºĭ": 487,
        "èī": 488,
        "æĽ": 489,
        "æĸ¹": 490,
        "éĹ´": 491,
        "ï¼ģâĢĿ": 492,
        "æĻ": 493,
        "åīĳ": 494,
        "å¼Ģ": 495,
        "èĲ": 496,
        "éķ": 497,
        "ä¾¿": 498,
        "ç®": 499,
        "å½ĵ": 500,
        "å°Ĩ": 501,
        "ä¸ī": 502,
        "ä¸Ģä¸ª": 503,
        "è°": 504,
        "æŀĹ": 505,
        "ç¦": 506,
        "éľ": 507,
        "ä»Ģ": 508,
        "çĶŁ": 509,
        "åĬ¨": 510,
        "æĶ": 511,
        "ä»Ģä¹Ī": 512,
        "æĦı": 513,
        "åģ": 514,
        "åħ¶": 515,
        "æ¬": 516,
        "çķ": 517,
        "èī²": 518,
        "èĪ": 519,
        "æīĢ": 520,
        "æĪĲ": 521,
        "åĨį": 522,
        "å§": 523,
        "çĭ": 524,
        "åıĳ": 525,
        "æł·": 526,
        "é¡": 527,
        "éŁ": 528,
        "ç¼": 529,
        "è¢«": 530,
        "æ¥": 531,
        "çĤ¹": 532,
        "åįģ": 533,
        "åĲĳ": 534,
        "åĸ": 535,
        "æħ": 536,
        "çŃ": 537,
        "è¶": 538,
        "æ·": 539,
        "éĹ¨": 540,
        "æŃ»": 541,
        "èĥ": 542,
        "ç¦»": 543,
        "è´": 544,
        "âĢ¦âĢ¦": 545,
        "èĤ": 546,
        "é¢": 547,
        "æĺİ": 548,
        "å±±": 549,
        "å¸Ī": 550,
        "ç»ı": 551,
        "äºĨä¸Ģ": 552,
        "è¯Ŀ": 553,
        "æŃ£": 554,
        "éķ¿": 555,
        "åı£": 556,
        "ä»İ": 557,
        "çĻ½": 558,
        "æīį": 559,
        "é»Ħ": 560,
        "åĽŀ": 561,
        "çĪ": 562,
        "åĿ": 563,
        "åĩł": 564,
        "ä¸İ": 565,
        "ä»ĸä»¬": 566,
        "åĦ": 567,
        "å®ļ": 568,
        "æ±": 569,
        "äºİ": 570,
        "èĬ": 571,
        "å¤ĸ": 572,
        "æĥħ": 573,
        "ç«ĭ": 574,
        "é«": 575,
        "å¾Ī": 576,
        "æĿĢ": 577,
        "è®©": 578,
        "éŃĶ": 579,
        "æľ¬": 580,
        "åĦ¿": 581,
        "å¥³": 582,
        "ç©º": 583,
        "åĨħ": 584,
        "ä½ķ": 585,
        "åĲ¬": 586,
        "å®ŀ": 587,
        "çŁ¥éģĵ": 588,
        "é«ĺ": 589,
        "ç½": 590,
        "æ¥ļ": 591,
        "ä¸»": 592,
        "èµ°": 593,
        "éĵ": 594,
        "ä¿®": 595,
        "å°ĳ": 596,
        "å¤Ħ": 597,
        "å®¶": 598,
        "çĶ¨": 599,
        "éª": 600,
        "è½»": 601,
        "åŁ": 602,
        "æ¶": 603,
        "ãĢģ": 604,
        "ä½į": 605,
        "æĽ´": 606,
        "äºĮ": 607,
        "æľĢ": 608,
        "åħ¥": 609,
        "é©": 610,
        "å¨": 611,
        "çĽ¸": 612,
        "ä¸įæĺ¯": 613,
        "æ®": 614,
        "éĶ": 615,
        "çģµ": 616,
        "åĥ": 617,
        "æŁ": 618,
        "ç´": 619,
        "éĿĴ": 620,
        "åĲĮ": 621,
        "åĽĽ": 622,
        "åĬŁ": 623,
        "å¤ª": 624,
        "çĥ": 625,
        "è¯´éģĵ": 626,
        "éļ¾": 627,
        "è¡Į": 628,
        "æĳ": 629,
        "ä½ı": 630,
        "åĲį": 631,
        "æīĵ": 632,
        "é£ŀ": 633,
        "è§ī": 634,
        "è¡Ģ": 635,
        "çĽ´": 636,
        "ç«Ł": 637,
        "é¾": 638,
        "èį": 639,
        "è¿Ľ": 640,
        "æĬĬ": 641,
        "çİ°åľ¨": 642,
        "æ¬¡": 643,
        "åĪ»": 644,
        "éĹ®": 645,
        "èĦ¸": 646,
        "çŁ³": 647,
        "æļ": 648,
        "åħ¨": 649,
        "é£İ": 650,
        "æ¸ħ": 651,
        "èĭ¥": 652,
        "æ»": 653,
        "çĲ": 654,
        "éĩį": 655,
        "æĤ": 656,
        "çł": 657,
        "å¾®": 658,
        "çŃī": 659,
        "å°±æĺ¯": 660,
        "åĮĸ": 661,
        "ç§į": 662,
        "è¾¹": 663,
        "çª": 664,
        "çŀ": 665,
        "éĢį": 666,
        "çĽ®": 667,
        "åĪĨ": 668,
        "éĥ": 669,
        "é¾Ļ": 670,
        "åķ": 671,
        "½çĦ¶": 672,
        "ç®Ĺ": 673,
        "èĩ³": 674,
        "åıĺ": 675,
        "éĩĳ": 676,
        "æı": 677,
        "é»ĦéĢį": 678,
        "æĦŁ": 679,
        "ä¹Łä¸į": 680,
        "ä½ĵ": 681,
        "å¢": 682,
        "ç¬¬": 683,
        "ç»Ļ": 684,
        "ä¼¼": 685,
        "èĪ¬": 686,
        "æľĽ": 687,
        "åĨ·": 688,
        "æĥĬ": 689,
        "æĢİ": 690,
        "åĥı": 691,
        "åĪ°äºĨ": 692,
        "æİ¥": 693,
        "éĺµ": 694,
        "èĲ½": 695,
        "æķ°": 696,
        "è½¬": 697,
        "æ¯Ķ": 698,
        "å¼Ł": 699,
        "åºĶ": 700,
        "ä»ĸçļĦ": 701,
        "åĽł": 702,
        "æ°´": 703,
        "åıĮ": 704,
        "âĢĻ": 705,
        "âĢĺ": 706,
        "åħĪ": 707,
        "å·²ç»ı": 708,
        "è¿ŀ": 709,
        "ç¾": 710,
        "æŀģ": 711,
        "æŃ¦": 712,
        "åĪĢ": 713,
        "é©¬": 714,
        "è¿ĺæĺ¯": 715,
        "è¿Ļä¸ª": 716,
        "é»ĳ": 717,
        "è¿ľ": 718,
        "æİĮ": 719,
        "çĸ": 720,
        "å¿«": 721,
        "ç¬ĳéģĵ": 722,
        "æŀľ": 723,
        "æĹ¥": 724,
        "æ¥ļç¦»": 725,
        "ç²": 726,
        "ä¸įè¿ĩ": 727,
        "å²": 728,
        "åįĬ": 729,
        "ä¸ĩ": 730,
        "å¹¶": 731,
        "ä»Ļ": 732,
        "åģļ": 733,
        "åŁİ": 734,
        "åĢĴ": 735,
        "çİī": 736,
        "æĢķ": 737,
        "æį": 738,
        "èĮ": 739,
        "å¼º": 740,
        "è¿Ļä¸Ģ": 741,
        "éĴ": 742,
        "èİ": 743,
        "åĺ": 744,
        "é¦": 745,
        "æŃ¥": 746,
        "éĢļ": 747,
        "èĢħ": 748,
        "æĪĳä»¬": 749,
        "ç¢": 750,
        "äºĳ": 751,
        "çģ«": 752,
        "éŁ©": 753,
        "ä¸ĸ": 754,
        "ç»Ŀ": 755,
        "åİŁ": 756,
        "çĻ¾": 757,
        "¨Ģ": 758,
        "å®Ŀ": 759,
        "äºĶ": 760,
        "æĿİ": 761,
        "æľīäºĽ": 762,
        "çĮ": 763,
        "åĲ§": 764,
        "æ¢": 765,
        "èĬ±": 766,
        "æģ¯": 767,
        "çļĦäºº": 768,
        "æľª": 769,
        "æĶ¾": 770,
        "åĢĻ": 771,
        "èħ": 772,
        "ä¼ł": 773,
        "æµ·": 774,
        "ä¹İ": 775,
        "èµ·æĿ¥": 776,
        "ä¸Ģå£°": 777,
        "åıªæĺ¯": 778,
        "å£«": 779,
        "å®Ĺ": 780,
        "çİĭæŀĹ": 781,
        "åĪ«": 782,
        "åĳ¨": 783,
        "éĿŀ": 784,
        "åĳ½": 785,
        "è¿ĻäºĽ": 786,
        "éļı": 787,
        "åı«": 788,
        "æĪĺ": 789,
        "ä½Ļ": 790,
        "çī©": 791,
        "éĹª": 792,
        "çķĮ": 793,
        "åĪļ": 794,
        "èĲ§": 795,
        "å¦ĤæŃ¤": 796,
        "å½±": 797,
        "å¤«": 798,
        "è¨Ģ": 799,
        "å¼ł": 800,
        "èĻļ": 801,
        "åĩºæĿ¥": 802,
        "è®¸": 803,
        "å½¢": 804,
        "å¹³": 805,
        "çı": 806,
        "æ²ī": 807,
        "åħ¬": 808,
        "æ¡": 809,
        "åĨ²": 810,
        "å®¹": 811,
        "ä»Ĭ": 812,
        "å¿ĥä¸Ń": 813,
        "æ·±": 814,
        "å¾Ĳ": 815,
        "éŁ³": 816,
        "çº¢": 817,
        "è¥": 818,
        "æľº": 819,
        "åı¯ä»¥": 820,
        "åįĹ": 821,
        "æļĹ": 822,
        "è£": 823,
        "å¤±": 824,
        "è¶Ĭ": 825,
        "çł´": 826,
        "æĹ¶åĢĻ": 827,
        "ä¹Łæĺ¯": 828,
        "åħĦ": 829,
        "åĩ»": 830,
        "å¸¦": 831,
        "ä¸ĥ": 832,
        "éħ": 833,
        "âĢ¦âĢ¦âĢĿ": 834,
        "çªģ": 835,
        "æĺĵ": 836,
        "æĢİä¹Ī": 837,
        "æĮĩ": 838,
        "å¸¸": 839,
        "å¥ĩ": 840,
        "åħ³": 841,
        "åıĹ": 842,
        "çīĩ": 843,
        "æľĪ": 844,
        "åħĥ": 845,
        "çĹ": 846,
        "è·Ł": 847,
        "åł": 848,
        "è¥¿": 849,
        "çĤ¼": 850,
        "æĢĿ": 851,
        "ä½ľ": 852,
        "åĶ": 853,
        "å±¹": 854,
        "åĬ¿": 855,
        "ä¼¤": 856,
        "ç¿": 857,
        "äººçļĦ": 858,
        "ç¡": 859,
        "éĺ³": 860,
        "éĿĻ": 861,
        "å¿ħ": 862,
        "æŀĹå±¹": 863,
        "ä¸ľ": 864,
        "æ¶Ī": 865,
        "è¿ĻéĩĮ": 866,
        "ï¼ĮâĢľ": 867,
        "ä¿¡": 868,
        "é¬": 869,
        "éŁ©ç«ĭ": 870,
        "æľĿ": 871,
        "å¼Ĥ": 872,
        "çļĩ": 873,
        "çļĦä¸Ģ": 874,
        "åıį": 875,
        "åįĥ": 876,
        "ä¹Ŀ": 877,
        "è°ģ": 878,
        "èģ": 879,
        "è¡£": 880,
        "éĵģ": 881,
        "ä»¤": 882,
        "åĨĽ": 883,
        "ç¨": 884,
        "å®ī": 885,
        "ä½¿": 886,
        "éĻĨ": 887,
        "å®Į": 888,
        "å¾Ģ": 889,
        "ä½łä»¬": 890,
        "é¬¼": 891,
        "è·¯": 892,
        "æĳĩ": 893,
        "åı¤": 894,
        "è¿ĳ": 895,
        "è§£": 896,
        "åĮĹ": 897,
        "ç¼ĵ": 898,
        "æł¹": 899,
        "è¯¥": 900,
        "è¿Ļæł·": 901,
        "éĥ½æĺ¯": 902,
        "èĻ½çĦ¶": 903,
        "çĶ±": 904,
        "åĽłä¸º": 905,
        "æķ¢": 906,
        "æ»¡": 907,
        "æĢª": 908,
        "ä¸Ŀ": 909,
        "åĩ¤": 910,
        "åį³": 911,
        "å¤Ł": 912,
        "åĪĻ": 913,
        "æ¨": 914,
        "åħ«": 915,
        "å¨ĺ": 916,
        "ä¸Ķ": 917,
        "éŃĤ": 918,
        "è±": 919,
        "è¿ĺæľī": 920,
        "åĵª": 921,
        "æ¼": 922,
        "éĽª": 923,
        "éĺ´": 924,
        "æī¾": 925,
        "æĺŁ": 926,
        "ä»»": 927,
        "çķĻ": 928,
        "æµģ": 929,
        "ä¹ĭåĲİ": 930,
        "çĲĨ": 931,
        "ç»Ī": 932,
        "éľ²": 933,
        "å¢ĥ": 934,
        "æĸŃ": 935,
        "æ±Ł": 936,
        "éĩı": 937,
        "æķĻ": 938,
        "è¿Ļä¹Ī": 939,
        "ä¹ĭä¸Ń": 940,
        "æ·¡": 941,
        "å·¨": 942,
        "é¸": 943,
        "åĲĪ": 944,
        "å®«": 945,
        "å°½": 946,
        "ä¸įä¼ļ": 947,
        "èĵ": 948,
        "ä½Ĩæĺ¯": 949,
        "éļĲ": 950,
        "çľĭçĿĢ": 951,
        "ä¼Ĺ": 952,
        "ç²¾": 953,
        "æīĢä»¥": 954,
        "æĺ¾": 955,
        "æ¹": 956,
        "æĴ": 957,
        "æĹ©": 958,
        "åľº": 959,
        "äº²": 960,
        "æķ£": 961,
        "åĤ": 962,
        "è¶³": 963,
        "åĿĲ": 964,
        "ä½Ľ": 965,
        "æ®¿": 966,
        "ç´§": 967,
        "éĽ·": 968,
        "å©": 969,
        "é¡¾": 970,
        "åºķ": 971,
        "éĥ¨": 972,
        "ä¸įèĥ½": 973,
        "å®ĺ": 974,
        "è¾Ī": 975,
        "èĮĥ": 976,
        "åĵį": 977,
        "æĿ¡": 978,
        "å·¦": 979,
        "çİĦ": 980,
        "åĬł": 981,
        "ç¥ĸ": 982,
        "ç³": 983,
        "æĢ¥": 984,
        "åħŃ": 985,
        "æħ¢": 986,
        "è½©": 987,
        "äº¤": 988,
        "èĭ¦": 989,
        "æ£": 990,
        "æıĲ": 991,
        "æĭĽ": 992,
        "åı¯æĺ¯": 993,
        "çĶļ": 994,
        "åĻ": 995,
        "ä¸ĬçļĦ": 996,
        "å¤§çļĦ": 997,
        "èĩªçĦ¶": 998,
        "æĹ¶éĹ´": 999,
        "è¸": 1000,
        "çľī": 1001,
        "æ´ª": 1002,
        "åħµ": 1003,
        "éľĩ": 1004,
        "å³": 1005,
        "æ¸Ĳ": 1006,
        "æº": 1007,
        "ä¸¤äºº": 1008,
        "åĸĿ": 1009,
        "åĽ½": 1010,
        "æ´¾": 1011,
        "ç«Ļ": 1012,
        "æĶ¶": 1013,
        "åķĬ": 1014,
        "å¯Ĵ": 1015,
        "æľīä¸Ģ": 1016,
        "èĹ": 1017,
        "éĶĻ": 1018,
        "ä¸įçŁ¥": 1019,
        "æĹı": 1020,
        "åı¹": 1021,
        "åĸľ": 1022,
        "å¿µ": 1023,
        "ç»ĵ": 1024,
        "å¿½çĦ¶": 1025,
        "è®¤": 1026,
        "åĲĥ": 1027,
        "å§ĭ": 1028,
        "éĤ£äºĽ": 1029,
        "çħ": 1030,
        "èĩªå·±çļĦ": 1031,
        "ä¸ŃçļĦ": 1032,
        "åı¯èĥ½": 1033,
        "åºľ": 1034,
        "åŃĹ": 1035,
        "ä¹¦": 1036,
        "åĲĹ": 1037,
        "çĪ·": 1038,
        "åĪ¶": 1039,
        "èĦļ": 1040,
        "æĺ¯ä¸Ģ": 1041,
        "ä»¶": 1042,
        "æĹģ": 1043,
        "çĬ": 1044,
        "è¯Ń": 1045,
        "çªģçĦ¶": 1046,
        "æĹłæ³ķ": 1047,
        "æ´»": 1048,
        "åĪĩ": 1049,
        "é«ĺæīĭ": 1050,
        "æĢ§": 1051,
        "æĿ¥çļĦ": 1052,
        "âĢĶ": 1053,
        "åİī": 1054,
        "å¨ģ": 1055,
        "çĦ¶åĲİ": 1056,
        "åĳ¼": 1057,
        "å¼ŁåŃĲ": 1058,
        "æľ¨": 1059,
        "ç¤": 1060,
        "åĲĦ": 1061,
        "é¡¿": 1062,
        "å¤į": 1063,
        "åº¦": 1064,
        "ç¡®": 1065,
        "éĨ": 1066,
        "éħĴ": 1067,
        "ä½İ": 1068,
        "æķ´": 1069,
        "ä¹ħ": 1070,
        "æĢĴ": 1071,
        "çĪ¶": 1072,
        "ç®¡": 1073,
        "å¿Ļ": 1074,
        "éĢĢ": 1075,
        "å®³": 1076,
        "æĢ»": 1077,
        "ä¸ĢèĪ¬": 1078,
        "é¦Ļ": 1079,
        "çľĭåĪ°": 1080,
        "æ¹ĸ": 1081,
        "åĩºäºĨ": 1082,
        "åį´æĺ¯": 1083,
        "å£°éŁ³": 1084,
        "ä¼¼ä¹İ": 1085,
        "ç½Ĺ": 1086,
        "éĢŁ": 1087,
        "å¦Ļ": 1088,
        "ç§ĺ": 1089,
        "åıĬ": 1090,
        "èĽ": 1091,
        "éĹ²": 1092,
        "ç§¦": 1093,
        "èº«ä¸Ĭ": 1094,
        "å¦ĸ": 1095,
        "åı¥": 1096,
        "å¹²": 1097,
        "å±Ĥ": 1098,
        "æ®µ": 1099,
        "æħĪ": 1100,
        "èµµ": 1101,
        "è¯Ĩ": 1102,
        "åģľ": 1103,
        "å´": 1104,
        "åľ¨è¿Ļ": 1105,
        "å»": 1106,
        "è§īå¾Ĺ": 1107,
        "æĽ¾": 1108,
        "æĸĩ": 1109,
        "å®ģ": 1110,
        "åº§": 1111,
        "åı³": 1112,
        "åĵĪ": 1113,
        "éĻĪ": 1114,
        "éĹ®éģĵ": 1115,
        "æģĲ": 1116,
        "ç¦ģ": 1117,
        "é¹": 1118,
        "è¿Ļæĺ¯": 1119,
        "æķĮ": 1120,
        "ä¸ĭæĿ¥": 1121,
        "èĥ½å¤Ł": 1122,
        "å¸®": 1123,
        "åħ½": 1124,
        "çĤ¹å¤´": 1125,
        "åĳ¢": 1126,
        "æĹ¢": 1127,
        "éĻ¢": 1128,
        "åĲĽ": 1129,
        "ä¸¹": 1130,
        "åĩºä¸Ģ": 1131,
        "èĹı": 1132,
        "ç«ł": 1133,
        "æľ¯": 1134,
        "ä¸Ģä¸ĭ": 1135,
        "å¦Ĥæŀľ": 1136,
        "çĸĳ": 1137,
        "å°Ĭ": 1138,
        "å£°éģĵ": 1139,
        "ä¿®å£«": 1140,
        "è®°": 1141,
        "æĭ¿": 1142,
        "éĻ¤": 1143,
        "ä»²": 1144,
        "æĪĸ": 1145,
        "èĥ¡": 1146,
        "å®¢": 1147,
        "åıªæľī": 1148,
        "å®ĥ": 1149,
        "è¡¨": 1150,
        "çĨ": 1151,
        "åľ£": 1152,
        "åĭ": 1153,
        "æĥ³åĪ°": 1154,
        "åĽ´": 1155,
        "åĲ¦": 1156,
        "åĩĿ": 1157,
        "æ¯«": 1158,
        "åıĭ": 1159,
        "ä¹±": 1160,
        "åİĭ": 1161,
        "çĶ·": 1162,
        "ä¸¤ä¸ª": 1163,
        "ç¬¬ä¸Ģ": 1164,
        "éĤ£ä¸ª": 1165,
        "å¦Ĥä½ķ": 1166,
        "çļĦè¯Ŀ": 1167,
        "åĵ¥": 1168,
        "éĵ¶": 1169,
        "çļĦäºĭ": 1170,
        "è¿ĩæĿ¥": 1171,
        "é¥": 1172,
        "å³°": 1173,
        "ç«ĭåĪ»": 1174,
        "åŃĻ": 1175,
        "èĤ¡": 1176,
        "çģŃ": 1177,
        "è¯·": 1178,
        "é½": 1179,
        "éĻµ": 1180,
        "åı¦": 1181,
        "æĦŁè§ī": 1182,
        "çĭĤ": 1183,
        "åĪº": 1184,
        "èİ«": 1185,
        "æ¯Ĵ": 1186,
        "è¿Ļç§į": 1187,
        "åłĤ": 1188,
        "å°±ç®Ĺ": 1189,
        "èĥĮ": 1190,
        "ç»Ĩ": 1191,
        "çĽ®åħī": 1192,
        "çŀ§": 1193,
        "æĭ³": 1194,
        "å¯Ĩ": 1195,
        "åĹ": 1196,
        "è°·": 1197,
        "éĤ£ä¹Ī": 1198,
        "æĲ": 1199,
        "ä¾Ŀ": 1200,
        "ç¼º": 1201,
        "åĺ´": 1202,
        "åĪ©": 1203,
        "æ¯ı": 1204,
        "ç¾İ": 1205,
        "è¿½": 1206,
        "èĢĮä¸Ķ": 1207,
        "é¦ĸ": 1208,
        "å¤ľ": 1209,
        "åĴ±": 1210,
        "èĻ½": 1211,
        "å¯ĩ": 1212,
        "åĨ³": 1213,
        "åıĳçİ°": 1214,
        "åĩĨ": 1215,
        "é¡¶": 1216,
        "å½Ĵ": 1217,
        "æĳĩå¤´": 1218,
        "è®º": 1219,
        "å¾ħ": 1220,
        "åįİ": 1221,
        "èº«ä½ĵ": 1222,
        "å¹½": 1223,
        "æ´ŀ": 1224,
        "èĭı": 1225,
        "éĨĴ": 1226,
        "ç«ŁçĦ¶": 1227,
        "çŃĶ": 1228,
        "éĢĥ": 1229,
        "ä¸įå¾Ĺ": 1230,
        "å¯»": 1231,
        "ç»ĥ": 1232,
        "è§Ĥ": 1233,
        "å¸Ŀ": 1234,
        "ä¸įçŁ¥éģĵ": 1235,
        "åĩºçİ°": 1236,
        "ä½ĻæħĪ": 1237,
        "ä½łçļĦ": 1238,
        "ä»į": 1239,
        "æĮģ": 1240,
        "åºĶè¯¥": 1241,
        "æľį": 1242,
        "èĤ¯": 1243,
        "ä¹ĭä¸ĭ": 1244,
        "åĨ°": 1245,
        "åı£æ°Ķ": 1246,
        "ä¸Ī": 1247,
        "å§Ĳ": 1248,
        "å§ĳ": 1249,
        "çĮĽ": 1250,
        "æĿ¨": 1251,
        "éĢģ": 1252,
        "å·®": 1253,
        "å¤©åľ°": 1254,
        "æĸĹ": 1255,
        "è¿Ĳ": 1256,
        "åĲĮæĹ¶": 1257,
        "æľīäºº": 1258,
        "å±ħ": 1259,
        "å°ļ": 1260,
        "å¥³åŃĲ": 1261,
        "æŃ¤åĪ»": 1262,
        "é£ĺ": 1263,
        "åı¶": 1264,
        "åĴ±ä»¬": 1265,
        "éª¨": 1266,
        "çŀ¬": 1267,
        "ç©¿": 1268,
        "é¼": 1269,
        "çļĦå¤§": 1270,
        "è®¡": 1271,
        "éº": 1272,
        "æ¿": 1273,
        "å¯¹æĸ¹": 1274,
        "ä¾¿æĺ¯": 1275,
        "çľŁçļĦ": 1276,
        "çľ¼çĿ": 1277,
        "çĹĽ": 1278,
        "å½ĵçĦ¶": 1279,
        "åıĸ": 1280,
        "èĮĥéĹ²": 1281,
        "è§Ĩ": 1282,
        "æĬ¤": 1283,
        "èĬĴ": 1284,
        "é½Ĳ": 1285,
        "èº«åŃĲ": 1286,
        "æłĳ": 1287,
        "çĭ¬": 1288,
        "æ²³": 1289,
        "åį«": 1290,
        "è¿ĩåİ»": 1291,
        "æł¹æľ¬": 1292,
        "æĶ»": 1293,
        "ä¸įåĪ°": 1294,
        "æ¿Ģ": 1295,
        "èĥľ": 1296,
        "çļĦæĹ¶åĢĻ": 1297,
        "ä¸Ģæł·": 1298,
        "ä»¿": 1299,
        "åŃ¦": 1300,
        "åıªè¦ģ": 1301,
        "æĺİçĻ½": 1302,
        "æĸ½": 1303,
        "åį°": 1304,
        "çħ§": 1305,
        "å¤ĩ": 1306,
        "æĻ¯": 1307,
        "ä¿Ŀ": 1308,
        "è±¡": 1309,
        "å¼Ģå§ĭ": 1310,
        "åĬ«": 1311,
        "å±ķ": 1312,
        "å¯ĩä»²": 1313,
        "èĦ¸ä¸Ĭ": 1314,
        "èĤī": 1315,
        "ç»Ń": 1316,
        "ç¢İ": 1317,
        "æ¬¢": 1318,
        "åĲ¸": 1319,
        "é²": 1320,
        "è½°": 1321,
        "ä¸įä½ı": 1322,
        "æĸ°": 1323,
        "çĽ´æİ¥": 1324,
        "çľ¼çĿĽ": 1325,
        "æĽ´æĺ¯": 1326,
        "å¤©ä¸ĭ": 1327,
        "é»ĺ": 1328,
        "åįķ": 1329,
        "æ¥¼": 1330,
        "æŃ¤æĹ¶": 1331,
        "èµ¶": 1332,
        "ç¬¦": 1333,
        "ä¸ĢçĽ´": 1334,
        "èį¯": 1335,
        "æĻ¨": 1336,
        "æĻļ": 1337,
        "å®ŀåĬĽ": 1338,
        "çľŁæĺ¯": 1339,
        "ç´«": 1340,
        "è§Ĵ": 1341,
        "ä¹ĭéĹ´": 1342,
        "çļĦæĺ¯": 1343,
        "åħ´": 1344,
        "æŃ£æĺ¯": 1345,
        "è¯´è¯Ŀ": 1346,
        "ä¸Ģçľ¼": 1347,
        "ä¸ºäºĨ": 1348,
        "ä¸įæķ¢": 1349,
        "å°Ħ": 1350,
        "æľĢåĲİ": 1351,
        "èĴ": 1352,
        "ä»£": 1353,
        "éĻ©": 1354,
        "åĩĮ": 1355,
        "èĻİ": 1356,
        "ä»»ä½ķ": 1357,
        "èĦ¸èī²": 1358,
        "åĩºåİ»": 1359,
        "æŃ¦åĬŁ": 1360,
        "ç®Ģ": 1361,
        "è£Ĥ": 1362,
        "çĶļèĩ³": 1363,
        "å½ĵå¹´": 1364,
        "ä¸Ģéģĵ": 1365,
        "çĽĺ": 1366,
        "ç³»": 1367,
        "å¿½": 1368,
        "èĳ": 1369,
        "æĢĢ": 1370,
        "æĪĳçļĦ": 1371,
        "é¢Ĩ": 1372,
        "éªĳ": 1373,
        "åĵ¼": 1374,
        "æĬ¬": 1375,
        "çĥĪ": 1376,
        "çľĭæĿ¥": 1377,
        "ä¾¯": 1378,
        "ä¸Ģå®ļ": 1379,
        "éĢı": 1380,
        "çĭĲ": 1381,
        "éļ¾éģĵ": 1382,
        "çıł": 1383,
        "åŃĺ": 1384,
        "æĬĵ": 1385,
        "æ¯ķ": 1386,
        "æĮ¥": 1387,
        "äºĮäºº": 1388,
        "å°ģ": 1389,
        "å¿į": 1390,
        "åħ¶ä¸Ń": 1391,
        "çº·": 1392,
        "æľŁ": 1393,
        "åĩºæīĭ": 1394,
        "åŁŁ": 1395,
        "æķĳ": 1396,
        "æ°Ķæģ¯": 1397,
        "åĳĬ": 1398,
        "é¡¿æĹ¶": 1399,
        "æ±ī": 1400,
        "ä»½": 1401,
        "å¸ĥ": 1402,
        "åīįè¾Ī": 1403,
        "æİī": 1404,
        "è¿Ļä½į": 1405,
        "åĻ¨": 1406,
        "åľ¨ä¸Ģ": 1407,
        "çļ±": 1408,
        "ç¾¤": 1409,
        "æĥ³è¦ģ": 1410,
        "æģ¶": 1411,
        "éĹ»": 1412,
        "éĽ¨": 1413,
        "±¼": 1414,
        "èĢģèĢħ": 1415,
        "é±¼": 1416,
        "æķħ": 1417,
        "æ±Ĥ": 1418,
        "ä¸ĭåİ»": 1419,
        "åľ°æĸ¹": 1420,
        "ç¦»å¼Ģ": 1421,
        "åıªèĥ½": 1422,
        "æĮ¡": 1423,
        "æħİ": 1424,
        "æ´ªæĺĵ": 1425,
        "åľ¨äºĨ": 1426,
        "å®Įåħ¨": 1427,
        "ä¸įåı¯": 1428,
        "è½¦": 1429,
        "éĺ¿": 1430,
        "å®ĭ": 1431,
        "æĦ¿": 1432,
        "æī¿": 1433,
        "ä¸ľè¥¿": 1434,
        "å¼ķ": 1435,
        "å¦¹": 1436,
        "ç¿»": 1437,
        "åĨµ": 1438,
        "åĪĿ": 1439,
        "åľĨ": 1440,
        "å¾®å¾®": 1441,
        "åĪ¹": 1442,
        "ç»§": 1443,
        "å¿Į": 1444,
        "ä¸´": 1445,
        "èįī": 1446,
        "èĢ³": 1447,
        "çŁ³è½©": 1448,
        "ä¼¸": 1449,
        "çĩ": 1450,
        "éĽ¾": 1451,
        "æŃ¢": 1452,
        "äº®": 1453,
        "èĢĮåĩº": 1454,
        "çŀ¬éĹ´": 1455,
        "èĦĳ": 1456,
        "ç±": 1457,
        "éľĢ": 1458,
        "åŃ©": 1459,
        "æīĭä¸Ń": 1460,
        "ä¸ĢäºĽ": 1461,
        "å®Ī": 1462,
        "æĿ¾": 1463,
        "åŃĲéĻµ": 1464,
        "åĥıæĺ¯": 1465,
        "æ³¢": 1466,
        "ç¤¼": 1467,
        "çļ®": 1468,
        "èĦ±": 1469,
        "åºŀ": 1470,
        "èĭ¥æĺ¯": 1471,
        "é¾Ļçİĭ": 1472,
        "ä¹ĭåīį": 1473,
        "æ±Łæ¹ĸ": 1474,
        "æ¨ª": 1475,
        "è¯¸": 1476,
        "åĩī": 1477,
        "ä¸ĭçļĦ": 1478,
        "æ³¨": 1479,
        "ä¸ĢçĤ¹": 1480,
        "æĬ±": 1481,
        "åĬŀ": 1482,
        "èĻļç©º": 1483,
        "æĬ¥": 1484,
        "ä¼Ĺäºº": 1485,
        "å¥Ķ": 1486,
        "ä¸¾": 1487,
        "ç½®": 1488,
        "åĪļæīį": 1489,
        "æħķ": 1490,
        "æĭį": 1491,
        "ä¸īäºº": 1492,
        "æĵ": 1493,
        "å«": 1494,
        "ç¼ĵç¼ĵ": 1495,
        "åĿĹ": 1496,
        "æ¢ħ": 1497,
        "éľ²åĩº": 1498,
        "åľ¨éĤ£": 1499,
        "æĪĲäºĨ": 1500,
        "æĥľ": 1501,
        "ä»ĩ": 1502,
        "æı¡": 1503,
        "æ¨¡": 1504,
        "åĩ¤å¹´": 1505,
        "æĪ¿": 1506,
        "æ¶Īå¤±": 1507,
        "èĢĮæĺ¯": 1508,
        "è°¢": 1509,
        "å¾Ĳåĩ¤å¹´": 1510,
        "éģ¿": 1511,
        "å§ĵ": 1512,
        "åĬ²": 1513,
        "éº»": 1514,
        "è¾¾": 1515,
        "èĲ§æĻ¨": 1516,
        "æ¸ħæ¥ļ": 1517,
        "å¸ĪåħĦ": 1518,
        "ä»¿ä½Ľ": 1519,
        "âĢĿï¼Į": 1520,
        "ä»ħ": 1521,
        "å¾ĲåŃĲéĻµ": 1522,
        "åħ¶å®ŀ": 1523,
        "ç»Īäºİ": 1524,
        "å¥¹çļĦ": 1525,
        "ä¹ī": 1526,
        "å¼±": 1527,
        "æľ±": 1528,
        "äºī": 1529,
        "åıªè§ģ": 1530,
        "å¦Ĥä»Ĭ": 1531,
        "åİŁæĿ¥": 1532,
        "ä¿®ä¸º": 1533,
        "åĩ¡": 1534,
        "åĲ¬åĪ°": 1535,
        "æĸĻ": 1536,
        "å·ŀ": 1537,
        "çĭł": 1538,
        "å±ĭ": 1539,
        "æ½": 1540,
        "éĶĭ": 1541,
        "ä¸Ĭå®ĺ": 1542,
        "æİ¨": 1543,
        "æį¢": 1544,
        "æģ¨": 1545,
        "åĩłä¹İ": 1546,
        "é¡»": 1547,
        "æķ´ä¸ª": 1548,
        "ä¹Łæ²¡æľī": 1549,
        "èį¡": 1550,
        "âĢĶâĢĶ": 1551,
        "åĽ¾": 1552,
        "ä¼Ļ": 1553,
        "èĭ±": 1554,
        "ä¸ĢéĹª": 1555,
        "åľ¨ä»ĸ": 1556,
        "èı": 1557,
        "éģĩ": 1558,
        "å¤©éŃĶ": 1559,
        "å¡": 1560,
        "é¢ĺ": 1561,
        "çº¿": 1562,
        "èº«åĲİ": 1563,
        "éĺµæ³ķ": 1564,
        "åĬĽéĩı": 1565,
        "å®ģç¼º": 1566,
        "åįĩ": 1567,
        "èĭį": 1568,
        "çļĦç¥ŀ": 1569,
        "å°¸": 1570,
        "æµª": 1571,
        "çºµ": 1572,
        "éĢł": 1573,
        "å§ĳå¨ĺ": 1574,
        "è¯ķ": 1575,
        "ç¬¬äºĮ": 1576,
        "æľºä¼ļ": 1577,
        "äºĭæĥħ": 1578,
        "è´¥": 1579,
        "åĩłä¸ª": 1580,
        "åı°": 1581,
        "èĨ": 1582,
        "é¢ľ": 1583,
        "è½»è½»": 1584,
        "è½®": 1585,
        "æŁ³": 1586,
        "èĪ¹": 1587,
        "çľŁæŃ£": 1588,
        "æĹ¢çĦ¶": 1589,
        "ä»ĺ": 1590,
        "æŁĲ": 1591,
        "åıĳåĩº": 1592,
        "èĥ¸": 1593,
        "éľį": 1594,
        "ä¸įçĶ±": 1595,
        "åĽ¢": 1596,
        "æµ®": 1597,
        "å¸Į": 1598,
        "ä¿®çĤ¼": 1599,
        "å¾Ĵ": 1600,
        "ä¸ºä»Ģä¹Ī": 1601,
        "é¢¤": 1602,
        "æ¸©": 1603,
        "åħ¶ä»ĸ": 1604,
        "å¸¦çĿĢ": 1605,
        "å¿ĥéĩĮ": 1606,
        "ä»¥ä¸º": 1607,
        "æľīä»Ģä¹Ī": 1608,
        "æĢģ": 1609,
        "ç¨į": 1610,
        "åħ¬åŃĲ": 1611,
        "éĤª": 1612,
        "éĹŃ": 1613,
        "ä¹ĭä¸Ĭ": 1614,
        "ç§°": 1615,
        "åĮħ": 1616,
        "è·³": 1617,
        "ç©¶": 1618,
        "èĩĤ": 1619,
        "è¿Ľåħ¥": 1620,
        "çĽ¯": 1621,
        "æ¢ģ": 1622,
        "æīĢæľī": 1623,
        "æī«": 1624,
        "åĩĨå¤ĩ": 1625,
        "èģļ": 1626,
        "å°ĳå¹´": 1627,
        "èĦī": 1628,
        "æĹłæķ°": 1629,
        "åĢĴæĺ¯": 1630,
        "æł·åŃĲ": 1631,
        "å®ŀåľ¨": 1632,
        "èħ¾": 1633,
        "åľŁ": 1634,
        "èģĶ": 1635,
        "ç£": 1636,
        "è¢į": 1637,
        "åĨįæ¬¡": 1638,
        "åŀ": 1639,
        "çĵ": 1640,
        "æĩ": 1641,
        "ç½¢": 1642,
        "èĴĻ": 1643,
        "è¹": 1644,
        "çķ¥": 1645,
        "æ¯ķç«Ł": 1646,
        "ä½ıäºĨ": 1647,
        "ä¸įè¦ģ": 1648,
        "å¹¿": 1649,
        "é¸£": 1650,
        "æĳĨ": 1651,
        "ä¸Ģçīĩ": 1652,
        "åİ»äºĨ": 1653,
        "çĥŃ": 1654,
        "åĢŁ": 1655,
        "ä¸¥": 1656,
        "ä¸Ģç¬ĳ": 1657,
        "é¡¾æħİ": 1658,
        "ä¸įå°ĳ": 1659,
        "é¡¾æħİä¸º": 1660,
        "æ··": 1661,
        "ç¨ĭ": 1662,
        "åĩŃ": 1663,
        "åĬ©": 1664,
        "èĿ": 1665,
        "å°ĸ": 1666,
        "è®©ä»ĸ": 1667,
        "èĸ": 1668,
        "ç«¹": 1669,
        "æģĲæĢķ": 1670,
        "æ²Ī": 1671,
        "æĿ¥äºĨ": 1672,
        "ä¸įè§ģ": 1673,
        "åıĺåĮĸ": 1674,
        "æķ¬": 1675,
        "åİīå®³": 1676,
        "åľ¨è¿ĻéĩĮ": 1677,
        "èĤ¯å®ļ": 1678,
        "ä¸įäºĨ": 1679,
        "çľ¼åīį": 1680,
        "å²Ľ": 1681,
        "å¹»": 1682,
        "å¯Ł": 1683,
        "å¸ĪçĪ¶": 1684,
        "æĿĢäºĨ": 1685,
        "éķĩ": 1686,
        "åıĶ": 1687,
        "çº¦": 1688,
        "å¥½åĥı": 1689,
        "æĤŁ": 1690,
        "åħħ": 1691,
        "å¾ĹåĪ°": 1692,
        "çļĦéĤ£": 1693,
        "æ¡ĳ": 1694,
        "åŃ¤": 1695,
        "åĩ¶": 1696,
        "åĵªéĩĮ": 1697,
        "çķª": 1698,
        "çļĦå°ı": 1699,
        "ç¬ĳäºĨ": 1700,
        "çī¹": 1701,
        "ä»¤çĭĲ": 1702,
        "å¤º": 1703,
        "å¤§äºº": 1704,
        "çģ°": 1705,
        "åĥ§": 1706,
        "å¹¶ä¸į": 1707,
        "æĢľ": 1708,
        "åĶĲ": 1709,
        "å±ħçĦ¶": 1710,
        "æĭī": 1711,
        "å¦ĩ": 1712,
        "èŀ": 1713,
        "åħ·": 1714,
        "ä¸ĸçķĮ": 1715,
        "éĻ¤äºĨ": 1716,
        "è®¸å¤ļ": 1717,
        "æļ´": 1718,
        "çİ¯": 1719,
        "åģı": 1720,
        "éŁ¦": 1721,
        "æİ¢": 1722,
        "çĴ": 1723,
        "çĪ¹": 1724,
        "çļĦæīĭ": 1725,
        "ç»§ç»Ń": 1726,
        "æĻĵ": 1727,
        "åĳĨ": 1728,
        "èĩ³äºİ": 1729,
        "ä¹ĭäºº": 1730,
        "çĥŁ": 1731,
        "ç®Ń": 1732,
        "éľĢè¦ģ": 1733,
        "èįĴ": 1734,
        "èĢĮåİ»": 1735,
        "è¿ĩäºĨ": 1736,
        "å¿ĺ": 1737,
        "èº«å½¢": 1738,
        "åį±": 1739,
        "åħį": 1740,
        "æĦıæĢĿ": 1741,
        "æĥ¨": 1742,
        "ç¡¬": 1743,
        "æħ¢æħ¢": 1744,
        "å°±åľ¨": 1745,
        "æĸ©": 1746,
        "éĿł": 1747,
        "æ·¡æ·¡": 1748,
        "æ¢¦": 1749,
        "åį·": 1750,
        "åĲ¦åĪĻ": 1751,
        "éŀ": 1752,
        "æŀľçĦ¶": 1753,
        "è´µ": 1754,
        "éĿ¢åīį": 1755,
        "ç¥ŀèī²": 1756,
        "æ»ļ": 1757,
        "æĭħ": 1758,
        "ä¸įåĩº": 1759,
        "èĩ´": 1760,
        "çľ¼ä¸Ń": 1761,
        "æ¶Į": 1762,
        "éģĵåıĭ": 1763,
        "çĿĢä¸Ģ": 1764,
        "æ¯į": 1765,
        "ç»¿": 1766,
        "å¹´è½»": 1767,
        "èµ°äºĨ": 1768,
        "åħĦå¼Ł": 1769,
        "æī¬": 1770,
        "çĸ¯": 1771,
        "ç¥ŀéĢļ": 1772,
        "éļĨ": 1773,
        "åĲŁ": 1774,
        "ä¹ĭåĬĽ": 1775,
        "ä¸Ģä¸ªäºº": 1776,
        "å¢ĥçķĮ": 1777,
        "çĶµ": 1778,
        "å¤«äºº": 1779,
        "è´Ł": 1780,
        "åı¥è¯Ŀ": 1781,
        "è¿Ļæ¬¡": 1782,
        "ä¼ı": 1783,
        "è¿¹": 1784,
        "è¯Ģ": 1785,
        "éĹ®é¢ĺ": 1786,
        "ä½łæĺ¯": 1787,
        "æĺ¥": 1788,
        "ç´ł": 1789,
        "çľĭäºĨ": 1790,
        "çĽ¯çĿĢ": 1791,
        "å¼ı": 1792,
        "è¿·": 1793,
        "äº¬": 1794,
        "è¿Ļæł·çļĦ": 1795,
        "ç©ºä¸Ń": 1796,
        "ä¸įåĲĮ": 1797,
        "çŁŃ": 1798,
        "æĴŀ": 1799,
        "åĵĪåĵĪ": 1800,
        "çĶ²": 1801,
        "éĺģ": 1802,
        "ä¹ĥ": 1803,
        "åĪ¹éĤ£": 1804,
        "é¡º": 1805,
        "æľ¬æĿ¥": 1806,
        "ä¸ĢæŃ¥": 1807,
        "ç´¢": 1808,
        "åı³æīĭ": 1809,
        "åĳ³": 1810,
        "åİĨ": 1811,
        "æŃ»äºĨ": 1812,
        "ä¸Ģäºº": 1813,
        "å¹¸": 1814,
        "å±Ģ": 1815,
        "æ¬²": 1816,
        "éĥŃ": 1817,
        "éĺ¶": 1818,
        "ä¸įéĶĻ": 1819,
        "é²ľ": 1820,
        "å¿Ĺ": 1821,
        "åıĮæīĭ": 1822,
        "éĿ¢çļĦ": 1823,
        "åĴĮå°ļ": 1824,
        "èİ²": 1825,
        "å¤ļå°ĳ": 1826,
        "ä¸ĢåĪĩ": 1827,
        "åģĩ": 1828,
        "å²Ĥ": 1829,
        "ä¸Ģéĺµ": 1830,
        "çĶ·åŃĲ": 1831,
        "æł¼": 1832,
        "æīĳ": 1833,
        "éĽĦ": 1834,
        "æĻº": 1835,
        "çĦ°": 1836,
        "çīĻ": 1837,
        "åĲĮæł·": 1838,
        "çĭ¼": 1839,
        "å¯º": 1840,
        "éĢī": 1841,
        "åĿļ": 1842,
        "å®ļæĸ¹": 1843,
        "æĮī": 1844,
        "éģĵäºº": 1845,
        "æĺ¾çĦ¶": 1846,
        "åĪ°åºķ": 1847,
        "åģ·": 1848,
        "éķ¿èĢģ": 1849,
        "å£ģ": 1850,
        "æĢĶ": 1851,
        "çĽ¸ä¿¡": 1852,
        "æ¸¸": 1853,
        "æŁĶ": 1854,
        "åı¸": 1855,
        "èĢģäºº": 1856,
        "æľīäºĨ": 1857,
        "éĿŀå¸¸": 1858,
        "èº«è¾¹": 1859,
        "ï¼Ľ": 1860,
        "éļ¾ä»¥": 1861,
        "èĵĿ": 1862,
        "è¿ĻæĹ¶": 1863,
        "åı¯æĥľ": 1864,
        "ç«¯": 1865,
        "éĺ²": 1866,
        "éĥ½ä¸į": 1867,
        "çļĦå£°éŁ³": 1868,
        "ç§¦å®ļæĸ¹": 1869,
        "ä¹ĭèī²": 1870,
        "è¿ĻèĪ¬": 1871,
        "çĪ±": 1872,
        "æĳ¸": 1873,
        "æĹłè®º": 1874,
        "æĬµ": 1875,
        "æŁĦ": 1876,
        "æĽ²": 1877,
        "å°¤": 1878,
        "åºĦ": 1879,
        "ä¸Ģæ¬¡": 1880,
        "çĪĨ": 1881,
        "éĴŁ": 1882,
        "æ®ĭ": 1883,
        "è¾ķ": 1884,
        "éĩĮçļĦ": 1885,
        "çı£": 1886,
        "æ¦": 1887,
        "èľ": 1888,
        "åıĺå¾Ĺ": 1889,
        "å¯¹äºİ": 1890,
        "ä¼¯": 1891,
        "åĲ¬å¾Ĺ": 1892,
        "éĩİ": 1893,
        "æĿ¥è¯´": 1894,
        "æİ¥çĿĢ": 1895,
        "äºĨä¸Ģä¸ĭ": 1896,
        "åıªä¸įè¿ĩ": 1897,
        "éĴ±": 1898,
        "åĪĴ": 1899,
        "çīĽ": 1900,
        "ç¼ĺ": 1901,
        "ä»ĬæĹ¥": 1902,
        "æģ¢": 1903,
        "åħ¨éĥ¨": 1904,
        "ä¸ºä½ķ": 1905,
        "èŀį": 1906,
        "è¢ĸ": 1907,
        "âĢĻï¼Į": 1908,
        "å°ıåŃĲ": 1909,
        "è¸ı": 1910,
        "åĤħ": 1911,
        "çĨŁ": 1912,
        "éĺ»": 1913,
        "æģ©": 1914,
        "è½©è¾ķ": 1915,
        "èĢģå¤´": 1916,
        "å¹³éĿĻ": 1917,
        "åľ°ä¸Ĭ": 1918,
        "éĶ¦": 1919,
        "è·ĳ": 1920,
        "æĶ¯": 1921,
        "è¶ħ": 1922,
        "è¿ľå¤Ħ": 1923,
        "äº¡": 1924,
        "çĶ»": 1925,
        "è¾°": 1926,
        "ä¸ĢåĬ¨": 1927,
        "ç®Ĺæĺ¯": 1928,
        "æĹ§": 1929,
        "ä¸īä¸ª": 1930,
        "æ°¸": 1931,
        "æĻĥ": 1932,
        "èĤ©": 1933,
        "åĽŀæĿ¥": 1934,
        "éļıçĿĢ": 1935,
        "åĩĢ": 1936,
        "æ¶Īæģ¯": 1937,
        "éľįçĤ¼": 1938,
        "å¾·": 1939,
        "åĮĸä¸º": 1940,
        "ç«Ļåľ¨": 1941,
        "åħĪçĶŁ": 1942,
        "è¸ª": 1943,
        "æ²¡æĥ³åĪ°": 1944,
        "èħ°": 1945,
        "å©Ĩ": 1946,
        "è·Ŀ": 1947,
        "åĵģ": 1948,
        "æĶ¹": 1949,
        "å°ĺ": 1950,
        "è¿Ł": 1951,
        "ç§»": 1952,
        "åĪ«äºº": 1953,
        "æ¼«": 1954,
        "æĬĸ": 1955,
        "å¤§å¸Ī": 1956,
        "ç¢§": 1957,
        "æħķå®¹": 1958,
        "æĿİçı£": 1959,
        "çĬ¹": 1960,
        "å¹ķ": 1961,
        "çĿ¡": 1962,
        "æĬ¢": 1963,
        "æĿľ": 1964,
        "ä¸įæĸŃ": 1965,
        "äºĨèµ·æĿ¥": 1966,
        "æºĲ": 1967,
        "æĭľ": 1968,
        "ç±»": 1969,
        "ä¸ĬäºĨ": 1970,
        "å¸ĮæľĽ": 1971,
        "ç½ª": 1972,
        "è§ģåĪ°": 1973,
        "ç«¥": 1974,
        "è¿ĺè¦ģ": 1975,
        "çĮľ": 1976,
        "ä¸Ŀæ¯«": 1977,
        "çļĩå¸Ŀ": 1978,
        "æ¸Ĳæ¸Ĳ": 1979,
        "åıĪæĺ¯": 1980,
        "å·´": 1981,
        "æİĴ": 1982,
        "çĳ": 1983,
        "åı·": 1984,
        "å½»": 1985,
        "çīĩåĪ»": 1986,
        "å¢Ļ": 1987,
        "åķ¸": 1988,
        "ç«Łæĺ¯": 1989,
        "éĻĦ": 1990,
        "èµ·äºĨ": 1991,
        "éĻħ": 1992,
        "ç½©": 1993,
        "åĽĽåĳ¨": 1994,
        "èĢģå¤«": 1995,
        "èĵī": 1996,
        "èī²çļĦ": 1997,
        "äºĨä¸Ģå£°": 1998,
        "åħ°": 1999,
        "çĬ¶": 2000,
        "ç§ĭ": 2001,
        "å¾Īå¤ļ": 2002,
        "æľĽçĿĢ": 2003,
        "è¿İ": 2004,
        "è¢ĭ": 2005,
        "å±ŀ": 2006,
        "æŃ¤äºº": 2007,
        "çĥ¦": 2008,
        "å²ģ": 2009,
        "æģ¢å¤į": 2010,
        "åĲŀ": 2011,
        "æŁ¥": 2012,
        "åıĤ": 2013,
        "å¤§å®¶": 2014,
        "åĸĬ": 2015,
        "åĴ¬": 2016,
        "èĢĮæĿ¥": 2017,
        "æĸ½å±ķ": 2018,
        "ç¨³": 2019,
        "æĹłæ¯Ķ": 2020,
        "æİ§": 2021,
        "äºĮåįģ": 2022,
        "è°ĥ": 2023,
        "ä»ĸæĺ¯": 2024,
        "éĢ¼": 2025,
        "è£ħ": 2026,
        "åİļ": 2027,
        "éĩĬ": 2028,
        "è¾ĥ": 2029,
        "ä¸įæĥ³": 2030,
        "åħ¬ä¸»": 2031,
        "æ²īé»ĺ": 2032,
        "æ²Ļ": 2033,
        "åŃ©åŃĲ": 2034,
        "ä»ĸä»¬çļĦ": 2035,
        "ä¸įå¥½": 2036,
        "äºİæĺ¯": 2037,
        "è¯ī": 2038,
        "åĺ¿": 2039,
        "æ¡Į": 2040,
        "ä¹ĭæĹ¶": 2041,
        "ä¹Łæľī": 2042,
        "ä»¶äºĭ": 2043,
        "æĬķ": 2044,
        "å½©": 2045,
        "è°Ī": 2046,
        "å´©": 2047,
        "è¦ģæĺ¯": 2048,
        "éģģ": 2049,
        "ä¸įç®¡": 2050,
        "éĻį": 2051,
        "éĽĨ": 2052,
        "çļĦäºĭæĥħ": 2053,
        "è¶ĬæĿ¥": 2054,
        "åĲ¼": 2055,
        "çļĦä¸Ģå£°": 2056,
        "è·ĥ": 2057,
        "è¯ģ": 2058,
        "åİŁæľ¬": 2059,
        "çł°": 2060,
        "åķĨ": 2061,
        "é¢Ĺ": 2062,
        "è¶ĬæĿ¥è¶Ĭ": 2063,
        "èĥĨ": 2064,
        "ç»ķ": 2065,
        "ç©´": 2066,
        "æĽ¿": 2067,
        "ä»Ĭå¤©": 2068,
        "æį®": 2069,
        "æĿ¥åĪ°": 2070,
        "èĽĩ": 2071,
        "ä½ĵåĨħ": 2072,
        "ä¹ĭå¤ĸ": 2073,
        "çļĦéģĵ": 2074,
        "ç¢°": 2075,
        "æĿĤ": 2076,
        "çĥ§": 2077,
        "å°ĳå¥³": 2078,
        "ä¸Ģèµ·": 2079,
        "æĮĳ": 2080,
        "è´¨": 2081,
        "å¼Ħ": 2082,
        "éģĹ": 2083,
        "åĲĲ": 2084,
        "å¨ģåĬĽ": 2085,
        "ä¸ĢèĤ¡": 2086,
        "è®²": 2087,
        "ä»¥åĲİ": 2088,
        "éĿĸ": 2089,
        "åĪĺ": 2090,
        "èº«ä»½": 2091,
        "ä¹Ĳ": 2092,
        "åŃŁ": 2093,
        "åı«éģĵ": 2094,
        "åºĨ": 2095,
        "å½ĵæĹ¶": 2096,
        "å®¤": 2097,
        "èļ": 2098,
        "å®¶ä¼Ļ": 2099,
        "è¿ħ": 2100,
        "æĬĺ": 2101,
        "åĨ·åĨ·": 2102,
        "åħ³ç³»": 2103,
        "åŃĺåľ¨": 2104,
        "ä¸ģ": 2105,
        "å¾Īå¿«": 2106,
        "èº²": 2107,
        "å°±è¦ģ": 2108,
        "éĥİ": 2109,
        "äº¦": 2110,
        "åĨĴ": 2111,
        "éĩĮéĿ¢": 2112,
        "åĩºçİ°åľ¨": 2113,
        "æ°ĳ": 2114,
        "åľĪ": 2115,
        "åŃĶ": 2116,
        "éĤ£æĺ¯": 2117,
        "ç³Ĭ": 2118,
        "åıĳçĶŁ": 2119,
        "åĸĥ": 2120,
        "ä¸įçĶ¨": 2121,
        "éªĤ": 2122,
        "å¥³äºº": 2123,
        "ç¤º": 2124,
        "èĵ¦": 2125,
        "ä¸ĭäºĨ": 2126,
        "ç§Ģ": 2127,
        "åıĮçľ¼": 2128,
        "çļĦå¿ĥ": 2129,
        "æµĭ": 2130,
        "èµ¤": 2131,
        "çľŁæ°Ķ": 2132,
        "çĩķ": 2133,
        "åħ¨èº«": 2134,
        "éĢŁåº¦": 2135,
        "è¯´çļĦ": 2136,
        "ç¼©": 2137,
        "éĺŁ": 2138,
        "æĪª": 2139,
        "æµĵ": 2140,
        "åĲ«": 2141,
        "è®©äºº": 2142,
        "åĶ¯": 2143,
        "ä¹Į": 2144,
        "ç¥Ń": 2145,
        "çľĭçľĭ": 2146,
        "åĳĬè¯ī": 2147,
        "æŃ£åľ¨": 2148,
        "è¿ĺä¸į": 2149,
        "çļĦæł·åŃĲ": 2150,
        "åĲ¹": 2151,
        "åħĥç¥ŀ": 2152,
        "å¾¡": 2153,
        "è§ģè¿ĩ": 2154,
        "ä¾į": 2155,
        "æĪĳä¹Ł": 2156,
        "ç¾½": 2157,
        "è®®": 2158,
        "åī¯": 2159,
        "éĥ½æ²¡æľī": 2160,
        "çŀª": 2161,
        "æĤł": 2162,
        "æ¸Ĭ": 2163,
        "åı£ä¸Ń": 2164,
        "åħīèĬĴ": 2165,
        "å¼¥": 2166,
        "çĽĳ": 2167,
        "æĥħåĨµ": 2168,
        "æ¯Ľ": 2169,
        "å°ıå¿ĥ": 2170,
        "æĥ§": 2171,
        "åĲ´": 2172,
        "ä¸įå¤ļ": 2173,
        "è²": 2174,
        "å°¤åħ¶": 2175,
        "çľŁäºº": 2176,
        "è§¦": 2177,
        "å¹¶æ²¡æľī": 2178,
        "åĬ¨æīĭ": 2179,
        "åĬŀæ³ķ": 2180,
        "å¼Ģåı£": 2181,
        "é¢ĩ": 2182,
        "è¯´äºĨ": 2183,
        "åĿı": 2184,
        "èĮ¶": 2185,
        "éģį": 2186,
        "çĭĹ": 2187,
        "èħ¿": 2188,
        "è½¬èº«": 2189,
        "ä¸Ńå¹´": 2190,
        "å¼ĢäºĨ": 2191,
        "çĺ": 2192,
        "çĿģ": 2193,
        "è¿Ļæīį": 2194,
        "çĻ»": 2195,
        "æķĪ": 2196,
        "èĪį": 2197,
        "é©¬ä¸Ĭ": 2198,
        "ç¯": 2199,
        "æ¯ģ": 2200,
        "åĳ¨éĿĴ": 2201,
        "åķ¦": 2202,
        "æĥĳ": 2203,
        "éĤ£ä½į": 2204,
        "ä¸īåįģ": 2205,
        "èĢĮå·²": 2206,
        "æĺ¯ä¸ª": 2207,
        "ä¹ĭå¤Ħ": 2208,
        "æīįèĥ½": 2209,
        "ä¸ĢæĹ¶": 2210,
        "ä¸įå®ļ": 2211,
        "å®¹æĺĵ": 2212,
        "æīŃ": 2213,
        "æĭ¼": 2214,
        "æĹłå¿Į": 2215,
        "çŃīäºº": 2216,
        "ä¸ĭä¸Ģ": 2217,
        "ä¾§": 2218,
        "éĤ£ä¸Ģ": 2219,
        "æĸ¹åĲĳ": 2220,
        "å½ĴæĿ¥": 2221,
        "çİ©": 2222,
        "éļĶ": 2223,
        "çĽĸ": 2224,
        "æģŃ": 2225,
        "æĭĶ": 2226,
        "éķ¿çĶŁ": 2227,
        "æĹ©å·²": 2228,
        "å¤©ç©º": 2229,
        "åı¦ä¸Ģ": 2230,
        "ä¹Łæ²¡": 2231,
        "ä¸¤ä½į": 2232,
        "åŃĲçļĦ": 2233,
        "ç¡®å®ŀ": 2234,
        "åĬŁæ³ķ": 2235,
        "åī©": 2236,
        "åĽŀåİ»": 2237,
        "æĿ¯": 2238,
        "å²³": 2239,
        "åŁº": 2240,
        "çĦ¶èĢĮ": 2241,
        "è´¹": 2242,
        "æĻ¶": 2243,
        "åĨ¥": 2244,
        "ä¼ĳ": 2245,
        "ä¸Ĭä¸Ģ": 2246,
        "å¯¹ä»ĺ": 2247,
        "å°ıå®Ŀ": 2248,
        "æĬĹ": 2249,
        "è¶£": 2250,
        "ä¸įåĨį": 2251,
        "åı¹éģĵ": 2252,
        "ä¸įåĬ¨": 2253,
        "ä¸įåı¯èĥ½": 2254,
        "ä»·": 2255,
        "äºĨä¸ĭæĿ¥": 2256,
        "çĶ°": 2257,
        "åĳµ": 2258,
        "æĹĭ": 2259,
        "è¡«": 2260,
        "çľīå¤´": 2261,
        "åĵŃ": 2262,
        "åĸ·": 2263,
        "è®¶": 2264,
        "åĿĲåľ¨": 2265,
        "å¿įä¸įä½ı": 2266,
        "éĤ£è¾¹": 2267,
        "æĺ¯è°ģ": 2268,
        "çĽĽ": 2269,
        "ä¹Łå°±": 2270,
        "çģ¯": 2271,
        "é²ľè¡Ģ": 2272,
        "èĶ": 2273,
        "åĿĩ": 2274,
        "ç¬Ķ": 2275,
        "éĻ·": 2276,
        "åĸĿéģĵ": 2277,
        "åħ»": 2278,
        "å»º": 2279,
        "å¿ĥæĥ³": 2280,
        "ä¸Ĭåİ»": 2281,
        "æĪĸè®¸": 2282,
        "åĬŁåĬĽ": 2283,
        "åĽ°": 2284,
        "èī¯": 2285,
        "èº«å½±": 2286,
        "ç»Ŀå¯¹": 2287,
        "å¿µå¤´": 2288,
        "æľĭ": 2289,
        "éŁ¦å°ıå®Ŀ": 2290,
        "éĻĨå°ı": 2291,
        "åĻ¬": 2292,
        "ä¹ĭåľ°": 2293,
        "éĽĢ": 2294,
        "æĽ´åĬł": 2295,
        "åī§": 2296,
        "åľ¨ä¸ĭ": 2297,
        "å¼¹": 2298,
        "ä¹Łä¸įä¼ļ": 2299,
        "ä»ĸä¸Ģ": 2300,
        "éĿ¢ä¸Ĭ": 2301,
        "äºĨåĩł": 2302,
        "ä¼łæĿ¥": 2303,
        "å¥ĩæĢª": 2304,
        "èķ": 2305,
        "æ£®": 2306,
        "åĸľæ¬¢": 2307,
        "æĿĲ": 2308,
        "æĻ®": 2309,
        "æĪĲä¸º": 2310,
        "æ¨¡æł·": 2311,
        "æ´Ľ": 2312,
        "æŃ¤äºĭ": 2313,
        "æ±ł": 2314,
        "è·ŁçĿĢ": 2315,
        "éĻĨå°ıåĩ¤": 2316,
        "å¥´": 2317,
        "æĢ¨": 2318,
        "è¿Ļè¯Ŀ": 2319,
        "çĶŁæŃ»": 2320,
        "éķľ": 2321,
        "æĺ¯ä¸įæĺ¯": 2322,
        "çĲ´": 2323,
        "å¨ĩ": 2324,
        "å·§": 2325,
        "è¡ĢéŃĶ": 2326,
        "è¿Ľåİ»": 2327,
        "çļĦåīĳ": 2328,
        "è¿ĽæĿ¥": 2329,
        "äººéĥ½": 2330,
        "è§Ħ": 2331,
        "åĸĦ": 2332,
        "ä¼ļåĦ¿": 2333,
        "æµĳ": 2334,
        "æĤ²": 2335,
        "å¢ŀ": 2336,
        "éĤ£äºº": 2337,
        "åĮĹåĩī": 2338,
        "éĽ¶": 2339,
        "å»¶": 2340,
        "æľĽå½ĴæĿ¥": 2341,
        "æŀģä¸º": 2342,
        "åıįèĢĮ": 2343,
        "çº·çº·": 2344,
        "åºŃ": 2345,
        "å·²çĦ¶": 2346,
        "æ¤": 2347,
        "è¯¡": 2348,
        "èĬĤ": 2349,
        "ä¾ł": 2350,
        "æĿ¿": 2351,
        "éģ¥": 2352,
        "æ±Ĺ": 2353,
        "åıĮçĽ®": 2354,
        "æ³ª": 2355,
        "å¾®ç¬ĳ": 2356,
        "çº¯": 2357,
        "åħĪåīį": 2358,
        "èĪŀ": 2359,
        "æĤĦ": 2360,
        "æĬ½": 2361,
        "éĿ¢å¯¹": 2362,
        "æľĭåıĭ": 2363,
        "å¥½äºĨ": 2364,
        "çĹķ": 2365,
        "å°ıå§Ĳ": 2366,
        "ç»Ł": 2367,
        "åĮº": 2368,
        "å¼ºå¤§": 2369,
        "å°º": 2370,
        "å¥½çļĦ": 2371,
        "æķı": 2372,
        "è²Į": 2373,
        "å°ĨåĨĽ": 2374,
        "è¢Ń": 2375,
        "éĨĴè¨Ģ": 2376,
        "ä¸įåģľ": 2377,
        "ãĢĬ": 2378,
        "é¸Ł": 2379,
        "ãĢĭ": 2380,
        "è½¯": 2381,
        "æºĥ": 2382,
        "ç¬¼": 2383,
        "åĲĳçĿĢ": 2384,
        "æ¾": 2385,
        "æĺ¯ä»Ģä¹Ī": 2386,
        "ä¸įåľ¨": 2387,
        "ä½łè¯´": 2388,
        "éª¤": 2389,
        "åĬŁå¤«": 2390,
        "ä¾ĿçĦ¶": 2391,
        "åĳ¨åĽ´": 2392,
        "è¡¨æĥħ": 2393,
        "æĹ©å°±": 2394,
        "è¯´çĿĢ": 2395,
        "å¢¨": 2396,
        "åĪļåĪļ": 2397,
        "éĻĲ": 2398,
        "å½»åºķ": 2399,
        "éĿ¢èī²": 2400,
        "ä¸ĢæĿ¡": 2401,
        "ä¹ĭäºĭ": 2402,
        "å¤ļå¹´": 2403,
        "åıªæĢķ": 2404,
        "å©´": 2405,
        "ç¦ı": 2406,
        "ä¸½": 2407,
        "æ¥ļç¦»éģĵ": 2408,
        "åĲĵ": 2409,
        "éľŀ": 2410,
        "å°ıçļĦ": 2411,
        "çķĻé¦Ļ": 2412,
        "èº¯": 2413,
        "æĦ¤": 2414,
        "æįŁ": 2415,
        "å¥¹ä»¬": 2416,
        "æ¥ļçķĻé¦Ļ": 2417,
        "éļĲéļĲ": 2418,
        "æŀª": 2419,
        "é¹°": 2420,
        "èª": 2421,
        "è¿ĺåľ¨": 2422,
        "æİł": 2423,
        "éĹ¹": 2424,
        "èĪ¬çļĦ": 2425,
        "åįĸ": 2426,
        "è¡Ĺ": 2427,
        "è·Ŀç¦»": 2428,
        "èº«åīį": 2429,
        "æĩĤ": 2430,
        "æħ§": 2431,
        "æĪĳå°±": 2432,
        "åĨħåĬĽ": 2433,
        "ç»ĵæŀľ": 2434,
        "çļĨ": 2435,
        "å¥Ī": 2436,
        "è¿Ļä¸Ģæ¬¡": 2437,
        "æĹ¦": 2438,
        "æľīçļĦ": 2439,
        "åĨĻ": 2440,
        "è¿ħéĢŁ": 2441,
        "ç¼ł": 2442,
        "çļ±çľī": 2443,
        "ä¸įå¦Ĥ": 2444,
        "å¼Ĥå¸¸": 2445,
        "åį³ä½¿": 2446,
        "éĥ¨åĪĨ": 2447,
        "æĭħå¿ĥ": 2448,
        "çľĭåĲĳ": 2449,
        "åĩ°": 2450,
        "ä¸Ģä¸Ŀ": 2451,
        "æİ©": 2452,
        "åºŁ": 2453,
        "æĢ§åĳ½": 2454,
        "ä¼¸æīĭ": 2455,
        "äºĨåı£æ°Ķ": 2456,
        "å¯Ĥ": 2457,
        "å¤§åĵ¥": 2458,
        "éģŃ": 2459,
        "æĿŁ": 2460,
        "ç¬¬ä¸ī": 2461,
        "å¼ĥ": 2462,
        "æľĢç»Ī": 2463,
        "çļĦåľ°æĸ¹": 2464,
        "çªĹ": 2465,
        "ä¸Ģåıª": 2466,
        "ä½©": 2467,
        "åħ±": 2468,
        "èµ·èº«": 2469,
        "å¾Ĺå¾Ī": 2470,
        "éĻĽ": 2471,
        "è¿ĺèĥ½": 2472,
        "æī¾åĪ°": 2473,
        "åĪĥ": 2474,
        "å¯¹æīĭ": 2475,
        "éŃĦ": 2476,
        "æ¢ģèĲ§": 2477,
        "å¸Īå¼Ł": 2478,
        "æŀ¶": 2479,
        "çĤ¹äºĨ": 2480,
        "æľµ": 2481,
        "ä¸įåıĬ": 2482,
        "éĩįè¦ģ": 2483,
        "çľĭè§ģ": 2484,
        "è¿ĽäºĨ": 2485,
        "åħīæĺİ": 2486,
        "éĻĪæĻ¯": 2487,
        "èİ½": 2488,
        "çĨĬ": 2489,
        "æĺİæľĪ": 2490,
        "ä¹ĭä¸Ģ": 2491,
        "åĲ¬è¯´": 2492,
        "åĩºçļĦ": 2493,
        "ä»°": 2494,
        "äºĨä¸ª": 2495,
        "èĩ£": 2496,
        "è¿Ļäºº": 2497,
        "èµĦ": 2498,
        "æĺ¯åľ¨": 2499,
        "ä¹ĺ": 2500,
        "æļĤ": 2501,
        "èĻ¹": 2502,
        "éĢĤ": 2503,
        "ç²ī": 2504,
        "ä¸įç¦ģ": 2505,
        "é£Ł": 2506,
        "åĽŀçŃĶ": 2507,
        "éĿĴå¹´": 2508,
        "åĩºæĿ¥çļĦ": 2509,
        "ç¿¼": 2510,
        "ç©ºéĹ´": 2511,
        "å·¨å¤§çļĦ": 2512,
        "èĲ¥": 2513,
        "åįł": 2514,
        "ä¹ĭå£°": 2515,
        "æĳĩå¤´éģĵ": 2516,
        "èĢĮèµ·": 2517,
        "ä»ĸä¹Ł": 2518,
        "åŀĤ": 2519,
        "çºª": 2520,
        "åļ": 2521,
        "æĭ¥": 2522,
        "é¼İ": 2523,
        "é¹ı": 2524,
        "æĭ¦": 2525,
        "æ³ķå®Ŀ": 2526,
        "ç¥ŀæĥħ": 2527,
        "åħ¥äºĨ": 2528,
        "åĤ²": 2529,
        "æĶ¾å¿ĥ": 2530,
        "åĢ¼": 2531,
        "æ¦Ĥ": 2532,
        "å¤ĸéĿ¢": 2533,
        "å¦ĥ": 2534,
        "æļĹä¸Ń": 2535,
        "åį±éĻ©": 2536,
        "çº§": 2537,
        "æĭ©": 2538,
        "å°±ä¼ļ": 2539,
        "çŃĶåºĶ": 2540,
        "ä¸ĢåĲį": 2541,
        "èĵ¦çĦ¶": 2542,
        "åıįåºĶ": 2543,
        "å¿ĥç¥ŀ": 2544,
        "è°ĵ": 2545,
        "éĻĦè¿ĳ": 2546,
        "æīİ": 2547,
        "åı¦å¤ĸ": 2548,
        "æĿĥ": 2549,
        "å©ī": 2550,
        "ä¹¾": 2551,
        "ä¸ĢæĹ¦": 2552,
        "å´ĸ": 2553,
        "åºĻ": 2554,
        "ä¿®è¡Į": 2555,
        "ç¼Ŀ": 2556,
        "ç¬ĳå®¹": 2557,
        "æĪĳæĺ¯": 2558,
        "è¯´å®Į": 2559,
        "æ°ı": 2560,
        "ç©·": 2561,
        "åĢį": 2562,
        "è½»ä¾¯": 2563,
        "èĲ½åľ¨": 2564,
        "æĢ¥å¿Ļ": 2565,
        "éĹ·": 2566,
        "çīĮ": 2567,
        "çĤ¹çĤ¹å¤´": 2568,
        "åįģåĪĨ": 2569,
        "ç«ĭåį³": 2570,
        "æķ°åįģ": 2571,
        "åĨįè¯´": 2572,
        "éļıåĲİ": 2573,
        "äºĨåĩºæĿ¥": 2574,
        "æ³ī": 2575,
        "æŁ±": 2576,
        "æĽ¾ç»ı": 2577,
        "æķĮäºº": 2578,
        "éĹªåĬ¨": 2579,
        "èĢĥ": 2580,
        "æ³¥": 2581,
        "èĩ³å°ĳ": 2582,
        "èĭıè½»ä¾¯": 2583,
        "è¿ĻäºĽäºº": 2584,
        "å¤§ç¬ĳ": 2585,
        "ç£¨": 2586,
        "åı¯æĢķ": 2587,
        "åİħ": 2588,
        "å¾Īæĺ¯": 2589,
        "ç¦ģåĪ¶": 2590,
        "åīįæĸ¹": 2591,
        "æģĴ": 2592,
        "èµ°åĪ°": 2593,
        "æīĭä¸Ģ": 2594,
        "ç§ĺå¯Ĩ": 2595,
        "è´¼": 2596,
        "æŃ¦æŀĹ": 2597,
        "åįĵ": 2598,
        "æıĴ": 2599,
        "ä»¥åīį": 2600,
        "æŀĿ": 2601,
        "æĪĸèĢħ": 2602,
        "åĭ¾": 2603,
        "éĤ£å°±": 2604,
        "ä¸įèµ·": 2605,
        "é¹¤": 2606,
        "æ´Ĺ": 2607,
        "è¿ľè¿ľ": 2608,
        "ä½łè¿Ļ": 2609,
        "å¯¸": 2610,
        "åĨ·ç¬ĳ": 2611,
        "è¢ģ": 2612,
        "çĸ¾": 2613,
        "è°ĭ": 2614,
        "æīĢåľ¨": 2615,
        "æĦŁåºĶ": 2616,
        "éĤ£éĩĮ": 2617,
        "å¥ĭ": 2618,
        "ä¸Ńäºº": 2619,
        "åĲ¯": 2620,
        "æłĩ": 2621,
        "çļĦé«ĺæīĭ": 2622,
        "ç®Ģåįķ": 2623,
        "ä¸įæĪĲ": 2624,
        "äºĴ": 2625,
        "æĦıå¤ĸ": 2626,
        "å¦ĤåĲĮ": 2627,
        "çĹħ": 2628,
        "æ²»": 2629,
        "åľ¨ä¸Ģèµ·": 2630,
        "åīĳæ³ķ": 2631,
        "åĽłæŃ¤": 2632,
        "æĹģè¾¹": 2633,
        "æ»´": 2634,
        "æĤ¬": 2635,
        "å°±ç®Ĺæĺ¯": 2636,
        "ç²Ĺ": 2637,
        "æĥ¹": 2638,
        "éĩįæĸ°": 2639,
        "ä¸įä½Ĩ": 2640,
        "è±ª": 2641,
        "çĽŁ": 2642,
        "çģ«çĦ°": 2643,
        "é¥Ń": 2644,
        "åºĬ": 2645,
        "ç»ĻæĪĳ": 2646,
        "æľīçĤ¹": 2647,
        "ç»ª": 2648,
        "å¤ªå¤ļ": 2649,
        "çĸ¯çĭĤ": 2650,
        "æ¡ĥ": 2651,
        "éħį": 2652,
        "éĵľ": 2653,
        "èĿ¶": 2654,
        "ç»Ļä½ł": 2655,
        "çıį": 2656,
        "æŀļ": 2657,
        "é¼»": 2658,
        "ç¥ŀè¯Ĩ": 2659,
        "å¥ī": 2660,
        "äºĨä»ĸ": 2661,
        "æĺ¾å¾Ĺ": 2662,
        "èĢĹ": 2663,
        "åĵįèµ·": 2664,
        "çļĦè¯´éģĵ": 2665,
        "èĢģç¥ĸ": 2666,
        "å°¤åħ¶æĺ¯": 2667,
        "æ¬§": 2668,
        "åħħæ»¡": 2669,
        "çħŀ": 2670,
        "éĴĪ": 2671,
        "ç§¯": 2672,
        "æĮº": 2673,
        "æĪĲçļĦ": 2674,
        "å¥Ĺ": 2675,
        "åĬĪ": 2676,
        "æĹĹ": 2677,
        "æķĻä¸»": 2678,
        "å®ĩ": 2679,
        "å£®": 2680,
        "äºĨä¸Ģçľ¼": 2681,
        "çĻ½è¡£": 2682,
        "çº¹": 2683,
        "åĮĸä½ľ": 2684,
        "è¯´æĺ¯": 2685,
        "éĻĽä¸ĭ": 2686,
        "å¿ħé¡»": 2687,
        "æ³¨æĦı": 2688,
        "æľĿéĺ³": 2689,
        "çĩĥ": 2690,
        "ä¸ĢæĬĬ": 2691,
        "çķĻä¸ĭ": 2692,
        "çĽĪ": 2693,
        "çĻ¾å¹´": 2694,
        "èĸĦ": 2695,
        "æ·±å¤Ħ": 2696,
        "ä¹ĭæĦı": 2697,
        "æĿĢäºº": 2698,
        "åĲĳåīį": 2699,
        "æľīæīĢ": 2700,
        "åłª": 2701,
        "éĩĩ": 2702,
        "çľ¯": 2703,
        "è¿«": 2704,
        "èĮ«": 2705,
        "è¿Ļè¾¹": 2706,
        "ä½Ĩä»ĸ": 2707,
        "æĢĸ": 2708,
        "è¿ĺæ²¡æľī": 2709,
        "åª": 2710,
        "ä¸ĬéĿ¢": 2711,
        "ä¸Ģè¾¹": 2712,
        "ç¥Ŀ": 2713,
        "åľ¨æŃ¤": 2714,
        "åĲķ": 2715,
        "èĻ«": 2716,
        "è®¤ä¸º": 2717,
        "ä¸Ģç§į": 2718,
        "å¸ħ": 2719,
        "éº»çĥ¦": 2720,
        "å·¥": 2721,
        "å»·": 2722,
        "åĲįåŃĹ": 2723,
        "è¿Ļä¸¤": 2724,
        "è¯Ĺ": 2725,
        "æĬ¬èµ·": 2726,
        "æīĭæ®µ": 2727,
        "åħĭ": 2728,
        "åĽŃ": 2729,
        "æĦŁåıĹ": 2730,
        "ä¹Łå°±æĺ¯": 2731,
        "æĥ³èµ·": 2732,
        "ä¿®ç½Ĺ": 2733,
        "æĺı": 2734,
        "æĦ£": 2735,
        "å¸Ĳ": 2736,
        "ä¹ł": 2737,
        "éĴ»": 2738,
        "å®ľ": 2739,
        "åĬłä¸Ĭ": 2740,
        "éľ¸": 2741,
        "éĶĲ": 2742,
        "çļĦåĬĽéĩı": 2743,
        "åįģäºĮ": 2744,
        "åŃ½": 2745,
        "çĲĥ": 2746,
        "æĶ»åĩ»": 2747,
        "æī§": 2748,
        "èĪĴ": 2749,
        "è®©æĪĳ": 2750,
        "çļĦæĦŁè§ī": 2751,
        "éĻĨæ¸Ĳ": 2752,
        "çĵ¶": 2753,
        "çĲª": 2754,
        "ä»Ķ": 2755,
        "èĻĳ": 2756,
        "éĢīæĭ©": 2757,
        "å¤©çļĦ": 2758,
        "èĳĽ": 2759,
        "ä½įç½®": 2760,
        "é¼ĵ": 2761,
        "å°Ķ": 2762,
        "åĶĩ": 2763,
        "åĪĽ": 2764,
        "çļĦå®ŀåĬĽ": 2765,
        "äºĨä¸Ģä¸ª": 2766,
        "æĹ¶è¾°": 2767,
        "çīµ": 2768,
        "å´©æºĥ": 2769,
        "å±ł": 2770,
        "éĻª": 2771,
        "ä¹Łè¦ģ": 2772,
        "ä½Ĩåį´": 2773,
        "?âĢĿ": 2774,
        "è·ª": 2775,
        "æĬ¬å¤´": 2776,
        "æīįæĺ¯": 2777,
        "éĩĳåħī": 2778,
        "ä¹Łä¸įæĺ¯": 2779,
        "çľĭåĪ°äºĨ": 2780,
        "èį£": 2781,
        "è¢«äºº": 2782,
        "æĸľ": 2783,
        "éªĹ": 2784,
        "éĢĶ": 2785,
        "åĲİæĿ¥": 2786,
        "è¾ĵ": 2787,
        "å®Ľ": 2788,
        "å¾ĹäºĨ": 2789,
        "å¸ĪåıĶ": 2790,
        "çľ¸": 2791,
        "èµŀ": 2792,
        "èķ´": 2793,
        "å§¬": 2794,
        "åĽŀå¤´": 2795,
        "æĺĨ": 2796,
        "ç¦ħ": 2797,
        "è¿Ļä»¶äºĭ": 2798,
        "å°±åĥı": 2799,
        "æĬĽ": 2800,
        "ä¹ĭæŀģ": 2801,
        "çĿĢä»ĸ": 2802,
        "è¡¥": 2803,
        "è±«": 2804,
        "åĽº": 2805,
        "æīĭæĮĩ": 2806,
        "çĦ¶éģĵ": 2807,
        "æĥ³ä¸įåĪ°": 2808,
        "éĢĨ": 2809,
        "ä¸Ģè·¯": 2810,
        "æĤ¨": 2811,
        "åı²": 2812,
        "å¤ı": 2813,
        "ä»Ķç»Ĩ": 2814,
        "æīĺ": 2815,
        "ä¸ŃåİŁ": 2816,
        "å·¨å¤§": 2817,
        "ç»Ļä»ĸ": 2818,
        "åĲİéĿ¢": 2819,
        "çĥģ": 2820,
        "èĹıéŃĤ": 2821,
        "è¿Ķ": 2822,
        "èĦļæŃ¥": 2823,
        "æŀ¯": 2824,
        "éĥ½è¦ģ": 2825,
        "æĺ¯åĲ¦": 2826,
        "å½±åĵį": 2827,
        "æĪĳä¸į": 2828,
        "æĪĲåĬŁ": 2829,
        "ä¸Ģä½į": 2830,
        "è¶ģ": 2831,
        "ä¹ĥæĺ¯": 2832,
        "ä»İæĿ¥": 2833,
        "å®¶çļĦ": 2834,
        "ä¸ĬæĿ¥": 2835,
        "ä¹Łè®¸": 2836,
        "æĥ³æ³ķ": 2837,
        "èħ¹": 2838,
        "çľĭå¾Ĺ": 2839,
        "æĻ®éĢļ": 2840,
        "ä»ģ": 2841,
        "èĪŁ": 2842,
        "è¯¯": 2843,
        "æĥ³çĿĢ": 2844,
        "ç½¢äºĨ": 2845,
        "å¤§æ±ī": 2846,
        "éĵº": 2847,
        "æĶ¾åľ¨": 2848,
        "è¿ĺæľª": 2849,
        "ãĢĢ": 2850,
        "åħ¨éĥ½": 2851,
        "æ²¡æľīäºº": 2852,
        "æĥħå½¢": 2853,
        "æĮ£": 2854,
        "ç²¾ç¥ŀ": 2855,
        "å®ĹéĹ¨": 2856,
        "çĪ¶äº²": 2857,
        "æŃ»çļĦ": 2858,
        "å¹¶éĿŀ": 2859,
        "æ¸¡": 2860,
        "çº³": 2861,
        "äºĨä¸ĢäºĽ": 2862,
        "åľ°è¯´éģĵ": 2863,
        "è´£": 2864,
        "åıĪæľī": 2865,
        "çļĦç¡®": 2866,
        "è§ģä»ĸ": 2867,
        "ä»¤çĭĲèĹıéŃĤ": 2868,
        "æĥĬè®¶": 2869,
        "åľ°éģĵ": 2870,
        "åı¹äºĨåı£æ°Ķ": 2871,
        "è¯¡å¼Ĥ": 2872,
        "ä¸«": 2873,
        "çĬ¹è±«": 2874,
        "çıĤ": 2875,
        "å¿ĥå¤´": 2876,
        "ä¸»äºº": 2877,
        "ç¬ĳçĿĢ": 2878,
        "åĽŀåĪ°": 2879,
        "åĦ¿åŃĲ": 2880,
        "ç¬ĳäºĨç¬ĳ": 2881,
        "æİ§åĪ¶": 2882,
        "åīĳåħī": 2883,
        "çľŁæŃ£çļĦ": 2884,
        "å¥½å¥½": 2885,
        "å¤§æ¦Ĥ": 2886,
        "çĤ¹äºĨçĤ¹å¤´": 2887,
        "è®¨": 2888,
        "ä»ĸåľ¨": 2889,
        "æĬ¹": 2890,
        "å¿§": 2891,
        "åįģä¸ī": 2892,
        "åĹ¯": 2893,
        "æĻĮ": 2894,
        "é»ĳèī²": 2895,
        "åĲ¬äºĨ": 2896,
        "è®¾": 2897,
        "å·¦æīĭ": 2898,
        "äº²èĩª": 2899,
        "æ²¡æľīä»»ä½ķ": 2900,
        "ä¿Ĭ": 2901,
        "éĥ½åľ¨": 2902,
        "ä½¿å¾Ĺ": 2903,
        "æ¯ħ": 2904,
        "ä½łä¸į": 2905,
        "æ¤ħ": 2906,
        "å¤©å¤ĸ": 2907,
        "æĨ": 2908,
        "çļĩä¸Ĭ": 2909,
        "æĦĪ": 2910,
        "éªĩ": 2911,
        "ä»¤äºº": 2912,
        "åł¡": 2913,
        "æĴķ": 2914,
        "æģ¼": 2915,
        "çĹĽèĭ¦": 2916,
        "çľ¨": 2917,
        "äºı": 2918,
        "èº«æĹģ": 2919,
        "çĥĤ": 2920,
        "åįĹèĲ½": 2921,
        "æ¡Ī": 2922,
        "æĪĳè¦ģ": 2923,
        "å°±åľ¨è¿Ļ": 2924,
        "å¤ĸçļĦ": 2925,
        "åĽĽä¸ª": 2926,
        "èµ«": 2927,
        "åŃĲéĩĮ": 2928,
        "çĺ¦": 2929,
        "çļĦæ°Ķæģ¯": 2930,
        "éĥŃéĿĸ": 2931,
        "ç»ıè¿ĩ": 2932,
        "çŀĴ": 2933,
        "éĥģ": 2934,
        "å½¼": 2935,
        "çľ¼ç¥ŀ": 2936,
        "æī¯": 2937,
        "èµ¶ç´§": 2938,
        "æĿĢæīĭ": 2939,
        "å²©": 2940,
        "å¦Ī": 2941,
        "å°¾": 2942,
        "éĹ¯": 2943,
        "ä¹Łä¼ļ": 2944,
        "ä¸ĢæĥĬ": 2945,
        "çº¸": 2946,
        "æĻ°": 2947,
        "éĥĳ": 2948,
        "å¿Ĩ": 2949,
        "åĨ³å®ļ": 2950,
        "èİ·": 2951,
        "å°±èĥ½": 2952,
        "æĢİæł·": 2953,
        "ç¬¼ç½©": 2954,
        "æ¯«æĹł": 2955,
        "å§ľ": 2956,
        "æ¼ł": 2957,
        "ç¾Ĭ": 2958,
        "å¹¶ä¸įæĺ¯": 2959,
        "å¡Ķ": 2960,
        "åĮ¹": 2961,
        "æĤī": 2962,
        "æŃ¤åľ°": 2963,
        "å¹´çºª": 2964,
        "é»ĳè¡£": 2965,
        "éĢĲ": 2966,
        "ä¸įä¸Ĭ": 2967,
        "æīĩ": 2968,
        "éĹªçĥģ": 2969,
        "åĨħçļĦ": 2970,
        "ç¥ĸå¸Ī": 2971,
        "å¤©ç¥ŀ": 2972,
        "éĶģ": 2973,
        "å§ĭç»Ī": 2974,
        "èĢĢ": 2975,
        "æ²īåĲŁ": 2976,
        "ä¹°": 2977,
        "å¼¯": 2978,
        "åıĺæĪĲ": 2979,
        "å¤´é¡¶": 2980,
        "çĪª": 2981,
        "éļıåį³": 2982,
        "æĺ¯æĪĳ": 2983,
        "åĵªæĢķ": 2984,
        "è¯ļ": 2985,
        "æµ®çİ°": 2986,
        "èģª": 2987,
        "çĶ·äºº": 2988,
        "çĦ¦": 2989,
        "å¹´åīį": 2990,
        "çĶĺ": 2991,
        "æµ©": 2992,
        "éĥ½æľī": 2993,
        "çĶŁçļĦ": 2994,
        "éĤ£ç§į": 2995,
        "ä½łä¹Ł": 2996,
        "åľ¨éĤ£éĩĮ": 2997,
        "åĬ¡": 2998,
        "åĲī": 2999,
        "æĴĳ": 3000,
        "éĻĢ": 3001,
        "è¯´ä»Ģä¹Ī": 3002,
        "äºŃ": 3003,
        "äºĨä¸¤": 3004,
        "åĩĿèģļ": 3005,
        "æ£ł": 3006,
        "åı¹æģ¯": 3007,
        "åįĬæĻĮ": 3008,
        "è¿Ļä¸ªæĹ¶åĢĻ": 3009,
        "ä¿±": 3010,
        "æ³ķåĬĽ": 3011,
        "ç¢Ĺ": 3012,
        "æ¸ħæĻ°": 3013,
        "æĿ¨è¿ĩ": 3014,
        "åĤ¬": 3015,
        "èĲį": 3016,
        "åĲİéĢĢ": 3017,
        "ä¸ĵ": 3018,
        "å¯¹ä»ĸ": 3019,
        "çļĦæĹ¶éĹ´": 3020,
        "é©¬è½¦": 3021,
        "åĢ¾": 3022,
        "ä¸Ĭåīį": 3023,
        "å·¦æľĿéĺ³": 3024,
        "ç½ĳ": 3025,
        "çĹ´": 3026,
        "ä¼´": 3027,
        "éĶ¦åĦ¿": 3028,
        "åħ¶ä½Ļ": 3029,
        "ç®ĢçĽ´": 3030,
        "è¶³å¤Ł": 3031,
        "è®©ä½ł": 3032,
        "ä¸įè¯´": 3033,
        "å¦»": 3034,
        "å²¸": 3035,
        "åħ¨åĬĽ": 3036,
        "æ¡ĳæ¡ĳ": 3037,
        "æĦŁè§īåĪ°": 3038,
        "ç§ģ": 3039,
        "èŃ": 3040,
        "è§£éĩĬ": 3041,
        "ä¸ĸéĹ´": 3042,
        "å°Ĩä»ĸ": 3043,
        "æĹłäºº": 3044,
        "éľľ": 3045,
        "èĥ¸åı£": 3046,
        "èĥĮåĲİ": 3047,
        "è£¹": 3048,
        "åīįéĿ¢": 3049,
        "èĨĿ": 3050,
        "æĹłå£°": 3051,
        "ä¸ĢæĿ¥": 3052,
        "çĿĢçļĦ": 3053,
        "éķ¿åīĳ": 3054,
        "å¼ºå¤§çļĦ": 3055,
        "ç´¯": 3056,
        "èį·": 3057,
        "éª¤çĦ¶": 3058,
        "æ¯«ä¸į": 3059,
        "çĮĽåľ°": 3060,
        "å¥³åĦ¿": 3061,
        "èµĮ": 3062,
        "çļĦåľ°": 3063,
        "ç¨Ģ": 3064,
        "åĬ¿åĬĽ": 3065,
        "å¤ªè¿ĩ": 3066,
        "åºĹ": 3067,
        "æĮĤ": 3068,
        "æīĭæİĮ": 3069,
        "âĢĿãĢĤ": 3070,
        "åĩłäºº": 3071,
        "å®Ĺä¸»": 3072,
        "è½¬çľ¼": 3073,
        "åĳĢ": 3074,
        "èĲ½ä¸ĭ": 3075,
        "æģĲæĢĸ": 3076,
        "ä¸Ģçľĭ": 3077,
        "ä½ķåĨµ": 3078,
        "åĽĽäºº": 3079,
        "è¯´ä¸įå®ļ": 3080,
        "åįģä¸Ģ": 3081,
        "æīĭä¸Ĭ": 3082,
        "çĬ¯": 3083,
        "é±¼åĦ¿": 3084,
        "åı¤æĢª": 3085,
        "æĪĴ": 3086,
        "åĳĺ": 3087,
        "å¾ģ": 3088,
        "èŃ¦": 3089,
        "æľīäºĽä¸į": 3090,
        "å¾ĭ": 3091,
        "èĥĸ": 3092,
        "ç¥ŀç§ĺ": 3093,
        "ä»¤çĭĲåĨ²": 3094,
        "ä½łè¦ģ": 3095,
        "éĽķ": 3096,
        "ä¹¦éĻ¢": 3097,
        "åº·": 3098,
        "ç¢ĳ": 3099,
        "æľĿçĿĢ": 3100,
        "åĭī": 3101,
        "åĪ«çļĦ": 3102,
        "æĦ¿æĦı": 3103,
        "å±ı": 3104,
        "å·®ä¸įå¤ļ": 3105,
        "å¥½å¥ĩ": 3106,
        "çĭ±": 3107,
        "åĴĴ": 3108,
        "ä»Ĺ": 3109,
        "åĮĨ": 3110,
        "éŀŃ": 3111,
        "æ½ľ": 3112,
        "å¼ĵ": 3113,
        "åħ¸": 3114,
        "è·ĭ": 3115,
        "æºľ": 3116,
        "å«£": 3117,
        "åŃĻæĺİæľĪ": 3118,
        "æ°¸è¿ľ": 3119,
        "å¼ĢæĿ¥": 3120,
        "æī¶": 3121,
        "åĵ¦": 3122,
        "å¯»å¸¸": 3123,
        "ä¸Ģåı£æ°Ķ": 3124,
        "æ½®": 3125,
        "æĥ³è±¡": 3126,
        "å¯Į": 3127,
        "éĥ½ä¼ļ": 3128,
        "äººçī©": 3129,
        "åĩłåĪĨ": 3130,
        "å®Ŀçī©": 3131,
        "çļĦå¤©": 3132,
        "å°±ä¸į": 3133,
        "æ²īå£°éģĵ": 3134,
        "åħĥæ°Ķ": 3135,
        "åįĬçĤ¹": 3136,
        "æīĵéĩı": 3137,
        "æİĮéĹ¨": 3138,
        "è¯´åĪ°": 3139,
        "èµı": 3140,
        "çģµæ°Ķ": 3141,
        "å½ĵåĪĿ": 3142,
        "åĪĻæĺ¯": 3143,
        "æ®Ĭ": 3144,
        "éĩĳèī²": 3145,
        "éĨī": 3146,
        "çİĭçĪ·": 3147,
        "ä¾ĿæĹ§": 3148,
        "ç¿ł": 3149,
        "ä¸ĺ": 3150,
        "æ£ĭ": 3151,
        "çķı": 3152,
        "å¼¥æ¼«": 3153,
        "éķ¿å®ī": 3154,
        "æĢ»æĺ¯": 3155,
        "æĶ¹åıĺ": 3156,
        "çĽ´åĪ°": 3157,
        "æ¬º": 3158,
        "æīĭä¸ĭ": 3159,
        "æħĮ": 3160,
        "å¤´é¢": 3161,
        "åĨħå¿ĥ": 3162,
        "èĩªçĦ¶æĺ¯": 3163,
        "éģ®": 3164,
        "å¥½ä¼¼": 3165,
        "äºĨè§£": 3166,
        "è¯´å¾Ĺ": 3167,
        "çī¢": 3168,
        "çĭłçĭł": 3169,
        "æĭĸ": 3170,
        "é¾Ł": 3171,
        "åľ¨åľ°": 3172,
        "å¾®å¾®ä¸Ģ": 3173,
        "ä»įçĦ¶": 3174,
        "é¢¤æĬĸ": 3175,
        "æ»ĳ": 3176,
        "èĭįçĻ½": 3177,
        "ä¹ĭæ°Ķ": 3178,
        "åį´åıĪ": 3179,
        "éģĵçĲĨ": 3180,
        "å¾®ç¬ĳéģĵ": 3181,
        "å®Ľå¦Ĥ": 3182,
        "æľĿå»·": 3183,
        "çĭ¬åŃ¤": 3184,
        "ä¸Ģå£°éģĵ": 3185,
        "æ²¡æľīä»Ģä¹Ī": 3186,
        "æĦŁåĪ°": 3187,
        "è¾ŀ": 3188,
        "æ´Ĵ": 3189,
        "é¢Ŀ": 3190,
        "æĺİæĺ¾": 3191,
        "éĽį": 3192,
        "ä»¥åıĬ": 3193,
        "æĿĢæŃ»": 3194,
        "~~": 3195,
        "æĪĳæĥ³": 3196,
        "è¿Ī": 3197,
        "éĵ¶åŃĲ": 3198,
        "æĦ§": 3199,
        "ç¥¸": 3200,
        "æĻļè¾Ī": 3201,
        "åłĨ": 3202,
        "å°ıé±¼åĦ¿": 3203,
        "æĬ±æĭ³": 3204,
        "è¾Ľ": 3205,
        "å¹¶æľª": 3206,
        "æĤĶ": 3207,
        "åĬ³": 3208,
        "äºĨåĲ§": 3209,
        "æĺ¯ä»ĸ": 3210,
        "éķĸ": 3211,
        "çĽ´å¥Ķ": 3212,
        "çļĦèĢģ": 3213,
        "ä¸Ģä¸ªä¸ª": 3214,
        "çİĭæŀĹçļĦ": 3215,
        "çĮ¿": 3216,
        "å·¦åı³": 3217,
        "æıĲåįĩ": 3218,
        "æī°": 3219,
        "ä½łåı¯": 3220,
        "ä¸įå¤§": 3221,
        "åĨł": 3222,
        "çĸĳæĥĳ": 3223,
        "åĴĲ": 3224,
        "åĶī": 3225,
        "å½ĵä¸ĭ": 3226,
        "ä¸ļ": 3227,
        "æĪ·": 3228,
        "å¤ļä¹ħ": 3229,
        "åĩĦ": 3230,
        "åºĶè¯¥æĺ¯": 3231,
        "åĨ·ç¬ĳéģĵ": 3232,
        "åĽłä¸ºä»ĸ": 3233,
        "å¿ĥæĢĿ": 3234,
        "åĺ¶": 3235,
        "åĪ°æĹ¶åĢĻ": 3236,
        "åıªåĲ¬": 3237,
        "æĺ¨": 3238,
        "è¯»": 3239,
        "è¿ĺæ²¡": 3240,
        "æ´ĭ": 3241,
        "èº«ä¸ĬçļĦ": 3242,
        "ç½ĹåĪ¹": 3243,
        "éĤ£æł·": 3244,
        "åĺ»": 3245,
        "åĲĦèĩª": 3246,
        "æľ¬äºĭ": 3247,
        "ä¸Ģåı£": 3248,
        "åĸĥåĸĥ": 3249,
        "åĵ¼éģĵ": 3250,
        "æ¨Ĭ": 3251,
        "ä¸ĢæİĮ": 3252,
        "èĢĲ": 3253,
        "ä¹ĭéĻħ": 3254,
        "çªģçł´": 3255,
        "å¤´é¢ħ": 3256,
        "æīĭéĩĮ": 3257,
        "å®ĥä»¬": 3258,
        "å¤´ä¸Ĭ": 3259,
        "ä¼ļæľī": 3260,
        "ä¸ĢéĿ¢": 3261,
        "å·«": 3262,
        "åįģåĩł": 3263,
        "å§¿": 3264,
        "å¾Īéļ¾": 3265,
        "æĢĢçĸĳ": 3266,
        "çļĦè¡Ģ": 3267,
        "éĢ¸": 3268,
        "æīĵç®Ĺ": 3269,
        "é¢Ħ": 3270,
        "åĭĩ": 3271,
        "å¤Ķ": 3272,
        "è¦": 3273,
        "è·Į": 3274,
        "è¿ĻçŃī": 3275,
        "å½ĵåį³": 3276,
        "ä¹Łåľ¨": 3277,
        "èĭıéĶ¦åĦ¿": 3278,
        "ç¼ľ": 3279,
        "æĬĬæı¡": 3280,
        "æĦıçļĦ": 3281,
        "ä¹ĭåĨħ": 3282,
        "æŁĵ": 3283,
        "ä¸Ģçķª": 3284,
        "æįī": 3285,
        "çº±": 3286,
        "ç½¡": 3287,
        "ä¸ªäºº": 3288,
        "å½ĵçľŁ": 3289,
        "éģĵçļĦ": 3290,
        "éľĦ": 3291,
        "éĤ£åĲį": 3292,
        "é©¾": 3293,
        "èĤīèº«": 3294,
        "ä¹Łä¸įèĥ½": 3295,
        "éĿĻéĿĻ": 3296,
        "åĨ²åĩ»": 3297,
        "è¢«ä»ĸ": 3298,
        "æīĢæľīäºº": 3299,
        "ä¼łåĩº": 3300,
        "å°Ŀ": 3301,
        "ç¬¬ä¸Ģæ¬¡": 3302,
        "èıľ": 3303,
        "çĨŁæĤī": 3304,
        "é¥¶": 3305,
        "ä¸¢": 3306,
        "ä¸¤åĲį": 3307,
        "æľªå¿ħ": 3308,
        "å¯¿": 3309,
        "é¸¿": 3310,
        "è¦Ĩ": 3311,
        "å¥½å¤Ħ": 3312,
        "çľĭåİ»": 3313,
        "æ¶¨": 3314,
        "æĹłå°½": 3315,
        "ä¸ĥåħ«": 3316,
        "å¿ł": 3317,
        "å®½": 3318,
        "é»ĦéĢįçļĦ": 3319,
        "å¤§éĺµ": 3320,
        "å¤§äºĨ": 3321,
        "æĭĴ": 3322,
        "ä»ħä»ħ": 3323,
        "æ¶Īæķ£": 3324,
        "çĽĬ": 3325,
        "åı¬": 3326,
        "æĥħç»ª": 3327,
        "éĢĿ": 3328,
        "èģĶæīĭ": 3329,
        "äºĨè¿ĩæĿ¥": 3330,
        "åĵĳ": 3331,
        "æŃ»äº¡": 3332,
        "åİĮ": 3333,
        "èĽĭ": 3334,
        "è¿Ļåĩł": 3335,
        "è½»æĺĵ": 3336,
        "éķ¿çļĦ": 3337,
        "æ¬§éĺ³": 3338,
        "çłį": 3339,
        "åľ¨åħ¶": 3340,
        "æĺĬ": 3341,
        "ä¸°": 3342,
        "æľīä¸Ģä¸ª": 3343,
        "å®ĹçļĦ": 3344,
        "æīĭä¸ŃçļĦ": 3345,
        "æļĤæĹ¶": 3346,
        "æĹ¥åĲİ": 3347,
        "çĽĹ": 3348,
        "éĢĴ": 3349,
        "æ®¿ä¸ĭ": 3350,
        "åĶ¯ä¸Ģ": 3351,
        "åįĹå®«": 3352,
        "äº§": 3353,
        "é»Ħèĵī": 3354,
        "åĵ¥åĵ¥": 3355,
        "æŃ£å¥½": 3356,
        "çĽ®çļĦ": 3357,
        "æľ±éĽĢ": 3358,
        "éĺ¿ä¿®ç½Ĺ": 3359,
        "èµ°åİ»": 3360,
        "å·ħ": 3361,
        "ä¸ĢåĽ¢": 3362,
        "çĥĪçļĦ": 3363,
        "è¿Ļåı¥è¯Ŀ": 3364,
        "èī³": 3365,
        "è¯´è¿ĩ": 3366,
        "æĥ³å¿ħ": 3367,
        "è®°å¾Ĺ": 3368,
        "åĬ¨ä½ľ": 3369,
        "çľĭåĩº": 3370,
        "çľĭçĿĢä»ĸ": 3371,
        "ä¿Ĺ": 3372,
        "èĩ³å°Ĭ": 3373,
        "å±Ī": 3374,
        "æ±īåŃĲ": 3375,
        "éĢļè¿ĩ": 3376,
        "åĺĽ": 3377,
        "éŃĶæ®¿": 3378,
        "æīĢè°ĵ": 3379,
        "å¤ļäºĨ": 3380,
        "èĢģåŃĲ": 3381,
        "ä¹Łä¸įçŁ¥": 3382,
        "æ³ķåŃĲ": 3383,
        "èªī": 3384,
        "è´º": 3385,
        "çĴ§": 3386,
        "ä¸Ģåº§": 3387,
        "ç¾ŀ": 3388,
        "æľ«": 3389,
        "è¯´åĩº": 3390,
        "èĦĨ": 3391,
        "åīĳæ°Ķ": 3392,
        "å¤ļçļĦ": 3393,
        "åĤ»": 3394,
        "èĤļ": 3395,
        "ä¸įçĦ¶": 3396,
        "èĭ±éĽĦ": 3397,
        "åĶ¤": 3398,
        "çŃĸ": 3399,
        "éľĩæĥĬ": 3400,
        "èŁ": 3401,
        "å°±åĥıæĺ¯": 3402,
        "æĹłå¥Ī": 3403,
        "åĿĽ": 3404,
        "èĽ®": 3405,
        "èµ°åĩº": 3406,
        "ä¸Ģåīĳ": 3407,
        "æ²¹": 3408,
        "çİĩ": 3409,
        "ä¸ŃéĹ´": 3410,
        "é©°": 3411,
        "æ³Ħ": 3412,
        "æĹłå½¢": 3413,
        "è¿Ļä¸ĢåĪĩ": 3414,
        "åįĥå¹´": 3415,
        "æĪĳçŁ¥éģĵ": 3416,
        "ä¸ĢåĿĹ": 3417,
        "è¿Ļå°±æĺ¯": 3418,
        "åİ®": 3419,
        "å¼ºèĢħ": 3420,
        "æ²Īæµª": 3421,
        "ä¸»æĦı": 3422,
        "æĿĳ": 3423,
        "ä¹Łä¸įçŁ¥éģĵ": 3424,
        "å¤ĶéĽį": 3425,
        "æ®·": 3426,
        "äºĨè¿ĩåİ»": 3427,
        "åħĥå©´": 3428,
        "èĬ¸": 3429,
        "æĥĬäºº": 3430,
        "èĸĽ": 3431,
        "éªĮ": 3432,
        "è°·ç¼ľ": 3433,
        "æŃ£è¦ģ": 3434,
        "åľ¨è¿Ļä¸Ģ": 3435,
        "é»¯": 3436,
        "éŃĶåĩ°": 3437,
        "æĪı": 3438,
        "çĤ¹å¤´éģĵ": 3439,
        "æĸ¹æīį": 3440,
        "å·²æĺ¯": 3441,
        "ä¸ĸä¸Ĭ": 3442,
        "ä¸Ģå¼ł": 3443,
        "ä½łå°±": 3444,
        "éĹ¨åı£": 3445,
        "æļĹæļĹ": 3446,
        "åĺ¿åĺ¿": 3447,
        "èĲ§çĲª": 3448,
        "éĶ®": 3449,
        "ä»ĸä¸į": 3450,
        "æ¨¡ç³Ĭ": 3451,
        "æĻķ": 3452,
        "éĹ¨æ´¾": 3453,
        "èı©": 3454,
        "é»ĳæļĹ": 3455,
        "èĦĳè¢ĭ": 3456,
        "æĭĤ": 3457,
        "æĳ©": 3458,
        "åįģåħ«": 3459,
        "è¿ŀå¿Ļ": 3460,
        "è´´": 3461,
        "æĻĭ": 3462,
        "æ¬£": 3463,
        "èĲ¨": 3464,
        "æ´»çĿĢ": 3465,
        "è¿Łçĸĳ": 3466,
        "å¤§å£°": 3467,
        "é£ŀåīĳ": 3468,
        "åıĪéģĵ": 3469,
        "å¤®": 3470,
        "äºĨä¸Ģåı£æ°Ķ": 3471,
        "åĿł": 3472,
        "åı¶å¼Ģ": 3473,
        "èºº": 3474,
        "é©±": 3475,
        "çļĦæĦıæĢĿ": 3476,
        "å§ļ": 3477,
        "è®©ä»ĸä»¬": 3478,
        "å°½ç®¡": 3479,
        "å®£": 3480,
        "ç¥ŀåĬŁ": 3481,
        "æ¿ĢåĬ¨": 3482,
        "é¸¡": 3483,
        "èº«èº¯": 3484,
        "éĽħ": 3485,
        "æīĵå¼Ģ": 3486,
        "éĴ§": 3487,
        "åİŁåĽł": 3488,
        "å¥ĩå¼Ĥ": 3489,
        "éĺµéĺµ": 3490,
        "åĭīå¼º": 3491,
        "äºķ": 3492,
        "ä¹ĭçī©": 3493,
        "åŁĭ": 3494,
        "å®¢æ°Ķ": 3495,
        "ç»Ŀä¸įä¼ļ": 3496,
        "ç»µ": 3497,
        "æ¶¡": 3498,
        "å·Ŀ": 3499,
        "å°±è¿ŀ": 3500,
        "ä½³": 3501,
        "äºĨåĩºåİ»": 3502,
        "ä¸Ģè§ģ": 3503,
        "åĮ»": 3504,
        "ç»´": 3505,
        "æģ°": 3506,
        "æ¯Ķè¾ĥ": 3507,
        "å¿ĥçļĦ": 3508,
        "éģĵå£«": 3509,
        "çĸ¼": 3510,
        "å±ģ": 3511,
        "éĹªçĶµ": 3512,
        "æĬµæĮ¡": 3513,
        "æĥ¯": 3514,
        "åĪ¤": 3515,
        "å¥¶": 3516,
        "è¾ī": 3517,
        "æ¼Ĩ": 3518,
        "ä¸Ģåľº": 3519,
        "å§Ķ": 3520,
        "åħ³éĶ®": 3521,
        "æī¹": 3522,
        "çİĭçļĦ": 3523,
        "è´¯": 3524,
        "ä¹ĸ": 3525,
        "å¤§å°ı": 3526,
        "ä¹ĭæ³ķ": 3527,
        "çĮ«": 3528,
        "æ¶Ĥ": 3529,
        "åĲĳäºĨ": 3530,
        "æįı": 3531,
        "å´ĩ": 3532,
        "æĲľ": 3533,
        "å¯Łè§ī": 3534,
        "éĺ´éĺ³": 3535,
        "èħķ": 3536,
        "èł": 3537,
        "çĶ¨çļĦ": 3538,
        "åĺ´è§Ĵ": 3539,
        "åĳ¼åĲ¸": 3540,
        "è®¡åĪĴ": 3541,
        "åįģå¹´": 3542,
        "èıģ": 3543,
        "ä¸Ģéľĩ": 3544,
        "æĮ¯": 3545,
        "ä¸įå¿ħ": 3546,
        "èĤĥ": 3547,
        "ç¥ŀéŃĤ": 3548,
        "åĲ©": 3549,
        "æ´ģ": 3550,
        "çİ°åľ¨çļĦ": 3551,
        "å½¢æĪĲ": 3552,
        "åģ¶": 3553,
        "æľĹ": 3554,
        "ä¸ĭæĸ¹": 3555,
        "æĬļ": 3556,
        "å°¸ä½ĵ": 3557,
        "åĲ©åĴĲ": 3558,
        "æĺł": 3559,
        "æĺ¯ä¸Ģä¸ª": 3560,
        "æĺİçĻ½äºĨ": 3561,
        "æĦ¤æĢĴ": 3562,
        "è½¬è¿ĩ": 3563,
        "åįĬä¸ª": 3564,
        "å¼łæĹłå¿Į": 3565,
        "èİ«éĿŀ": 3566,
        "è¿ĩçļĦ": 3567,
        "åĩı": 3568,
        "ä»İæľª": 3569,
        "èĥģ": 3570,
        "é«ĺåħ´": 3571,
        "æ³Ľ": 3572,
        "å°ĳæŀĹ": 3573,
        "å¾Ħ": 3574,
        "åĪ¹éĤ£éĹ´": 3575,
        "çºµçĦ¶": 3576,
        "æĿĸ": 3577,
        "æµħ": 3578,
        "éĻĨçİī": 3579,
        "è§ģäºĨ": 3580,
        "ä½ľä¸º": 3581,
        "èģªæĺİ": 3582,
        "å°Ĩè¿Ļ": 3583,
        "çªį": 3584,
        "ä¹Łèĥ½": 3585,
        "éĩįçļĦ": 3586,
        "ä½İå¤´": 3587,
        "æĢľçĲ´": 3588,
        "æľīä¸ª": 3589,
        "ä»ĸå°±": 3590,
        "è¡¡": 3591,
        "æģķ": 3592,
        "åĬ¨äºĨ": 3593,
        "åłĤä¸»": 3594,
        "æĬ«": 3595,
        "æĺ¯ä½ł": 3596,
        "æ±ŁåįĹ": 3597,
        "ãĢĢĊ": 3598,
        "çŁ¥éģĵäºĨ": 3599,
        "æ°ĶåĬ¿": 3600,
        "å¤¹": 3601,
        "æĳĩæĳĩå¤´": 3602,
        "éĹ¨çļĦ": 3603,
        "å¦Ħ": 3604,
        "è½½": 3605,
        "åį´ä¸į": 3606,
        "æİĪ": 3607,
        "æīĭèĩĤ": 3608,
        "éĩįä¼¤": 3609,
        "èĦĳæµ·": 3610,
        "åĬĿ": 3611,
        "æĽ¹": 3612,
        "å¤ªåŃĲ": 3613,
        "åĪĹ": 3614,
        "å°±åľ¨è¿ĻæĹ¶": 3615,
        "è¶³ä»¥": 3616,
        "ä¸Ģä»¶": 3617,
        "è¶Ł": 3618,
        "æĮ£æīİ": 3619,
        "å®īæİĴ": 3620,
        "è¨Ģè¯Ń": 3621,
        "æľĽåİ»": 3622,
        "åĤ¨": 3623,
        "çļĩåŃĲ": 3624,
        "å±±å³°": 3625,
        "æĵį": 3626,
        "åīĬ": 3627,
        "ä¼¼çļĦ": 3628,
        "åĿĲä¸ĭ": 3629,
        "æ¼©": 3630,
        "åªļ": 3631,
        "ä¸Ĳ": 3632,
        "åĴ³": 3633,
        "å¾ĹæĦı": 3634,
        "æ²¡ä»Ģä¹Ī": 3635,
        "æĭ¾": 3636,
        "éĥ½è¢«": 3637,
        "ä¸Ģä¼ļåĦ¿": 3638,
        "åıĮæĸ¹": 3639,
        "åĹ¡": 3640,
        "ä¾Ľ": 3641,
        "æĳĩäºĨ": 3642,
        "èĢĮä¸ĭ": 3643,
        "å¸Ń": 3644,
        "å¤§æ®¿": 3645,
        "åī²": 3646,
        "çľĭèµ·æĿ¥": 3647,
        "éģĩåĪ°": 3648,
        "çļĦçģµ": 3649,
        "å¤©å¤ĸå¤©": 3650,
        "éĩĳåĪļ": 3651,
        "å¤©éģĵ": 3652,
        "å¸®ä¸»": 3653,
        "æĪ®": 3654,
        "çĪ¹çĪ¹": 3655,
        "çĶļä¹Ī": 3656,
        "æįķ": 3657,
        "èĦı": 3658,
        "ä»ĻåŃĲ": 3659,
        "å¿ĥæĥħ": 3660,
        "ä¹Łä¸įæķ¢": 3661,
        "æ¡¥": 3662,
        "æĪ´": 3663,
        "éŀĺ": 3664,
        "è°¨": 3665,
        "éļĲèĹı": 3666,
        "çĲ¼": 3667,
        "åĴĨ": 3668,
        "æĵ¦": 3669,
        "ä¸įå·²": 3670,
        "ç»Ħ": 3671,
        "æķĽ": 3672,
        "å¥¸": 3673,
        "å®Ĺå¸Ī": 3674,
        "èº«çļĦ": 3675,
        "ä¼¤åĬ¿": 3676,
        "åĽŀäºĭ": 3677,
        "åħ´è¶£": 3678,
        "æľĢå¥½": 3679,
        "åĨ·åĨ·éģĵ": 3680,
        "åī©ä¸ĭ": 3681,
        "è¤": 3682,
        "å¯»æī¾": 3683,
        "åľ¨åľ°ä¸Ĭ": 3684,
        "èİ¹": 3685,
        "åį´æ²¡æľī": 3686,
        "æĦıè¯Ĩ": 3687,
        "è¿Ļä¸ªäºº": 3688,
        "å¤įæĿĤ": 3689,
        "ä¸įæŃ»": 3690,
        "åĤĢ": 3691,
        "ä¸§": 3692,
        "åĨįä¹Ł": 3693,
        "èĦļä¸ĭ": 3694,
        "æĵĴ": 3695,
        "å¿ĺäºĨ": 3696,
        "éĺ´æ²ī": 3697,
        "åºŀæ¯ħ": 3698,
        "åµ": 3699,
        "æĬĵä½ı": 3700,
        "å¤§éģĵ": 3701,
        "éªĨ": 3702,
        "è®¤è¯Ĩ": 3703,
        "æĥ³äºĨ": 3704,
        "å®īéĿĻ": 3705,
        "ä¸¤éģĵ": 3706,
        "åľ°éĿ¢": 3707,
        "å¦¨": 3708,
        "åĵ®": 3709,
        "åĹ¤": 3710,
        "èĪĮ": 3711,
        "çļĦä¸ľè¥¿": 3712,
        "ä¹ĭæľ¯": 3713,
        "é£ŀåĩº": 3714,
        "åį¿": 3715,
        "éļıæĹ¶": 3716,
        "æģį": 3717,
        "æ³ķåĻ¨": 3718,
        "æĹ¥åŃĲ": 3719,
        "æĪĲå°±": 3720,
        "çŃīåĪ°": 3721,
        "æŁľ": 3722,
        "æ¼Ķ": 3723,
        "çľĭä¼¼": 3724,
        "ä¸Ģå¤Ħ": 3725,
        "ä»ĸçŁ¥éģĵ": 3726,
        "çĪ¬": 3727,
        "åıĹäºĨ": 3728,
        "åħ´å¥ĭ": 3729,
        "çļĦä¿®å£«": 3730,
        "éľĨ": 3731,
        "çĤ¸": 3732,
        "æĢİä¹Īä¼ļ": 3733,
        "æĦķ": 3734,
        "ä¼ĺ": 3735,
        "å¡ŀ": 3736,
        "åĸĺ": 3737,
        "åĦ¡": 3738,
        "çļĦäººçī©": 3739,
        "é¥®": 3740,
        "ä¸«å¤´": 3741,
        "ä¸Ĭå®ĺå¦Ĥ": 3742,
        "è¿ĺçľŁ": 3743,
        "ä»ĸå¯¹": 3744,
        "éĩĳé¹ı": 3745,
        "æ´ŀåºľ": 3746,
        "èĬ³": 3747,
        "ç±³": 3748,
        "èº«ä¸º": 3749,
        "ä»Ģä¹Īäºĭ": 3750,
        "èĽŁ": 3751,
        "æ¶²": 3752,
        "äººéĹ´": 3753,
        "æĢİä¼ļ": 3754,
        "çļĦèĦ¸": 3755,
        "çŁ©": 3756,
        "é»ĦéĢįå¿ĥä¸Ń": 3757,
        "åıĽ": 3758,
        "æĪĳä¼ļ": 3759,
        "èĻ½è¯´": 3760,
        "éĻĨçİīèĵī": 3761,
        "ç»½": 3762,
        "åĳµåĳµ": 3763,
        "åĴĨåĵ®": 3764,
        "åıĹä¼¤": 3765,
        "æĺ¯ä¸į": 3766,
        "ä»ĸå¿ĥä¸Ń": 3767,
        "ç¿ħ": 3768,
        "çľĭä¸į": 3769,
        "è¿Ļä¹Īå¤ļ": 3770,
        "èĭ¦ç¬ĳéģĵ": 3771,
        "çĳ¶": 3772,
        "çİīç®Ģ": 3773,
        "æĻ´": 3774,
        "åħīä¸ĢéĹª": 3775,
        "åŁİçļĦ": 3776,
        "çĶŁåĳ½": 3777,
        "ç¢į": 3778,
        "å¤§åľ°": 3779,
        "ä½łæĥ³": 3780,
        "è¾±": 3781,
        "éľ²åĩºä¸Ģ": 3782,
        "å¸Īå¦¹": 3783,
        "çļĦçĽ®åħī": 3784,
        "åįĥä¸ĩ": 3785,
        "è®°å¿Ĩ": 3786,
        "çĿģå¼Ģ": 3787,
        "åĸī": 3788,
        "é²ģ": 3789,
        "è·¯ä¸Ĭ": 3790,
        "åıªå¥½": 3791,
        "åĤĢåĦ¡": 3792,
        "æĸ¹æ³ķ": 3793,
        "éĥ¡": 3794,
        "æĺ¯è¦ģ": 3795,
        "èĲ§æĢľçĲ´": 3796,
        "ä¸ĢæĻĥ": 3797,
        "å£°è¯´éģĵ": 3798,
        "ä»ĭ": 3799,
        "ä¸ĢæĹ¶éĹ´": 3800,
        "å¦ĩäºº": 3801,
        "è¡į": 3802,
        "åįģä½Ļ": 3803,
        "æ·±æ·±": 3804,
        "åĮĹèİ½": 3805,
        "å¨ĥ": 3806,
        "æĶ¾ä¸ĭ": 3807,
        "æ·¡æ·¡éģĵ": 3808,
        "æ³½": 3809,
        "æŃĮ": 3810,
        "æĥ³æĿ¥": 3811,
        "å¤ļè°¢": 3812,
        "çĽ®ä¸Ń": 3813,
        "ç¬ĳå£°": 3814,
        "å°ģåį°": 3815,
        "åįģäºĶ": 3816,
        "æĭ¼åĳ½": 3817,
        "ä¸įè§ī": 3818,
        "èĩŃ": 3819,
        "ä¼°": 3820,
        "æĦģ": 3821,
        "æ¯įäº²": 3822,
        "æ¼©æ¶¡": 3823,
        "æľīåħ³": 3824,
        "æĪĳè¿Ļ": 3825,
        "è¶Ĭåıĳ": 3826,
        "èĳ£": 3827,
        "æĲŃ": 3828,
        "å°ĨéĤ£": 3829,
        "æģĲæĥ§": 3830,
        "å¹¡": 3831,
        "åĩłä½į": 3832,
        "å¹²åĩĢ": 3833,
        "èį·å¥³": 3834,
        "è¾Ł": 3835,
        "çŃīçĿĢ": 3836,
        "çĽĴ": 3837,
        "åĴ½": 3838,
        "æĴ¤": 3839,
        "è´¢": 3840,
        "å¾®å¾®ä¸Ģç¬ĳ": 3841,
        "éĤ£æĹ¶": 3842,
        "åĩºçİ°äºĨ": 3843,
        "æĹłä¸Ĭ": 3844,
        "çĭŀ": 3845,
        "æĬ¥ä»ĩ": 3846,
        "ä»ĸçİ°åľ¨": 3847,
        "è§ģè¯Ĩ": 3848,
        "å§Ĳå§Ĳ": 3849,
        "æ®¿ä¸»": 3850,
        "ä¹Łå¥½": 3851,
        "ä¸ĢèĦ¸": 3852,
        "åĮĹåºľ": 3853,
        "æ³¢åĬ¨": 3854,
        "äººå®¶": 3855,
        "åı¯ä¸įæĺ¯": 3856,
        "éĽ¾æ°Ķ": 3857,
        "çĶŁçĶŁ": 3858,
        "ä¸Ģå®ļè¦ģ": 3859,
        "å¤§åĸľ": 3860,
        "äºĨä¸ĭåİ»": 3861,
        "å¤·": 3862,
        "åĩĽ": 3863,
        "å¹ħ": 3864,
        "è¸¢": 3865,
        "è¿Ĳè½¬": 3866,
        "å¹¶ä¸Ķ": 3867,
        "è®Ń": 3868,
        "æĳĶ": 3869,
        "æľĽåĲĳ": 3870,
        "ä¸İæŃ¤": 3871,
        "åĴĮä»ĸ": 3872,
        "é¬¼åİī": 3873,
        "åĪĳ": 3874,
        "èĭ¦ç¬ĳ": 3875,
        "å°±æľī": 3876,
        "å¤©å°Ĭ": 3877,
        "éĩįéĩį": 3878,
        "èĥ¡éĵģ": 3879,
        "éĴ¢": 3880,
        "åıĹåĪ°": 3881,
        "æ»ĭ": 3882,
        "ä¾¿è¦ģ": 3883,
        "ä½ķå¿ħ": 3884,
        "ä¸Ģèº«": 3885,
        "ï¼ĮâĢĺ": 3886,
        "ç¼ķ": 3887,
        "çľŁå®ŀ": 3888,
        "æŀĹå±¹éģĵ": 3889,
        "å¾Īä¹ħ": 3890,
        "æµĳèº«": 3891,
        "é³": 3892,
        "ç©¶ç«Ł": 3893,
        "æī®": 3894,
        "éĻĮ": 3895,
        "çľ¼ä¸ĭ": 3896,
        "æĸ¹éĿ¢": 3897,
        "ç»ĻäºĨ": 3898,
        "æĢİä¹Īæł·": 3899,
        "èĥ¡éĵģèĬ±": 3900,
        "å¤§åįĬ": 3901,
        "èĮĥåĽ´": 3902,
        "åĲŀåĻ¬": 3903,
        "ä¸įå¯¹": 3904,
        "åĲ¬çĿĢ": 3905,
        "è¿Ļå°ıåŃĲ": 3906,
        "å¢ĵ": 3907,
        "èĵ¬": 3908,
        "ä¸Ģè½¬": 3909,
        "çŁ¥æĻĵ": 3910,
        "è¡Įäºĭ": 3911,
        "åĩĳ": 3912,
        "ç¥ŀåĲĽ": 3913,
        "ç´§å¼ł": 3914,
        "çŃĳ": 3915,
        "è¡ĮåĬ¨": 3916,
        "å¹¼": 3917,
        "çĻ¾éĩĮ": 3918,
        "æĪĺåľº": 3919,
        "æĸ¥": 3920,
        "åģıåģı": 3921,
        "èı©èĲ¨": 3922,
        "çĲĨä¼ļ": 3923,
        "è®¤å¾Ĺ": 3924,
        "å¦¥": 3925,
        "å¾Īå¥½": 3926,
        "çĪĨåıĳ": 3927,
        "è£Ĥç¼Ŀ": 3928,
        "ä¸Ģåĩ»": 3929,
        "å·²ç»ıæĺ¯": 3930,
        "ä¾ĭ": 3931,
        "è´¤": 3932,
        "è½°éļĨ": 3933,
        "å¤´æĿ¥": 3934,
        "çŃĭ": 3935,
        "èĢģçĪ·": 3936,
        "æĬĢ": 3937,
        "ä¸įèĤ¯": 3938,
        "æķ£åıĳ": 3939,
        "åĳ¼åķ¸": 3940,
        "æķ²": 3941,
        "åīįæĿ¥": 3942,
        "èĻļæĹł": 3943,
        "éĤĵ": 3944,
        "è´ª": 3945,
        "ä¿ĿæĮģ": 3946,
        "ä¸įåİ»": 3947,
        "åĩºäºĨä¸Ģ": 3948,
        "çĮ´": 3949,
        "å¹´è½»äºº": 3950,
        "è´«": 3951,
        "çļĦä¸ĢåĪĩ": 3952,
        "åįĪ": 3953,
        "æī©": 3954,
        "ä¿®çľŁ": 3955,
        "éĹªè¿ĩ": 3956,
        "åĲĦç§į": 3957,
        "æĿ¥èĩª": 3958,
        "å±±åºĦ": 3959,
        "åĪĨåĪ«": 3960,
        "çŁĽ": 3961,
        "çķĶ": 3962,
        "ç¥ŀæ®¿": 3963,
        "ç¦»åİ»": 3964,
        "éĶĭå¯Ĵ": 3965,
        "çł¸": 3966,
        "éľĩåĬ¨": 3967,
        "ä»įæĺ¯": 3968,
        "å®ŀåľ¨æĺ¯": 3969,
        "èĢĮè¿ĩ": 3970,
        "æħ¨": 3971,
        "æŃ£å¸¸": 3972,
        "èĬĿ": 3973,
        "ä¸ĩéĩĮ": 3974,
        "äº¬éĥ½": 3975,
        "çĤ¼åĪ¶": 3976,
        "ä¸¹èį¯": 3977,
        "çĶ©": 3978,
        "è§ĦçŁ©": 3979,
        "ä¸İä»ĸ": 3980,
        "ä¸Ĭåı¤": 3981,
        "éĤ£å°±æĺ¯": 3982,
        "çĮĽçĦ¶": 3983,
        "ç»Īç©¶": 3984,
        "çļĦæľºä¼ļ": 3985,
        "ä¸ĳ": 3986,
        "åıĺæĪĲäºĨ": 3987,
        "å¿ĺè®°": 3988,
        "çĤī": 3989,
        "çļĦå¥½": 3990,
        "åħ¶ä»ĸäºº": 3991,
        "çĽ®æłĩ": 3992,
        "éĺĶ": 3993,
        "çĻ½èī²": 3994,
        "æĿ¥å¾Ĺ": 3995,
        "è´§": 3996,
        "æ»¡èĦ¸": 3997,
        "èµ«çĦ¶": 3998,
        "å¿½åľ°": 3999,
        "é¢ĩä¸º": 4000,
        "åŃĲä¸Ĭ": 4001,
        "æīįä¼ļ": 4002,
        "çļĦåħī": 4003,
        "åĥµ": 4004,
        "è¥¿åŁŁ": 4005,
        "éĶĻäºĨ": 4006,
        "ç¬¬åĽĽ": 4007,
        "åĽ½åħ¬": 4008,
        "èĳ¬": 4009,
        "å±±çļĦ": 4010,
        "åľ¨å¥¹": 4011,
        "æľ¬èº«": 4012,
        "èĢģéģĵ": 4013,
        "çİĭåºľ": 4014,
        "æģŃæķ¬": 4015,
        "ä»ĸåıĪ": 4016,
        "è¡°": 4017,
        "ä¿ĿæĬ¤": 4018,
        "æ¯Ķèµ·": 4019,
        "åĢĺ": 4020,
        "åıªè§ī": 4021,
        "è¾£": 4022,
        "çģ¿": 4023,
        "ç§¦å¹¿": 4024,
        "åģļä»Ģä¹Ī": 4025,
        "æĩĴ": 4026,
        "è½©è¾ķéĴ§": 4027,
        "åľ°çļĦ": 4028,
        "èĦĸ": 4029,
        "å¦¹å¦¹": 4030,
        "åĴ¬çīĻ": 4031,
        "çĪ·çĪ·": 4032,
        "ç°": 4033,
        "è¯´ä¸įåĩº": 4034,
        "è¯¦": 4035,
        "éĿĴäºĳ": 4036,
        "æĹłç©·": 4037,
        "åĪ©çĶ¨": 4038,
        "ä¸Ģåı¥": 4039,
        "è¯Ńæ°Ķ": 4040,
        "åģļåĪ°": 4041,
        "å«ģ": 4042,
        "æķħæĦı": 4043,
        "è·ĭéĶĭå¯Ĵ": 4044,
        "ä»ª": 4045,
        "åŃ£": 4046,
        "å®ı": 4047,
        "éĽ·éľĨ": 4048,
        "å¸ĥç½®": 4049,
        "ä¸įçĿĢ": 4050,
        "ä¾µ": 4051,
        "éĢłåĮĸ": 4052,
        "æĮīçħ§": 4053,
        "å¹´æĿ¥": 4054,
        "æĤ¦": 4055,
        "è¿ĻçĤ¹": 4056,
        "æľīä½ķ": 4057,
        "ç¨ĭåº¦": 4058,
        "å°Ĩåħ¶": 4059,
        "èĭ¥éĿŀ": 4060,
        "çĽĳå¯Ł": 4061,
        "è½®åĽŀ": 4062,
        "å½¼æŃ¤": 4063,
        "ä¸ĢæĢĶ": 4064,
        "æķ´ä¸ªäºº": 4065,
        "èł¢": 4066,
        "ä¸Ģå±Ĥ": 4067,
        "æ³°": 4068,
        "å¤§æĪĺ": 4069,
        "èµ¢": 4070,
        "èī°": 4071,
        "çİ²": 4072,
        "æ»Ķ": 4073,
        "åİĭåĪ¶": 4074,
        "åĪĨæĺİ": 4075,
        "çĬ¶æĢģ": 4076,
        "å¸Ĥ": 4077,
        "åĤ¨çī©": 4078,
        "ä½İå£°éģĵ": 4079,
        "éĺİ": 4080,
        "ä¸Ĭä¸ĭ": 4081,
        "æŃ»åľ¨": 4082,
        "èİ«åĲį": 4083,
        "åĲİçļĦ": 4084,
        "äººå½±": 4085,
        "ä½łèĭ¥": 4086,
        "æĭ¥æľī": 4087,
        "åķª": 4088,
        "çĴĥ": 4089,
        "ä¸Ģå®ļä¼ļ": 4090,
        "æĿĢæĪ®": 4091,
        "ä¸įæĦ¿": 4092,
        "éĻ¡": 4093,
        "æ²¿": 4094,
        "æĿ°": 4095,
        "åĨ°åĨ·": 4096,
        "ç´§ç´§": 4097,
        "ç²¾è¡Ģ": 4098,
        "çĽ¸æ¯Ķ": 4099,
        "ç¦Ģ": 4100,
        "å¾Īæľī": 4101,
        "åĪ·": 4102,
        "èĢģå®ŀ": 4103,
        "åĳ½ä»¤": 4104,
        "ä½łè¿ĺ": 4105,
        "å¿ħå®ļ": 4106,
        "åŃ©åĦ¿": 4107,
        "ä¸ĭéĿ¢": 4108,
        "è½¬å¤´": 4109,
        "ä¸Ĭå®ĺé£ŀ": 4110,
        "æ¢ħæ¢ħ": 4111,
        "çĻ»æĹ¶": 4112,
        "ä¹ĭå¿ĥ": 4113,
        "è®©å¥¹": 4114,
        "æ¶Ľ": 4115,
        "ä¸įçĶ±å¾Ĺ": 4116,
        "æ¶¯": 4117,
        "ä¸Ģå¤´": 4118,
        "è¡£æľį": 4119,
        "åĲĥæĥĬ": 4120,
        "å·ħå³°": 4121,
        "å°¼": 4122,
        "éŃı": 4123,
        "æĬ¤åį«": 4124,
        "å§Ĭ": 4125,
        "å°ıåĩ¡": 4126,
        "åħ¶åĨħ": 4127,
        "èĢģäººå®¶": 4128,
        "è§£åĨ³": 4129,
        "ä¸ĢæĭĽ": 4130,
        "ä¹Łéĥ½": 4131,
        "å¤ļåįĬ": 4132,
        "ç²Ĵ": 4133,
        "åľ¨ç©ºä¸Ń": 4134,
        "èĤ¤": 4135,
        "ä¸įè¶³": 4136,
        "éĿĴèī²": 4137,
        "ä¸įå¾Ĺä¸į": 4138,
        "é£ĺé£ĺ": 4139,
        "æ®µæĹ¶éĹ´": 4140,
        "éĹ¨å¤ĸ": 4141,
        "å¸ĺ": 4142,
        "çĲ³": 4143,
        "ç¥ĸç¥ŀ": 4144,
        "è®¸ä¹ħ": 4145,
        "äººä»¬": 4146,
        "æĢĴéģĵ": 4147,
        "ä¸Ńå¹´çĶ·åŃĲ": 4148,
        "ç«¥åŃĲ": 4149,
        "ä¸İæŃ¤åĲĮæĹ¶": 4150,
        "åĨ¯": 4151,
        "ä¾Ħ": 4152,
        "åĿ¦": 4153,
        "æ³ķåĪĻ": 4154,
        "çļĦä¸ĢäºĽ": 4155,
        "æĮĩçĤ¹": 4156,
        "åľ¨å¤©": 4157,
        "éģ¿å¼Ģ": 4158,
        "èªĵ": 4159,
        "æĪĳçŃī": 4160,
        "æİĲ": 4161,
        "æ²§": 4162,
        "æĿİä¸ĸ": 4163,
        "çļĦéĢŁåº¦": 4164,
        "å®³æĢķ": 4165,
        "æ¼Ĩé»ĳ": 4166,
        "å¸ĪåĤħ": 4167,
        "è½»åĬŁ": 4168,
        "çŁ®": 4169,
        "å¨ģèĥģ": 4170,
        "è¯¸ä½į": 4171,
        "æĸ¹åľĨ": 4172,
        "çľģ": 4173,
        "äºĭå®ŀ": 4174,
        "èĢĮåĲİ": 4175,
        "å®ļäºĨ": 4176,
        "é»ĦéĢįè¯´éģĵ": 4177,
        "éªĳåħµ": 4178,
        "çľĭä»ĸ": 4179,
        "åįĥéĩĮ": 4180,
        "åĴ§": 4181,
        "ä¸Ģæł¹": 4182,
        "æİĢ": 4183,
        "ä¼łè¯´": 4184,
        "åīįçļĦ": 4185,
        "çİĦæľº": 4186,
        "è·¨": 4187,
        "éĹ¨ä¸ĭ": 4188,
        "æĪĳåĴĮ": 4189,
        "çļĦæ°Ķ": 4190,
        "æľ¨èĢģå¤´": 4191,
        "å°ļæľª": 4192,
        "æħ°": 4193,
        "åĵĢ": 4194,
        "èŀįåĲĪ": 4195,
        "èģĬ": 4196,
        "ä¸Ģä¸ĭåŃĲ": 4197,
        "ç»ıèĦī": 4198,
        "çļĩå®«": 4199,
        "æĺŁè¾°": 4200,
        "çĻ¾å§ĵ": 4201,
        "éĻĨå°ıåĩ¤éģĵ": 4202,
        "æĪĳåİ»": 4203,
        "æ¡Ĥ": 4204,
        "åı¯ä¸į": 4205,
        "å®ĺåĳĺ": 4206,
        "åı¯è§ģ": 4207,
        "éĹŃåħ³": 4208,
        "å¤§ç¬ĳéģĵ": 4209,
        "è´Ŀ": 4210,
        "æĬĬä»ĸ": 4211,
        "æŁı": 4212,
        "éļĻ": 4213,
        "é«ĺçļĦ": 4214,
        "å£°åĵį": 4215,
        "è¥¿éĹ¨": 4216,
        "åıįæŃ£": 4217,
        "å¯¹éĿ¢": 4218,
        "éľ²åĩºäºĨ": 4219,
        "ä½łæĢİä¹Ī": 4220,
        "ä¸Ńå¤®": 4221,
        "æ±¹": 4222,
        "è¿Ļä¸¤ä¸ª": 4223,
        "å¤§æľī": 4224,
        "åľ¨å¤§": 4225,
        "æĻģ": 4226,
        "å°ĳçĪ·": 4227,
        "æĹłæĥħ": 4228,
        "ä¸ĸåŃĲ": 4229,
        "éļ¾å¾Ĺ": 4230,
        "å°±æŃ¤": 4231,
        "çĽĳå¯ŁéĻ¢": 4232,
        "èĤĸ": 4233,
        "éĹ´çļĦ": 4234,
        "éĢļå¤©": 4235,
        "ä¾įåį«": 4236,
        "ä»ĳ": 4237,
        "ä¸ĢèĪ¬çļĦ": 4238,
        "åĽĽéĿ¢": 4239,
        "è¿Ļä¸ĢçĤ¹": 4240,
        "å¼łå°ıåĩ¡": 4241,
        "åĩºä¸Ģä¸ª": 4242,
        "èįīåİŁ": 4243,
        "éĤ£èĪ¬": 4244,
        "ä¸įè§ģäºĨ": 4245,
        "æĥ¨åı«": 4246,
        "æ°ĶçļĦ": 4247,
        "é¢Ī": 4248,
        "åĨ·åĵ¼": 4249,
        "æĿĨ": 4250,
        "çī¹åĪ«": 4251,
        "åľ¨ä»ĸçļĦ": 4252,
        "çĶ¨åĬĽ": 4253,
        "å¤ªéĺ³": 4254,
        "å±±è°·": 4255,
        "ç¾İä¸½": 4256,
        "å©Ĩå©Ĩ": 4257,
        "åĨ²å¤©": 4258,
        "çĩĥçĥ§": 4259,
        "é¥°": 4260,
        "ä¸Ģåıĺ": 4261,
        "ä¸ŃäºĨ": 4262,
        "å¤§äºĭ": 4263,
        "ä¹Łå¾Ĺ": 4264,
        "çļĦæīĭæ®µ": 4265,
        "æİĮæŁľ": 4266,
        "èµµèĬ¸": 4267,
        "èİº": 4268,
        "ç»£": 4269,
        "æļĸ": 4270,
        "çĮİ": 4271,
        "ç¹": 4272,
        "æĪĳè¯´": 4273,
        "åĨįåĬłä¸Ĭ": 4274,
        "æĺĶ": 4275,
        "éļĲçº¦": 4276,
        "å¤©åĲĽ": 4277,
        "åħħæ»¡äºĨ": 4278,
        "å¹»åĮĸ": 4279,
        "åı®": 4280,
        "æĭ³å¤´": 4281,
        "æ²¡éĶĻ": 4282,
        "æĪĳè¿ĺ": 4283,
        "çĤİ": 4284,
        "çģµéŃĤ": 4285,
        "æĹ¨": 4286,
        "éŃĶç¥ŀ": 4287,
        "åħ¶ä»ĸçļĦ": 4288,
        "å¤ªçĽĳ": 4289,
        "åģļäºĨ": 4290,
        "æĶ¾å¼ĥ": 4291,
        "ä¸ĥå½©": 4292,
        "ç½ķ": 4293,
        "åĺ²": 4294,
        "å£°ä¸Ń": 4295,
        "ä¸¤åıª": 4296,
        "æ²¡äºĨ": 4297,
        "åĬ¨çļĦ": 4298,
        "çº¢éĽª": 4299,
        "å½±åŃĲ": 4300,
        "æĵħ": 4301,
        "é¢ľèī²": 4302,
        "æĭ¬": 4303,
        "æ£º": 4304,
        "æĮ¤": 4305,
        "ç¬¬äºĶ": 4306,
        "æĺ¯ä»¥": 4307,
        "çķĻåľ¨": 4308,
        "ä½łæĪĳ": 4309,
        "å¤±æľĽ": 4310,
        "çĽ¸å½ĵ": 4311,
        "åıªå¾Ĺ": 4312,
        "æ¼ı": 4313,
        "çł°çł°": 4314,
        "æľīå¤ļ": 4315,
        "æİ·": 4316,
        "åĲĳä»ĸ": 4317,
        "åı¤ç¥ŀ": 4318,
        "ç©´éģĵ": 4319,
        "åºĵ": 4320,
        "ä½łåİ»": 4321,
        "ç»ıåİĨ": 4322,
        "æĴ¼": 4323,
        "é½¿": 4324,
        "èħ¥": 4325,
        "ç«Ļèµ·èº«": 4326,
        "æ£į": 4327,
        "çľĭäºĨä¸Ģçľ¼": 4328,
        "äººå¿ĥ": 4329,
        "åĩºçİ°åľ¨äºĨ": 4330,
        "èµĲ": 4331,
        "èģĮ": 4332,
        "ä»Ĩ": 4333,
        "å¤©äºº": 4334,
        "çľŁè¦ģ": 4335,
        "åĦĴ": 4336,
        "æľ¬æºĲ": 4337,
        "çĸ²": 4338,
        "ä¸Ľ": 4339,
        "åĤħçº¢éĽª": 4340,
        "ä½łèĥ½": 4341,
        "çĮľæµĭ": 4342,
        "æ¼Ĥ": 4343,
        "ä¸įè¯Ń": 4344,
        "èĭĹ": 4345,
        "å¸Īå§Ĳ": 4346,
        "å¼ºè¡Į": 4347,
        "çĲī": 4348,
        "å¥ĳ": 4349,
        "æ®µèªī": 4350,
        "èĩªèº«": 4351,
        "çŃ¹": 4352,
        "éĹ»è¨Ģ": 4353,
        "åĿļæĮģ": 4354,
        "è¯´ç½¢": 4355,
        "éĻ¤éĿŀ": 4356,
        "æĽ´æľī": 4357,
        "ä¸ĢåĪĢ": 4358,
        "å¤§åĨĽ": 4359,
        "åĩºåı£": 4360,
        "åĳľ": 4361,
        "çłĶ": 4362,
        "ç¹ģ": 4363,
        "åħµåĻ¨": 4364,
        "å¥¥": 4365,
        "åĸĬéģĵ": 4366,
        "æ¯ģçģŃ": 4367,
        "ä¸ĢåĲĳ": 4368,
        "æŃĩ": 4369,
        "å¯¼": 4370,
        "æŀģåħ¶": 4371,
        "èĨĢ": 4372,
        "æĢİèĥ½": 4373,
        "åį´ä¹Ł": 4374,
        "è¾¾åĪ°": 4375,
        "æľĢè¿ĳ": 4376,
        "ä¸īä½į": 4377,
        "æĳĩäºĨæĳĩå¤´": 4378,
        "ä¸ĢåĲ¬": 4379,
        "åĮħè£¹": 4380,
        "åħģ": 4381,
        "ä½ľçĶ¨": 4382,
        "çĻ½åħī": 4383,
        "åĩĮåŃ½": 4384,
        "åĩºå£°": 4385,
        "è£³": 4386,
        "è½°çĦ¶": 4387,
        "å®īåħ¨": 4388,
        "æĹıçļĦ": 4389,
        "éĥ½èĥ½": 4390,
        "æ½Ń": 4391,
        "åľ¨æĪĳ": 4392,
        "èĤĮ": 4393,
        "å°ĨæĿ¥": 4394,
        "ä½©æľį": 4395,
        "æĤĦæĤĦ": 4396,
        "ä¸Ģæīĭ": 4397,
        "æĥ®": 4398,
        "èĬ¦": 4399,
        "éĿłè¿ĳ": 4400,
        "è¿Ľè¡Į": 4401,
        "è¿Ĳæ°Ķ": 4402,
        "å®ħ": 4403,
        "æīŃæĽ²": 4404,
        "çľ¼è§ģ": 4405,
        "æ±ĩ": 4406,
        "ä¹Ķ": 4407,
        "è±¹": 4408,
        "æ¹¿": 4409,
        "çĸ¯çĭĤçļĦ": 4410,
        "æĪĳæĿ¥": 4411,
        "å£¶": 4412,
        "çĲīçĴĥ": 4413,
        "å¤§ä¾ł": 4414,
        "åĺ´éĩĮ": 4415,
        "é»Ľ": 4416,
        "åĢĺèĭ¥": 4417,
        "ä¸Ĭç©º": 4418,
        "å°ıå¼Ł": 4419,
        "æĶ¶åĽŀ": 4420,
        "è¯´æĿ¥": 4421,
        "æµģè½¬": 4422,
        "å¨ĺå¨ĺ": 4423,
        "æ¬¢åĸľ": 4424,
        "ç¦»å¼ĢäºĨ": 4425,
        "æĺĨä»ĳ": 4426,
        "éĤ£éģĵ": 4427,
        "åį¢": 4428,
        "åĸĿéħĴ": 4429,
        "åıī": 4430,
        "åĿ¤": 4431,
        "ä¸Ģå¤©": 4432,
        "åħĪå¤©": 4433,
        "æĺ¯ä½ķ": 4434,
        "ç³Ł": 4435,
        "ç©¶ç«Łæĺ¯": 4436,
        "äºĽä»Ģä¹Ī": 4437,
        "ä¸ĥä¸ĥ": 4438,
        "ä¸²": 4439,
        "æİ¥è¿ĳ": 4440,
        "åĩĮåİī": 4441,
        "åĢĴä¹Ł": 4442,
        "åĨįæĹł": 4443,
        "ä¸»çļĦ": 4444,
        "ä¸įåłª": 4445,
        "æīĶ": 4446,
        "ç©Ĩ": 4447,
        "æı´": 4448,
        "çĽĺèĨĿ": 4449,
        "è¹Ļ": 4450,
        "éĽģ": 4451,
        "æĺİæĺİ": 4452,
        "æĥĬå¤©": 4453,
        "çļ±çľīéģĵ": 4454,
        "åĽ½åħ¬åºľ": 4455,
        "æİĮæı¡": 4456,
        "èµĦæł¼": 4457,
        "æıĲèµ·": 4458,
        "ç§ĺæľ¯": 4459,
        "æĶ¾è¿ĩ": 4460,
        "æĺŁç©º": 4461,
        "çĶŁæľº": 4462,
        "è½»æĿ¾": 4463,
        "ä¿©": 4464,
        "å¿ĥä¸ĭ": 4465,
        "çŀ¥": 4466,
        "æĭ¨": 4467,
        "å§ľæģĴ": 4468,
        "éĺ»æŃ¢": 4469,
        "èĲ§è¯Ĺ": 4470,
        "ç«ĭæĹ¶": 4471,
        "åħ¬åŃĻ": 4472,
        "çºł": 4473,
        "ä»£è¡¨": 4474,
        "ä¸įå®ī": 4475,
        "éļ¾æĢª": 4476,
        "é»Ħéĩĳ": 4477,
        "å°±è¢«": 4478,
        "æľīæ²¡æľī": 4479,
        "åĢı": 4480,
        "åĻĹ": 4481,
        "æ¶ī": 4482,
        "ä¸įæĢķ": 4483,
        "åİŁåľ°": 4484,
        "æ²¡äºº": 4485,
        "æĽ¼": 4486,
        "æĺ¯æľī": 4487,
        "éŃĶå¤´": 4488,
        "äºĨä¸Ģåı¥": 4489,
        "æŃ¤å¥³": 4490,
        "èĤĨ": 4491,
        "å·®çĤ¹": 4492,
        "ç¥ŀåħī": 4493,
        "èĥ½åĬĽ": 4494,
        "æ§": 4495,
        "èº¬": 4496,
        "å¤ĸäºº": 4497,
        "ä¸Ģæī«": 4498,
        "çĶŁåĩº": 4499,
        "æİ¥è¿ĩ": 4500,
        "çļĦå¥³åŃĲ": 4501,
        "å¾Ĺç½ª": 4502,
        "ä»ĸå·²ç»ı": 4503,
        "ä¿¡å¿ĥ": 4504,
        "çĽ¾": 4505,
        "è¯Ľ": 4506,
        "å¯¹çĿĢ": 4507,
        "åºŀå¿Į": 4508,
        "èİ²èĬ±": 4509,
        "äº«": 4510,
        "æł¹æľ¬å°±": 4511,
        "éĩĳé¹ıåł¡": 4512,
        "è¯±": 4513,
        "æłª": 4514,
        "æ´¾çļĦ": 4515,
        "è¿Ļå°ı": 4516,
        "æĿ¥åİĨ": 4517,
        "éķ¿åŃĻ": 4518,
        "å¤§å¸ĪåħĦ": 4519,
        "æļĹåĻ¨": 4520,
        "ä¹ŁæĹłæ³ķ": 4521,
        "æĸŃäºĨ": 4522,
        "èĥİ": 4523,
        "æ¾ľ": 4524,
        "å¤ļå¤ļ": 4525,
        "çļĦä¸Ģä¸ª": 4526,
        "åĴ¦": 4527,
        "éĥ½å·²": 4528,
        "æİ¥ä¸ĭæĿ¥": 4529,
        "ï¼ļâĢĺ": 4530,
        "éĢĬ": 4531,
        "è¹Ħ": 4532,
        "çļĦéĿ¢": 4533,
        "å¥Īä½ķ": 4534,
        "ä¸Ĭäºº": 4535,
        "ä¸ĢæĮĩ": 4536,
        "æī¿å¿Ĺ": 4537,
        "é»İ": 4538,
        "å¯»æ¬¢": 4539,
        "æ£Ĵ": 4540,
        "æį§": 4541,
        "åį³ä¾¿æĺ¯": 4542,
        "åĶ¯æľī": 4543,
        "æĪĳçľĭ": 4544,
        "ç¥ŀå¿µ": 4545,
        "åŀĭ": 4546,
        "è¿ĻæĿ¡": 4547,
        "è¡£è¡«": 4548,
        "æľīä¸Ģç§į": 4549,
        "è¿Ļä»¶": 4550,
        "ï¼Łï¼ģâĢĿ": 4551,
        "åı¦ä¸Ģä¸ª": 4552,
        "æĸĲ": 4553,
        "èĤ©å¤´": 4554,
        "å¤§éĥ¨åĪĨ": 4555,
        "è¿ĶåĽŀ": 4556,
        "æĮ¨": 4557,
        "çŀİ": 4558,
        "å¯¹æĪĳ": 4559,
        "æ±Łæ¹ĸä¸Ń": 4560,
        "èĢĥèĻĳ": 4561,
        "ä¸Ģé¡¿": 4562,
        "ç®±": 4563,
        "æĹ¶åĪ»": 4564,
        "æĿİä¸ĸæ°ĳ": 4565,
        "è¿ŀè¿ŀ": 4566,
        "çĥŃéĹ¹": 4567,
        "ä¾¿åľ¨": 4568,
        "è¾¨": 4569,
        "æ±¤": 4570,
        "è¯§": 4571,
        "æŃ¦å½ĵ": 4572,
        "è¡¨çİ°": 4573,
        "åįģåħŃ": 4574,
        "åİĭåĬĽ": 4575,
        "æĿİå¯»æ¬¢": 4576,
        "æĹłçĸĳ": 4577,
        "å¾Ĺå¤ļ": 4578,
        "çļĦçŁ³": 4579,
        "åįĬæŃ¥": 4580,
        "äº¤æīĭ": 4581,
        "ä¸ĩå¹´": 4582,
        "æĭ¢": 4583,
        "å¤´åıĳ": 4584,
        "ä»£ä»·": 4585,
        "çļĦåĪĢ": 4586,
        "çļĦæ¨¡æł·": 4587,
        "ä¹¡": 4588,
        "èĽĽ": 4589,
        "ä¸ªä¸ª": 4590,
        "éħ¸": 4591,
        "åį´å·²": 4592,
        "åĽŀèį¡": 4593,
        "ä»ĸæ²¡æľī": 4594,
        "æľīçĿĢ": 4595,
        "åĬ¨éĿĻ": 4596,
        "äºĨäºĽ": 4597,
        "ä»ĸè¦ģ": 4598,
        "çĭ®": 4599,
        "çļĦæĥħåĨµ": 4600,
        "çĶ±äºİ": 4601,
        "çīĩåĪ»åĲİ": 4602,
        "æİ¥è§¦": 4603,
        "ç½ļ": 4604,
        "çĥĽ": 4605,
        "å°±åı¯ä»¥": 4606,
        "çģµåħī": 4607,
        "å¤§åı«": 4608,
        "é¬¼çİĭ": 4609,
        "å°Ħåĩº": 4610,
        "å½Ń": 4611,
        "å¯¹èĩªå·±": 4612,
        "æķ°çĻ¾": 4613,
        "å±ĳ": 4614,
        "ç¯ĩ": 4615,
        "çĸı": 4616,
        "åŁİä¸Ń": 4617,
        "å¾Ĺä¸Ĭ": 4618,
        "éŃĶæĹı": 4619,
        "ä¸ĭä¸ĢåĪ»": 4620,
        "ï¼ģï¼ģâĢĿ": 4621,
        "åı¸é©¬": 4622,
        "åįģä¸Ģéĥİ": 4623,
        "æĺ¾çĦ¶æĺ¯": 4624,
        "ä¸Ģé½Ĳ": 4625,
        "åİ»æī¾": 4626,
        "çŀ³": 4627,
        "å¤©æľº": 4628,
        "èĲ½åĪ°": 4629,
        "èĲ§åįģä¸Ģéĥİ": 4630,
        "è¿°": 4631,
        "åįģå¤ļ": 4632,
        "åįģä¹Ŀ": 4633,
        "åģļçļĦ": 4634,
        "åİ»çļĦ": 4635,
        "åĮħæĭ¬": 4636,
        "æĻļä¸Ĭ": 4637,
        "æķĪæŀľ": 4638,
        "çº¤": 4639,
        "æľ±ä¸ĥä¸ĥ": 4640,
        "ç¨įç¨į": 4641,
        "èµµèĬ¸æħ§": 4642,
        "å¤§å£°éģĵ": 4643,
        "èĹ¤": 4644,
        "æĪĺæĸĹ": 4645,
        "éĻĨçĽ¸": 4646,
        "æĳĨæīĭ": 4647,
        "è¯į": 4648,
        "åĽĬ": 4649,
        "äºĶè¡Į": 4650,
        "å®¿": 4651,
        "éĵĥ": 4652,
        "å¸®åĬ©": 4653,
        "å¾ĹåĪ°äºĨ": 4654,
        "çĻ½åıĳ": 4655,
        "çļĦé£İ": 4656,
        "æ²¾": 4657,
        "æİ¥åıĹ": 4658,
        "åħīåįİ": 4659,
        "ä½Ĩè¿Ļ": 4660,
        "ä¸įä¹ħ": 4661,
        "ä¸įç»Ŀ": 4662,
        "ä¼į": 4663,
        "ç§¦å¹¿æķı": 4664,
        "ä¸ĢæĮ¥": 4665,
        "èº«ç©¿": 4666,
        "ä»¥æĿ¥": 4667,
        "ä¸įçģŃ": 4668,
        "ä½¿çĶ¨": 4669,
        "å·¨åĵį": 4670,
        "æī¿è®¤": 4671,
        "åĨ¬": 4672,
        "ä¸įä¿¡": 4673,
        "ä¹ĭåĬ¿": 4674,
        "æł¸": 4675,
        "è¿Ļä¹Īä¸Ģ": 4676,
        "ç»ĵæĿŁ": 4677,
        "è¡ĢèĤī": 4678,
        "ï¼Ī": 4679,
        "ä»ĸèĩªå·±": 4680,
        "ä¸įè¡Į": 4681,
        "å··": 4682,
        "ä¸Ĭæ¸ħ": 4683,
        "ç¥¥": 4684,
        "äºĨä¸įå°ĳ": 4685,
        "å¤ªåı¤": 4686,
        "ï¼ī": 4687,
        "å©ł": 4688,
        "åĬª": 4689,
        "æĢģåº¦": 4690,
        "æ¯ıä¸ª": 4691,
        "æª": 4692,
        "æĢĿç´¢": 4693,
        "åĩĿéĩį": 4694,
        "æĽ´å¤ļ": 4695,
        "èģĶç³»": 4696,
        "æĪĳä»¬çļĦ": 4697,
        "éĥ½æ²¡": 4698,
        "æĥĬåĳ¼": 4699,
        "ä»ĸè¿ĺ": 4700,
        "é¢Ĭ": 4701,
        "æľķ": 4702,
        "åģľä¸ĭ": 4703,
        "å¿ĥéģĵ": 4704,
        "ä¸ĩä¸Ģ": 4705,
        "å¹²ä»Ģä¹Ī": 4706,
        "æ¶ĪèĢĹ": 4707,
        "ç¼ĵç¼ĵéģĵ": 4708,
        "ä¾¿æľī": 4709,
        "æĶ¶æĭ¾": 4710,
        "æī¿åıĹ": 4711,
        "èĻļç©ºä¸Ń": 4712,
        "æĿĲæĸĻ": 4713,
        "åıĳè§ī": 4714,
        "æºª": 4715,
        "åºĶä»ĺ": 4716,
        "æīĢæľīçļĦ": 4717,
        "èĢ»": 4718,
        "æıĲéĨĴ": 4719,
        "æ¸ħé£İ": 4720,
        "éĴī": 4721,
        "è¿Ļéģĵ": 4722,
        "æ¿Ģå°Ħ": 4723,
        "ç«ĸ": 4724,
        "ä¸ĢçĽ´åľ¨": 4725,
        "å¤§å¤ļ": 4726,
        "ä¹ĭéģĵ": 4727,
        "éĤ£åıª": 4728,
        "æµİ": 4729,
        "é¾Ļå¥³": 4730,
        "å¿Ļéģĵ": 4731,
        "åįĹæµ·": 4732,
        "èĥ¡æĸĲ": 4733,
        "ä¸įå¤Ł": 4734,
        "æĿĢæĪĳ": 4735,
        "ä¼łéĢģ": 4736,
        "å·¥å¤«": 4737,
        "éªĦ": 4738,
        "éħįåĲĪ": 4739,
        "å¾Ĺä½ı": 4740,
        "è¿ĩç¨ĭ": 4741,
        "é£ŀå¿«": 4742,
        "æŃ¦åŃ¦": 4743,
        "ç¡®å®ļ": 4744,
        "çľ¨çľ¼": 4745,
        "æŃ»äºº": 4746,
        "æĬ±çĿĢ": 4747,
        "éĿĴè¡£": 4748,
        "å¦ĤæŃ¤ä¸ĢæĿ¥": 4749,
        "æĢİä¹Īåı¯èĥ½": 4750,
        "å¾Ģå¾Ģ": 4751,
        "åĭĴ": 4752,
        "ä»Ģä¹ĪæĹ¶åĢĻ": 4753,
        "æ´ªä¸Ģ": 4754,
        "ä¸įæ¸ħ": 4755,
        "èīº": 4756,
        "åıĳæĮ¥": 4757,
        "æħ¢æħ¢çļĦ": 4758,
        "æĺ¯å¤§": 4759,
        "åľ¨æĦı": 4760,
        "æĢ¥éĢŁ": 4761,
        "éĤĢ": 4762,
        "å¿«éĢŁ": 4763,
        "è¾ĪåŃĲ": 4764,
        "çªŁ": 4765,
        "æĥ¶": 4766,
        "æĪĳçİ°åľ¨": 4767,
        "å¤©åĬ«": 4768,
        "ä¹Łè¢«": 4769,
        "ä¿Ŀè¯ģ": 4770,
        "èŀįåħ¥": 4771,
        "è§ģæŃ¤": 4772,
        "ä¼łæī¿": 4773,
        "æ»¡æĦı": 4774,
        "å±ŀäºİ": 4775,
        "çĽ¸è²Į": 4776,
        "çł´å¼Ģ": 4777,
        "æĿ¥åĪ°äºĨ": 4778,
        "èĦ¾": 4779,
        "çĽ¸å¯¹": 4780,
        "ç¼ļ": 4781,
        "å¼¦": 4782,
        "èķ´åĲ«": 4783,
        "è¿Ļåº§": 4784,
        "ä¸ĭæīĭ": 4785,
        "æĦŁæ¿Ģ": 4786,
        "ä¸īå¤©": 4787,
        "çĭ°": 4788,
        "æĢ»ç®Ĺ": 4789,
        "ä¸Ńå¿ĥ": 4790,
        "éŃĶæ°Ķ": 4791,
        "ç¯·": 4792,
        "æ²Ĳ": 4793,
        "åľ°ä¸ĭ": 4794,
        "ç¬ĳæĦı": 4795,
        "ä½ķæĹ¶": 4796,
        "åĨ²åĩº": 4797,
        "å¡Į": 4798,
        "æĪĳåľ¨": 4799,
        "ä»İæŃ¤": 4800,
        "åģļåĩº": 4801,
        "ä»ĻçķĮ": 4802,
        "çľīå¿ĥ": 4803,
        "ç¾İäºº": 4804,
        "åįĴ": 4805,
        "ç»ĩ": 4806,
        "æķ£äºº": 4807,
        "æŁĲç§į": 4808,
        "èĻļå½±": 4809,
        "ä½łåľ¨": 4810,
        "åĳ¨èº«": 4811,
        "ä¹ŁæĹł": 4812,
        "æĸ§": 4813,
        "æĢĢéĩĮ": 4814,
        "èĩªè¯Ń": 4815,
        "å¤§åıĺ": 4816,
        "çī¹æ®Ĭ": 4817,
        "ä¿¯": 4818,
        "æĢ»ç®¡": 4819,
        "å¤©åľ°éĹ´": 4820,
        "éĿ¢çĽ®": 4821,
        "ä¸ĭæĿ¥çļĦ": 4822,
        "äºĨä¸Ģä¸Ŀ": 4823,
        "æİĮåĬĽ": 4824,
        "æĭĽå¼ı": 4825,
        "èĩªä»İ": 4826,
        "çĭ°çĭŀ": 4827,
        "è¿Ļè®©": 4828,
        "çĦļ": 4829,
        "æł·çļĦ": 4830,
        "éħ·": 4831,
        "åĤ¨çī©è¢ĭ": 4832,
        "ä»ĸä¾¿": 4833,
        "å¼©": 4834,
        "è¿ĺå¥½": 4835,
        "åīĳçļĦ": 4836,
        "éŃĤéŃĦ": 4837,
        "ä»ĸæĥ³": 4838,
        "çĶŁçģµ": 4839,
        "è®©èĩªå·±": 4840,
        "æĺ¯åĽłä¸º": 4841,
        "æľĢå¤§çļĦ": 4842,
        "ä¹ŁçŁ¥éģĵ": 4843,
        "å¹¸å¥½": 4844,
        "æĤłæľĪ": 4845,
        "èĥ¡åŃĲ": 4846,
        "å¯¨": 4847,
        "å§ľæģĴéģĵ": 4848,
        "åĩłåĲį": 4849,
        "éĴ°": 4850,
        "ä¸¤ä¸ªäºº": 4851,
        "éĢĥèµ°": 4852,
        "å¹¶æĹł": 4853,
        "éĵ®": 4854,
        "ç¬¦æĸĩ": 4855,
        "æĭĽåĳ¼": 4856,
        "åĽ½çļĦ": 4857,
        "å¤§æĥĬ": 4858,
        "è¡Įèµ°": 4859,
        "è¿ĻéĩĮçļĦ": 4860,
        "çª¥": 4861,
        "æĭĵ": 4862,
        "åįģä¸ĩ": 4863,
        "è§Ĥå¯Ł": 4864,
        "æ··ä¹±": 4865,
        "æĦŁåıĹåĪ°": 4866,
        "èµ´": 4867,
        "å¯¹äºĨ": 4868,
        "ä¸Ģæĭ³": 4869,
        "å¤§åĸĿ": 4870,
        "äº¿": 4871,
        "è¿Ļçīĩ": 4872,
        "ä¸ºä»Ģä¹Īè¦ģ": 4873,
        "åĩŃç©º": 4874,
        "æĦŁæħ¨": 4875,
        "å¯¹æĸ¹çļĦ": 4876,
        "æĳĺ": 4877,
        "çļĦå¼ŁåŃĲ": 4878,
        "è½°é¸£": 4879,
        "äº¬åŁİ": 4880,
        "åĴ¯": 4881,
        "å¤§éĩı": 4882,
        "åĴĮæĪĳ": 4883,
        "ä¸įè§£": 4884,
        "ä½İå£°": 4885,
        "åĽĽå¤§": 4886,
        "éĢ¢": 4887,
        "åıĺäºĨ": 4888,
        "é£ĺéĽ¶": 4889,
        "å¯¹æŃ¤": 4890,
        "åĩºæĿ¥äºĨ": 4891,
        "é¹¿": 4892,
        "æĥ³äºĨæĥ³": 4893,
        "ç»Ŀä¸į": 4894,
        "çĵľ": 4895,
        "åĨ¤": 4896,
        "æĿ¥ä¸įåıĬ": 4897,
        "éļıæĦı": 4898,
        "åľ°ä½į": 4899,
        "éļıä¹ĭ": 4900,
        "æŀĦ": 4901,
        "åıĳçİ°äºĨ": 4902,
        "æīĵå¾Ĺ": 4903,
        "éķ¿åŃĻæĤłæľĪ": 4904,
        "æľ½": 4905,
        "åľ°çĭ±": 4906,
        "è¾¹çļĦ": 4907,
        "æķħèĢĮ": 4908,
        "éķĩåİĭ": 4909,
        "éķ¿æĹ¶éĹ´": 4910,
        "åľ¨ä¸ĢæĹģ": 4911,
        "ä»ĸè¯´": 4912,
        "è¿ĻèĤ¡": 4913,
        "çĲĨè§£": 4914,
        "ç±į": 4915,
        "éĦ": 4916,
        "çıĬ": 4917,
        "åĮºåŁŁ": 4918,
        "ä¸»åĬ¨": 4919,
        "æĸ¹çļĦ": 4920,
        "åıĮæİĮ": 4921,
        "æ¡Įä¸Ĭ": 4922,
        "è¦ģæ±Ĥ": 4923,
        "éĢļéģĵ": 4924,
        "çĪ½": 4925,
        "ç²īç¢İ": 4926,
        "çľĭä¸Ĭåİ»": 4927,
        "ä¸Ģä¸Ģ": 4928,
        "è¿Ŀ": 4929,
        "å¤ªåĲİ": 4930,
        "çŁ³å¤´": 4931,
        "åħ¨æĹł": 4932,
        "æ´Ľéĺ³": 4933,
        "èħ¾äºĳ": 4934,
        "æĤ£": 4935,
        "æĭĴç»Ŀ": 4936,
        "çŃīå¾ħ": 4937,
        "èĤľ": 4938,
        "éĵ¸": 4939,
        "éĺ³åħī": 4940,
        "æľĢä¸º": 4941,
        "é»ĺé»ĺ": 4942,
        "çķ¥ä¸Ģ": 4943,
        "åħĨ": 4944,
        "æĤį": 4945,
        "åĶ±": 4946,
        "æĹģäºº": 4947,
        "é¡ºçĿĢ": 4948,
        "çļĦåĪ¹éĤ£": 4949,
        "èĶº": 4950,
        "äºīå¤º": 4951,
        "è¿ĺå¾Ĺ": 4952,
        "çļĦèº«ä½ĵ": 4953,
        "çĲ¼èĤľ": 4954,
        "è¿Ļå°±": 4955,
        "æİı": 4956,
        "åĬĽçļĦ": 4957,
        "æīĢåĮĸ": 4958,
        "èĥĮä¸Ĭ": 4959,
        "çıĳ": 4960,
        "ä¼ļä¸įä¼ļ": 4961,
        "åĳ¼å»¶": 4962,
        "èĴĻéĿ¢": 4963,
        "åıĳçĶŁäºĨ": 4964,
        "åĲįçļĦ": 4965,
        "ä¸Ģé¢Ĺ": 4966,
        "è¯º": 4967,
        "çģĮ": 4968,
        "æ·±åĲ¸": 4969,
        "äºĨä½ł": 4970,
        "èĳ«": 4971,
        "è¸©": 4972,
        "çĢ": 4973,
        "ä¿ĥ": 4974,
        "å¤§éĻĨ": 4975,
        "å°±å°Ĩ": 4976,
        "çłģ": 4977,
        "ä»Ļäºº": 4978,
        "ç¬¬ä¸ĢçĻ¾": 4979,
        "æĢľåĦ¿": 4980,
        "æ¶©": 4981,
        "åĩ¤åĩ°": 4982,
        "åĥ§äºº": 4983,
        "è¿ĺæľīä»Ģä¹Ī": 4984,
        "å£³": 4985,
        "ä¸ĢæĪĺ": 4986,
        "ä¸įç®Ĺ": 4987,
        "ä¸īå¤§": 4988,
        "åĽ½å¸Ī": 4989,
        "éľ²åĩºä¸Ģä¸Ŀ": 4990,
        "ä½łçİ°åľ¨": 4991,
        "ç¥ŀä»Ļ": 4992,
        "ä¸Ģåī¯": 4993,
        "å·²è¢«": 4994,
        "çł´äºĨ": 4995,
        "çļĦæ¶Īæģ¯": 4996,
        "æ»ŀ": 4997,
        "èĴĭ": 4998,
        "å°±è¿Ļä¹Ī": 4999,
        "åĿĳ": 5000,
        "éĽªå±±": 5001,
        "èĨĽ": 5002,
        "éªģ": 5003,
        "åıł": 5004,
        "åĽĽå¨ĺ": 5005,
        "å¦ĻéĽª": 5006,
        "çĵ¦": 5007,
        "æ±Łæ¹ĸä¸Ńäºº": 5008,
        "åĢ¼å¾Ĺ": 5009,
        "çľŁåĲĽ": 5010,
        "ä¼¦": 5011,
        "çĻ½çļĦ": 5012,
        "å°ĳå¸ħ": 5013,
        "æĮĩçĿĢ": 5014,
        "åħµåĪĥ": 5015,
        "ç»Łé¢Ĩ": 5016,
        "è¶Ĭæĺ¯": 5017,
        "å¿ħçĦ¶": 5018,
        "å±Ĥæ¬¡": 5019,
        "å¼§": 5020,
        "çĶ¨äºĨ": 5021,
        "èĢĮè¡Į": 5022,
        "æĲģ": 5023,
        "æ´¾äºº": 5024,
        "ä¼Ł": 5025,
        "å¤«å¦ĩ": 5026,
        "çĭĦ": 5027,
        "å«Į": 5028,
        "çļĦçľ¼çĿĽ": 5029,
        "è¿½æĿĢ": 5030,
        "çļĦé«ĺ": 5031,
        "è·Łä½ł": 5032,
        "è¿ĺä¼ļ": 5033,
        "æ¶¦": 5034,
        "ä¸Ģæĭį": 5035,
        "ä¸įå¤ª": 5036,
        "ç¥ŀåīĳ": 5037,
        "åıªåı¯æĥľ": 5038,
        "æ´ªçİĦæľº": 5039,
        "çļĦé»ĳ": 5040,
        "æīŃå¤´": 5041,
        "åı¯æĢľ": 5042,
        "çģ¾": 5043,
        "ä»İä¸Ń": 5044,
        "ä¸Ģåĩº": 5045,
        "åĩłå¤©": 5046,
        "æĹıäºº": 5047,
        "æºħ": 5048,
        "åľĨæ»¡": 5049,
        "æ³ķæľ¯": 5050,
        "æĦıæĸĻ": 5051,
        "å±±ä¸Ĭ": 5052,
        "å·¡": 5053,
        "å¤¸": 5054,
        "å¹´çļĦ": 5055,
        "éºŁ": 5056,
        "ä¸ĢçĻ¾": 5057,
        "åľ¨èĩªå·±": 5058,
        "é«ħ": 5059,
        "èĢģæĢª": 5060,
        "éļıä¾¿": 5061,
        "èµ°åĲ§": 5062,
        "åĨ·æ¼ł": 5063,
        "çļĦåŃĺåľ¨": 5064,
        "æĮª": 5065,
        "çĤ¼åĮĸ": 5066,
        "æĶ¯æĮģ": 5067,
        "æĹłåı¯": 5068,
        "éª·": 5069,
        "æĸ¤": 5070,
        "ä¸ºä¹ĭ": 5071,
        "åı¸å¾Ĵ": 5072,
        "çİ°åĩº": 5073,
        "éĹ¨ä¸»": 5074,
        "éĵģéĿ¢": 5075,
        "éª·é«ħ": 5076,
        "æ¢µ": 5077,
        "éĻįä¸´": 5078,
        "æĬĬè¿Ļ": 5079,
        "è·ŁæĪĳ": 5080,
        "è°¨æħİ": 5081,
        "ä¼ĳæģ¯": 5082,
        "æĿĢæľº": 5083,
        "èĳ«èĬ¦": 5084,
        "çļĦæ°´": 5085,
        "åĩłæŃ¥": 5086,
        "åĪĨèº«": 5087,
        "åĺ´åĶĩ": 5088,
        "åİŁæĿ¥æĺ¯": 5089,
        "èĥĨåŃĲ": 5090,
        "çĿĢèĦ¸": 5091,
        "æ³ķéĹ¨": 5092,
        "çĿĢä¸Ģä¸ª": 5093,
        "èĮ¹": 5094,
        "æį®è¯´": 5095,
        "è¿ŀåŁİ": 5096,
        "åħįå¾Ĺ": 5097,
        "åħ¬åħ¬": 5098,
        "å¾Ĵå¼Ł": 5099,
        "æ´²": 5100,
        "è¿Ļä¹Łæĺ¯": 5101,
        "å¥ı": 5102,
        "æŃ¤å¤Ħ": 5103,
        "äºĶèī²": 5104,
        "æł¹æľ¬æ²¡æľī": 5105,
        "è¯´æĺİ": 5106,
        "çĶŁæ°Ķ": 5107,
        "è´Łè´£": 5108,
        "å¹³æĹ¶": 5109,
        "éĻ·åħ¥": 5110,
        "ä¸¤äººçļĦ": 5111,
        "æ¸©æŁĶ": 5112,
        "åıªæľīä¸Ģ": 5113,
        "æĢĢä¸Ń": 5114,
        "èĢ¸": 5115,
        "èĲ½åľ¨äºĨ": 5116,
        "éĩĳä¸¹": 5117,
        "å¹½æĢľåĦ¿": 5118,
        "ä¸įæĺĵ": 5119,
        "èº«æ³ķ": 5120,
        "çŀ§çĿĢ": 5121,
        "åį§": 5122,
        "åįĬç©º": 5123,
        "çº¢èī²": 5124,
        "æ²³ç¥ŀ": 5125,
        "åıªåĲ¬å¾Ĺ": 5126,
        "å¤´çļĦ": 5127,
        "éĿĴéĿĴ": 5128,
        "çİ²çıĳ": 5129,
        "ä½ķå¤Ħ": 5130,
        "æĹĭè½¬": 5131,
        "çªľ": 5132,
        "æ¬ł": 5133,
        "è¿¸": 5134,
        "çĽ¼": 5135,
        "ä»İå®¹": 5136,
        "é¦Ĩ": 5137,
        "å¿Įæĥ®": 5138,
        "äºĨåĲĹ": 5139,
        "æĭ±": 5140,
        "å°¬": 5141,
        "å°´": 5142,
        "åİ¢": 5143,
        "éĽ·åĬ«": 5144,
        "è¦ģä¸įæĺ¯": 5145,
        "ä¸įé¡¾": 5146,
        "éģĵæľ¯": 5147,
        "æĿı": 5148,
        "è¿ĩæĿ¥çļĦ": 5149,
        "å®ŀéĻħ": 5150,
        "æĢĿè®®": 5151,
        "è¯´åĪ°è¿ĻéĩĮ": 5152,
        "æ³ķéĺµ": 5153,
        "åĬĽæ°Ķ": 5154,
        "åŁºæľ¬": 5155,
        "æ±¡": 5156,
        "æģ¢å¤įäºĨ": 5157,
        "ä»ĸåį´": 5158,
        "æŃ¤çī©": 5159,
        "åĿĬ": 5160,
        "æľĪåħī": 5161,
        "åĵĪåĵĪå¤§ç¬ĳ": 5162,
        "åįĥä¸ĸçķĮ": 5163,
        "è¯¢": 5164,
        "çļĦå¨ģåĬĽ": 5165,
        "åįģä¸ĥ": 5166,
        "é¾Ħ": 5167,
        "åĲ¬è§ģ": 5168,
        "å°´å°¬": 5169,
        "ç®ĵ": 5170,
        "å¤ªä¸Ĭ": 5171,
        "åĳ³éģĵ": 5172,
        "ç¬¬ä¸ĥ": 5173,
        "æ±Łæµ·": 5174,
        "ä¾¿ä¼ļ": 5175,
        "ä»ĸæīį": 5176,
        "çĦ¶çļĦ": 5177,
        "ä¸įè¿ľå¤Ħ": 5178,
        "æŁ´": 5179,
        "è¿ĻæĹ¶åĢĻ": 5180,
        "æĺİå¤©": 5181,
        "éŃĶéĹ¨": 5182,
        "å¸®å¿Ļ": 5183,
        "çĹķè¿¹": 5184,
        "è§īå¾Ĺèĩªå·±": 5185,
        "çľ¼éĩĮ": 5186,
        "å¾Īå°ĳ": 5187,
        "ä»ĬæĻļ": 5188,
        "è¿Ļä¹Īè¯´": 5189,
        "å£«åħµ": 5190,
        "åĳĪ": 5191,
        "ä¹łæĥ¯": 5192,
        "éķ¿éĿĴ": 5193,
        "åľ¨åľº": 5194,
        "ä¸ľæĸ¹": 5195,
        "çĻ½å¤©": 5196,
        "æĸ¯": 5197,
        "èī°éļ¾": 5198,
        "èĢĮè¨Ģ": 5199,
        "æĿĢæ°Ķ": 5200,
        "åĲĥäºĨä¸Ģ": 5201,
        "ä¸Ģçļ±": 5202,
        "ä¸įçĽ¸": 5203,
        "ç»³": 5204,
        "çĶŁæ´»": 5205,
        "ç²®": 5206,
        "ä¸ĢçĶŁ": 5207,
        "éļľ": 5208,
        "åį´è§ģ": 5209,
        "åĽŀè¿ĩ": 5210,
        "æĽ¾èħ¾äºĳ": 5211,
        "æĹłéĩı": 5212,
        "èĤ¯å®ļæĺ¯": 5213,
        "ä»ĸåĴĮ": 5214,
        "çī§": 5215,
        "æ¸ħéĨĴ": 5216,
        "åĲ¸æĶ¶": 5217,
        "ä¹ĭéĹ´çļĦ": 5218,
        "åįĩèµ·": 5219,
        "çľ¼åħī": 5220,
        "ç¬¬åħŃ": 5221,
        "æĴĴ": 5222,
        "åĤ¬åĬ¨": 5223,
        "æ²Į": 5224,
        "å²Ĥèĥ½": 5225,
        "åĨ·éĿĻ": 5226,
        "ç¢°åĪ°": 5227,
        "çĽ¸äºĴ": 5228,
        "âĢĻãĢĤ": 5229,
        "åĲĳæĿ¥": 5230,
        "å¿ħè¦ģ": 5231,
        "çĲĨçĶ±": 5232,
        "åĲĦä½į": 5233,
        "ä¸įåı¯æĢĿè®®": 5234,
        "çĽı": 5235,
        "ç»Ŀé¡¶": 5236,
        "çļĦçŀ¬éĹ´": 5237,
        "ä»ĸä¸Ģçľ¼": 5238,
        "æľ¬æĺ¯": 5239,
        "å¤±åİ»äºĨ": 5240,
        "åī§çĥĪ": 5241,
        "çĻ½éª¨": 5242,
        "äººäºº": 5243,
        "æĥķ": 5244,
        "ç¢İçīĩ": 5245,
        "æİĲè¯Ģ": 5246,
        "ç¿ģ": 5247,
        "å½¢åĬ¿": 5248,
        "åĪ¤æĸŃ": 5249,
        "äºĨè¿Ļ": 5250,
        "ç¬¬ä¸Ģä¸ª": 5251,
        "ç¢İè£Ĥ": 5252,
        "ä½łçŁ¥éģĵ": 5253,
        "çļĦç¥ŀæĥħ": 5254,
        "è¢ģæī¿å¿Ĺ": 5255,
        "è¿ŀç»Ń": 5256,
        "é»ĳè¡£äºº": 5257,
        "åĮĸæĪĲ": 5258,
        "åľ°çľĭçĿĢ": 5259,
        "åĸĤ": 5260,
        "ç³Ĭæ¶Ĥ": 5261,
        "å¿ĸ": 5262,
        "è®½": 5263,
        "å±±ä¸Ń": 5264,
        "ä¸İéĤ£": 5265,
        "çĽ¸åĬ©": 5266,
        "çĨĻ": 5267,
        "éģĵéķ¿": 5268,
        "æĥ³æĥ³": 5269,
        "çľ¼çľĭ": 5270,
        "åıĪæĺ¯ä¸Ģ": 5271,
        "å½ĵä»ĸ": 5272,
        "æĢķæĺ¯": 5273,
        "æ»ļæ»ļ": 5274,
        "ç§įç§į": 5275,
        "éĴ©": 5276,
        "ä¸Ģåı¥è¯Ŀ": 5277,
        "æĸ¹å¼ı": 5278,
        "éĺ»æĮ¡": 5279,
        "æīĭèħķ": 5280,
        "æĮĸ": 5281,
        "ä¾¿å®ľ": 5282,
        "æ¥ļç¦»ç¬ĳéģĵ": 5283,
        "å±ķå¼Ģ": 5284,
        "å¤©æ¶¯": 5285,
        "ä½łäºĨ": 5286,
        "çŀ§çŀ§": 5287,
        "å®°": 5288,
        "åĪ°è¿ĻéĩĮ": 5289,
        "å¥½åĲ§": 5290,
        "åįģåĽĽ": 5291,
        "è¡¨éĿ¢": 5292,
        "æľ´": 5293,
        "ä½Ĩè§ģ": 5294,
        "åĲĳåĲİ": 5295,
        "åģľæŃ¢": 5296,
        "æµĬ": 5297,
        "å¼ĺ": 5298,
        "èĪª": 5299,
        "å¾Īæ¸ħæ¥ļ": 5300,
        "åĵªçŁ¥": 5301,
        "å®ĥçļĦ": 5302,
        "èĥ¸èĨĽ": 5303,
        "æī£": 5304,
        "èĪĴæľį": 5305,
        "å°ī": 5306,
        "å½ĵçľŁæĺ¯": 5307,
        "è¡¨ç¤º": 5308,
        "èĻ½æĺ¯": 5309,
        "åĪ°å¤Ħ": 5310,
        "æ·»": 5311,
        "è¾¹ç¼ĺ": 5312,
        "å¿ĥä¸Ńä¸Ģ": 5313,
        "åĩ»æĿĢ": 5314,
        "çĶļæĺ¯": 5315,
        "çĿĢå¤´": 5316,
        "æĹłæīĢ": 5317,
        "èĢĮæĿ¥çļĦ": 5318,
        "æĺ¯ä¸Ģç§į": 5319,
        "åºŀå¤§çļĦ": 5320,
        "éĺģä¸ĭ": 5321,
        "æĽ´ä¸º": 5322,
        "åıªåī©ä¸ĭ": 5323,
        "èĭ¥ä¸įæĺ¯": 5324,
        "æķ¦": 5325,
        "æĦıä¹ī": 5326,
        "åĨįæĿ¥": 5327,
        "äºĪ": 5328,
        "ç´§æİ¥çĿĢ": 5329,
        "ä¹Łåıªæľī": 5330,
        "åŃĲå¼Ł": 5331,
        "å¿ĥå¿µ": 5332,
        "ä¼¤åı£": 5333,
        "çĸĹ": 5334,
        "å§Ķå®ŀ": 5335,
        "ä¸įè®º": 5336,
        "äºĨæĪĳ": 5337,
        "ä»ĸå·²": 5338,
        "çĶ·å¥³": 5339,
        "åĮĨåĮĨ": 5340,
        "å®¶æĹı": 5341,
        "å¯¹ä½ł": 5342,
        "åĮĸèº«": 5343,
        "æ·ĭ": 5344,
        "æĪ¿éĹ´": 5345,
        "äº¤ç»Ļ": 5346,
        "ä¹Łç®Ĺæĺ¯": 5347,
        "åĩłæ¬¡": 5348,
        "åĩłåı¥": 5349,
        "é£İåĲ¹": 5350,
        "åįĳ": 5351,
        "ä¼Ĳ": 5352,
        "ä½Ĩåľ¨": 5353,
        "å¤±è´¥": 5354,
        "ç¼ĺæķħ": 5355,
        "å¤§éĹ¨": 5356,
        "ç§¦å¤ļå¤ļ": 5357,
        "å¤©ä¸Ĭ": 5358,
        "æŀĹä¸Ń": 5359,
        "æ¯Ķå¦Ĥ": 5360,
        "å©ļ": 5361,
        "åįľ": 5362,
        "æļĹèĩª": 5363,
        "æĢİä¹ĪåĽŀäºĭ": 5364,
        "ä¹ĭè¾Ī": 5365,
        "æ¯Ļ": 5366,
        "è·Łåīį": 5367,
        "ä¸¸": 5368,
        "è¿Ļçķª": 5369,
        "ä»ĸå¿½çĦ¶": 5370,
        "ï¼ģï¼ģ": 5371,
        "ä¸įæĸŃåľ°": 5372,
        "æµ¸": 5373,
        "ç¬¦ç®ĵ": 5374,
        "æĹłæģ¯": 5375,
        "å¦»åŃĲ": 5376,
        "ä¸ĢåıĮ": 5377,
        "åĪĢæ³ķ": 5378,
        "éĤ£èĢģ": 5379,
        "çº¢åħī": 5380,
        "è°ģèĥ½": 5381,
        "èľĢ": 5382,
        "å°ıäºº": 5383,
        "çİ°èº«": 5384,
        "éĶ¤": 5385,
        "è¥Ħ": 5386,
        "ä¸Ĳå¸®": 5387,
        "äºĨè®¸å¤ļ": 5388,
        "é¡·": 5389,
        "èĦ¸ä¸ĬçļĦ": 5390,
        "å¤±åİ»": 5391,
        "çĶľ": 5392,
        "éŃģ": 5393,
        "çļĦä¿®ä¸º": 5394,
        "æĻ¶èİ¹": 5395,
        "éĵ¶èī²": 5396,
        "ç»Ļäºº": 5397,
        "æĺŃ": 5398,
        "èĩªåľ¨": 5399,
        "åįĬå¤©": 5400,
        "éĹŃä¸Ĭ": 5401,
        "çĶŁæĢķ": 5402,
        "ä¼¤å®³": 5403,
        "åĵĹ": 5404,
        "è½¬åĬ¨": 5405,
        "åĮĹé½Ĳ": 5406,
        "å±ĢéĿ¢": 5407,
        "çĬ¬": 5408,
        "æ¿Ģåıĳ": 5409,
        "ä»¿èĭ¥": 5410,
        "è¾Ĩ": 5411,
        "åĴĮä½ł": 5412,
        "èļĬ": 5413,
        "èĦ¾æ°Ķ": 5414,
        "ç»ľ": 5415,
        "äº§çĶŁ": 5416,
        "è¿ĻåĲį": 5417,
        "å¤§åİħ": 5418,
        "æľĢå¤ļ": 5419,
        "éĿĴåħī": 5420,
        "å±ĭåŃĲ": 5421,
        "åħ¶ä¸ŃçļĦ": 5422,
        "åĢļ": 5423,
        "æĦļ": 5424,
        "ä¹ĭä½į": 5425,
        "ä¸įä¸ĭ": 5426,
        "æ¯ķç«Łæĺ¯": 5427,
        "ä¸Ģä¸ªå°ı": 5428,
        "æ¸Ķ": 5429,
        "åįĹå®«å¹³": 5430,
        "æľīå¤ļå°ĳ": 5431,
        "å½ĵæĹ¥": 5432,
        "åİ®æĿĢ": 5433,
        "æıī": 5434,
        "æ³ķçİĭ": 5435,
        "çł´ç©º": 5436,
        "çİĭå¦ĥ": 5437,
        "æİīäºĨ": 5438,
        "é£ĺéĽ¶å²Ľ": 5439,
        "éķ¿éķ¿": 5440,
        "è¡Ģèī²": 5441,
        "èº¬èº«": 5442,
        "æĹłå£°æĹłæģ¯": 5443,
        "æĪĳåı¯": 5444,
        "åľ°éĹ®éģĵ": 5445,
        "æ»¡äºĨ": 5446,
        "çļĦç¥ŀéĢļ": 5447,
        "å½ķ": 5448,
        "ä¼°è®¡": 5449,
        "å¤ªæŀģ": 5450,
        "é»Ħæ³ī": 5451,
        "èĸĩ": 5452,
        "è¿Ļåľº": 5453,
        "çļĦèº«ä»½": 5454,
        "å½¹": 5455,
        "èĢĮèĩ³": 5456,
        "å®¢äºº": 5457,
        "é»ĳè¢į": 5458,
        "èļģ": 5459,
        "åĲİæľŁ": 5460,
        "é¢ł": 5461,
        "æŁ¯": 5462,
        "æ··æ²Į": 5463,
        "ç¬¨": 5464,
        "ä¸Ģè¡Į": 5465,
        "å¥¹æĺ¯": 5466,
        "ä¸¤æĿ¡": 5467,
        "éĤ£äºĽäºº": 5468,
        "åĺ»åĺ»": 5469,
        "çĮª": 5470,
        "åĳĬè¯īä½ł": 5471,
        "çļĦåĲį": 5472,
        "æľīå¦Ĥ": 5473,
        "åĭĥ": 5474,
        "åľ¨çİĭæŀĹ": 5475,
        "çŁ³ä¹ĭ": 5476,
        "åĨ»": 5477,
        "æĪĸæĺ¯": 5478,
        "é¥¿": 5479,
        "ç¥ŃçĤ¼": 5480,
        "èºģ": 5481,
        "æĹłåĬĽ": 5482,
        "æ°Ķæľº": 5483,
        "çĿ¹": 5484,
        "è¯Ŀè¯Ń": 5485,
        "å¯Ħ": 5486,
        "åĵ©": 5487,
        "åĳ½çļĦ": 5488,
        "è½°è½°": 5489,
        "åģ¶å°Ķ": 5490,
        "åıĪå¦Ĥä½ķ": 5491,
        "èĥĸåŃĲ": 5492,
        "ä¹ĭå¢ĥ": 5493,
        "èĩªè¡Į": 5494,
        "èĩªä¿¡": 5495,
        "æľīä¸ĢèĤ¡": 5496,
        "é©»": 5497,
        "æĢİä¹ĪåĬŀ": 5498,
        "å®«ä¸Ń": 5499,
        "ä¸įæĹ¶": 5500,
        "ç¦»éĺ³": 5501,
        "æĹłè¸ª": 5502,
        "ä¾¿èĥ½": 5503,
        "éķ¿å®īåŁİ": 5504,
        "åľ¨åĵªéĩĮ": 5505,
        "æĪĳåıª": 5506,
        "å¥½åĥıæĺ¯": 5507,
        "æķ£å¼Ģ": 5508,
        "è½»ç¬ĳ": 5509,
        "è¿Ļä¸ī": 5510,
        "æ²¡èĥ½": 5511,
        "åģ·åģ·": 5512,
        "çıĤçıĤ": 5513,
        "å¼ĢåĲ¯": 5514,
        "çķħ": 5515,
        "æĺİäº®": 5516,
        "é£ŀåİ»": 5517,
        "åĲĥäºĨ": 5518,
        "èµĸ": 5519,
        "é£İåĽĽå¨ĺ": 5520,
        "çľĭäºĨçľĭ": 5521,
        "åĨħåĬŁ": 5522,
        "èĥ½åĲ¦": 5523,
        "æİĮæİ§": 5524,
        "ä¼łæİĪ": 5525,
        "å¤«åŃĲ": 5526,
        "è¯¸èĳĽ": 5527,
        "ç«Ļèµ·": 5528,
        "ä¸ĢåįĬ": 5529,
        "å°±è¿Ļæł·": 5530,
        "æĬĳ": 5531,
        "èįĨ": 5532,
        "åįĹå¢ĥ": 5533,
        "è°±": 5534,
        "åı«åģļ": 5535,
        "ä¿¡ä»»": 5536,
        "åĲĵå¾Ĺ": 5537,
        "çļĦåıĺåĮĸ": 5538,
        "è¥¿éĻµ": 5539,
        "çªĿ": 5540,
        "è½¬çľ¼éĹ´": 5541,
        "æłĪ": 5542,
        "æľ¦": 5543,
        "èĢĮä¸į": 5544,
        "å¤ªå¤§": 5545,
        "ç¾¡": 5546,
        "çļĦå°ĳå¹´": 5547,
        "æ¯ıæ¬¡": 5548,
        "æģ¨ä¸įå¾Ĺ": 5549,
        "çºµæ¨ª": 5550,
        "åĽŀæĿ¥äºĨ": 5551,
        "è®¯": 5552,
        "ä¸Ģäºĭ": 5553,
        "è¯´åĩºæĿ¥": 5554,
        "èħĲ": 5555,
        "è°ģéĥ½": 5556,
        "ä¼¸åĩº": 5557,
        "çļĦéĤ£ä¸ª": 5558,
        "ä¸įæĩĤ": 5559,
        "çĸĨ": 5560,
        "å¤©éŃĶåłĤ": 5561,
        "ä¸Ģå¤§": 5562,
        "å¤§æĢĴ": 5563,
        "çľĭä¸įåĪ°": 5564,
        "åĴķ": 5565,
        "åį°è®°": 5566,
        "åĲ¸å¼ķ": 5567,
        "çĴĩ": 5568,
        "æł¹æľ¬æĹłæ³ķ": 5569,
        "æīĢè¯´": 5570,
        "æħĳ": 5571,
        "è¡Įç¤¼": 5572,
        "åĩºä¸Ģéģĵ": 5573,
        "çĻ½çİī": 5574,
        "æĿ¡ä»¶": 5575,
        "åģ·è¢Ń": 5576,
        "éĤ£å°ı": 5577,
        "ä¸Īå¤«": 5578,
        "ç©¿çĿĢ": 5579,
        "éŃĶéģĵ": 5580,
        "è°·ä¸Ń": 5581,
        "çģµåħ½": 5582,
        "çĶŁæĦı": 5583,
        "ç«ĭåĪ»å°±": 5584,
        "ä½ĵç³»": 5585,
        "åłµ": 5586,
        "åĮĻ": 5587,
        "åĪºå®¢": 5588,
        "æĭĲ": 5589,
        "åķ§": 5590,
        "èĢ³è¾¹": 5591,
        "èĥ½ä¸įèĥ½": 5592,
        "èĭ¥æĹł": 5593,
        "æĭ¿åĩº": 5594,
        "çļĦæŃ¦åĬŁ": 5595,
        "ä¸įå°ı": 5596,
        "æĹłåıĮ": 5597,
        "æĥĬåĸľ": 5598,
        "èĢ¿": 5599,
        "è¦ģåİ»": 5600,
        "åģ¥": 5601,
        "æĺĮ": 5602,
        "æĿ¥äºº": 5603,
        "å¹²èĦĨ": 5604,
        "èħ°éĹ´": 5605,
        "æĺ¯æĥ³": 5606,
        "è¿ĩåĲİ": 5607,
        "çŁ¥éģĵèĩªå·±": 5608,
        "åįı": 5609,
        "ä¹Łå¾Ī": 5610,
        "èĩªå®¶": 5611,
        "èĲ½åľ°": 5612,
        "çıŃ": 5613,
        "ç»ıéªĮ": 5614,
        "èĮħ": 5615,
        "æĴĩ": 5616,
        "ä¹Ļ": 5617,
        "ä¾¿åı¯": 5618,
        "ç¬¬ä¹Ŀ": 5619,
        "ä¸Ģä¼ļ": 5620,
        "åĪ°ä»ĸ": 5621,
        "ç¼Ń": 5622,
        "é¡¶å°ĸ": 5623,
        "èīĺ": 5624,
        "å¿ĥåºķ": 5625,
        "å·²æľī": 5626,
        "äºĨä¸Ģä¼ļåĦ¿": 5627,
        "æĹ¶åħī": 5628,
        "æīĢä»¥ä»ĸ": 5629,
        "éĻ¡çĦ¶": 5630,
        "çļĦå°±æĺ¯": 5631,
        "ä¸´è¿ĳ": 5632,
        "ç»Ŀä¸ĸ": 5633,
        "å®Ŀçİī": 5634,
        "è¶³è¶³": 5635,
        "åºĬä¸Ĭ": 5636,
        "åį³ä¾¿": 5637,
        "åĦ¿çļĦ": 5638,
        "éĵģéĿ¢ç¥ŀåĲĽ": 5639,
        "æ·¡æ·¡çļĦ": 5640,
        "è¾ħ": 5641,
        "è¯Ńå£°": 5642,
        "æĲ¬": 5643,
        "å°Ĩèĩªå·±": 5644,
        "æ¨ªæī«": 5645,
        "æīįæľī": 5646,
        "å¤ĦçĲĨ": 5647,
        "éŁ¦å°ıå®Ŀéģĵ": 5648,
        "å¤ĦçļĦ": 5649,
        "æļĦ": 5650,
        "çĭĤé£İ": 5651,
        "æıŃ": 5652,
        "å¯Ĩå¯Ĩ": 5653,
        "çļĦç¥ŀèī²": 5654,
        "ä½¿èĢħ": 5655,
        "å´Ķ": 5656,
        "çŃĶéģĵ": 5657,
        "æ¼«å¤©": 5658,
        "ç¿»æ»ļ": 5659,
        "åīįè¡Į": 5660,
        "åĵªä¸ª": 5661,
        "å·¦ä¸ĺ": 5662,
        "åľ¨ä»ĸä»¬": 5663,
        "ä¸ĢåĪ»": 5664,
        "è§ģå¥¹": 5665,
        "èĶ½": 5666,
        "æ°Ľ": 5667,
        "è´¦": 5668,
        "é¼ł": 5669,
        "è¯»ä¹¦": 5670,
        "æĹłæķĮ": 5671,
        "åĸĥåĸĥéģĵ": 5672,
        "æĳĦ": 5673,
        "æº¢": 5674,
        "æĲı": 5675,
        "é¼»åŃĲ": 5676,
        "èĭ¥æľī": 5677,
        "ä¸Ģè¨Ģ": 5678,
        "é©¼": 5679,
        "è¡Ģåħī": 5680,
        "è¯ģæĺİ": 5681,
        "ä»ĸè¿ĺæĺ¯": 5682,
        "ä¹Łåıªèĥ½": 5683,
        "æŃ¤è¨Ģ": 5684,
        "æŀģå¤§": 5685,
        "æ²¡æľīäºĨ": 5686,
        "è¯Ħ": 5687,
        "ä»Ļåīĳ": 5688,
        "ä¸ĢæĬĸ": 5689,
        "çľŁæľī": 5690,
        "ä¹¾åĿ¤": 5691,
        "çĶ»éĿ¢": 5692,
        "è§ĳ": 5693,
        "ä»¤ä»ĸ": 5694,
        "å®ĩæĸĩ": 5695,
        "å®Ŀåīĳ": 5696,
        "ä¸įæĽ¾": 5697,
        "ä½łæľī": 5698,
        "ç«Ń": 5699,
        "çŁ³ä¹ĭè½©": 5700,
        "ä¹Łå·²": 5701,
        "å½ĵä¸Ń": 5702,
        "åĨ·åŃ¤": 5703,
        "ä¸įåĥı": 5704,
        "èĢ½": 5705,
        "ä¸Ńæ£ł": 5706,
        "æĪĳæľī": 5707,
        "äºĨä¸ī": 5708,
        "å°Ĩå¥¹": 5709,
        "èĢį": 5710,
        "åĲ¬è¯´è¿ĩ": 5711,
        "æľªæĽ¾": 5712,
        "æĺĬå¤©": 5713,
        "äºĨä¸Ģå£°éģĵ": 5714,
        "æĺĤ": 5715,
        "ä¹ĭæīĢä»¥": 5716,
        "åĮª": 5717,
        "æĤ¼": 5718,
        "è·Łä»ĸ": 5719,
        "å·²ç»ıè¢«": 5720,
        "çİīç½ĹåĪ¹": 5721,
        "æľīä¸ĢäºĽ": 5722,
        "è°ħ": 5723,
        "çļĦèº«å½±": 5724,
        "æ·±åİļ": 5725,
        "éªĳåĨĽ": 5726,
        "äºĮä½į": 5727,
        "çľĭä¸įåĩº": 5728,
        "å°ıé¾Ļå¥³": 5729,
        "ä¸įå¼Ģ": 5730,
        "çģ«åħī": 5731,
        "ä¸įæĺİçĻ½": 5732,
        "è¯ķè¯ķ": 5733,
        "ç¬ĳäºĨèµ·æĿ¥": 5734,
        "çĽĨ": 5735,
        "éĵģä¸Ńæ£ł": 5736,
        "åĨ·åŃ¤å¯Ĵ": 5737,
        "ä»Ģä¹Īäºº": 5738,
        "å¤Ħäºİ": 5739,
        "çĭ¬æŃ¥": 5740,
        "ä¸Ĭæĸ¹": 5741,
        "èĢģå¸Ī": 5742,
        "éĢįéģ¥": 5743,
        "èĢ³æľµ": 5744,
        "çıłåŃĲ": 5745,
        "å²Ĥä¸įæĺ¯": 5746,
        "çĭĪ": 5747,
        "èĤł": 5748,
        "éģĵéĹ¨": 5749,
        "ä¸įä»ħ": 5750,
        "åĽŀåĪ°äºĨ": 5751,
        "æĶ¾åĩº": 5752,
        "å¦ĸåħ½": 5753,
        "å²ĤéĿŀ": 5754,
        "æĳĬ": 5755,
        "æį·": 5756,
        "äºĨä¸Ģä¼ļ": 5757,
        "éļĨåºĨ": 5758,
        "é¦¨": 5759,
        "æ²īéĩį": 5760,
        "å¾Ĳéªģ": 5761,
        "å®īçİĭ": 5762,
        "æ£µ": 5763,
        "æĹłæĦı": 5764,
        "éĻĪå®¶": 5765,
        "æį¢äºĨ": 5766,
        "å¤§å°ıçļĦ": 5767,
        "æŃª": 5768,
        "åĿŁ": 5769,
        "ä»»åĬ¡": 5770,
        "åĸ·åĩº": 5771,
        "ä¸ĢåĲĮ": 5772,
        "ç¬¬åħ«": 5773,
        "èĵĦ": 5774,
        "è§ĨçĿĢ": 5775,
        "ä»ħä»ħæĺ¯": 5776,
        "èº«æĿĲ": 5777,
        "æĺ¯åķĬ": 5778,
        "å®´": 5779,
        "å¯¥": 5780,
        "éĴ¥": 5781,
        "æĹłå½±": 5782,
        "çļĦèĦ¸èī²": 5783,
        "é£ŀèµ·": 5784,
        "æľīä½Ļ": 5785,
        "ä»İä»ĸ": 5786,
        "é»¯æ·¡": 5787,
        "ä¼Ĺå¤ļ": 5788,
        "æĶ¿": 5789,
        "éĵ¾": 5790,
        "æĿĢä½ł": 5791,
        "çł´ç»½": 5792,
        "ç»ĥæĪĲ": 5793,
        "çľīå¤´ä¸Ģçļ±": 5794,
        "è·Łéļı": 5795,
        "åıªè§īå¾Ĺ": 5796,
        "ä¸ĢåĪĨ": 5797,
        "çĿ£": 5798,
        "çĭ¼çĭĪ": 5799,
        "åĲĥäºĨä¸ĢæĥĬ": 5800,
        "ä¹Łåı¯ä»¥": 5801,
        "æĭ¿çĿĢ": 5802,
        "èŃ¦æĥķ": 5803,
        "æ³ķçĽ¸": 5804,
        "æŃ¦å¢ĥ": 5805,
        "ä¹¦æĪ¿": 5806,
        "ä¸įåħį": 5807,
        "å¤§ä¼Ļ": 5808,
        "èĢģæĿ¿": 5809,
        "ä¸ºäºº": 5810,
        "éļ¾åħį": 5811,
        "æ»¡æĺ¯": 5812,
        "æĸĳ": 5813,
        "ç»ĵä¸¹": 5814,
        "æŃ¹": 5815,
        "è¸ªå½±": 5816,
        "åıªåĽł": 5817,
        "ç¼ĵæħ¢": 5818,
        "è§Ĩçº¿": 5819,
        "è¡Ģç¥ŀ": 5820,
        "å¿ĥæĥĬ": 5821,
        "åĮĸè§£": 5822,
        "éī": 5823,
        "äº²çľ¼": 5824,
        "éī´": 5825,
        "ä¸Ģå¹´": 5826,
        "éĿ¢å®¹": 5827,
        "çļĦäºĨ": 5828,
        "æĭĨ": 5829,
        "çĮ®": 5830,
        "æŀ«": 5831,
        "æĴķè£Ĥ": 5832,
        "å¤§å°ĨåĨĽ": 5833,
        "å¤©åīĳ": 5834,
        "è®¿": 5835,
        "ä¿¡æģ¯": 5836,
        "ä»»ä½ķäºº": 5837,
        "çļĦå±±": 5838,
        "è¯´æ³ķ": 5839,
        "ç¿Ķ": 5840,
        "æĢªå¼Ĥ": 5841,
        "èĪ±": 5842,
        "åı¯èĥ½æĺ¯": 5843,
        "éĴ¥åĮĻ": 5844,
        "å¥½äºĭ": 5845,
        "éģģåħī": 5846,
        "ç©¿è¿ĩ": 5847,
        "åıĳçİ°èĩªå·±": 5848,
        "æĶĢ": 5849,
        "é¡¹": 5850,
        "è£Ļ": 5851,
        "æĢİä¹Īè¯´": 5852,
        "çĸ¯åŃĲ": 5853,
        "æĦıåĳ³": 5854,
        "çļĦè¡¨æĥħ": 5855,
        "èĻļå¹»": 5856,
        "å²ģæľĪ": 5857,
        "ä¸Ģé¢¤": 5858,
        "ä¹Łç®Ĺ": 5859,
        "è¯ĿéŁ³": 5860,
        "åħ«æĸ¹": 5861,
        "åı±": 5862,
        "è¿ĺæĥ³": 5863,
        "åĨī": 5864,
        "èĢģå¤§": 5865,
        "æİª": 5866,
        "åĲĥä¸ĢæĥĬ": 5867,
        "æ¶Īå¤±äºĨ": 5868,
        "çĤ¹çĤ¹": 5869,
        "å¾ĹçŁ¥": 5870,
        "é©Ń": 5871,
        "äºĴçĽ¸": 5872,
        "èº«åĲİçļĦ": 5873,
        "éĤ£å¤©": 5874,
        "ä½łçľĭ": 5875,
        "çł´ç¢İ": 5876,
        "å¼Ĥæł·": 5877,
        "æĥ³åĪ°è¿ĻéĩĮ": 5878,
        "èĬ·": 5879,
        "èµ°è¿Ľ": 5880,
        "æŀľçĦ¶æĺ¯": 5881,
        "æ²¸": 5882,
        "çĹĽå¿«": 5883,
        "æ¢§": 5884,
        "è¿Ļä¸įæĺ¯": 5885,
        "äºĶä¸ª": 5886,
        "å®¢æłĪ": 5887,
        "çºłç¼ł": 5888,
        "åĬ¨å¼¹": 5889,
        "ä¸Ģéģĵéģĵ": 5890,
        "å¦¾": 5891,
        "åįłæį®": 5892,
        "æĿĢçļĦ": 5893,
        "éªĤéģĵ": 5894,
        "å´Ĩ": 5895,
        "æĦŁè§īåĪ°äºĨ": 5896,
        "åįİå±±": 5897,
        "çĪ¶æ¯į": 5898,
        "ç¡®è®¤": 5899,
        "ä¸įæĸĻ": 5900,
        "ä¸įæĦ§": 5901,
        "è¿Ļäºĭ": 5902,
        "åĩłåįģ": 5903,
        "ä¸ºéļ¾": 5904,
        "å¤ĸåĽ´": 5905,
        "æŃ»åİ»": 5906,
        "äººäºĨ": 5907,
        "çģ¼": 5908,
        "ä¸İæĪĳ": 5909,
        "æ¸Ĺ": 5910,
        "ä¸īçĻ¾": 5911,
        "å½ĵåľº": 5912,
        "æŀģéĻĲ": 5913,
        "æľºç¼ĺ": 5914,
        "ä½ĨæĪĳ": 5915,
        "é¢ĨæĤŁ": 5916,
        "éĻ©äºĽ": 5917,
        "ä¸įå®¹æĺĵ": 5918,
        "ä¸įéĢļ": 5919,
        "ç«ĭåľ¨": 5920,
        "ä¸ĭå±±": 5921,
        "èģĶçĽŁ": 5922,
        "ä½łèĩªå·±": 5923,
        "å®ĮæĪĲ": 5924,
        "ç£ķ": 5925,
        "æĪĳä¾¿": 5926,
        "åħ·ä½ĵ": 5927,
        "æıı": 5928,
        "å¿ĥæ³ķ": 5929,
        "ç´«èī²": 5930,
        "ä¹Łä¸įæĥ³": 5931,
        "ç§ĥ": 5932,
        "ä¸¤å£°": 5933,
        "èĤ¥": 5934,
        "æĨ¾": 5935,
        "æ¯ıä¸Ģä¸ª": 5936,
        "çĮ«åĦ¿": 5937,
        "çļĦä¸į": 5938,
        "è¯´èµ·": 5939,
        "åĲ¬åĪ°äºĨ": 5940,
        "è¯¸å¤ļ": 5941,
        "éŃĶæķĻ": 5942,
        "ç«ĻçĿĢ": 5943,
        "ä¸Ģä¸¾": 5944,
        "çŁ¥éģĵçļĦ": 5945,
        "ç»ĿæľĽ": 5946,
        "æĲħ": 5947,
        "æ²¡æľīä¸Ŀæ¯«": 5948,
        "è¸ıåħ¥": 5949,
        "çļĦåĲİ": 5950,
        "åħĢ": 5951,
        "èĢĮä¸Ĭ": 5952,
        "éŃħ": 5953,
        "å§¥": 5954,
        "ä½ĵåĨħçļĦ": 5955,
        "è´«éģĵ": 5956,
        "çļĦå¢ĥçķĮ": 5957,
        "å¯Ĵåħī": 5958,
        "è½°éļĨéļĨ": 5959,
        "ç»Ļèĩªå·±": 5960,
        "é¬¼åİĮ": 5961,
        "é¸¦": 5962,
        "åĲ±": 5963,
        "éĿ¢æĹł": 5964,
        "åĪ«è¯´": 5965,
        "éĤ£å¼ł": 5966,
        "åĨįä¸į": 5967,
        "å®ļçĦ¶": 5968,
        "çł´åĿı": 5969,
        "æ³ķè¯Ģ": 5970,
        "åıĳåĩºä¸Ģå£°": 5971,
        "èĦĸåŃĲ": 5972,
        "æ¶ħ": 5973,
        "æŃ¦éģĵ": 5974,
        "çł´å¤©": 5975,
        "å¼Ģå¿ĥ": 5976,
        "è¿Ļä¸Ģå¹ķ": 5977,
        "è¿Ļä¹Īå¤ļå¹´": 5978,
        "èŁĴ": 5979,
        "ç«Ļèµ·èº«æĿ¥": 5980,
        "è¿ĻäºĽå¹´": 5981,
        "çŀ¬æģ¯": 5982,
        "å¤©è¿Ĳ": 5983,
        "é»ĺçĦ¶": 5984,
        "åºĨåĽ½": 5985,
        "ä¸Ĭæ¬¡": 5986,
        "æ²īæĢĿ": 5987,
        "ç©¿éĢı": 5988,
        "æĥ³èµ·äºĨ": 5989,
        "æľªæĿ¥": 5990,
        "å©¢": 5991,
        "ä½łåıĪ": 5992,
        "åį´è¢«": 5993,
        "åľ£æķĻ": 5994,
        "åıĤä¸İ": 5995,
        "çľĭæ¸ħ": 5996,
        "åĳ½è¿Ĳ": 5997,
        "æ»ĭåĳ³": 5998,
        "ç¬Ī": 5999,
        "æĦıå¿Ĺ": 6000,
        "ä»İéĤ£": 6001,
        "è´¾": 6002,
        "è¿ĺæĺ¯è¦ģ": 6003,
        "ä¸ĢåĬ¨ä¸įåĬ¨": 6004,
        "æĤłæĤł": 6005,
        "åĽŀåºĶ": 6006,
        "æĪļ": 6007,
        "çļĦéĩĳ": 6008,
        "çŃīä»ĸ": 6009,
        "æĺ¯ä¸ºäºĨ": 6010,
        "å°ıæĸ¹": 6011,
        "è½»å£°": 6012,
        "çļĦåĲĮæĹ¶": 6013,
        "å¤§æ²³": 6014,
        "åĽĽä¸ĭ": 6015,
        "çİĦå¦Ļ": 6016,
        "æĹłè®ºå¦Ĥä½ķ": 6017,
        "çĶ¨æĿ¥": 6018,
        "åĵªæľī": 6019,
        "å¤§æ³ķ": 6020,
        "åĮĸç¥ŀ": 6021,
        "ç¿©": 6022,
        "èİ±": 6023,
        "æĢ§åŃĲ": 6024,
        "åĲĮæĦı": 6025,
        "ä¸Ģæł·çļĦ": 6026,
        "åĪ°æĿ¥": 6027,
        "æĹłä¸Ģ": 6028,
        "åķĨéĩı": 6029,
        "ä¸įå¦Ļ": 6030,
        "æĪĪ": 6031,
        "å¤§ä¸º": 6032,
        "åĽŀéģĵ": 6033,
        "ä¸įåģľçļĦ": 6034,
        "ä½łä¸įæĺ¯": 6035,
        "åīĳå®¢": 6036,
        "ä¼ŀ": 6037,
        "ä¸ºä»ĸ": 6038,
        "æĮŁ": 6039,
        "æľĢå¥½çļĦ": 6040,
        "åĨĽéĺŁ": 6041,
        "çĽĺæĹĭ": 6042,
        "ä¸¹çĶ°": 6043,
        "åĽĽå¤Ħ": 6044,
        "åı¯è°ĵ": 6045,
        "è´±": 6046,
        "é¢Ŀå¤´": 6047,
        "é»ĳèī²çļĦ": 6048,
        "å°ıéĻ¢": 6049,
        "éŃĶå®Ĺ": 6050,
        "è¹²": 6051,
        "åĲİæĤĶ": 6052,
        "ä¸»è¦ģ": 6053,
        "éº»éº»": 6054,
        "åĮķ": 6055,
        "æļĹéģĵ": 6056,
        "æŀ¢": 6057,
        "æī¾åĪ°äºĨ": 6058,
        "åıĸåĩº": 6059,
        "éĻĪå®¶æ´Ľ": 6060,
        "è§ģçļĦ": 6061,
        "ä»°å¤©": 6062,
        "çĶ³": 6063,
        "ä¸ĩä¸ĩ": 6064,
        "éĢĢåĲİ": 6065,
        "çĶļèĩ³è¿ŀ": 6066,
        "ä¹Łæľª": 6067,
        "éĴ¦": 6068,
        "ä¸įèĩª": 6069,
        "çĭ¸": 6070,
        "æ°´ä¸Ń": 6071,
        "ãĢĭï¼Į": 6072,
        "è½¬è¿ĩèº«": 6073,
        "è¯§å¼Ĥ": 6074,
        "ç¦Ħ": 6075,
        "ä¸Ģæ²ī": 6076,
        "æĪĲä¸ºäºĨ": 6077,
        "æµĵéĥģ": 6078,
        "å¤©éĤª": 6079,
        "çļĦéĺ´": 6080,
        "æīĢæľīäººéĥ½": 6081,
        "çļĦå¨ģ": 6082,
        "èĥĮå½±": 6083,
        "ä¸ĢæĹ¥": 6084,
        "å¾ĹæĽ´": 6085,
        "é¸¾": 6086,
        "ç´«è¡£": 6087,
        "éĿŀä½Ĩ": 6088,
        "æ¼ª": 6089,
        "æĺŁåħī": 6090,
        "ä¸ĢæĬĵ": 6091,
        "åİ»çľĭ": 6092,
        "åĲ¬ä»ĸ": 6093,
        "é«ĺæ·±": 6094,
        "çĸĳéĹ®": 6095,
        "æĺŁåŁŁ": 6096,
        "äººç¾¤": 6097,
        "ä½łä»¬çļĦ": 6098,
        "èĵ¦åľ°": 6099,
        "åħ¼": 6100,
        "æĮ½": 6101,
        "è§ģéĿ¢": 6102,
        "ä¿®éģĵ": 6103,
        "å£ģä¸Ĭ": 6104,
        "äºĨä¸Ģéģį": 6105,
        "åĿ¡": 6106,
        "é«ĺæĺİ": 6107,
        "èµ°çļĦ": 6108,
        "æķ°éĩı": 6109,
        "åı°ä¸Ĭ": 6110,
        "çĽ®åīį": 6111,
        "çĽĪçĽĪ": 6112,
        "äººé©¬": 6113,
        "èĻļå¼±": 6114,
        "ç¡®æĺ¯": 6115,
        "åĩĿç¥ŀ": 6116,
        "æ¯«ä¸įçĬ¹è±«": 6117,
        "ä¸įåĩºæĿ¥": 6118,
        "éĺĸ": 6119,
        "ä¸¤å¥³": 6120,
        "èĲ½åħ¥": 6121,
        "çĽ´èĩ³": 6122,
        "çŃīçŃī": 6123,
        "ä¹ĭä¸ŃçļĦ": 6124,
        "ä¸Ģæĸ¹": 6125,
        "ä½Ĩä¹Ł": 6126,
        "é¢ĩæľī": 6127,
        "åĮ£": 6128,
        "éĵł": 6129,
        "äºĶåįģ": 6130,
        "åĢŁåĬ©": 6131,
        "å¯Ĩå¯Ĩéº»éº»": 6132,
        "æĹ¶çļĦ": 6133,
        "æĺĵæĤ¼": 6134,
        "åľ°è¯´": 6135,
        "æĹłä¸į": 6136,
        "åĲĳéĤ£": 6137,
        "ä¸ľæµ·": 6138,
        "è¡ĮäºĨ": 6139,
        "å¦į": 6140,
        "èĤ¢": 6141,
        "å°ĳä¸»": 6142,
        "çĸĹä¼¤": 6143,
        "å¤ķ": 6144,
        "åį«æĺĵæĤ¼": 6145,
        "åĳĬè¾ŀ": 6146,
        "èĢ³ä¸Ń": 6147,
        "èĦ±èº«": 6148,
        "éĻ¨": 6149,
        "å¯Ĵæ°Ķ": 6150,
        "èĴĻèĴĻ": 6151,
        "åľ¨è¿Ļä¸ĢåĪ»": 6152,
        "éĻĮçĶŁ": 6153,
        "çłĶç©¶": 6154,
        "æļ®": 6155,
        "ç²¹": 6156,
        "æī¾ä¸įåĪ°": 6157,
        "çģµçŁ³": 6158,
        "å®ĮäºĨ": 6159,
        "åĵ¼ä¸Ģå£°": 6160,
        "çľ¼ä¸Ńéľ²åĩº": 6161,
        "æ±Łæµ·å¤©": 6162,
        "æķħäºĭ": 6163,
        "çļĦä¸ĭ": 6164,
        "ç»°": 6165,
        "å·į": 6166,
        "æľŁä¿®å£«": 6167,
        "æĢĴåĲ¼": 6168,
        "ä¸ĢèĦļ": 6169,
        "å®ļçļĦ": 6170,
        "å¨¶": 6171,
        "çŀªçĿĢ": 6172,
        "å¥¶å¥¶": 6173,
        "æł½": 6174,
        "ä¼¼æĺ¯": 6175,
        "ä¼łéŁ³": 6176,
        "éķĸå±Ģ": 6177,
        "è¹Ļçľī": 6178,
        "æ±ª": 6179,
        "ä¸Ģç¬ĳéģĵ": 6180,
        "éĵŃ": 6181,
        "å½¢å®¹": 6182,
        "åĨĴéĻ©": 6183,
        "éģĤ": 6184,
        "æĲº": 6185,
        "ä½łæĿ¥": 6186,
        "æľ¬å°±": 6187,
        "è°İ": 6188,
        "çķıæĥ§": 6189,
        "è¾Ľèĭ¦": 6190,
        "çļĦéĿĴ": 6191,
        "å¾ª": 6192,
        "å£°åĬ¿": 6193,
        "çļĦéķ¿": 6194,
        "å¤©çĭ¼": 6195,
        "åĽĽæĸ¹": 6196,
        "æĮ¡ä½ı": 6197,
        "ä»İæĿ¥æ²¡æľī": 6198,
        "åįĬç¥ĸ": 6199,
        "åįĬä¸ªæĹ¶è¾°": 6200,
        "ä¿ŀ": 6201,
        "éª§": 6202,
        "æłĳæŀĹ": 6203,
        "çļĦä½įç½®": 6204,
        "åĽļ": 6205,
        "åĬ²åĬĽ": 6206,
        "èµĶ": 6207,
        "ç»į": 6208,
        "èº«åľ¨": 6209,
        "çªģçĦ¶éĹ´": 6210,
        "ç¼Ńç»ķ": 6211,
        "äººç±»": 6212,
        "æĥ³éģĵ": 6213,
        "æŀģå¿«": 6214,
        "è¿Ļä¸¤äºº": 6215,
        "èĢģå®¶ä¼Ļ": 6216,
        "åŃĻèĢģ": 6217,
        "åµ©": 6218,
        "åľ¨åĨħ": 6219,
        "èģļéĽĨ": 6220,
        "åĪ°çİ°åľ¨": 6221,
        "çļĦå·¨": 6222,
        "åīĳéĺģ": 6223,
        "æĪĺäºī": 6224,
        "èĭıèĮ¹": 6225,
        "æĿĢä»ĸ": 6226,
        "å¤§æŃ¥": 6227,
        "åŁ¹": 6228,
        "è¿Ļä¸Ģä¸ĭ": 6229,
        "èİ«æµĭ": 6230,
        "æŀī": 6231,
        "éħĴæ¥¼": 6232,
        "ä¸įè¯¥": 6233,
        "æľīæĹ¶": 6234,
        "çŀ³åŃĶ": 6235,
        "ä¸ĢåŃĹ": 6236,
        "èĪµ": 6237,
        "æĬĬä½ł": 6238,
        "æĺ¯çļĦ": 6239,
        "æĺ¯ä»İ": 6240,
        "æĿľå¹½": 6241,
        "ç¥ŀå¥ĩ": 6242,
        "å®«ä¸»": 6243,
        "å¸ĮçĻ½": 6244,
        "ä¹¦çĶŁ": 6245,
        "æľīæŃ¤": 6246,
        "å¤§æīĭ": 6247,
        "ç¥ŀåħ½": 6248,
        "æ±ŁçĲīçĴĥ": 6249,
        "æĬ¼": 6250,
        "åĮĹåºŃ": 6251,
        "åħ«ä¹Ŀ": 6252,
        "æ¡ĥèĬ±": 6253,
        "ä¸įæĺİ": 6254,
        "åľ¨å±±": 6255,
        "è½»å£°éģĵ": 6256,
        "æĶ¯æĴĳ": 6257,
        "ç¤ºæĦı": 6258,
        "ä¹ĭç±»": 6259,
        "é¸£é¸¿": 6260,
        "èĩ³æŀģ": 6261,
        "å²Ń": 6262,
        "éĤ£å¥³åŃĲ": 6263,
        "å°Ŀè¯ķ": 6264,
        "è¯¢éĹ®": 6265,
        "æĥ³è¿ĩ": 6266,
        "è¾©": 6267,
        "è®¤çľŁ": 6268,
        "é³ŀ": 6269,
        "æŃī": 6270,
        "ç©ºæ°Ķ": 6271,
        "åºķä¸ĭ": 6272,
        "éĽªçĻ½": 6273,
        "äºĶäºº": 6274,
        "å¤§åĲĥä¸ĢæĥĬ": 6275,
        "æĺ¯è¢«": 6276,
        "åı¦æľī": 6277,
        "æĥĬäººçļĦ": 6278,
        "æıĲåīį": 6279,
        "åĩĮç©º": 6280,
        "è°¦": 6281,
        "éļ¾çľĭ": 6282,
        "å°ıåħ½": 6283,
        "å¾Īå¤§": 6284,
        "åĩŃåĢŁ": 6285,
        "å¯¡": 6286,
        "äºĨä¸Ģåı£": 6287,
        "çķĻä¸ĭçļĦ": 6288,
        "åįļ": 6289,
        "åħīå¹ķ": 6290,
        "ä¹Ŀå¤©": 6291,
        "çļĦçľŁ": 6292,
        "å¸ĸ": 6293,
        "éĿŀåĲĮ": 6294,
        "è±Ĩ": 6295,
        "æ²¡åħ¥": 6296,
        "å¸Ĳç¯·": 6297,
        "ä¹Ŀå¹½": 6298,
        "é½Ĳé½Ĳ": 6299,
        "æķĸ": 6300,
        "åĨľ": 6301,
        "æīĭçļĦ": 6302,
        "éĹªéĹª": 6303,
        "æĥĬå¤©åĬ¨": 6304,
        "é£ŀèĪŀ": 6305,
        "åĬªåĬĽ": 6306,
        "åļ·": 6307,
        "æŁıéķ¿éĿĴ": 6308,
        "æĹ¶åĪĨ": 6309,
        "çķĮçļĦ": 6310,
        "æĥŁ": 6311,
        "åıªä¼ļ": 6312,
        "çĭŃ": 6313,
        "çļĦå¥³": 6314,
        "çĤ¹åĦ¿": 6315,
        "èĦĤ": 6316,
        "æ¯ĶæŃ¦": 6317,
        "ç³ķ": 6318,
        "ä¸įè¿ĩæĺ¯": 6319,
        "é¥±": 6320,
        "çĭĲçĭ¸": 6321,
        "äºĭå®ŀä¸Ĭ": 6322,
        "ä¸ĢäºĮ": 6323,
        "ä¸ĢæŁĦ": 6324,
        "é¸£é¸¿åĪĢ": 6325,
        "çĻ½äºĳ": 6326,
        "é£ŀåįĩ": 6327,
        "èĢģå¼Ł": 6328,
        "å¨ĺåŃĲ": 6329,
        "çıįå®Ŀ": 6330,
        "åĽ°éļ¾": 6331,
        "çļĦå¥³äºº": 6332,
        "å°½å¤´": 6333,
        "èĢĮåľ¨": 6334,
        "å²Ľä¸Ĭ": 6335,
        "åħ³å¿ĥ": 6336,
        "éĺ³ç¥ŀ": 6337,
        "æĭ¿èµ·": 6338,
        "ç«ŁçĦ¶æĺ¯": 6339,
        "è¿Ļä¸ªä¸ĸçķĮ": 6340,
        "å¤§åľĨ": 6341,
        "æĺ¾çİ°": 6342,
        "æļ´éľ²": 6343,
        "çĬ¹å¦Ĥ": 6344,
        "çĶµåħī": 6345,
        "å±ŀä¸ĭ": 6346,
        "æ¥ļçķĻé¦Ļéģĵ": 6347,
        "ä»ĸèĥ½": 6348,
        "æ·³": 6349,
        "å»ĸ": 6350,
        "è¿ĺä¸įæĺ¯": 6351,
        "èµ·çļĦ": 6352,
        "ä¸īåĲį": 6353,
        "é£İæļ´": 6354,
        "åħ¨æĺ¯": 6355,
        "åħ¥åı£": 6356,
        "æĮĳæĪĺ": 6357,
        "å¢ŀåĬł": 6358,
        "é«ĵ": 6359,
        "åºŀå¤§": 6360,
        "èĿ¶åħ°": 6361,
        "çļĦç²¾": 6362,
        "å¯ŀ": 6363,
        "çĿĢäºĨ": 6364,
        "å¦ĥæļĦ": 6365,
        "ä¹Łä¸įè¿ĩ": 6366,
        "éŃĶåĬŁ": 6367,
        "å½ĵçĦ¶æĺ¯": 6368,
        "åį¦": 6369,
        "å¥½çĶŁ": 6370,
        "å®Įæķ´": 6371,
        "åĨ³å¿ĥ": 6372,
        "å¸Īå°Ĭ": 6373,
        "æĽ´ä½ķåĨµ": 6374,
        "æ¡Ĳ": 6375,
        "æ·±åħ¥": 6376,
        "æ¦ľ": 6377,
        "å¤ªçİĦ": 6378,
        "åĮĸä¸ºä¸Ģéģĵ": 6379,
        "å¹½å¹½": 6380,
        "æĻ¦": 6381,
        "æĦŁæĥħ": 6382,
        "èĲįèĲį": 6383,
        "ä¸įæŃ¢": 6384,
        "æĥĬæģĲ": 6385,
        "ä¼łéĹ»": 6386,
        "ä¾¯çĪ·": 6387,
        "ä¼¼ä¹İæĺ¯": 6388,
        "èľĤ": 6389,
        "è¿Ļä¸ĢåĪ»": 6390,
        "éĨĴæĿ¥": 6391,
        "æĮ¥æīĭ": 6392,
        "åī©ä¸ĭçļĦ": 6393,
        "æľĢå¼º": 6394,
        "ä¹ĭæĦŁ": 6395,
        "ä½Ĩæĺ¯ä»ĸ": 6396,
        "å¤§åĶĲ": 6397,
        "ç¬ĳè¯Ŀ": 6398,
        "å®¾": 6399,
        "èĩªæľī": 6400,
        "åİ»åĲ§": 6401,
        "åĨįå¤ļ": 6402,
        "è¿ĳä¹İ": 6403,
        "ç§ĺç¬Ī": 6404,
        "éĻĪèĲįèĲį": 6405,
        "æ¢Ń": 6406,
        "å¤§å¤«": 6407,
        "å¤§æµ·": 6408,
        "éĩįåĪĽ": 6409,
        "æĦŁåħ´è¶£": 6410,
        "æľ¬åĳ½": 6411,
        "ç»ĥåĬŁ": 6412,
        "äºĨå¥½": 6413,
        "ä¾¿å¦Ĥ": 6414,
        "äºīæĸĹ": 6415,
        "~~âĢĿ": 6416,
        "è£´": 6417,
        "ä¸Ńå¹´äºº": 6418,
        "æīĭèĦļ": 6419,
        "æĹłè¾¹": 6420,
        "ä¾¥": 6421,
        "å¿«è¦ģ": 6422,
        "åľ£å¥³": 6423,
        "å¸½": 6424,
        "é»ĳæ°Ķ": 6425,
        "å³¡": 6426,
        "è¿ĻæĬĬ": 6427,
        "èµ¶æĿ¥": 6428,
        "ä¸Ŀæ¯«ä¸į": 6429,
        "èĢģå¤ª": 6430,
        "ä»·åĢ¼": 6431,
        "ä¸ŀ": 6432,
        "éĤ£åº§": 6433,
        "æĸ¹éĹ»": 6434,
        "ä¸İä½ł": 6435,
        "çĻ¾ä¸Ī": 6436,
        "åĪ°çļĦ": 6437,
        "æĬµæĬĹ": 6438,
        "èī¯ä¹ħ": 6439,
        "çľĭä¸Ģçľ¼": 6440,
        "éĿ¢æĹłè¡¨æĥħ": 6441,
        "æķĻè®Ń": 6442,
        "é¡¾æ¢ħ": 6443,
        "åıĤåĬł": 6444,
        "èĢĮåħ¥": 6445,
        "çĭ¡": 6446,
        "åĩ»è´¥": 6447,
        "çĮĽçļĦ": 6448,
        "æģįçĦ¶": 6449,
        "ä¼ª": 6450,
        "äºĨä¸Ģéģĵ": 6451,
        "éľŀåħī": 6452,
        "çļĦçľĭçĿĢ": 6453,
        "åĸĩ": 6454,
        "æľ¬ä½ĵ": 6455,
        "å¿½çĦ¶éĹ´": 6456,
        "æĻĵéľľ": 6457,
        "éľ¸éģĵ": 6458,
        "éªĩçĦ¶": 6459,
        "æľīæľºä¼ļ": 6460,
        "èĥ§": 6461,
        "èĹ©": 6462,
        "èĢ¶": 6463,
        "çľ¼æ³ª": 6464,
        "æĪĳå·²": 6465,
        "çİĦèĭį": 6466,
        "å¿«æ´»": 6467,
        "æı¡çĿĢ": 6468,
        "æİ©é¥°": 6469,
        "æĥ³çļĦ": 6470,
        "è¥Ł": 6471,
        "èĩªçĦ¶ä¸įä¼ļ": 6472,
        "éĩĬçĹķ": 6473,
        "çĭ¬åŃ¤èĥľ": 6474,
        "ä¸Ģå¯¹": 6475,
        "ä¸ĢèĪª": 6476,
        "ä¿ı": 6477,
        "éĻ¢åŃĲ": 6478,
        "è¿Ľåħ¥äºĨ": 6479,
        "å®ŀéĻħä¸Ĭ": 6480,
        "ä¸Ģç¤¼": 6481,
        "åŁİéĹ¨": 6482,
        "ç¿¼ç¿¼": 6483,
        "è¯ĿæĿ¥": 6484,
        "æĲŀ": 6485,
        "ä¸įè¿ľ": 6486,
        "å®ł": 6487,
        "å®«æ®¿": 6488,
        "çĮ´åŃĲ": 6489,
        "åĮķé¦ĸ": 6490,
        "å·¾": 6491,
        "ä¸¤éĵ¶åŃĲ": 6492,
        "ç§¦é¡¾æ¢ħ": 6493,
        "é¾ĻçİĭçļĦ": 6494,
        "ä½łåĪ«": 6495,
        "æĹłç¼º": 6496,
        "éĥ½åı¯ä»¥": 6497,
        "åį´åľ¨": 6498,
        "åĮĸä¸ºäºĨ": 6499,
        "è¿Ļåıª": 6500,
        "çº¢äºĨ": 6501,
        "åĹĵ": 6502,
        "æ¡ĮåŃĲ": 6503,
        "ç§»åĬ¨": 6504,
        "åıĳåĬ¨": 6505,
        "é¦ĸåħĪ": 6506,
        "å«©": 6507,
        "èĪ¹ä¸Ĭ": 6508,
        "æµ·æ£ł": 6509,
        "å°ıå¿ĥç¿¼ç¿¼": 6510,
        "çļĦæĸ¹åĲĳ": 6511,
        "çĻ¾ä½Ļ": 6512,
        "æĴŀåĩ»": 6513,
        "æĹłè®ºæĺ¯": 6514,
        "ä¸ĢæĹģ": 6515,
        "ç¥ŀçİĭ": 6516,
        "ä¾¿å°Ĩ": 6517,
        "åı«æĪĳ": 6518,
        "åı¶å¼Ģéģĵ": 6519,
        "çĽ¸ä¼¼": 6520,
        "çŃĳåŁº": 6521,
        "çĿĢæĢ¥": 6522,
        "æ·®": 6523,
        "åĽŀäºĨ": 6524,
        "éĴ°åĦ¿": 6525,
        "å¦ĤæĿ¥": 6526,
        "éĻĩ": 6527,
        "ä¸Ńæľī": 6528,
        "å¯¹å¥¹": 6529,
        "éĢłæĪĲ": 6530,
        "çļĦéĹ®é¢ĺ": 6531,
        "ç»Ĩç»Ĩ": 6532,
        "è½»è½»ä¸Ģ": 6533,
        "ç»Ļå¥¹": 6534,
        "æĬĺç£¨": 6535,
        "å±±èĦī": 6536,
        "ä¸ĢçĤ¹åĦ¿": 6537,
        "æĥ³åĪ°äºĨ": 6538,
        "æīįå¥½": 6539,
        "æĿ¥æī¾": 6540,
        "éĹªéģ¿": 6541,
        "å¿½åĲ¬": 6542,
        "æ±¹æ¶Į": 6543,
        "âĢľâĢ¦âĢ¦": 6544,
        "å¤§æĪĲ": 6545,
        "ä½¿åĩº": 6546,
        "çļĦéĤ£äºĽ": 6547,
        "åıĳåĩºäºĨ": 6548,
        "æĻĥåĬ¨": 6549,
        "å¦Ĥå¸¸": 6550,
        "ç®ĹäºĨ": 6551,
        "çħ§é¡¾": 6552,
        "çľĭåĲĳäºĨ": 6553,
        "ä¸Ģäº®": 6554,
        "çĬĢ": 6555,
        "å®¶äºº": 6556,
        "éģĵå¢ĥ": 6557,
        "åĪ«äººçļĦ": 6558,
        "æŃ¤è¯Ŀ": 6559,
        "é«ĺå¤§": 6560,
        "å¤§åı£": 6561,
        "æ²¡æľīæĥ³åĪ°": 6562,
        "åı£éģĵ": 6563,
        "èĻ¾": 6564,
        "å¿ĥä¸ŃçļĦ": 6565,
        "è§ĴèĲ½": 6566,
        "æµ®çİ°èĢĮåĩº": 6567,
        "åĩºä¹İ": 6568,
        "æĳ§": 6569,
        "åįĬç©ºä¸Ń": 6570,
        "éĽ·åħī": 6571,
        "å¯ĴæĦı": 6572,
        "ä»ĸæľī": 6573,
        "åĲ¬éĹ»": 6574,
        "éĽªåĩĮ": 6575,
        "å¤§å¤ļæķ°": 6576,
        "äººä¹ĭ": 6577,
        "ä»ĵ": 6578,
        "ç»ŀ": 6579,
        "æ³¼": 6580,
        "åĨ·æ±Ĺ": 6581,
        "çº¢çļĦ": 6582,
        "åıĤæĤŁ": 6583,
        "æĦķçĦ¶": 6584,
        "åĲĬ": 6585,
        "äºĨä¸Ĭåİ»": 6586,
        "åĴĮèĩªå·±": 6587,
        "ä¸¾åĬ¨": 6588,
        "æİ¨å¼Ģ": 6589,
        "åĮħåĽ´": 6590,
        "ä¾¥å¹¸": 6591,
        "ä½Ĩå¥¹": 6592,
        "å¼ºæ¨ª": 6593,
        "èĦĳä¸Ń": 6594,
        "ä¾¯å¸ĮçĻ½": 6595,
        "åįĵä¸ĢèĪª": 6596,
        "æŃ¦çİĦèĭį": 6597,
        "ä¸ĩåĪĨ": 6598,
        "è¶ħè¿ĩ": 6599,
        "èħĶ": 6600,
        "æİ¥éģĵ": 6601,
        "ä½ĽéĹ¨": 6602,
        "æĺ¯å¥½": 6603,
        "åĬłåħ¥": 6604,
        "çĲ¨": 6605,
        "æĢĴçģ«": 6606,
        "æ¨Ĭä»²": 6607,
        "åį´æĺ¯ä¸Ģ": 6608,
        "æ¨Ĭä»²çĲ¨": 6609,
        "æİĮæķĻ": 6610,
        "èİ«è¦ģ": 6611,
        "å¤§èĩ£": 6612,
        "éĺ»æĭ¦": 6613,
        "è¿ĺè¯·": 6614,
        "èĲ§å³°": 6615,
        "çł´è§£": 6616,
        "åıįæĬĹ": 6617,
        "å±Ĥå±Ĥ": 6618,
        "ç£ģ": 6619,
        "æĿİåħĥ": 6620,
        "çĹĴ": 6621,
        "å½ĵå¹´çļĦ": 6622,
        "éŀĭ": 6623,
        "èİ·å¾Ĺ": 6624,
        "å¾Īå¿«å°±": 6625,
        "å¤§é»ĳ": 6626,
        "å°ıå§ĳå¨ĺ": 6627,
        "ç©¹": 6628,
        "äºĨä¸ĢèĤ¡": 6629,
        "å¼ĤçķĮ": 6630,
        "äº¤æĺĵ": 6631,
        "å¿ĥæĦı": 6632,
        "åĽłæŀľ": 6633,
        "èĤ©èĨĢ": 6634,
        "åį´æľī": 6635,
        "çļĦå¿ĥæĢĿ": 6636,
        "è¦ģçŁ¥éģĵ": 6637,
        "äº²çİĭ": 6638,
        "éĢĤæīį": 6639,
        "èĵ¬èİ±": 6640,
        "å¤©æģķ": 6641,
        "æĹģè§Ĥ": 6642,
        "ç¦½": 6643,
        "åĿĲçĿĢ": 6644,
        "è¿ĩåİ»äºĨ": 6645,
        "åı¶çº¢": 6646,
        "èĳĹ": 6647,
        "æŃ£éģĵ": 6648,
        "å®ŀè¯Ŀ": 6649,
        "æķ°ä¸Ī": 6650,
        "åĪĢåīĳ": 6651,
        "æĢªçī©": 6652,
        "è¿Ļä¸ĢæĭĽ": 6653,
        "ç§°åĳ¼": 6654,
        "ä¸ĵéĹ¨": 6655,
        "ä½łä¸Ģ": 6656,
        "çŀ§è§ģ": 6657,
        "éģµ": 6658,
        "ä¸ĭå¤´": 6659,
        "å¸Īä¼¯": 6660,
        "ä»İåīį": 6661,
        "åĴ¬çĿĢ": 6662,
        "èĩ³å®Ŀ": 6663,
        "åģľé¡¿": 6664,
        "ä¸įåıĳ": 6665,
        "å½¦": 6666,
        "å°±åı¯": 6667,
        "æīĭæĮģ": 6668,
        "æĦĪåıĳ": 6669,
        "çľ¼çļĦ": 6670,
        "éĵ¶åħī": 6671,
        "ä»ĸéģĵ": 6672,
        "ä½ľåĵį": 6673,
        "çº¿ç´¢": 6674,
        "æī©æķ£": 6675,
        "ä»İå°ı": 6676,
        "ç½®ä¿¡": 6677,
        "ä½łåĴĮ": 6678,
        "åīįå¾Ģ": 6679,
        "äºĶåħŃ": 6680,
        "å¹³æĹ¥": 6681,
        "åĩ¡äºº": 6682,
        "èĪħ": 6683,
        "æ¾Ħ": 6684,
        "èĶºå¤©æģķ": 6685,
        "éĤ£æĿ¡": 6686,
        "ä¸ĭæĦıè¯Ĩ": 6687,
        "åį°è±¡": 6688,
        "å¤ļä¹Ī": 6689,
        "èĬ¬": 6690,
        "é£ŀè¡Į": 6691,
        "ä¹Łä¸įåı¯èĥ½": 6692,
        "çļĦè¯Ŀè¯Ń": 6693,
        "å¤§ä¼ļ": 6694,
        "ä»¥å¾Ģ": 6695,
        "ä¾¿è¢«": 6696,
        "åĩ»ä¸Ń": 6697,
        "ç¨įå¾®": 6698,
        "åİīå®³çļĦ": 6699,
        "è¿ĽæĶ»": 6700,
        "èĭ¥ä¸į": 6701,
        "æĿ¥çľĭ": 6702,
        "åĥ»": 6703,
        "ä»Ļå±±": 6704,
        "é¡¾åīĳ": 6705,
        "éĺŁä¼į": 6706,
        "ä¸įçĶĺ": 6707,
        "çİ¯å¢ĥ": 6708,
        "æĺ¯å¦ĤæŃ¤": 6709,
        "è¿Ļæĺ¯ä¸Ģ": 6710,
        "èĢģä¼¯": 6711,
        "è¿ĳåīį": 6712,
        "åŁİåĨħ": 6713,
        "éļĲç§ĺ": 6714,
        "å¤ľèī²": 6715,
        "åĳĨäºĨ": 6716,
        "åĳĬè¯īæĪĳ": 6717,
        "çļĦå¿µå¤´": 6718,
        "éĤ£ä¸¤ä¸ª": 6719,
        "æ¹Ľ": 6720,
        "æ¶Īå¤±åľ¨": 6721,
        "çŁŃæĹ¶éĹ´": 6722,
        "ä¾įå¥³": 6723,
        "åįģä¸ª": 6724,
        "åĲĪéĢĤ": 6725,
        "åĩĮæľª": 6726,
        "æĿ¥ä¸´": 6727,
        "è¿ĺçľŁæĺ¯": 6728,
        "å¼ķèµ·": 6729,
        "äºĨä¸Ģéĺµ": 6730,
        "æł¹æľ¬ä¸į": 6731,
        "åĬŁå¾·": 6732,
        "äºĶæĮĩ": 6733,
        "èµ¶åĪ°": 6734,
        "ä¸ĭé©¬": 6735,
        "è¶ģæľº": 6736,
        "ä¸Ģéģį": 6737,
        "åı¶çº¢é±¼": 6738,
        "å¤§åĬĽ": 6739,
        "æľĢé«ĺ": 6740,
        "å¹³æ·¡": 6741,
        "è£¸": 6742,
        "æľīä¸¤": 6743,
        "æ³£": 6744,
        "æ¶Īå¤±ä¸įè§ģ": 6745,
        "èº²éģ¿": 6746,
        "èĢ¶å¾ĭ": 6747,
        "åħ¶ä¸Ĭ": 6748,
        "é¡¾å¿Į": 6749,
        "æĥħåĨµä¸ĭ": 6750,
        "çĨĬçĮ«åĦ¿": 6751,
        "æīĵæī°": 6752,
        "èĮĥéĹ²çļĦ": 6753,
        "åıĪè¦ģ": 6754,
        "ç®«": 6755,
        "æĢĿéĩı": 6756,
        "çİ¯ç»ķ": 6757,
        "åİ¿": 6758,
        "è¾½": 6759,
        "çĲ¢": 6760,
        "çļĦä¸¤": 6761,
        "è¿ģ": 6762,
        "ä¹į": 6763,
        "æŀĲ": 6764,
        "å°ıå°ı": 6765,
        "éĶħ": 6766,
        "é»ĳçĻ½": 6767,
        "åĢĴä¹Łä¸į": 6768,
        "çĥĻ": 6769,
        "åĩ¤è¿ŀåŁİ": 6770,
        "åĩĨç¡®": 6771,
        "åıªä¸įè¿ĩæĺ¯": 6772,
        "ä¹Łæĥ³": 6773,
        "åĵ§": 6774,
        "ä»ĸä»¬éĥ½": 6775,
        "åĪ°åºķæĺ¯": 6776,
        "å®īæħ°": 6777,
        "æĻĵå¾Ĺ": 6778,
        "è¡Ĺéģĵ": 6779,
        "åħĭåĪ¶": 6780,
        "åį´ä¸įçŁ¥": 6781,
        "å¯Ĩå®¤": 6782,
        "å¤©ä¸ĭç¬¬ä¸Ģ": 6783,
        "åŁİå¤ĸ": 6784,
        "æ²¡äºĭ": 6785,
        "å®ļæĺ¯": 6786,
        "ä¸ĩä¸Ī": 6787,
        "æĮģç»Ń": 6788,
        "ä½ĨéĤ£": 6789,
        "æµĨ": 6790,
        "å®µ": 6791,
        "å®ļè¦ģ": 6792,
        "ä¸īå¹´": 6793,
        "åħīæĺİåľ£æķĻ": 6794,
        "è¯¡å¼ĤçļĦ": 6795,
        "åīĳå°ĸ": 6796,
        "è®¤åĩº": 6797,
        "è¤ļ": 6798,
        "äºĨä»ĸçļĦ": 6799,
        "éª¨å¤´": 6800,
        "åĨµä¸Ķ": 6801,
        "é¡·åĪ»": 6802,
        "æľīè¿ĩ": 6803,
        "å°½æķ°": 6804,
        "æİ¥è¿ŀ": 6805,
        "è¿ĺæĺ¯æľīäºĽ": 6806,
        "éĢıåĩº": 6807,
        "çļ±äºĨ": 6808,
        "æľĢå¤§": 6809,
        "åĩĮæľªé£İ": 6810,
        "çļĦçģ«": 6811,
        "åīĳç¥ŀ": 6812,
        "èĭ¥èĥ½": 6813,
        "éĺ²å¾¡": 6814,
        "çĦ¦æĢ¥": 6815,
        "æ¦»": 6816,
        "é»ĳæļĹä¸Ń": 6817,
        "æ£®æ£®": 6818,
        "å¤ĸéĿ¢çļĦ": 6819,
        "æĸ½ä¸»": 6820,
        "éģĩä¸Ĭ": 6821,
        "ä¸ĸåŃĲæ®¿ä¸ĭ": 6822,
        "åľ¨ä½ł": 6823,
        "ä½łåħĪ": 6824,
        "åıįåĩ»": 6825,
        "åıĬæĹ¶": 6826,
        "å¦Ĥæŀľä¸įæĺ¯": 6827,
        "ä¸įå±ĳ": 6828,
        "åħĶ": 6829,
        "å¦ª": 6830,
        "éĥ½æĹłæ³ķ": 6831,
        "åħ¶å¦Ļ": 6832,
        "éĩĮéĿ¢çļĦ": 6833,
        "éĤ£ä¹Īå¤ļ": 6834,
        "éĦĻ": 6835,
        "æ³Ĭ": 6836,
        "çĽ¸è§ģ": 6837,
        "æĢİåľ°": 6838,
        "æļĩ": 6839,
        "è§£å¼Ģ": 6840,
        "èµł": 6841,
        "è¶ĭ": 6842,
        "éĹ®ä½ł": 6843,
        "ä»Ļæľ¯": 6844,
        "å¹³å¸¸": 6845,
        "ä»¤çīĮ": 6846,
        "åĵªåĦ¿": 6847,
        "è£ĺ": 6848,
        "ç¬Ľ": 6849,
        "éĽ³": 6850,
        "é£İéĽ¨": 6851,
        "é¢¤åĬ¨": 6852,
        "åĨłåĨĽ": 6853,
        "æľīè¶£": 6854,
        "æĺİçŁ¥": 6855,
        "çļĦæĥħ": 6856,
        "å¤§å¸Ŀ": 6857,
        "å¦Ĥçİī": 6858,
        "çĻ½èĻİ": 6859,
        "æīįçŁ¥éģĵ": 6860,
        "äººåľ¨": 6861,
        "å¼łå¼Ģ": 6862,
        "åĪ°äºĨä¸Ģ": 6863,
        "è¿Ļæĺ¯ä»Ģä¹Ī": 6864,
        "å·¢": 6865,
        "éª¸": 6866,
        "è¿ľæĸ¹": 6867,
        "æĳĨèĦ±": 6868,
        "ä¸įæĥľ": 6869,
        "èĴĻåı¤": 6870,
        "åĲ«ç¬ĳ": 6871,
        "åĪºæĿĢ": 6872,
        "æ¯ıå¤©": 6873,
        "åı°éĺ¶": 6874,
        "æĬĬæĪĳ": 6875,
        "åıĮèĩĤ": 6876,
        "åĬ£": 6877,
        "ä½łä»¥ä¸º": 6878,
        "æľĢéĩįè¦ģ": 6879,
        "æ³¡": 6880,
        "æ·¹": 6881,
        "èĩ³ä»Ĭ": 6882,
        "æł¸å¿ĥ": 6883,
        "ä¹Łåıªæĺ¯": 6884,
        "æīĭæ³ķ": 6885,
        "é£ŀåĪĢ": 6886,
        "ä¸ºä¸Ģ": 6887,
        "é£ŀæī¬": 6888,
        "ä¹ĭè¨Ģ": 6889,
        "å·²å°Ĩ": 6890,
        "éľĩèį¡": 6891,
        "æĹłæ¯ĶçļĦ": 6892,
        "!âĢĿ": 6893,
        "åľ¨è¿Ļç§į": 6894,
        "æĪĳä¹Łä¸į": 6895,
        "è§ģå¾Ĺ": 6896,
        "æĿİæ¸Ĭ": 6897,
        "è¦ģä¹Ī": 6898,
        "è´ŀ": 6899,
        "å®Ŀè´Ŀ": 6900,
        "ä¼ļè¢«": 6901,
        "åį³å°Ĩ": 6902,
        "å¦Ĥæŀľè¯´": 6903,
        "æĸ¹éĹ»æĺ¯": 6904,
        "è°Ń": 6905,
        "æľĽäºĨä¸Ģçľ¼": 6906,
        "èµĭ": 6907,
        "åĨįçľĭ": 6908,
        "æĭĶåĩº": 6909,
        "äºĨèĩªå·±": 6910,
        "éľĩæĴ¼": 6911,
        "æĢ§çļĦ": 6912,
        "åĩ¶éĻ©": 6913,
        "å©īåĦ¿": 6914,
        "èĤļåŃĲ": 6915,
        "åıĪåľ¨": 6916,
        "è½¬è½®": 6917,
        "éĻĭ": 6918,
        "å¦Ĥå±±": 6919,
        "é«ĺäºº": 6920,
        "æł¹åŁº": 6921,
        "æ£ºæĿĲ": 6922,
        "ä¸ĬéĹ¨": 6923,
        "çķľ": 6924,
        "å¼ĳ": 6925,
        "åīįåĲİ": 6926,
        "çģµåĬĽ": 6927,
        "ä»Ļéģĵ": 6928,
        "è§Ĥä¸»": 6929,
        "çļĦèĦ¸ä¸Ĭ": 6930,
        "æĪĳéĥ½": 6931,
        "åı¯æĢķçļĦ": 6932,
        "åįģè¶³": 6933,
        "æ¸ħæ°´": 6934,
        "å¼Łå¼Ł": 6935,
        "çĭ¬èĩª": 6936,
        "èĥľè´Ł": 6937,
        "æŁĲä¸ª": 6938,
        "é»ĦéĢįåĴĮ": 6939,
        "å°±æ²¡æľī": 6940,
        "è¾¾åĪ°äºĨ": 6941,
        "èº²åľ¨": 6942,
        "çľĭçļĦ": 6943,
        "æľīç§į": 6944,
        "çĿĢéģĵ": 6945,
        "éĵ¶çº±": 6946,
        "ä»ĩæģ¨": 6947,
        "èĮ«çĦ¶": 6948,
        "åĩĦåİī": 6949,
        "ä¹ĭå¤§": 6950,
        "ç¥ŀåºĻ": 6951,
        "è½¿": 6952,
        "æŃ»æŃ»": 6953,
        "æīĵäºĨä¸ª": 6954,
        "çħĮ": 6955,
        "åĿļå®ļ": 6956,
        "å°±å·²ç»ı": 6957,
        "ä¸¤è¾¹": 6958,
        "éĿĴè¡«": 6959,
        "çĭ¬æŃ¥çİĭ": 6960,
        "çĿĢå®ŀ": 6961,
        "æĿĢæĦı": 6962,
        "åĪºæ¿Ģ": 6963,
        "èĦ±ç¦»": 6964,
        "éķľæĻº": 6965,
        "åĪ®": 6966,
        "æīĢèĥ½": 6967,
        "çĽ®åħīä¸ĢéĹª": 6968,
        "çĮĽçĥĪ": 6969,
        "éľįçĤ¼è¯´éģĵ": 6970,
        "ä¼Ĭ": 6971,
        "æīĢè¨Ģ": 6972,
        "èĩ³æŃ¤": 6973,
        "æ°´èĿ¶åħ°": 6974,
        "å®ĭçŁ¥": 6975,
        "çĪĨè£Ĥ": 6976,
        "æĥ«": 6977,
        "éŁ©åħĦ": 6978,
        "çľ¼åīįçļĦ": 6979,
        "æĺ¥ç§ĭ": 6980,
        "æ²īé»ĺäºĨ": 6981,
        "ç»´æĮģ": 6982,
        "éĽ·é¸£": 6983,
        "æŃ£æĥ³": 6984,
        "åıªè§ģä»ĸ": 6985,
        "ä¹Įäºĳ": 6986,
        "åĨłåĨĽä¾¯": 6987,
        "ä¸¤çľ¼": 6988,
        "å¦ĸéŃĶ": 6989,
        "åĽºçĦ¶": 6990,
        "ãĢĤâĢľ": 6991,
        "å°ıåı¯": 6992,
        "å¾Ĳå¾Ĳ": 6993,
        "æľªåħį": 6994,
        "åĲĽåŃĲ": 6995,
        "çĦ¶ä¸Ģç¬ĳ": 6996,
        "å¹¶èĤ©": 6997,
        "çľ¼çĿģ": 6998,
        "æ²Ł": 6999,
        "åĵĦ": 7000,
        "æĽ´å¿«": 7001,
        "åĴ½åĸī": 7002,
        "åĪ°åĵªéĩĮ": 7003,
        "çļĩåĲİ": 7004,
        "æīĢä»¥æĪĳ": 7005,
        "ç¤¾": 7006,
        "åĲĮæł·çļĦ": 7007,
        "çļĩå¸ĿéĻĽä¸ĭ": 7008,
        "åīĳæľ¯": 7009,
        "é¾Ļéª§": 7010,
        "èĹıåľ¨": 7011,
        "åĩłä¸ªäºº": 7012,
        "æİłè¿ĩ": 7013,
        "çİ°åľ¨ä»ĸ": 7014,
        "æĹłåĲį": 7015,
        "åĨĮ": 7016,
        "ä¸īéģĵ": 7017,
        "ä¸Ģè¶Ł": 7018,
        "æ¸º": 7019,
        "ä»İèĢĮ": 7020,
        "éļĲçŀĴ": 7021,
        "è®¥": 7022,
        "ä¸¤æŃ¥": 7023,
        "æı¡ä½ı": 7024,
        "ä»ĸä¸İ": 7025,
        "éĿ¢åŃĲ": 7026,
        "é«ĺç©º": 7027,
        "éĵģéªĳ": 7028,
        "çģµå®Ŀ": 7029,
        "åĪ°äºĨæŀģ": 7030,
        "éħĨ": 7031,
        "åĩłå¹´": 7032,
        "çļĦå¤©åľ°": 7033,
        "èº«å¤Ħ": 7034,
        "æ¯ıä¸Ģ": 7035,
        "å¹¿åľº": 7036,
        "åĵªæĢķæĺ¯": 7037,
        "æĳĩæĻĥ": 7038,
        "æľĢåĲİçļĦ": 7039,
        "è¥¿éĻµç¥ŀæ®¿": 7040,
        "åı¯æĺ¯ä»ĸ": 7041,
        "ä¸¤æ¬¡": 7042,
        "é£ŀæĿ¥": 7043,
        "æ¯Ķä»ĸ": 7044,
        "åİīå£°éģĵ": 7045,
        "ä»ĭç»į": 7046,
        "éģĵè¡Į": 7047,
        "å¤§çīĩ": 7048,
        "åĩºèº«": 7049,
        "æĭĻ": 7050,
        "æĿİæľĿ": 7051,
        "èįĴåİŁ": 7052,
        "ä¸įè¿ĩä»ĸ": 7053,
        "ä½ļ": 7054,
        "å¤©é¾Ļ": 7055,
        "æłı": 7056,
        "ä½ķçŃī": 7057,
        "æĶ¶ç¼©": 7058,
        "å¸¦æĿ¥": 7059,
        "ä¹ĭæĥħ": 7060,
        "é©³": 7061,
        "çģµèį¯": 7062,
        "éªļ": 7063,
        "éªĦåĤ²": 7064,
        "æľīåĩłåĪĨ": 7065,
        "å°Ĩé¢Ĩ": 7066,
        "ä¸įçĶ±èĩª": 7067,
        "æŁĶå£°éģĵ": 7068,
        "åºĲ": 7069,
        "é«ĺé«ĺ": 7070,
        "æ·¡æ·¡åľ°è¯´éģĵ": 7071,
        "çľ¯çľ¯": 7072,
        "çĴ§çİī": 7073,
        "åĸĺæģ¯": 7074,
        "ä¸ĢèĦī": 7075,
        "ä¸įæ»¡": 7076,
        "èĩªçĶ±": 7077,
        "è·Łåľ¨": 7078,
        "æĹłæŀģ": 7079,
        "éĢļä½ĵ": 7080,
        "é²²": 7081,
        "å®Ļ": 7082,
        "ä»ĸå°Ĩ": 7083,
        "å¯¹è¿Ļ": 7084,
        "çļĦä¸Ģå¹ķ": 7085,
        "ä¸¾èµ·": 7086,
        "çº¯ç²¹": 7087,
        "èµĦè´¨": 7088,
        "éģĵè·¯": 7089,
        "å¤©éŃĶåĬŁ": 7090,
        "æľīå¾Īå¤ļ": 7091,
        "å§¨": 7092,
        "æ·«": 7093,
        "èį¡èį¡": 7094,
        "æ¸©åĴĮ": 7095,
        "ä¸ľéĹ¨": 7096,
        "æµªè´¹": 7097,
        "ä¸ºé¦ĸ": 7098,
        "åĲĵäºĨä¸Ģ": 7099,
        "ä¸įåıĺ": 7100,
        "æĬ¿": 7101,
        "éĺĢ": 7102,
        "ç¥ŀåħµ": 7103,
        "åĢ¦": 7104,
        "éĿĴé¾Ļ": 7105,
        "å¾Ĺè¿ĩ": 7106,
        "å»Ĭ": 7107,
        "ä¸Ģä¸ªæľĪ": 7108,
        "å°ĳå¦ĩ": 7109,
        "ãĢĤâĢĻ": 7110,
        "é£ŀä»Ļ": 7111,
        "è¡Ģèħ¥": 7112,
        "åįĬæĪª": 7113,
        "çľŁçļĦæĺ¯": 7114,
        "ç¬ĳäºĨç¬ĳéģĵ": 7115,
        "ä¼¤å¿ĥ": 7116,
        "æĶ¶äºĨ": 7117,
        "æķ´åº§": 7118,
        "åīĳæĦı": 7119,
        "ä¼ĺåĬ¿": 7120,
        "åĪ°è¾¾": 7121,
        "æĺİçıł": 7122,
        "æĭīçĿĢ": 7123,
        "æĪĳåıĪ": 7124,
        "æĬĦ": 7125,
        "å¦Ĥä»ĬçļĦ": 7126,
        "çĸ¾é©°": 7127,
        "åĳ¼å»¶éĴ°åĦ¿": 7128,
        "éŃĶåĪĢ": 7129,
        "å®ŀçļĦ": 7130,
        "é£İä¸Ń": 7131,
        "èİ«åĲįåħ¶å¦Ļ": 7132,
        "èµ·ä¼ı": 7133,
        "æĺŁéŃĤ": 7134,
        "æĶ¶èİ·": 7135,
        "è¿Ļä»¶äºĭæĥħ": 7136,
        "æĹłåħ³": 7137,
        "æľ¦èĥ§": 7138,
        "æľīåı¯èĥ½": 7139,
        "æ±Łæ¹ĸä¸Ĭ": 7140,
        "çļĦåħīèĬĴ": 7141,
        "éĽªçĲª": 7142,
        "é±¼é¾Ļ": 7143,
        "å¤§åľĨéķľæĻº": 7144,
        "è¯µ": 7145,
        "å¯Łè§īåĪ°": 7146,
        "å®ĭçŁ¥åĩ¡": 7147,
        "ç¬ĳçľ¯çľ¯": 7148,
        "åĵ¼äºĨä¸Ģå£°": 7149,
        "èĵ¦çĦ¶éĹ´": 7150,
        "äºĭçļĦ": 7151,
        "è¿ĺæľīä¸Ģä¸ª": 7152,
        "æĿ¥å¾ĹåıĬ": 7153,
        "åı¯ç¬ĳ": 7154,
        "éŁµ": 7155,
        "è¥¿åĮĹ": 7156,
        "çħŀæ°Ķ": 7157,
        "æģĭ": 7158,
        "æĽ´å¤ļçļĦ": 7159,
        "å¾ĹåĪ°çļĦ": 7160,
        "æį£": 7161,
        "ç«Ļèµ·æĿ¥": 7162,
        "æ²¡åĬŀæ³ķ": 7163,
        "åľºéĿ¢": 7164,
        "åıĶåıĶ": 7165,
        "æİĢèµ·": 7166,
        "æĻºæħ§": 7167,
        "ä¹Łæ²¡ä»Ģä¹Ī": 7168,
        "åįģä¸Ī": 7169,
        "åĨ·ç¬ĳä¸Ģå£°": 7170,
        "æľ¬èĥ½": 7171,
        "ç²¾éĢļ": 7172,
        "æĢľèĬ±": 7173,
        "æĥŃ": 7174,
        "èĭ¥æľīæīĢ": 7175,
        "éĶĭåĪ©": 7176,
        "èº«æŃ»": 7177,
        "éĥ½ä¸įä¼ļ": 7178,
        "åĮ¿": 7179,
        "èĲ¼": 7180,
        "åĲĪä¸Ģ": 7181,
        "æĻ¯è±¡": 7182,
        "èĵĿèī²": 7183,
        "å°±å¥½åĥı": 7184,
        "èĦ¸ä¸Ĭéľ²åĩº": 7185,
        "åį±æľº": 7186,
        "æĺ¨å¤©": 7187,
        "å°±å¾Ĺ": 7188,
        "æĹ¶æľº": 7189,
        "ä¸īåįĥ": 7190,
        "è¯¯ä¼ļ": 7191,
        "ä¸įåģĩ": 7192,
        "èĻ¬": 7193,
        "åīĳéĺµ": 7194,
        "æ¸ħæĻ°çļĦ": 7195,
        "åĸĢ": 7196,
        "åĩłå£°": 7197,
        "çŁ³å®¤": 7198,
        "æŀĹå±¹åĴĮ": 7199,
        "ä¹ĸä¹ĸ": 7200,
        "è¦ģè¯´": 7201,
        "ä»ĸä»¬æĺ¯": 7202,
        "è¸ŀ": 7203,
        "äº²æīĭ": 7204,
        "è¯ķæİ¢": 7205,
        "æİĮå¿ĥ": 7206,
        "åħŃä¸ª": 7207,
        "ç¨³å®ļ": 7208,
        "å°ĳè®¸": 7209,
        "æĬĬèĩªå·±": 7210,
        "å·¨äºº": 7211,
        "ç«Ļç«ĭ": 7212,
        "åı¹ä¸Ģå£°": 7213,
        "åĹĸ": 7214,
        "åĳĲ": 7215,
        "åĲĳå¤ĸ": 7216,
        "æ³Ľèµ·": 7217,
        "æĪĳåı¯ä»¥": 7218,
        "å¤ªå¹³": 7219,
        "éĢģåĪ°": 7220,
        "å¿½åĲ¬å¾Ĺ": 7221,
        "çļĦå¯¹": 7222,
        "æĪĳä¸Ģ": 7223,
        "é»Ħèī²": 7224,
        "åºĶéģĵ": 7225,
        "ç»ĳ": 7226,
        "éĤ£çīĩ": 7227,
        "è·Ħ": 7228,
        "èĻļç«¹": 7229,
        "å°¸é¦ĸ": 7230,
        "æĭħå¿§": 7231,
        "è¿Ļå¥³åŃĲ": 7232,
        "æľ¬åº§": 7233,
        "åı«å£°": 7234,
        "çļĦåħ³ç³»": 7235,
        "åĲ¾": 7236,
        "æĸĩåŃĹ": 7237,
        "ä¸įæĿ¥": 7238,
        "åĲİèĥĮ": 7239,
        "åĩºä¸ĢèĤ¡": 7240,
        "ï¼Łï¼ģ": 7241,
        "èµ·çłģ": 7242,
        "èĦĬ": 7243,
        "ä¹ı": 7244,
        "è¿ľçļĦ": 7245,
        "çº¢è¡£": 7246,
        "è§£èį¯": 7247,
        "ä¸įèĥ½åĨį": 7248,
        "èº«è¾¹çļĦ": 7249,
        "èĳĽé¾Ļéª§": 7250,
        "ä¸įå®¹": 7251,
        "ä»ĸä¼ļ": 7252,
        "å¤§èĥ½": 7253,
        "è¡ĢèĦī": 7254,
        "æģ©æĢ¨": 7255,
        "çľ¼è§Ĵ": 7256,
        "èĭ¥åħ°": 7257,
        "ç»Ŀä¸įæĺ¯": 7258,
        "äº¤æį¢": 7259,
        "ä½łè¿ĺæĺ¯": 7260,
        "èĢģå©Ĩ": 7261,
        "åĲĥé¥Ń": 7262,
        "äºĨåĩłåĪĨ": 7263,
        "æĹłéĻĲ": 7264,
        "éľ¹": 7265,
        "äºĨå¾Ĺ": 7266,
        "æĪĳä¸įæĺ¯": 7267,
        "çļĦèº«åŃĲ": 7268,
        "éĩĳä»Ļ": 7269,
        "ä¼¤äºĨ": 7270,
        "æŃ¤æ¬¡": 7271,
        "éĢĤåĲĪ": 7272,
        "æĪĳå·²ç»ı": 7273,
        "åĢŁçĿĢ": 7274,
        "è¿Ļä»½": 7275,
        "åĨįåº¦": 7276,
        "æĢ§æĥħ": 7277,
        "åīįè¿Ľ": 7278,
        "å°±å¥½": 7279,
        "ä¸Ģä¸ªå¤§": 7280,
        "åĺ±": 7281,
        "ç¿»èº«": 7282,
        "çļĦåĬŁå¤«": 7283,
        "åĲİæĸ¹": 7284,
        "ä¸īåĪĨ": 7285,
        "é¢ĸ": 7286,
        "çĶ¨å¤Ħ": 7287,
        "çļ®çļ®": 7288,
        "åŁİå¢Ļ": 7289,
        "åĩ¶åħ½": 7290,
        "å¬": 7291,
        "çļĦå¯¹æīĭ": 7292,
        "ä¸įè®©": 7293,
        "ä¸įå¦¨": 7294,
        "åĲµ": 7295,
        "çĶ«": 7296,
        "äº¤æĥħ": 7297,
        "åĩĿç»ĵ": 7298,
        "æĪĳåħĪ": 7299,
        "å£°å¤§": 7300,
        "éħĴæĿ¯": 7301,
        "ç¡¬çĶŁçĶŁ": 7302,
        "çªĹå¤ĸ": 7303,
        "ä¸įèĢģ": 7304,
        "åı¯å°±": 7305,
        "ç¾¤éĽĦ": 7306,
        "æĸĻåĪ°": 7307,
        "éĢĲæ¸Ĳ": 7308,
        "ä¸Ģè·ĥ": 7309,
        "å¤©æĺŁ": 7310,
        "åłĤåłĤ": 7311,
        "æľ¬äºº": 7312,
        "ç¾İçļĦ": 7313,
        "çļĦéĺµæ³ķ": 7314,
        "é¾Ļè±¡": 7315,
        "æ±Ĺçİĭ": 7316,
        "æĺĶæĹ¥": 7317,
        "èĢģéŃĶ": 7318,
        "çļĦéŃĶ": 7319,
        "èĬ±æĻĵéľľ": 7320,
        "éĤ£å°ıåŃĲ": 7321,
        "å¾Ĺå¤ª": 7322,
        "å¼łåı£": 7323,
        "çļĦåĨ²": 7324,
        "çļĦåĬŁæ³ķ": 7325,
        "éģĵçİĦ": 7326,
        "åĴĶ": 7327,
        "å¤§å¤´": 7328,
        "éļıæīĭ": 7329,
        "ç´łç´ł": 7330,
        "çŁ¢": 7331,
        "èĥĢ": 7332,
        "æ¼Ĥäº®": 7333,
        "çİĭä¸ĸ": 7334,
        "åĪĨå¼Ģ": 7335,
        "å¤©çİĭ": 7336,
        "éĻ¶": 7337,
        "éĻĨéĽªçĲª": 7338,
        "ä¸įåĩ¡": 7339,
        "èĢģå¦ª": 7340,
        "æ¤į": 7341,
        "æ¸ħæ¥ļæ¥ļ": 7342,
        "äºĨè¿Ľåİ»": 7343,
        "å¼ºçĥĪ": 7344,
        "æķ£åİ»": 7345,
        "çºµä½¿": 7346,
        "å¤§åįĥä¸ĸçķĮ": 7347,
        "åĪļä¸Ģ": 7348,
        "æľīå¦ĤæŃ¤": 7349,
        "å¤§çİĭ": 7350,
        "æ¢¯": 7351,
        "éķĩå®ļ": 7352,
        "åĺ´å·´": 7353,
        "éķ¿çĶŁä¸¹": 7354,
        "åŃĿ": 7355,
        "âĢĻãĢĤâĢĿ": 7356,
        "æµ·æ°´": 7357,
        "èĿī": 7358,
        "æĥļ": 7359,
        "ä¸İä¹ĭ": 7360,
        "æ½ĩ": 7361,
        "çľ¼çĿģçĿģ": 7362,
        "ä¹³": 7363,
        "æĹº": 7364,
        "è¾ľ": 7365,
        "æ¨±": 7366,
        "åĲ¬åĪ°è¿Ļè¯Ŀ": 7367,
        "åºŁè¯Ŀ": 7368,
        "åİ¥": 7369,
        "éļĭ": 7370,
        "æ¸ħæ¸ħæ¥ļæ¥ļ": 7371,
        "æĦıè§ģ": 7372,
        "çģŃäºĨ": 7373,
        "æ³¨æĦıåĪ°": 7374,
        "æ»Ķå¤©": 7375,
        "è¯´èµ·æĿ¥": 7376,
        "çŁ³çł´å¤©": 7377,
        "é£İå£°": 7378,
        "åŃŁæĺŁéŃĤ": 7379,
        "èĶĵ": 7380,
        "å¯¿åħĥ": 7381,
        "é¡½": 7382,
        "èĪįåĪ©": 7383,
        "çļĦæĪĺ": 7384,
        "ä¸Ģè¿ŀ": 7385,
        "å¤Ħå¤Ħ": 7386,
        "åĸľéģĵ": 7387,
        "åļ£": 7388,
        "ä¸įä¼ĳ": 7389,
        "çĶ±æŃ¤": 7390,
        "ä¹ŁæľīäºĽ": 7391,
        "éĽ·éŁ³": 7392,
        "å¥³åŃ©": 7393,
        "æĲĤ": 7394,
        "çĸ¼çĹĽ": 7395,
        "çł´å¾ģ": 7396,
        "æĢ¥çĿĢ": 7397,
        "çĨĦ": 7398,
        "åī§çĥĪçļĦ": 7399,
        "ä¸įèĥľ": 7400,
        "è¡Ļ": 7401,
        "æĹłå¿ĥ": 7402,
        "ç®Ĺè®¡": 7403,
        "æħķå®¹åĤ²": 7404,
        "çļĦçľ¼ç¥ŀ": 7405,
        "åħľ": 7406,
        "æĪŁ": 7407,
        "æ¸´": 7408,
        "éŁ©èĬ¬": 7409,
        "æ¡©": 7410,
        "æ¢¢": 7411,
        "æ»¡éĿ¢": 7412,
        "éľ¹éĽ³": 7413,
        "æľīå¿ĥ": 7414,
        "å¿ĥçŁ¥": 7415,
        "çľŁèº«": 7416,
        "è¡Ģç¥ĸ": 7417,
        "çİīèĿ¶": 7418,
        "ä¸¥éĩį": 7419,
        "æİ¥çĿĢéģĵ": 7420,
        "çļĦæĥ³æ³ķ": 7421,
        "éĥ½å¾Ī": 7422,
        "å¥½åľ¨": 7423,
        "æ·Į": 7424,
        "çİĭä¸ĸåħħ": 7425,
        "åĲĪä½ĵ": 7426,
        "åįĹæĸ¹": 7427,
        "å¤©é£İ": 7428,
        "å®¹è²Į": 7429,
        "å¥ĩå¦Ļ": 7430,
        "ä»įåľ¨": 7431,
        "çŁŃçŁŃ": 7432,
        "ä½łè¿Ļä¸ª": 7433,
        "å±±æ´ŀ": 7434,
        "çŁ¥éģĵè¿Ļ": 7435,
        "éĢĢåĩº": 7436,
        "æ¸¡è¿ĩ": 7437,
        "éľĵ": 7438,
        "å¥³ä¿®": 7439,
        "çĶ¨ä¸įçĿĢ": 7440,
        "å¯ĩä»²åĴĮ": 7441,
        "å®ĪæĬ¤": 7442,
        "å²Ľä¸»": 7443,
        "å¥½ç¬ĳ": 7444,
        "æĹ¥æľĪ": 7445,
        "æĹıéķ¿": 7446,
        "éĻĪçļ®çļ®": 7447,
        "é¡ºåĪ©": 7448,
        "å¼¥éĻĢ": 7449,
        "åľ¨åħ¶ä¸Ń": 7450,
        "è¿ĺç®Ĺ": 7451,
        "å°ļä¹¦": 7452,
        "æľīä¸įå°ĳ": 7453,
        "è¿¹è±¡": 7454,
        "éģĹæĨ¾": 7455,
        "åĮºåĮº": 7456,
        "ä¹ĭåŁŁ": 7457,
        "åı£åĳĨ": 7458,
        "çĦ¶åĲİä»ĸ": 7459,
        "æĥ³åĬŀæ³ķ": 7460,
        "çĽ¸åıį": 7461,
        "æķ£ä¿®": 7462,
        "ä¸īä¸ªäºº": 7463,
        "åĹ½": 7464,
        "å¿½åıĪ": 7465,
        "ä¸įçŁ¥ä¸įè§ī": 7466,
        "çİ©ç¬ĳ": 7467,
        "è¡Ĺä¸Ĭ": 7468,
        "æĸ¹ä¾¿": 7469,
        "å¹½çģµ": 7470,
        "æĻĵæľĪ": 7471,
        "èººåľ¨": 7472,
        "çĸ²æĥ«": 7473,
        "åĢ©": 7474,
        "éŃĶçł´å¾ģ": 7475,
        "é¦¨åĦ¿": 7476,
        "ä½łä¸ºä»Ģä¹Ī": 7477,
        "å¤©èī²": 7478,
        "é©´": 7479,
        "å¤±äºĨ": 7480,
        "å§ļæĻ´": 7481,
        "ä½łéļ¾éģĵ": 7482,
        "çĿĢéĤ£": 7483,
        "å¦ĤæĦı": 7484,
        "èĢģåĥ§": 7485,
        "åĲĮéĹ¨": 7486,
        "è°ģçŁ¥": 7487,
        "è®°è½½": 7488,
        "ä¸Ģå®ļæĺ¯": 7489,
        "ä¸įåĲĮçļĦ": 7490,
        "å¤§åħīæĺİ": 7491,
        "å³¨": 7492,
        "å±ģèĤ¡": 7493,
        "èĤĮèĤ¤": 7494,
        "è¸ªè¿¹": 7495,
        "ä¸ĢæĦ£": 7496,
        "è¿Ļåı¯æĺ¯": 7497,
        "ä¾¿åį³": 7498,
        "å¦Īå¦Ī": 7499,
        "ä¿º": 7500,
        "éŁ©éģĵåıĭ": 7501,
        "æĿĢäºĨä»ĸ": 7502,
        "å¤§çĪ·": 7503,
        "çĻ¾ä¸ĩ": 7504,
        "éĿ¢çĽ¸": 7505,
        "æĦŁæĤŁ": 7506,
        "è½©è¾ķçİīèĿ¶": 7507,
        "è¿ĻåĽŀ": 7508,
        "æĪĳåĢĴ": 7509,
        "ä»¥æŃ¤": 7510,
        "æ¢¨": 7511,
        "æŁĶåĴĮ": 7512,
        "å¾Īå¿«ä¾¿": 7513,
        "å¤§æĦı": 7514,
        "èĿł": 7515,
        "çļĦå®¶ä¼Ļ": 7516,
        "åģľäºĨä¸ĭæĿ¥": 7517,
        "äºĨæķ°": 7518,
        "ä½Ĩæĺ¯åį´": 7519,
        "çĮľåĪ°": 7520,
        "åĴ³åĹ½": 7521,
        "æŀģå¤§çļĦ": 7522,
        "éĺ²å¤ĩ": 7523,
        "å¸Īå¤ª": 7524,
        "äºĨä¸Ģçķª": 7525,
        "åĽĽåĲį": 7526,
        "éĤ£å°ĳå¥³": 7527,
        "åĩºç¥ŀ": 7528,
        "æĦī": 7529,
        "æŀĹçİĭ": 7530,
        "éĥ½å·²ç»ı": 7531,
        "æµģæĺŁ": 7532,
        "æĢ¯": 7533,
        "å¤©çĶŁ": 7534,
        "å¥¹åľ¨": 7535,
        "è¸ī": 7536,
        "çĪ¶åŃĲ": 7537,
        "è¿Ļå¯¹": 7538,
        "çī²": 7539,
        "ç¦ħéĵ¶çº±": 7540,
        "èĤ²": 7541,
        "åĽłä¸ºæĪĳ": 7542,
        "åĽ´æĶ»": 7543,
        "å¾Ĺä¸į": 7544,
        "ç¡®å®ŀæĺ¯": 7545,
        "è¾ĵäºĨ": 7546,
        "æĸ¹éĿĴäºĳ": 7547,
        "è¡£è£³": 7548,
        "è½¦åİ¢": 7549,
        "æĪ³": 7550,
        "ä¹ĭèº«": 7551,
        "è¿Ļä¸Ģåīĳ": 7552,
        "äºĳéĽ¾": 7553,
        "åĨ²åĲĳ": 7554,
        "è¿½è¸ª": 7555,
        "æĺıè¿·": 7556,
        "éĿ¢åħ·": 7557,
        "ä½Ĩçİ°åľ¨": 7558,
        "çľŁèĥ½": 7559,
        "åİŁåħĪ": 7560,
        "åĩºä¸Ģåı£": 7561,
        "èĩªæĺ¯": 7562,
        "ä¸»æĮģ": 7563,
        "æĢ»ä¹ĭ": 7564,
        "åŃĶéĽĢ": 7565,
        "åī¥": 7566,
        "åĵŁ": 7567,
        "åĩºéĹ¨": 7568,
        "ç¯Ĩ": 7569,
        "çļĦçĻ½": 7570,
        "å°½éĩı": 7571,
        "è¿Ļä¹Ł": 7572,
        "ä¸¤å¤§": 7573,
        "åĨħéĥ¨": 7574,
        "æĢİä¹Īèĥ½": 7575,
        "æĶ¶æķĽ": 7576,
        "æĺ¨æĻļ": 7577,
        "ä¼łéĢģéĺµ": 7578,
        "åı¯çĪ±": 7579,
        "èĻ½çĦ¶æĺ¯": 7580,
        "æĬĬéĤ£": 7581,
        "é¡¾ä¸įå¾Ĺ": 7582,
        "åĵĪåĵĪä¸Ģç¬ĳ": 7583,
        "å°ĳäºĨ": 7584,
        "ä»»çĶ±": 7585,
        "æ²Ľ": 7586,
        "æīĵæĸŃ": 7587,
        "çĽ®çŀª": 7588,
        "çŃĶæ¡Ī": 7589,
        "éĢıæĺİ": 7590,
        "æĹ¢çĦ¶å¦ĤæŃ¤": 7591,
        "è¯´ä¸įåĩºçļĦ": 7592,
        "å¤©éĤªå®Ĺ": 7593,
        "åĽŀå¤į": 7594,
        "ç¼ĵç¼ĵè¯´éģĵ": 7595,
        "æªĢ": 7596,
        "ä¸ŃåľŁ": 7597,
        "åıĪæĥĬ": 7598,
        "èĲ½çļĦ": 7599,
        "åĩºä¸ĸ": 7600,
        "èĮĤ": 7601,
        "æĺ¯ä¸Ģçīĩ": 7602,
        "èµ°åĲĳ": 7603,
        "åĩĢéĽª": 7604,
        "å¤ļè¯´": 7605,
        "æ¯ĶæĪĳ": 7606,
        "æĿ¯éħĴ": 7607,
        "ä¸ºä½ł": 7608,
        "å¦Ĥæ°´": 7609,
        "ç¬ĳå¾Ĺ": 7610,
        "å±±éģĵ": 7611,
        "å¿ĥä¸Ĭ": 7612,
        "æ¿ĢçĥĪ": 7613,
        "ä¸īåįģåħŃ": 7614,
        "å¤©å¤ĸå¤©é«ĺæīĭ": 7615,
        "èĩªå·±æĺ¯": 7616,
        "è¿Ľéĺ¶": 7617,
        "æĻĵæľĪåłĤ": 7618,
        "æĹłèĢ»": 7619,
        "èĬ±æĹłç¼º": 7620,
        "å¿½è§ģ": 7621,
        "éĺ¿é£ŀ": 7622,
        "æ²¿çĿĢ": 7623,
        "ä¸Ģæĥ³": 7624,
        "è¯Ī": 7625,
        "åı¯åĲ¦": 7626,
        "åĴļ": 7627,
        "åĵĩ": 7628,
        "å®¹é¢ľ": 7629,
        "æ¼±": 7630,
        "çĳŁ": 7631,
        "æīĵåĲ¬": 7632,
        "ä¸ŃæľŁ": 7633,
        "äºĭåĲİ": 7634,
        "çģ¯çģ«": 7635,
        "å§¿æĢģ": 7636,
        "ä¸Ģæ®µ": 7637,
        "åĩĮé£İ": 7638,
        "æĹłå¼Ĥ": 7639,
        "å°Ĩä½ł": 7640,
        "ä¸Ŀä¸Ŀ": 7641,
        "è¿Ļç§įäºĭ": 7642,
        "ç±»ä¼¼": 7643,
        "æºľæºľ": 7644,
        "çĤ®": 7645,
        "æīįå¯¹": 7646,
        "ä»ĸæīĢ": 7647,
        "éĤ£æĹ¶åĢĻ": 7648,
        "æĪĲäºĨä¸Ģ": 7649,
        "éķ¿åħ¬ä¸»": 7650,
        "çªģçĦ¶ä¹ĭéĹ´": 7651,
        "æĪĳåĨį": 7652,
        "ç»ĿéĿŀ": 7653,
        "åĩĮå¤©æ¶¯": 7654,
        "èĢģå¤´åŃĲ": 7655,
        "æł¡": 7656,
        "å¾Īåı¯èĥ½": 7657,
        "å¤«å¦»": 7658,
        "åļĵ": 7659,
        "èıģèıģ": 7660,
        "äºĨå¥¹": 7661,
        "æ¯Ķä¹ĭ": 7662,
        "é©¬è¹Ħ": 7663,
        "å³Ĵ": 7664,
        "ç¥Ī": 7665,
        "ä¿®ç»ĥ": 7666,
        "éŁ¦æĺİ": 7667,
        "å±ĢåĬ¿": 7668,
        "åĲİæŀľ": 7669,
        "çİĭæĢľèĬ±": 7670,
        "è®®è®º": 7671,
        "çļĦæŃ»": 7672,
        "è¿Ļå¤©": 7673,
        "èħĳ": 7674,
        "è§ĦåĪĻ": 7675,
        "å®ŀæĺ¯": 7676,
        "æ¸ħæĻ¨": 7677,
        "å¤ľåıī": 7678,
        "å¤©ä¸ĭçļĦ": 7679,
        "åĴĮéĤ£": 7680,
        "å°ĨæĪĳ": 7681,
        "åħ¥éŃĶ": 7682,
        "æĿİçĻ½": 7683,
        "éĺ´ç¥ŀ": 7684,
        "èĢĮæĪĲ": 7685,
        "æĪĳäºĨ": 7686,
        "åĲģ": 7687,
        "åĪĨæ¯«": 7688,
        "å©łå©ł": 7689,
        "åĬ¨å®¹": 7690,
        "åįĹéĻ¢": 7691,
        "ä¹ŀ": 7692,
        "èµ·æĿ¥äºĨ": 7693,
        "ç¬¬äºĮçĻ¾": 7694,
        "æĢĶæĢĶ": 7695,
        "åĽĽéĿ¢åħ«æĸ¹": 7696,
        "çļĦéĹ®éģĵ": 7697,
        "æŃ¦å£«": 7698,
        "æľīä¸Ģå¤©": 7699,
        "æ´ŀç©¿": 7700,
        "ä¸įåĬ¨å£°": 7701,
        "æģįæĥļ": 7702,
        "çļĦç¼ĺæķħ": 7703,
        "åı³æİĮ": 7704,
        "ç¾¤è±ª": 7705,
        "çľĭçĿĢå¥¹": 7706,
        "çĳŀ": 7707,
        "åıįåºĶè¿ĩæĿ¥": 7708,
        "ä¹ĭä½Ļ": 7709,
        "æ¸©æļĸ": 7710,
        "é¬¼çģµ": 7711,
        "ç®¡äºĭ": 7712,
        "å¦ĸçģµ": 7713,
        "å®Īåį«": 7714,
        "éģ£": 7715,
        "è¦ģä¸įçĦ¶": 7716,
        "åıªåī©": 7717,
        "ä¸īåĽĽ": 7718,
        "åħ³æ³¨": 7719,
        "åĹħ": 7720,
        "å±ĭä¸Ń": 7721,
        "éħĨéĺĸ": 7722,
        "åĵİ": 7723,
        "æĢ§æł¼": 7724,
        "å¾ĲåŃĲéĻµéģĵ": 7725,
        "ç¦ĢæĬ¥": 7726,
        "ç¢°æĴŀ": 7727,
        "çģ¯åħī": 7728,
        "éĢĹ": 7729,
        "ä¼ļæĺ¯": 7730,
        "æļĹç®Ĺ": 7731,
        "åĲĪä½ľ": 7732,
        "æł¼å¤ĸ": 7733,
        "çļĦçľ¼": 7734,
        "ä½łåĨį": 7735,
        "åħĥèĢģ": 7736,
        "åĹĶ": 7737,
        "æ´ĭæ´ĭ": 7738,
        "åħ®": 7739,
        "é£ŀå°Ħ": 7740,
        "åı¤éŁ³": 7741,
        "å¤§çĲĨ": 7742,
        "å¤©ç©ºä¸Ń": 7743,
        "åıĺèī²": 7744,
        "åľ¨åīį": 7745,
        "æ¥ļç¦»æĳĩå¤´": 7746,
        "æĮĩæĮ¥": 7747,
        "å·¦èıģèıģ": 7748,
        "å·®è·Ŀ": 7749,
        "åĩłä¹İæĺ¯": 7750,
        "èĭįèĢģ": 7751,
        "èĮ«èĮ«": 7752,
        "æĬ¬èµ·å¤´": 7753,
        "äº«åıĹ": 7754,
        "ä¸įæľį": 7755,
        "åĩłä¸ĭ": 7756,
        "äº¤éĶĻ": 7757,
        "çĨ¬": 7758,
        "è°ģä¹Ł": 7759,
        "éľī": 7760,
        "ä¸İåħ¶": 7761,
        "ä¸ĩçī©": 7762,
        "ä¸ĸå®¶": 7763,
        "æĬ¥å¤į": 7764,
        "çĴ§åĲĽ": 7765,
        "åģľçķĻ": 7766,
        "ç¥Ŀåĩ¡": 7767,
        "èĦĳæµ·ä¸Ń": 7768,
        "ä¸Ģå¹²": 7769,
        "æķ°åįĥ": 7770,
        "æĺŁæ²³": 7771,
        "ç²¾æ°Ķ": 7772,
        "ä¸Ģçº¿": 7773,
        "æīĵäºĨ": 7774,
        "çŁ³äºº": 7775,
        "æ²ĪçĴ§åĲĽ": 7776,
        "ä¸Ģåħ±": 7777,
        "é¸ł": 7778,
        "ç²¾çº¯": 7779,
        "æĨĭ": 7780,
        "çİĳ": 7781,
        "æľ¬å°±æĺ¯": 7782,
        "ç»¿èī²": 7783,
        "èĢģçĪ·åŃĲ": 7784,
        "æĭ±æīĭ": 7785,
        "ä¸¤å¤©": 7786,
        "å±±å±±": 7787,
        "ä¹Łä¸įçĶ¨": 7788,
        "å®ŀåľ¨å¤ª": 7789,
        "åĮºåĪ«": 7790,
        "åŁºæľ¬ä¸Ĭ": 7791,
        "ä¸įæĦ§æĺ¯": 7792,
        "éĺı": 7793,
        "å¥ĩéģĵ": 7794,
        "å®īçĦ¶": 7795,
        "æĸ©æĿĢ": 7796,
        "çĿĢä»Ģä¹Ī": 7797,
        "æ£Ģ": 7798,
        "èĥ¡è¯´": 7799,
        "äººéģĵ": 7800,
        "åĢĶ": 7801,
        "åĬĽéģĵ": 7802,
        "é»¯çĦ¶": 7803,
        "æ²¡å¥½": 7804,
        "æµģåĬ¨": 7805,
        "ä¸įåľ¨æĦı": 7806,
        "æĪĴå¤ĩ": 7807,
        "è¯Ŀè¯´": 7808,
        "è¿Ļå®¶ä¼Ļ": 7809,
        "æĪĳåıªæĺ¯": 7810,
        "ä¾¿å·²": 7811,
        "æľªèĥ½": 7812,
        "æ²īçĿ¡": 7813,
        "æĵįæİ§": 7814,
        "å¸Īå¦ĥæļĦ": 7815,
        "éģĹçļĩ": 7816,
        "éĺıæ°ı": 7817,
        "åĨ²çĿĢ": 7818,
        "èĿİ": 7819,
        "çĭĦäºĳ": 7820,
        "åľ¨æīĭ": 7821,
        "é»ĦéĢįéĹ®éģĵ": 7822,
        "ä½ĳ": 7823,
        "åľ¨å¤ĸ": 7824,
        "æĳ¸äºĨ": 7825,
        "ç³Łç³ķ": 7826,
        "åĲĵäºĨä¸Ģè·³": 7827,
        "éģĹçļĩå±±åºĦ": 7828,
        "ä»¥ä¸Ĭ": 7829,
        "ä¾¿çŁ¥": 7830,
        "æĺİçľ¸": 7831,
        "æľĽäºĨ": 7832,
        "æ£ī": 7833,
        "èĭ±ä¿Ĭ": 7834,
        "é»İå«£": 7835,
        "äººçĶŁ": 7836,
        "éĢļçŁ¥": 7837,
        "ç¦ģæ³ķ": 7838,
        "çıįè´µ": 7839,
        "æĹłå°½çļĦ": 7840,
        "éĤ£èĢģèĢħ": 7841,
        "ä¸Ģæ®µæĹ¶éĹ´": 7842,
        "ä»ĸåıª": 7843,
        "æ³ķåľĨ": 7844,
        "éĶµ": 7845,
        "æ¯Ĵæīĭ": 7846,
        "æħ¢æħ¢åľ°": 7847,
        "åħĪæĺ¯": 7848,
        "å®Ĺå¼ŁåŃĲ": 7849,
        "ä¸įæ¸ħæ¥ļ": 7850,
        "ä½łå°±æĺ¯": 7851,
        "ä¹Łéļ¾": 7852,
        "åıĳä½ľ": 7853,
        "èİºèİº": 7854,
        "æĢªä¸įå¾Ĺ": 7855,
        "ç»ĵåĲĪ": 7856,
        "æĩĤå¾Ĺ": 7857,
        "è¯¦ç»Ĩ": 7858,
        "ä¸Ģå¤ľ": 7859,
        "æ²¡æľīåįĬçĤ¹": 7860,
        "åıĪè¢«": 7861,
        "éķ¿åķ¸": 7862,
        "æĢĿèĢĥ": 7863,
        "åľ£æ®¿": 7864,
        "éĩİé©¬": 7865,
        "ä¼º": 7866,
        "éĥ½è¯´": 7867,
        "æĸ¹ä½į": 7868,
        "è¿½åĩ»": 7869,
        "æĻ®éĢļçļĦ": 7870,
        "å¥ĳä¸¹": 7871,
        "éĥ½ä¸įæĺ¯": 7872,
        "åłķ": 7873,
        "å·¦æİĮ": 7874,
        "æľŁå¾ħ": 7875,
        "åĹ¡åĹ¡": 7876,
        "çĲ¢ç£¨": 7877,
        "âĢĿãĢģ": 7878,
        "å¾®å¼±": 7879,
        "åŁİä¸»": 7880,
        "ä¸ĸäºº": 7881,
        "å¿ħé¡»è¦ģ": 7882,
        "åĢĴåľ¨åľ°": 7883,
        "ç»ĿåŃ¦": 7884,
        "å¿ħæŃ»": 7885,
        "æģ¼æĢĴ": 7886,
        "å°ĳæŀĹå¯º": 7887,
        "ä¾ĭå¤ĸ": 7888,
        "è¿Ļå£°éŁ³": 7889,
        "æĹ¶æĹ¥": 7890,
        "è¿ĺæľīäºĽ": 7891,
        "ä½Ĩä½ł": 7892,
        "æ¸ħéĽª": 7893,
        "æ³ªæ°´": 7894,
        "æĭĩ": 7895,
        "è¢ħ": 7896,
        "åħģè®¸": 7897,
        "ä¸ĢåĩĿ": 7898,
        "ä¸įå¿į": 7899,
        "æĪĳæ²¡æľī": 7900,
        "æģ³": 7901,
        "çŁ³åĥı": 7902,
        "ç¨ļ": 7903,
        "å±ĭé¡¶": 7904,
        "èķĬ": 7905,
        "ä¼Ļè®¡": 7906,
        "å¯ĤéĿĻ": 7907,
        "åĮ¹é©¬": 7908,
        "éľĵè£³": 7909,
        "åĲ¬è¿ĩ": 7910,
        "åİŁæĿ¥å¦ĤæŃ¤": 7911,
        "åģĩçļĦ": 7912,
        "ä»ĸèĻ½çĦ¶": 7913,
        "åį´è¿ĺæĺ¯": 7914,
        "æĶ¶èµ·": 7915,
        "éĹŃçĽ®": 7916,
        "å°ĸéĶĲ": 7917,
        "ä»ĸçļĦè¯Ŀ": 7918,
        "åĮĹæĸ¹": 7919,
        "èĢ½æĲģ": 7920,
        "éģ¿åħį": 7921,
        "æ¬§éĺ³éĶĭ": 7922,
        "èĢģåīįè¾Ī": 7923,
        "çļĦæľĽçĿĢ": 7924,
        "æ»©": 7925,
        "å¾Ģä¸ĭ": 7926,
        "æķ£åıĳåĩº": 7927,
        "æ³¢çº¹": 7928,
        "ä¸įåľ¨ä¹İ": 7929,
        "éĹ·åĵį": 7930,
        "éŁ¦æĺİè¿ľ": 7931,
        "è¿½ä¸Ĭ": 7932,
        "ä¿®çľŁæĺŁ": 7933,
        "çļĦä¸ī": 7934,
        "éĺ´è°ĭ": 7935,
        "èļĬåħ½": 7936,
        "ä¸įå¦¥": 7937,
        "äºĨä¸ĬæĿ¥": 7938,
        "éĥ½çŁ¥éģĵ": 7939,
        "è¿Ļä¹Īå¿«": 7940,
        "æĦŁåºĶåĪ°": 7941,
        "åıĪå°Ĩ": 7942,
        "æµ·ä¸Ń": 7943,
        "å¾Ģåīį": 7944,
        "å¨ģä¸¥": 7945,
        "éĤ£ä¾¿": 7946,
        "äºĶçĻ¾": 7947,
        "è£ģ": 7948,
        "éľĩå¾Ĺ": 7949,
        "çļ®èĤ¤": 7950,
        "é¢ĦæĸĻ": 7951,
        "åıĮèĦļ": 7952,
        "ç«Ļåľ¨éĤ£éĩĮ": 7953,
        "åĨ°éĽª": 7954,
        "è§ħ": 7955,
        "å«Ĥ": 7956,
        "å¥´æīį": 7957,
        "ä¸įçĲĨ": 7958,
        "æĤ¸": 7959,
        "åįĹåĮĹ": 7960,
        "æī«è¿ĩ": 7961,
        "å¤§çº¢": 7962,
        "å¯¹æĬĹ": 7963,
        "æĪĺçļĦ": 7964,
        "ä¸ºä½ķè¦ģ": 7965,
        "çļĦä»ĸ": 7966,
        "éĥ½ä¸įçŁ¥éģĵ": 7967,
        "è®¡è¾ĥ": 7968,
        "åĪ°åºķæĺ¯ä»Ģä¹Ī": 7969,
        "æ°¸æģĴ": 7970,
        "ä¸Ģå®¶": 7971,
        "çĶŁçĶŁçļĦ": 7972,
        "åº·çĨĻ": 7973,
        "æģ°å¥½": 7974,
        "å¸Ĩ": 7975,
        "ä¸ºæĪĳ": 7976,
        "åħ¶åĲİ": 7977,
        "å½¢æĪĲäºĨ": 7978,
        "èĤ¯å®ļä¼ļ": 7979,
        "å¥³çļĦ": 7980,
        "ç®Ĺä»Ģä¹Ī": 7981,
        "å¯Ĥå¯ŀ": 7982,
        "æīĢè°ĵçļĦ": 7983,
        "æ²¡æľīè¯´è¯Ŀ": 7984,
        "éĶ¦è¡£": 7985,
        "å¤©å±±": 7986,
        "å¿ĥåĬ¨": 7987,
        "åı«ä»ĸ": 7988,
        "å¯ĴåĨ·": 7989,
        "çĢĳ": 7990,
        "å°±çŁ¥éģĵ": 7991,
        "åĳ¨åĽ´çļĦ": 7992,
        "æĤ¬æµ®": 7993,
        "çļĦç§ĺå¯Ĩ": 7994,
        "åĲĮä¼´": 7995,
        "ä¸ģçģµ": 7996,
        "ä¾ĥ": 7997,
        "éĿĴå±±": 7998,
        "å¯»æĢĿ": 7999,
        "éĽ¨æ°´": 8000,
        "å®ĭèıģ": 8001,
        "å»ºçŃĳ": 8002,
        "é©¶": 8003,
        "éĻ¤æŃ¤": 8004,
        "é»ĳå½±": 8005,
        "äº²è¿ĳ": 8006,
        "åİĭä¸ĭ": 8007,
        "æĽ¿ä»ĸ": 8008,
        "èĭ¥æľīæīĢæĢĿ": 8009,
        "å¥¢": 8010,
        "ä»¬çļĦ": 8011,
        "æľ¬éĹ¨": 8012,
        "ä½İæ²ī": 8013,
        "ä½łåı¯ä»¥": 8014,
        "å°Ĩä»ĸä»¬": 8015,
        "ä¸Ģä»£": 8016,
        "åı¯æ¯Ķ": 8017,
        "éªĳå£«": 8018,
        "åľ¨ä¸Ģå¤Ħ": 8019,
        "äºĨå¤§": 8020,
        "å°ıé©¬": 8021,
        "è¿·éĽ¾": 8022,
        "å®ĩå®Ļ": 8023,
        "æĵħéķ¿": 8024,
        "ä¸Ģæŀļ": 8025,
        "ç¿ĺ": 8026,
        "é£ŀå¤©": 8027,
        "ä»ĸä»İ": 8028,
        "å¤§ä¹ĺ": 8029,
        "éĶĢ": 8030,
        "æ´ŀå¤©": 8031,
        "ç»§ç»Ńè¯´éģĵ": 8032,
        "ä¸ĢåĪĩéĥ½": 8033,
        "çĽ®çŀªåı£åĳĨ": 8034,
        "æĭĩæĮĩ": 8035,
        "å¤§åĲ¼": 8036,
        "å°ıéĺıæ°ı": 8037,
        "é»Ŀ": 8038,
        "å¤ªéĺ¿": 8039,
        "åĺī": 8040,
        "èĢħçļĦ": 8041,
        "ä»ĩäºº": 8042,
        "èĢĮå¼Ģ": 8043,
        "èĢĮç«ĭ": 8044,
        "äºĮåĵ¥": 8045,
        "å¾®åıĺ": 8046,
        "è¡£è¢ĸ": 8047,
        "æ´ªèįĴ": 8048,
        "çļĦéĵģ": 8049,
        "å¥½äºº": 8050,
        "äºĨä¸Ģå±Ĥ": 8051,
        "æĳĨæĳĨæīĭ": 8052,
        "å²©çŁ³": 8053,
        "æ¼Ĥæµ®": 8054,
        "çļĦå·¨å¤§": 8055,
        "å°ıçĻ½": 8056,
        "è¡Ģæ¶²": 8057,
        "æĥĬçĸĳ": 8058,
        "åģļäºĭ": 8059,
        "éļĨå³°": 8060,
        "ç¬ĶçĽ´": 8061,
        "ä¸ĭåľº": 8062,
        "è§Ĥçľĭ": 8063,
        "æ¬¢å¥´": 8064,
        "çģ°è¡£": 8065,
        "åįģäºĮç«ł": 8066,
        "åľ¨è¿Ļä¸ª": 8067,
        "éĿ¢åŃĶ": 8068,
        "èµ°æĿ¥": 8069,
        "åĤħéĩĩ": 8070,
        "ä¹ĭä¸»": 8071,
        "çĤ¯": 8072,
        "éĹ¨æĪ·": 8073,
        "æīįè¡Į": 8074,
        "å¼ºçĥĪçļĦ": 8075,
        "çļĦæĺ¯ä»Ģä¹Ī": 8076,
        "çĥĻåį°": 8077,
        "æĺ¯èĩªå·±": 8078,
        "åĨħå®¹": 8079,
        "èĥ¸åīį": 8080,
        "èĦļæŃ¥å£°": 8081,
        "åĶ¯ä¸ĢçļĦ": 8082,
        "éĤ£å°ĳå¹´": 8083,
        "æŃ¦éļĨå³°": 8084,
        "æľºåħ³": 8085,
        "åįĹå±ı": 8086,
        "æĸ°çļĦ": 8087,
        "æįŁå¤±": 8088,
        "å½ĵä½ľ": 8089,
        "é£İéĽª": 8090,
        "èµ¤çº¢": 8091,
        "ç¼ĿéļĻ": 8092,
        "æĺ§": 8093,
        "å¤§æĦŁ": 8094,
        "åĲĪä»Ģ": 8095,
        "åĲ¸çº³": 8096,
        "åı¯ä»¥è¯´": 8097,
        "çł´éĺµ": 8098,
        "ä¸įçŁ¥ä½ķæĹ¶": 8099,
        "è¹¿": 8100,
        "ç®±åŃĲ": 8101,
        "éļ¾åıĹ": 8102,
        "è½¬åĲĳ": 8103,
        "æİĮæ³ķ": 8104,
        "ç«ĻäºĨèµ·æĿ¥": 8105,
        "åįķçĭ¬": 8106,
        "èĴ²": 8107,
        "å¦ĤçĶµ": 8108,
        "ç¥ŀæĢģ": 8109,
        "åĽŀæĿ¥çļĦ": 8110,
        "åĨ°äºĳ": 8111,
        "æªĲ": 8112,
        "ä¸įçŃī": 8113,
        "ä¸ºä¹ĭä¸Ģ": 8114,
        "éĹ¨ä¸Ń": 8115,
        "è½¬ä¸ĸ": 8116,
        "æĶ¾å¼Ģ": 8117,
        "åĨ²åİ»": 8118,
        "ç¿Ł": 8119,
        "ä¹Łæľªå¿ħ": 8120,
        "å°±å¦Ĥ": 8121,
        "å°Ĩè¦ģ": 8122,
        "åĪĿåįĹå±ı": 8123,
        "ä¸¥èĤĥ": 8124,
        "ä¹ĭæīĭ": 8125,
        "åıĪèĥ½": 8126,
        "ä¸Ģä¸ªåŃĹ": 8127,
        "ä¸Ģä¸ªæĹ¶è¾°": 8128,
        "åĨįåİ»": 8129,
        "ä¸İäºº": 8130,
        "ç»ĵæŀĦ": 8131,
        "å¢Ł": 8132,
        "æ¯Ķè¯ķ": 8133,
        "èĻļæŃ¦": 8134,
        "çĿĢå¥¹": 8135,
        "åĪĢå®¢": 8136,
        "åŃ¦å£«": 8137,
        "æ¾¹": 8138,
        "èµĽ": 8139,
        "å¾Ĺåĩº": 8140,
        "çİĦé»Ħ": 8141,
        "æĬ½åĩº": 8142,
        "æĻģæ··": 8143,
        "å°ıå°ıçļĦ": 8144,
        "å®¶éĩĮ": 8145,
        "æ¥ļç¦»çļĦ": 8146,
        "è¦ģæĪĳ": 8147,
        "çľĭåľ¨": 8148,
        "è¿ŀç»µ": 8149,
        "åĨ²å¤©èĢĮèµ·": 8150,
        "ä¹ĭå¿«": 8151,
        "åĭ¤": 8152,
        "å¿įåıĹ": 8153,
        "ä¸įåı¯æµĭ": 8154,
        "å¦®": 8155,
        "ç½Ĺå¤©": 8156,
        "ä¸įå°½": 8157,
        "éĤ£ä¸¤": 8158,
        "æłĹ": 8159,
        "ç§ĺæ³ķ": 8160,
        "çĿĢèĩªå·±": 8161,
        "åĸ§": 8162,
        "çŃ·": 8163,
        "ç¢İäºĨ": 8164,
        "æĪĳè¿ĺæĺ¯": 8165,
        "éĤ£ä½ł": 8166,
        "ç»ıå¸¸": 8167,
        "ä¸įæĸŃçļĦ": 8168,
        "è¦ĨçĽĸ": 8169,
        "è¿ĻéĹ¨": 8170,
        "ä»Ģä¹Īåľ°æĸ¹": 8171,
        "äºĶç«¹": 8172,
        "åħīæŁ±": 8173,
        "ç²¾å¦Ļ": 8174,
        "æĹ©æľī": 8175,
        "åı·ç§°": 8176,
        "è¿Ļä¸ĢæİĮ": 8177,
        "éĢļçº¢": 8178,
        "å¾ĢåĲİ": 8179,
        "ä½İåĲ¼": 8180,
        "èħ¾ç©º": 8181,
        "èĻļæŃ¦ä¹ĭå¢ĥ": 8182,
        "åı¨": 8183,
        "ä»ĸèĩª": 8184,
        "æľīåĩł": 8185,
        "è¡·": 8186,
        "èħ»": 8187,
        "åįķæīĭ": 8188,
        "å®«éĩĮ": 8189,
        "åħŃäºº": 8190,
        "æĢ¡": 8191,
        "æķĿ": 8192,
        "çľĭæ¸ħæ¥ļ": 8193,
        "åįģåĢį": 8194,
        "èĤº": 8195,
        "ç»Ļä»ĸä»¬": 8196,
        "æĽ²æĹł": 8197,
        "ä¹Įé»ĳ": 8198,
        "åīįåİ»": 8199,
        "è¡Įè¸ª": 8200,
        "è¯·æķĻ": 8201,
        "èĥľè¿ĩ": 8202,
        "å·´æİĮ": 8203,
        "å¤ıä¾¯": 8204,
        "åıĪæĥĬåıĪ": 8205,
        "åħ«ä¸ª": 8206,
        "æ¹ĺ": 8207,
        "ä¹ĭä¸ĬçļĦ": 8208,
        "è¿ĺä¸įå¦Ĥ": 8209,
        "éĿŀåĲĮå°ıåı¯": 8210,
        "çŁ³éĹ¨": 8211,
        "ç²¾è¿Ľ": 8212,
        "æ¯Ĵç¥ŀ": 8213,
        "åħ³äºİ": 8214,
        "çĴ§çİīåŁİ": 8215,
        "åĢª": 8216,
        "èĬĻ": 8217,
        "åĲĦäºº": 8218,
        "æĦŁåıĹåĪ°äºĨ": 8219,
        "ä»ĸçļĦèº«ä½ĵ": 8220,
        "å´Ĩå³Ĵ": 8221,
        "åĩºéŀĺ": 8222,
        "ä¸īå¨ĺ": 8223,
        "åį³éĢĿ": 8224,
        "ä¸ģçģµçĲ³": 8225,
        "å¤§åĲį": 8226,
        "æĥł": 8227,
        "ç®¡å®¶": 8228,
        "ç¼©å°ı": 8229,
        "åľ¨å¤ĸéĿ¢": 8230,
        "å°ıå±±": 8231,
        "éĺ´å½±": 8232,
        "è¿Ļä¹Īæł·": 8233,
        "æĬ¤èº«": 8234,
        "ä¸ĢåľĪ": 8235,
        "æĪĳèĭ¥": 8236,
        "æ°Ķæ°Ľ": 8237,
        "åıĪæľīä»Ģä¹Ī": 8238,
        "èµ°åĪ°äºĨ": 8239,
        "åŁİæ±ł": 8240,
        "..": 8241,
        "çļĦç¬ĳå®¹": 8242,
        "äºĨä¸įèµ·": 8243,
        "çªĥ": 8244,
        "éĿŀè¦ģ": 8245,
        "æĭĽæķ°": 8246,
        "èº¯ä½ĵ": 8247,
        "ç¥ŀå®ĺ": 8248,
        "äºĳä¸Ń": 8249,
        "æĪĳæ²¡": 8250,
        "éĤ£ä¹Łæĺ¯": 8251,
        "éĺ±": 8252,
        "é¢¤å£°éģĵ": 8253,
        "åı¯æľī": 8254,
        "æĮ«": 8255,
        "èį¯å¸Ī": 8256,
        "å¤§å±±": 8257,
        "æĹłäºĭ": 8258,
        "ä¸Ģä¸ªæĺ¯": 8259,
        "æľīä¸Ģéģĵ": 8260,
        "éĤ£ä¹Īå®¹æĺĵ": 8261,
        "åĳĨåĳĨ": 8262,
        "è¯Ŀé¢ĺ": 8263,
        "å¾Īå¤§çļĦ": 8264,
        "çģµä¸¹": 8265,
        "åıĺå¹»": 8266,
        "åıįåĻ¬": 8267,
        "èµµé¦¨åĦ¿": 8268,
        "æłĳä¸Ĭ": 8269,
        "è¢ĸåŃĲ": 8270,
        "æĦ£äºĨ": 8271,
        "ç¼Ī": 8272,
        "èģĭ": 8273,
        "ï¼ĮâĢĿ": 8274,
        "é¢ī": 8275,
        "åĽĽæµ·": 8276,
        "åķ¼": 8277,
        "è¿ĲåĬŁ": 8278,
        "æŃ¦æŀĹä¸Ń": 8279,
        "å¤©æīį": 8280,
        "æĹłäºĮ": 8281,
        "ä¿®å¤į": 8282,
        "æĮªç§»": 8283,
        "è¦ģæĥ³": 8284,
        "è½¨": 8285,
        "åľ°éĿ¢ä¸Ĭ": 8286,
        "çĽ¸åĲĮ": 8287,
        "æ´ŀåı£": 8288,
        "æģĲæĢķæĺ¯": 8289,
        "å¢Ļå£ģ": 8290,
        "æĪĳèĥ½": 8291,
        "æīĵåĿĲ": 8292,
        "åħĥåĬĽ": 8293,
        "ç¾İå¦ĩ": 8294,
        "å§ĳå§ĳ": 8295,
        "éĻĲåĪ¶": 8296,
        "å¤©è¿ĲåŃĲ": 8297,
        "åĨ²åħ¥": 8298,
        "ä¸Īè®¸": 8299,
        "è·ĥèµ·": 8300,
        "åľĪåŃĲ": 8301,
        "å®ļä¼ļ": 8302,
        "åĨħå¤ĸ": 8303,
        "ä½Ľç¥ĸ": 8304,
        "çľŁçĽ¸": 8305,
        "åĿª": 8306,
        "çķĻæĥħ": 8307,
        "ä¼¼ä¹İåľ¨": 8308,
        "é½Ĳå£°": 8309,
        "åī§çĹĽ": 8310,
        "çľĭå¾Ĺåĩº": 8311,
        "å´ĩæĸĩ": 8312,
        "äºĨä¹Ī": 8313,
        "å¤©éĽ·": 8314,
        "çªĦ": 8315,
        "è°ģçŁ¥éģĵ": 8316,
        "æĪ¿éĹ¨": 8317,
        "çļĦåİŁåĽł": 8318,
        "æŃ£éĿ¢": 8319,
        "çŀħ": 8320,
        "æĥĬå¥ĩ": 8321,
        "é»ĳéĽ¾": 8322,
        "ç»Ŀä¸įèĥ½": 8323,
        "çĨĶ": 8324,
        "å±ĭåĨħ": 8325,
        "å°±å·²": 8326,
        "çĤ½": 8327,
        "è¢«è¿Ļ": 8328,
        "æĿİæħķ": 8329,
        "åĳ¼åĳ¼": 8330,
        "æĹłå¿Įéģĵ": 8331,
        "èĢĮæŃ»": 8332,
        "ç§½": 8333,
        "åıĮèħ¿": 8334,
        "æī¾ä¸ª": 8335,
        "åĩºä¸Ģä¸Ŀ": 8336,
        "ç¾½æ¸ħ": 8337,
        "æĥ³è±¡çļĦ": 8338,
        "çļĦæĥħç»ª": 8339,
        "ä¸Ģç¿»": 8340,
        "éĻ·éĺ±": 8341,
        "æĢł": 8342,
        "å¸ĪéĹ¨": 8343,
        "çĭ®åŃĲ": 8344,
        "è¿Ļä¸ĭ": 8345,
        "é¢ĵ": 8346,
        "æķ°ä¸ĩ": 8347,
        "å°½å¿«": 8348,
        "åŃ¦ä¼ļ": 8349,
        "èĢģå¤©": 8350,
        "çľ¼èī²": 8351,
        "è¡ĮçļĦ": 8352,
        "çĽ®çĿ¹": 8353,
        "åºĶå¯¹": 8354,
        "äºĳéľŀ": 8355,
        "å¥½ä¸įå®¹æĺĵ": 8356,
        "æģĻ": 8357,
        "åĮł": 8358,
        "æīĵæī®": 8359,
        "äº¤ä»£": 8360,
        "æĭįäºĨ": 8361,
        "ç¦ħå¸Ī": 8362,
        "åĪ°æŃ¤": 8363,
        "æ·±æ¸Ĭ": 8364,
        "çĿģå¼Ģçľ¼çĿĽ": 8365,
        "å¥½çľĭ": 8366,
        "é£ŀåĩºåİ»": 8367,
        "åĭĩæ°Ķ": 8368,
        "éĹªè¿ĩä¸Ģä¸Ŀ": 8369,
        "åľ¨èº«": 8370,
        "ä½łçľŁ": 8371,
        "åģ¿": 8372,
        "æĿ¾äºĨä¸Ģåı£æ°Ķ": 8373,
        "å«¡": 8374,
        "ç»Ŀå¯¹æĺ¯": 8375,
        "æľīæĦı": 8376,
        "çĿĽ": 8377,
        "çĶ¨æĦı": 8378,
        "æ¬¡éĽ·åĬ«": 8379,
        "èĻ½çĦ¶æ²¡æľī": 8380,
        "çļĦå¹´è½»": 8381,
        "åĬ¨çĿĢ": 8382,
        "åĪĢåħī": 8383,
        "åĬłå¿«": 8384,
        "å±±é¡¶": 8385,
        "äºĮå¸ĪåħĦ": 8386,
        "ç«Łä¼¼": 8387,
        "å§ĵèĢģèĢħ": 8388,
        "çļĦåĲįåŃĹ": 8389,
        "æĺ¯éĤ£": 8390,
        "æĹłè¯Ń": 8391,
        "èĬ±åĽŃ": 8392,
        "å°½åĬĽ": 8393,
        "åı³èĩĤ": 8394,
        "ç£ħ": 8395,
        "æ¤ħåŃĲ": 8396,
        "æĹ·": 8397,
        "åĲįå£°": 8398,
        "æµģæ°´": 8399,
        "æķ´æķ´": 8400,
        "æĢĴæ°Ķ": 8401,
        "åıĪä¸įæĺ¯": 8402,
        "æį¡": 8403,
        "æĭ½": 8404,
        "äºĨä¸ĢæĿ¡": 8405,
        "å¤±èī²": 8406,
        "å¥½æ±ī": 8407,
        "è¶´": 8408,
        "å¾Īéķ¿æĹ¶éĹ´": 8409,
        "é¾ĻèĻİ": 8410,
        "åį«å£«": 8411,
        "æ¸©é»Ľ": 8412,
        "çļĦåīĳæ³ķ": 8413,
        "éĥ½ä¸įæķ¢": 8414,
        "çģµæ¼ª": 8415,
        "æķ£äºĨ": 8416,
        "åĩºçİ°çļĦ": 8417,
        "åļİ": 8418,
        "ä¸Ģåįĥ": 8419,
        "ä¸Ģç¾¤": 8420,
        "ä¼ĳæĥ³": 8421,
        "ç¥¨": 8422,
        "çŁ£": 8423,
        "åľ£äºº": 8424,
        "æİ¨è¡į": 8425,
        "æŁĲäºĽ": 8426,
        "æĮł": 8427,
        "ç´¢æĢ§": 8428,
        "ä¸Ģè·¯ä¸Ĭ": 8429,
        "çŁ³å£ģ": 8430,
        "è¿½èµ¶": 8431,
        "äºīåıĸ": 8432,
        "æ¢³": 8433,
        "å¤§å¼Ģ": 8434,
        "æľ¬æĥ³": 8435,
        "æĶ¾æĿ¾": 8436,
        "åħ³å¤´": 8437,
        "éĵģçİ²çıĳ": 8438,
        "æĵĤ": 8439,
        "çİĦå¤©": 8440,
        "å¦Ĥé¾Ļ": 8441,
        "å¥¹ä¹Ł": 8442,
        "èĻŀ": 8443,
        "åĪ»æĦı": 8444,
        "æ¯ĴèĽĩ": 8445,
        "çĵ£": 8446,
        "äººä»Ļ": 8447,
        "åıįå¯¹": 8448,
        "åĬłæĮģ": 8449,
        "éºĴ": 8450,
        "å¾Ĺæīĭ": 8451,
        "åĽĽä½į": 8452,
        "ä¸ĥåħ¬": 8453,
        "æĮĩå°ĸ": 8454,
        "æ²ĪæĿı": 8455,
        "çĴ¨": 8456,
        "è¿ĩäºİ": 8457,
        "æµģéĢĿ": 8458,
        "è¯·ä½ł": 8459,
        "æĿŁç¼ļ": 8460,
        "ä¸Ģå¿ĥ": 8461,
        "è¿ĻèĢģ": 8462,
        "åĲĦå¤Ħ": 8463,
        "æĢ¦": 8464,
        "è¿ĺæ´»çĿĢ": 8465,
        "æĥĬæħĮ": 8466,
        "æĿİå¯Ĩ": 8467,
        "ä¸įåģľåľ°": 8468,
        "åºı": 8469,
        "åĽŀå®¶": 8470,
        "éĴµ": 8471,
        "åıªæľīä¸Ģä¸ª": 8472,
        "çķ¥å¾®": 8473,
        "åºĦä¸»": 8474,
        "ä¸īå°º": 8475,
        "åģļæ¢¦": 8476,
        "åĵĪåĵĪç¬ĳéģĵ": 8477,
        "çļĦç¡®æĺ¯": 8478,
        "çİīéĥİ": 8479,
        "èĦĳåŃĲ": 8480,
        "å¤§å¤§": 8481,
        "ä½łä¼ļ": 8482,
        "æįĤ": 8483,
        "å½±é¬¼": 8484,
        "ä¸ĥä¸ª": 8485,
        "å®«çļĦ": 8486,
        "åľºä¸Ń": 8487,
        "ç¤´": 8488,
        "è·ªä¸ĭ": 8489,
        "ä¸ľå¤·": 8490,
        "éĺ¿å¼¥éĻĢ": 8491,
        "æ¯ıä¸ªäººéĥ½": 8492,
        "ç£ħç¤´": 8493,
        "äºĨçļĦ": 8494,
        "èĢĮèµ°": 8495,
        "æĢİçļĦ": 8496,
        "åı¹äºĨä¸Ģåı£æ°Ķ": 8497,
        "åŁĭä¼ı": 8498,
        "éĢıè¿ĩ": 8499,
        "çĽ¯çĿĢä»ĸ": 8500,
        "æĩĴå¾Ĺ": 8501,
        "åıªæīĭ": 8502,
        "æĥ³åĥı": 8503,
        "è¢«éĤ£": 8504,
        "æķĻçļĦ": 8505,
        "éĽ·æ±ł": 8506,
        "æĭĽæĥ¹": 8507,
        "åĲĦæľī": 8508,
        "çŀ§å¾Ĺ": 8509,
        "ä¸įåĩĨ": 8510,
        "å¨ĺçļĦ": 8511,
        "éļĶçĿĢ": 8512,
        "èĩªå·²": 8513,
        "å¤įæ´»": 8514,
        "ä¸ĭåİ»äºĨ": 8515,
        "æĬ¬èµ·å¤´æĿ¥": 8516,
        "çļĦæµ·": 8517,
        "æİĮåĬ²": 8518,
        "æ³¾": 8519,
        "é¡µ": 8520,
        "å¦ĸæĢª": 8521,
        "æīĵéĩıçĿĢ": 8522,
        "å¤§åĸĿä¸Ģå£°": 8523,
        "åº¸": 8524,
        "å¤ªèĻļ": 8525,
        "åįĹå¤©": 8526,
        "æĪĳä¸įä¼ļ": 8527,
        "æĹłç¤¼": 8528,
        "äºĨä¸ĢæŃ¥": 8529,
        "çģµåĦ¿": 8530,
        "é»ĳå¤ľ": 8531,
        "å¸®ä½ł": 8532,
        "ä¿®å£«çļĦ": 8533,
        "ä¸ĢæĹı": 8534,
        "èĥ½åľ¨": 8535,
        "å¤ªå¿«": 8536,
        "å¿ĥä¸Ńä¸ĢåĬ¨": 8537,
        "å½»åºķçļĦ": 8538,
        "æ¬ºè´Ł": 8539,
        "æĪĳå°±æĺ¯": 8540,
        "èĢģåĵ¥": 8541,
        "ä½ĨæŃ¤åĪ»": 8542,
        "å°Ĩè¿ĻäºĽ": 8543,
        "æľ¬é¢Ĩ": 8544,
        "äºĮè¯Ŀ": 8545,
        "çĽ¸å·®": 8546,
        "ä»ĸçļĦæīĭ": 8547,
        "éĤ£ä¸ªäºº": 8548,
        "æĪ¿ä¸Ń": 8549,
        "ç¬¬äºĮæ¬¡": 8550,
        "ä¸įç®¡æĺ¯": 8551,
        "æĹłå¿§": 8552,
        "å¤±ç¬ĳ": 8553,
        "çľŁç©º": 8554,
        "éĹªèĢĢ": 8555,
        "ä¸įåĪ©": 8556,
        "ä¹Łç½¢": 8557,
        "æĸĭ": 8558,
        "çŁ¿": 8559,
        "è®©åħ¶": 8560,
        "åĭĭ": 8561,
        "æŁ³èİºèİº": 8562,
        "åı«ä½ł": 8563,
        "éĢĥåĩº": 8564,
        "éľİ": 8565,
        "æķĳåĳ½": 8566,
        "è¿·æĥĳ": 8567,
        "èĩ³å°ĬéŃĶæ°Ķ": 8568,
        "æı£": 8569,
        "åįĬåĪĨ": 8570,
        "åŁİéĩĮ": 8571,
        "åĳ¨è¾¹": 8572,
        "éļ¾éģĵæĺ¯": 8573,
        "åĨ·åĵ¼ä¸Ģå£°": 8574,
        "ä»ĸåıªæĺ¯": 8575,
        "éĤ£æĬĬ": 8576,
        "èº«æīĭ": 8577,
        "è¿ĲçĶ¨": 8578,
        "èĲ¥åľ°": 8579,
        "æĳ¸äºĨæĳ¸": 8580,
        "æĭĪ": 8581,
        "çĻ½è¢į": 8582,
        "ä»ĸçļĦå¿ĥ": 8583,
        "æıĲçĿĢ": 8584,
        "ä½łæĺ¯ä¸įæĺ¯": 8585,
        "åįģä¸Ģç«ł": 8586,
        "çŀİåŃĲ": 8587,
        "æīĢçŁ¥": 8588,
        "ä¾ĿéĿł": 8589,
        "ç¢°ä¸Ĭ": 8590,
        "ä¸Ģåį·": 8591,
        "ä½ıä»ĸ": 8592,
        "åĵ¨": 8593,
        "âĢĿâĢľ": 8594,
        "çºµèº«": 8595,
        "éĻ¨èĲ½": 8596,
        "æĦıå¿µ": 8597,
        "é¦Ļæ°Ķ": 8598,
        "ä¸ĢçĶ©": 8599,
[...]
