{
  "version": "1.0",
  "truncation": null,
  "padding": null,
  "added_tokens": [
    {
      "id": 0,
      "content": "[UNK]",
      "single_word": false,
      "lstrip": false,
      "rstrip": false,
      "normalized": false,
      "special": true
    },
    {
      "id": 1,
      "content": "[PAD]",
      "single_word": false,
      "lstrip": false,
      "rstrip": false,
      "normalized": false,
      "special": true
    },
    {
      "id": 2,
      "content": "[CLS]",
      "single_word": false,
      "lstrip": false,
      "rstrip": false,
      "normalized": false,
      "special": true
    },
    {
      "id": 3,
      "content": "[SEP]",
      "single_word": false,
      "lstrip": false,
      "rstrip": false,
      "normalized": false,
      "special": true
    },
    {
      "id": 4,
      "content": "[MASK]",
      "single_word": false,
      "lstrip": false,
      "rstrip": false,
      "normalized": false,
      "special": true
    },
    {
      "id": 5,
      "content": "<|endofbook|>",
      "single_word": false,
      "lstrip": false,
      "rstrip": false,
      "normalized": false,
      "special": true
    }
  ],
  "normalizer": null,
  "pre_tokenizer": {
    "type": "Sequence",
    "pretokenizers": [
      {
        "type": "Whitespace"
      },
      {
        "type": "Punctuation",
        "behavior": "Isolated"
      }
    ]
  },
  "post_processor": null,
  "decoder": null,
  "model": {
    "type": "BPE",
    "dropout": null,
    "unk_token": "[UNK]",
    "continuing_subword_prefix": null,
    "end_of_word_suffix": null,
    "fuse_unk": false,
    "byte_fallback": false,
    "ignore_merges": false,
    "vocab": {
      "[UNK]": 0,
      "[PAD]": 1,
      "[CLS]": 2,
      "[SEP]": 3,
      "[MASK]": 4,
      "<|endofbook|>": 5,
      "-": 6,
      ".": 7,
      "0": 8,
      "1": 9,
      "2": 10,
      "3": 11,
      "4": 12,
      "5": 13,
      "6": 14,
      "7": 15,
      "8": 16,
      "<": 17,
      ">": 18,
      "A": 19,
      "B": 20,
      "C": 21,
      "D": 22,
      "E": 23,
      "F": 24,
      "G": 25,
      "H": 26,
      "I": 27,
      "J": 28,
      "K": 29,
      "L": 30,
      "M": 31,
      "N": 32,
      "O": 33,
      "P": 34,
      "R": 35,
      "S": 36,
      "T": 37,
      "U": 38,
      "V": 39,
      "W": 40,
      "X": 41,
      "Y": 42,
      "Z": 43,
      "a": 44,
      "b": 45,
      "c": 46,
      "d": 47,
      "e": 48,
      "f": 49,
      "g": 50,
      "h": 51,
      "i": 52,
      "j": 53,
      "k": 54,
      "l": 55,
      "m": 56,
      "n": 57,
      "o": 58,
      "p": 59,
      "r": 60,
      "s": 61,
      "t": 62,
      "u": 63,
      "v": 64,
      "w": 65,
      "x": 66,
      "y": 67,
      "|": 68,
      "±": 69,
      "·": 70,
      "—": 71,
      "‘": 72,
      "’": 73,
      "“": 74,
      "”": 75,
      "…": 76,
      "⑴": 77,
      "─": 78,
      "□": 79,
      "○": 80,
      "◎": 81,
      "、": 82,
      "。": 83,
      "〇": 84,
      "〈": 85,
      "〉": 86,
      "《": 87,
      "》": 88,
      "】": 89,
      "〒": 90,
      "㈣": 91,
      "㈧": 92,
      "㈨": 93,
      "一": 94,
      "丁": 95,
      "七": 96,
      "丄": 97,
      "万": 98,
      "丈": 99,
      "三": 100,
      "上": 101,
      "下": 102,
      "丌": 103,
      "不": 104,
      "与": 105,
      "丐": 106,
      "丑": 107,
      "专": 108,
      "且": 109,
      "丕": 110,
      "世": 111,
      "丘": 112,
      "丙": 113,
      "业": 114,
      "丛": 115,
      "东": 116,
      "丝": 117,
      "丞": 118,
      "丟": 119,
      "両": 120,
      "丢": 121,
      "两": 122,
      "严": 123,
      "丧": 124,
      "个": 125,
      "丫": 126,
      "丬": 127,
      "中": 128,
      "丰": 129,
      "串": 130,
      "临": 131,
      "丸": 132,
      "丹": 133,
      "为": 134,
      "主": 135,
      "丽": 136,
      "举": 137,
      "乃": 138,
      "久": 139,
      "么": 140,
      "义": 141,
      "之": 142,
      "乌": 143,
      "乍": 144,
      "乎": 145,
      "乏": 146,
      "乐": 147,
      "乒": 148,
      "乓": 149,
      "乔": 150,
      "乖": 151,
      "乘": 152,
      "乙": 153,
      "乜": 154,
      "九": 155,
      "乞": 156,
      "也": 157,
      "习": 158,
      "乡": 159,
      "书": 160,
      "乩": 161,
      "买": 162,
      "乱": 163,
      "乳": 164,
      "乾": 165,
      "了": 166,
      "亇": 167,
      "予": 168,
      "争": 169,
      "事": 170,
      "二": 171,
      "亍": 172,
      "于": 173,
      "亏": 174,
      "云": 175,
      "互": 176,
      "五": 177,
      "井": 178,
      "亘": 179,
      "亙": 180,
      "亚": 181,
      "些": 182,
      "亟": 183,
      "亡": 184,
      "亢": 185,
      "交": 186,
      "亥": 187,
      "亦": 188,
      "产": 189,
      "亨": 190,
      "亩": 191,
      "享": 192,
      "京": 193,
      "亭": 194,
      "亮": 195,
      "亲": 196,
      "亳": 197,
      "亵": 198,
      "人": 199,
      "亿": 200,
      "什": 201,
      "仁": 202,
      "仃": 203,
      "仄": 204,
      "仅": 205,
      "仆": 206,
      "仇": 207,
      "今": 208,
      "介": 209,
      "仍": 210,
      "从": 211,
      "仑": 212,
      "仓": 213,
      "仔": 214,
      "仕": 215,
      "他": 216,
      "仗": 217,
      "付": 218,
      "仙": 219,
      "仝": 220,
      "仞": 221,
      "仟": 222,
      "代": 223,
      "令": 224,
      "以": 225,
      "仪": 226,
      "们": 227,
      "仮": 228,
      "仰": 229,
      "仲": 230,
      "仴": 231,
      "仵": 232,
      "件": 233,
      "价": 234,
      "任": 235,
      "份": 236,
      "仿": 237,
      "企": 238,
      "伉": 239,
      "伊": 240,
      "伍": 241,
      "伎": 242,
      "伏": 243,
      "伐": 244,
      "休": 245,
      "伕": 246,
      "众": 247,
      "优": 248,
      "伙": 249,
      "会": 250,
      "伛": 251,
      "伞": 252,
      "伟": 253,
      "传": 254,
      "伤": 255,
      "伥": 256,
      "伦": 257,
      "伧": 258,
      "伪": 259,
      "伫": 260,
      "伯": 261,
      "估": 262,
      "伲": 263,
      "伴": 264,
      "伶": 265,
      "伸": 266,
      "伺": 267,
      "似": 268,
      "伽": 269,
      "佃": 270,
      "但": 271,
      "位": 272,
      "低": 273,
      "住": 274,
      "佐": 275,
      "佑": 276,
      "体": 277,
      "何": 278,
      "佗": 279,
      "佘": 280,
      "余": 281,
      "佚": 282,
      "佛": 283,
      "作": 284,
      "佝": 285,
      "佞": 286,
      "佟": 287,
      "你": 288,
      "佢": 289,
      "佣": 290,
      "佥": 291,
      "佩": 292,
      "佬": 293,
      "佯": 294,
      "佰": 295,
      "佳": 296,
      "佶": 297,
      "佻": 298,
      "佼": 299,
      "使": 300,
      "侂": 301,
      "侃": 302,
      "侄": 303,
      "侈": 304,
      "侉": 305,
      "例": 306,
      "侍": 307,
      "侏": 308,
      "侔": 309,
      "供": 310,
      "依": 311,
      "侠": 312,
      "侣": 313,
      "侥": 314,
      "侦": 315,
      "侧": 316,
      "侨": 317,
      "侩": 318,
      "侪": 319,
      "侬": 320,
      "侮": 321,
      "侯": 322,
      "侵": 323,
      "侶": 324,
      "便": 325,
      "促": 326,
      "俄": 327,
      "俅": 328,
      "俊": 329,
      "俎": 330,
      "俏": 331,
      "俐": 332,
      "俗": 333,
      "俘": 334,
      "俚": 335,
      "俛": 336,
      "保": 337,
      "俞": 338,
      "俟": 339,
      "俠": 340,
      "信": 341,
      "俦": 342,
      "俨": 343,
      "俩": 344,
      "俪": 345,
      "俬": 346,
      "俭": 347,
      "修": 348,
      "俯": 349,
      "俱": 350,
      "俵": 351,
      "俸": 352,
      "俺": 353,
      "俾": 354,
      "倂": 355,
      "倌": 356,
      "倍": 357,
      "倏": 358,
      "倒": 359,
      "倔": 360,
      "倘": 361,
      "候": 362,
      "倚": 363,
      "倜": 364,
      "借": 365,
      "倡": 366,
      "倥": 367,
      "倦": 368,
      "倨": 369,
      "倩": 370,
      "倪": 371,
      "倫": 372,
      "倬": 373,
      "倭": 374,
      "债": 375,
      "值": 376,
      "倾": 377,
      "偃": 378,
      "假": 379,
      "偈": 380,
      "偌": 381,
      "偎": 382,
      "偏": 383,
      "偕": 384,
      "做": 385,
      "停": 386,
      "健": 387,
      "偬": 388,
      "偶": 389,
      "偷": 390,
      "偻": 391,
      "偿": 392,
      "傀": 393,
      "傅": 394,
      "傈": 395,
      "傍": 396,
      "傜": 397,
      "傢": 398,
      "傥": 399,
      "储": 400,
      "傩": 401,
      "催": 402,
      "傯": 403,
      "傲": 404,
      "傳": 405,
      "傻": 406,
      "働": 407,
      "像": 408,
      "僚": 409,
      "僧": 410,
      "僭": 411,
      "僮": 412,
      "僳": 413,
      "僵": 414,
      "僻": 415,
      "儇": 416,
      "儒": 417,
      "儡": 418,
      "儿": 419,
      "兀": 420,
      "允": 421,
      "元": 422,
      "兄": 423,
      "充": 424,
      "兆": 425,
      "先": 426,
      "光": 427,
      "克": 428,
      "兌": 429,
      "免": 430,
      "兑": 431,
      "兔": 432,
      "兖": 433,
      "兗": 434,
      "党": 435,
      "兜": 436,
      "兢": 437,
      "入": 438,
      "內": 439,
      "全": 440,
      "兩": 441,
      "八": 442,
      "公": 443,
      "六": 444,
      "兮": 445,
      "兰": 446,
      "共": 447,
      "关": 448,
      "兴": 449,
      "兵": 450,
      "其": 451,
      "具": 452,
      "典": 453,
      "兹": 454,
      "养": 455,
      "兼": 456,
      "兽": 457,
      "冀": 458,
      "冃": 459,
      "内": 460,
      "冇": 461,
      "冈": 462,
      "冉": 463,
      "册": 464,
      "再": 465,
      "冑": 466,
      "冒": 467,
      "冕": 468,
      "写": 469,
      "军": 470,
      "农": 471,
      "冠": 472,
      "冢": 473,
      "冤": 474,
      "冥": 475,
      "冬": 476,
      "冯": 477,
      "冰": 478,
      "冲": 479,
      "决": 480,
      "况": 481,
      "冶": 482,
      "冷": 483,
      "冻": 484,
      "冼": 485,
      "冽": 486,
      "净": 487,
      "凄": 488,
      "准": 489,
      "凉": 490,
      "凋": 491,
      "凌": 492,
      "凍": 493,
      "减": 494,
      "凑": 495,
      "凛": 496,
      "凝": 497,
      "几": 498,
      "凡": 499,
      "凤": 500,
      "凫": 501,
      "凭": 502,
      "凯": 503,
      "凰": 504,
      "凳": 505,
      "凶": 506,
      "凸": 507,
      "凹": 508,
      "出": 509,
      "击": 510,
      "函": 511,
      "凿": 512,
      "刀": 513,
      "刁": 514,
      "刃": 515,
      "分": 516,
      "切": 517,
      "刊": 518,
      "刎": 519,
      "刑": 520,
      "划": 521,
      "刖": 522,
      "列": 523,
      "刘": 524,
      "则": 525,
      "刚": 526,
      "创": 527,
      "初": 528,
      "删": 529,
      "判": 530,
      "刨": 531,
      "利": 532,
      "别": 533,
      "刭": 534,
      "刮": 535,
      "到": 536,
      "刳": 537,
      "刴": 538,
      "制": 539,
      "刷": 540,
      "券": 541,
      "刹": 542,
      "刺": 543,
      "刻": 544,
      "刼": 545,
      "刽": 546,
      "剁": 547,
      "剂": 548,
      "剃": 549,
      "削": 550,
      "剌": 551,
      "前": 552,
      "剎": 553,
      "剐": 554,
      "剑": 555,
      "剔": 556,
      "剖": 557,
      "剜": 558,
      "剡": 559,
      "剥": 560,
      "剧": 561,
      "剩": 562,
      "剪": 563,
      "副": 564,
      "割": 565,
      "剽": 566,
      "剿": 567,
      "劈": 568,
      "力": 569,
      "劝": 570,
      "办": 571,
      "功": 572,
      "加": 573,
      "务": 574,
      "劣": 575,
      "动": 576,
      "助": 577,
      "努": 578,
      "劫": 579,
      "劭": 580,
      "励": 581,
      "劲": 582,
      "劳": 583,
      "势": 584,
      "勃": 585,
      "勇": 586,
      "勉": 587,
      "勋": 588,
      "勒": 589,
      "勖": 590,
      "勘": 591,
      "勝": 592,
      "勞": 593,
      "募": 594,
      "勣": 595,
      "勤": 596,
      "勺": 597,
      "勾": 598,
      "勿": 599,
      "匀": 600,
      "包": 601,
      "匆": 602,
      "匈": 603,
      "匍": 604,
      "匐": 605,
      "匕": 606,
      "化": 607,
      "北": 608,
      "匙": 609,
      "匝": 610,
      "匠": 611,
      "匡": 612,
      "匣": 613,
      "匪": 614,
      "匮": 615,
      "匹": 616,
      "区": 617,
      "医": 618,
      "匾": 619,
      "匿": 620,
      "十": 621,
      "千": 622,
      "升": 623,
      "午": 624,
      "卉": 625,
      "半": 626,
      "华": 627,
      "协": 628,
      "卑": 629,
      "卒": 630,
      "卓": 631,
      "单": 632,
      "卖": 633,
      "南": 634,
      "博": 635,
      "卜": 636,
      "卞": 637,
      "占": 638,
      "卡": 639,
      "卢": 640,
      "卣": 641,
      "卤": 642,
      "卦": 643,
      "卧": 644,
      "卩": 645,
      "卫": 646,
      "卯": 647,
      "印": 648,
      "危": 649,
      "即": 650,
      "却": 651,
      "卵": 652,
      "卷": 653,
      "卸": 654,
      "卺": 655,
      "卿": 656,
      "厂": 657,
      "厄": 658,
      "厅": 659,
      "历": 660,
      "厉": 661,
      "压": 662,
      "厌": 663,
      "厓": 664,
      "厕": 665,
      "厘": 666,
      "厚": 667,
      "厝": 668,
      "原": 669,
      "厢": 670,
      "厥": 671,
      "厦": 672,
      "厨": 673,
      "厩": 674,
      "厮": 675,
      "厲": 676,
      "去": 677,
      "县": 678,
      "参": 679,
      "叆": 680,
      "叇": 681,
      "又": 682,
      "叉": 683,
      "及": 684,
      "友": 685,
      "双": 686,
      "反": 687,
      "发": 688,
      "叔": 689,
      "取": 690,
      "受": 691,
      "变": 692,
      "叙": 693,
      "叛": 694,
      "叟": 695,
      "叠": 696,
      "口": 697,
      "古": 698,
      "句": 699,
      "另": 700,
      "叨": 701,
      "叩": 702,
      "只": 703,
      "叫": 704,
      "召": 705,
      "叭": 706,
      "叮": 707,
      "可": 708,
      "台": 709,
      "叱": 710,
      "史": 711,
      "右": 712,
      "叵": 713,
      "叶": 714,
      "号": 715,
      "司": 716,
      "叹": 717,
      "叼": 718,
      "叽": 719,
      "吁": 720,
      "吃": 721,
      "各": 722,
      "吆": 723,
      "合": 724,
      "吉": 725,
      "吊": 726,
      "同": 727,
      "名": 728,
      "后": 729,
      "吏": 730,
      "吐": 731,
      "向": 732,
      "吒": 733,
      "吓": 734,
      "吕": 735,
      "吗": 736,
      "君": 737,
      "吝": 738,
      "吞": 739,
      "吟": 740,
      "吠": 741,
      "吣": 742,
      "否": 743,
      "吧": 744,
      "吨": 745,
      "吩": 746,
      "含": 747,
      "听": 748,
      "吭": 749,
      "吮": 750,
      "启": 751,
      "吱": 752,
      "吴": 753,
      "吵": 754,
      "吶": 755,
      "吸": 756,
      "吹": 757,
      "吻": 758,
      "吼": 759,
      "吽": 760,
      "吾": 761,
      "呀": 762,
      "呂": 763,
      "呃": 764,
      "呆": 765,
      "呈": 766,
      "告": 767,
      "呐": 768,
      "呒": 769,
      "呓": 770,
      "呔": 771,
      "呕": 772,
      "呖": 773,
      "员": 774,
      "呛": 775,
      "呜": 776,
      "呢": 777,
      "呦": 778,
      "周": 779,
      "呯": 780,
      "呰": 781,
      "呱": 782,
      "味": 783,
      "呵": 784,
      "呶": 785,
      "呷": 786,
      "呸": 787,
      "呻": 788,
      "呼": 789,
      "命": 790,
      "咀": 791,
      "咁": 792,
      "咂": 793,
      "咄": 794,
      "咆": 795,
      "咋": 796,
      "和": 797,
      "咎": 798,
      "咏": 799,
      "咐": 800,
      "咒": 801,
      "咕": 802,
      "咖": 803,
      "咙": 804,
      "咚": 805,
      "咛": 806,
      "咤": 807,
      "咦": 808,
      "咧": 809,
      "咨": 810,
      "咩": 811,
      "咪": 812,
      "咫": 813,
      "咬": 814,
      "咭": 815,
      "咯": 816,
      "咱": 817,
      "咳": 818,
      "咸": 819,
      "咻": 820,
      "咽": 821,
      "咿": 822,
      "哀": 823,
      "品": 824,
      "哂": 825,
      "哄": 826,
      "哇": 827,
      "哈": 828,
      "哉": 829,
      "响": 830,
      "哎": 831,
      "哑": 832,
      "哒": 833,
      "哓": 834,
      "哗": 835,
      "哙": 836,
      "哝": 837,
      "哞": 838,
      "哟": 839,
      "哥": 840,
      "哦": 841,
      "哧": 842,
      "哨": 843,
      "哩": 844,
      "哪": 845,
      "哬": 846,
      "哭": 847,
      "哮": 848,
      "哲": 849,
      "哺": 850,
      "哼": 851,
      "哽": 852,
      "哿": 853,
      "唁": 854,
      "唆": 855,
      "唇": 856,
      "唉": 857,
      "唏": 858,
      "唐": 859,
      "唔": 860,
      "唠": 861,
      "唢": 862,
      "唣": 863,
      "唤": 864,
      "唧": 865,
      "唬": 866,
      "唭": 867,
      "售": 868,
      "唯": 869,
      "唰": 870,
      "唱": 871,
      "唳": 872,
      "唵": 873,
      "唷": 874,
      "唾": 875,
      "唿": 876,
      "啃": 877,
      "啄": 878,
      "商": 879,
      "啊": 880,
      "問": 881,
      "啐": 882,
      "啕": 883,
      "啖": 884,
      "啜": 885,
      "啡": 886,
      "啤": 887,
      "啥": 888,
      "啦": 889,
      "啧": 890,
      "啪": 891,
      "啬": 892,
      "啭": 893,
      "啮": 894,
      "啰": 895,
      "啱": 896,
      "啳": 897,
      "啷": 898,
      "啸": 899,
      "啻": 900,
      "啼": 901,
      "啾": 902,
      "喀": 903,
      "喁": 904,
      "喂": 905,
      "喃": 906,
      "善": 907,
      "喇": 908,
      "喈": 909,
      "喉": 910,
      "喊": 911,
      "喋": 912,
      "喏": 913,
      "喑": 914,
      "喔": 915,
      "喘": 916,
      "喙": 917,
      "喚": 918,
      "喜": 919,
      "喝": 920,
      "喟": 921,
      "喧": 922,
      "喳": 923,
      "喷": 924,
      "喻": 925,
      "喽": 926,
      "嗄": 927,
      "嗅": 928,
      "嗌": 929,
      "嗎": 930,
      "嗑": 931,
      "嗒": 932,
      "嗓": 933,
      "嗔": 934,
      "嗖": 935,
      "嗜": 936,
      "嗟": 937,
      "嗡": 938,
      "嗣": 939,
      "嗤": 940,
      "嗥": 941,
      "嗦": 942,
      "嗫": 943,
      "嗬": 944,
      "嗯": 945,
      "嗲": 946,
      "嗳": 947,
      "嗵": 948,
      "嗷": 949,
      "嗽": 950,
      "嗾": 951,
      "嘀": 952,
      "嘈": 953,
      "嘉": 954,
      "嘎": 955,
      "嘘": 956,
      "嘚": 957,
      "嘛": 958,
      "嘟": 959,
      "嘡": 960,
      "嘣": 961,
      "嘤": 962,
      "嘭": 963,
      "嘱": 964,
      "嘲": 965,
      "嘴": 966,
      "嘶": 967,
      "嘹": 968,
      "嘻": 969,
      "嘿": 970,
      "噃": 971,
      "噍": 972,
      "噎": 973,
      "噔": 974,
      "噗": 975,
      "噜": 976,
      "噢": 977,
      "噤": 978,
      "器": 979,
      "噩": 980,
      "噪": 981,
      "噫": 982,
      "噬": 983,
      "噴": 984,
      "噶": 985,
      "噼": 986,
      "嚄": 987,
      "嚅": 988,
      "嚆": 989,
      "嚎": 990,
      "嚏": 991,
      "嚓": 992,
      "嚕": 993,
      "嚣": 994,
      "嚭": 995,
      "嚷": 996,
      "嚼": 997,
      "囀": 998,
      "囊": 999,
      "囚": 1000,
      "四": 1001,
      "回": 1002,
      "囟": 1003,
      "因": 1004,
      "团": 1005,
      "団": 1006,
      "囫": 1007,
      "囬": 1008,
      "园": 1009,
      "困": 1010,
      "囱": 1011,
      "囲": 1012,
      "围": 1013,
      "囵": 1014,
      "囹": 1015,
      "固": 1016,
      "国": 1017,
      "图": 1018,
      "囿": 1019,
      "圃": 1020,
      "圆": 1021,
      "圈": 1022,
      "圉": 1023,
      "國": 1024,
      "圓": 1025,
      "圜": 1026,
      "土": 1027,
      "圣": 1028,
      "在": 1029,
      "圭": 1030,
      "圮": 1031,
      "圯": 1032,
      "地": 1033,
      "圹": 1034,
      "场": 1035,
      "圻": 1036,
      "圾": 1037,
      "址": 1038,
      "坂": 1039,
      "均": 1040,
      "坊": 1041,
      "坍": 1042,
      "坎": 1043,
      "坏": 1044,
      "坐": 1045,
      "坑": 1046,
      "块": 1047,
      "坚": 1048,
      "坛": 1049,
      "坝": 1050,
      "坞": 1051,
      "坟": 1052,
      "坠": 1053,
      "坡": 1054,
      "坤": 1055,
      "坦": 1056,
      "坪": 1057,
      "坯": 1058,
      "坳": 1059,
      "坷": 1060,
      "坼": 1061,
      "垂": 1062,
      "垃": 1063,
      "垆": 1064,
      "型": 1065,
      "垒": 1066,
      "垓": 1067,
      "垛": 1068,
      "垠": 1069,
      "垢": 1070,
      "垣": 1071,
      "垦": 1072,
      "垩": 1073,
      "垫": 1074,
      "垮": 1075,
      "埃": 1076,
      "埋": 1077,
      "城": 1078,
      "埏": 1079,
      "埒": 1080,
      "埔": 1081,
      "埘": 1082,
      "域": 1083,
      "埠": 1084,
      "埤": 1085,
      "埴": 1086,
      "埵": 1087,
      "培": 1088,
      "基": 1089,
      "堂": 1090,
      "堆": 1091,
      "堇": 1092,
      "堉": 1093,
      "堑": 1094,
      "堕": 1095,
      "堞": 1096,
      "堠": 1097,
      "堡": 1098,
      "堤": 1099,
      "堪": 1100,
      "堯": 1101,
      "堰": 1102,
      "堵": 1103,
      "塌": 1104,
      "塍": 1105,
      "塑": 1106,
      "塔": 1107,
      "塘": 1108,
      "塞": 1109,
      "填": 1110,
      "塱": 1111,
      "塽": 1112,
      "塾": 1113,
      "境": 1114,
      "墅": 1115,
      "墓": 1116,
      "墙": 1117,
      "增": 1118,
      "墟": 1119,
      "墨": 1120,
      "墩": 1121,
      "墬": 1122,
      "墮": 1123,
      "壁": 1124,
      "壅": 1125,
      "壑": 1126,
      "壕": 1127,
      "壤": 1128,
      "士": 1129,
      "壬": 1130,
      "壮": 1131,
      "壯": 1132,
      "声": 1133,
      "壳": 1134,
      "壶": 1135,
      "夂": 1136,
      "处": 1137,
      "备": 1138,
      "复": 1139,
      "夏": 1140,
      "夕": 1141,
      "外": 1142,
      "夙": 1143,
      "多": 1144,
      "夜": 1145,
      "够": 1146,
      "夤": 1147,
      "大": 1148,
      "天": 1149,
      "太": 1150,
      "夫": 1151,
      "夬": 1152,
      "夭": 1153,
      "央": 1154,
      "失": 1155,
      "头": 1156,
      "夷": 1157,
      "夸": 1158,
      "夹": 1159,
      "夺": 1160,
      "奁": 1161,
      "奂": 1162,
      "奄": 1163,
      "奇": 1164,
      "奈": 1165,
      "奉": 1166,
      "奋": 1167,
      "奎": 1168,
      "奏": 1169,
      "契": 1170,
      "奔": 1171,
      "奕": 1172,
      "奖": 1173,
      "套": 1174,
      "奘": 1175,
      "奚": 1176,
      "奠": 1177,
      "奢": 1178,
      "奥": 1179,
      "奧": 1180,
      "奪": 1181,
      "女": 1182,
      "奴": 1183,
      "奶": 1184,
      "奸": 1185,
      "她": 1186,
      "好": 1187,
      "妁": 1188,
      "如": 1189,
      "妃": 1190,
      "妄": 1191,
      "妆": 1192,
      "妇": 1193,
      "妈": 1194,
      "妊": 1195,
      "妍": 1196,
      "妒": 1197,
      "妓": 1198,
      "妖": 1199,
      "妙": 1200,
      "妞": 1201,
      "妥": 1202,
      "妨": 1203,
      "妩": 1204,
      "妪": 1205,
      "妫": 1206,
      "妮": 1207,
      "妯": 1208,
      "妲": 1209,
      "妹": 1210,
      "妺": 1211,
      "妻": 1212,
      "妾": 1213,
      "姆": 1214,
      "姉": 1215,
      "姊": 1216,
      "始": 1217,
      "姐": 1218,
      "姑": 1219,
      "姓": 1220,
      "委": 1221,
      "姗": 1222,
      "姘": 1223,
      "姚": 1224,
      "姜": 1225,
      "姝": 1226,
      "姣": 1227,
      "姥": 1228,
      "姨": 1229,
      "姬": 1230,
      "姹": 1231,
      "姻": 1232,
      "姿": 1233,
      "威": 1234,
      "娃": 1235,
      "娄": 1236,
      "娆": 1237,
      "娇": 1238,
      "娈": 1239,
      "娉": 1240,
      "娌": 1241,
      "娑": 1242,
      "娓": 1243,
      "娘": 1244,
      "娜": 1245,
      "娟": 1246,
      "娠": 1247,
      "娥": 1248,
      "娩": 1249,
      "娱": 1250,
      "娲": 1251,
      "娴": 1252,
      "娶": 1253,
      "娼": 1254,
      "婀": 1255,
      "婆": 1256,
      "婉": 1257,
      "婊": 1258,
      "婚": 1259,
      "婢": 1260,
      "婦": 1261,
      "婪": 1262,
      "婴": 1263,
      "婵": 1264,
      "婶": 1265,
      "婷": 1266,
      "婿": 1267,
      "媒": 1268,
      "媚": 1269,
      "媪": 1270,
      "媳": 1271,
      "嫁": 1272,
      "嫂": 1273,
      "嫉": 1274,
      "嫌": 1275,
      "嫔": 1276,
      "嫖": 1277,
      "嫡": 1278,
      "嫣": 1279,
      "嫦": 1280,
      "嫩": 1281,
      "嫫": 1282,
      "嬉": 1283,
      "嬖": 1284,
      "嬗": 1285,
      "嬛": 1286,
      "嬰": 1287,
      "嬲": 1288,
      "嬴": 1289,
      "孀": 1290,
      "子": 1291,
      "孑": 1292,
      "孔": 1293,
      "孕": 1294,
      "字": 1295,
      "存": 1296,
      "孙": 1297,
      "孚": 1298,
      "孛": 1299,
      "孜": 1300,
      "孝": 1301,
      "孟": 1302,
      "季": 1303,
      "孤": 1304,
      "孥": 1305,
      "学": 1306,
      "孩": 1307,
      "孪": 1308,
      "孰": 1309,
      "孱": 1310,
      "孳": 1311,
      "孺": 1312,
      "孽": 1313,
      "宁": 1314,
      "它": 1315,
      "宅": 1316,
      "宇": 1317,
      "守": 1318,
      "安": 1319,
      "宋": 1320,
      "完": 1321,
      "宏": 1322,
      "宓": 1323,
      "宕": 1324,
      "宗": 1325,
      "官": 1326,
      "宙": 1327,
      "定": 1328,
      "宛": 1329,
      "宜": 1330,
      "宝": 1331,
      "实": 1332,
      "宠": 1333,
      "审": 1334,
      "客": 1335,
      "宣": 1336,
      "室": 1337,
      "宥": 1338,
      "宦": 1339,
      "宪": 1340,
      "宫": 1341,
      "宮": 1342,
      "宰": 1343,
      "害": 1344,
      "宴": 1345,
      "宵": 1346,
      "家": 1347,
      "宸": 1348,
      "容": 1349,
      "宽": 1350,
      "宾": 1351,
      "宿": 1352,
      "寂": 1353,
      "寃": 1354,
      "寄": 1355,
      "寅": 1356,
      "密": 1357,
      "寇": 1358,
      "富": 1359,
      "寐": 1360,
      "寒": 1361,
      "寓": 1362,
      "寝": 1363,
      "寞": 1364,
      "察": 1365,
      "寡": 1366,
      "寤": 1367,
      "寥": 1368,
      "寧": 1369,
      "寨": 1370,
      "寮": 1371,
      "寰": 1372,
      "寸": 1373,
      "对": 1374,
      "寺": 1375,
      "寻": 1376,
      "导": 1377,
      "対": 1378,
      "寿": 1379,
      "封": 1380,
      "射": 1381,
      "将": 1382,
      "尉": 1383,
      "尊": 1384,
      "小": 1385,
      "少": 1386,
      "尔": 1387,
      "尖": 1388,
      "尘": 1389,
      "尚": 1390,
      "尝": 1391,
      "尤": 1392,
      "尧": 1393,
      "尪": 1394,
      "尬": 1395,
      "就": 1396,
      "尴": 1397,
      "尶": 1398,
      "尸": 1399,
      "尹": 1400,
      "尺": 1401,
      "尻": 1402,
      "尼": 1403,
      "尽": 1404,
      "尾": 1405,
      "尿": 1406,
      "局": 1407,
      "屁": 1408,
      "层": 1409,
      "屄": 1410,
      "居": 1411,
      "屈": 1412,
      "屉": 1413,
      "届": 1414,
      "屋": 1415,
      "屎": 1416,
      "屏": 1417,
      "屐": 1418,
      "屑": 1419,
      "展": 1420,
      "屜": 1421,
      "属": 1422,
      "屠": 1423,
      "屡": 1424,
      "屣": 1425,
      "履": 1426,
      "屧": 1427,
      "屯": 1428,
      "山": 1429,
      "屹": 1430,
      "屿": 1431,
      "岀": 1432,
      "岁": 1433,
      "岂": 1434,
      "岌": 1435,
      "岐": 1436,
      "岑": 1437,
      "岔": 1438,
      "岖": 1439,
      "岗": 1440,
      "岘": 1441,
      "岚": 1442,
      "岛": 1443,
      "岡": 1444,
      "岢": 1445,
      "岩": 1446,
      "岫": 1447,
      "岬": 1448,
      "岭": 1449,
      "岱": 1450,
      "岳": 1451,
      "岸": 1452,
      "岽": 1453,
      "峋": 1454,
      "峒": 1455,
      "峙": 1456,
      "峡": 1457,
      "峤": 1458,
      "峥": 1459,
      "峦": 1460,
      "峨": 1461,
      "峪": 1462,
      "峭": 1463,
      "峰": 1464,
      "峻": 1465,
      "崂": 1466,
      "崆": 1467,
      "崇": 1468,
      "崈": 1469,
      "崎": 1470,
      "崔": 1471,
      "崖": 1472,
      "崛": 1473,
      "崧": 1474,
      "崩": 1475,
      "崭": 1476,
      "崽": 1477,
      "嵇": 1478,
      "嵋": 1479,
      "嵌": 1480,
      "嵘": 1481,
      "嵩": 1482,
      "嵯": 1483,
      "嶂": 1484,
      "嶙": 1485,
      "巅": 1486,
      "巉": 1487,
      "巍": 1488,
      "川": 1489,
      "州": 1490,
      "巡": 1491,
      "巢": 1492,
      "工": 1493,
      "左": 1494,
      "巧": 1495,
      "巨": 1496,
      "巩": 1497,
      "巫": 1498,
      "差": 1499,
      "己": 1500,
      "已": 1501,
      "巳": 1502,
      "巴": 1503,
      "巷": 1504,
      "巽": 1505,
      "巾": 1506,
      "币": 1507,
      "市": 1508,
      "布": 1509,
      "帅": 1510,
      "帆": 1511,
      "师": 1512,
      "希": 1513,
      "帏": 1514,
      "帐": 1515,
      "帑": 1516,
      "帔": 1517,
      "帕": 1518,
      "帖": 1519,
      "帘": 1520,
      "帙": 1521,
      "帚": 1522,
      "帛": 1523,
      "帜": 1524,
      "帝": 1525,
      "帡": 1526,
      "带": 1527,
      "席": 1528,
      "帮": 1529,
      "帷": 1530,
      "常": 1531,
      "帼": 1532,
      "帽": 1533,
      "幄": 1534,
      "幅": 1535,
      "幌": 1536,
      "幔": 1537,
      "幕": 1538,
      "幙": 1539,
      "幛": 1540,
      "幞": 1541,
      "幡": 1542,
      "幢": 1543,
      "幪": 1544,
      "干": 1545,
      "平": 1546,
      "年": 1547,
      "并": 1548,
      "幸": 1549,
      "幺": 1550,
      "幻": 1551,
      "幼": 1552,
      "幽": 1553,
      "广": 1554,
      "庀": 1555,
      "庁": 1556,
      "庄": 1557,
      "庆": 1558,
      "庇": 1559,
      "床": 1560,
      "序": 1561,
      "庐": 1562,
      "庑": 1563,
      "库": 1564,
      "应": 1565,
      "底": 1566,
      "庖": 1567,
      "店": 1568,
      "庙": 1569,
      "庚": 1570,
      "府": 1571,
      "庞": 1572,
      "废": 1573,
      "庥": 1574,
      "度": 1575,
      "座": 1576,
      "庭": 1577,
      "庳": 1578,
      "庵": 1579,
      "庶": 1580,
      "康": 1581,
      "庸": 1582,
      "廉": 1583,
      "廊": 1584,
      "廋": 1585,
      "廑": 1586,
      "廓": 1587,
      "廖": 1588,
      "廝": 1589,
      "廢": 1590,
      "廨": 1591,
      "廪": 1592,
      "延": 1593,
      "廷": 1594,
      "建": 1595,
      "廿": 1596,
      "开": 1597,
      "弁": 1598,
      "异": 1599,
      "弃": 1600,
      "弄": 1601,
      "弈": 1602,
      "弊": 1603,
      "式": 1604,
      "弑": 1605,
      "弒": 1606,
      "弓": 1607,
      "弔": 1608,
      "引": 1609,
      "弗": 1610,
      "弘": 1611,
      "弛": 1612,
      "弟": 1613,
      "张": 1614,
      "弥": 1615,
      "弦": 1616,
      "弧": 1617,
      "弩": 1618,
      "弭": 1619,
      "弯": 1620,
      "弱": 1621,
      "強": 1622,
      "弹": 1623,
      "强": 1624,
      "弼": 1625,
      "彀": 1626,
      "彐": 1627,
      "归": 1628,
      "当": 1629,
      "录": 1630,
      "彖": 1631,
      "彗": 1632,
      "彝": 1633,
      "彡": 1634,
      "形": 1635,
      "彤": 1636,
      "彦": 1637,
      "彩": 1638,
      "彪": 1639,
      "彬": 1640,
      "彭": 1641,
      "彰": 1642,
      "影": 1643,
      "彳": 1644,
      "彷": 1645,
      "役": 1646,
      "彻": 1647,
      "彼": 1648,
      "往": 1649,
      "征": 1650,
      "径": 1651,
      "待": 1652,
      "徇": 1653,
      "很": 1654,
      "徊": 1655,
      "律": 1656,
      "徐": 1657,
      "徒": 1658,
      "徕": 1659,
      "得": 1660,
      "徘": 1661,
      "徙": 1662,
      "御": 1663,
      "徨": 1664,
      "循": 1665,
      "徬": 1666,
      "徭": 1667,
      "微": 1668,
      "徵": 1669,
      "德": 1670,
      "徽": 1671,
      "心": 1672,
      "必": 1673,
      "忆": 1674,
      "忌": 1675,
      "忍": 1676,
      "忏": 1677,
      "忐": 1678,
      "忑": 1679,
      "忒": 1680,
      "忖": 1681,
      "志": 1682,
      "忘": 1683,
      "忙": 1684,
      "忝": 1685,
      "忠": 1686,
      "忡": 1687,
      "忤": 1688,
      "忧": 1689,
      "忪": 1690,
      "快": 1691,
      "忭": 1692,
      "忱": 1693,
      "念": 1694,
      "忸": 1695,
      "忻": 1696,
      "忽": 1697,
      "忾": 1698,
      "忿": 1699,
      "怀": 1700,
      "态": 1701,
      "怂": 1702,
      "怃": 1703,
      "怄": 1704,
      "怅": 1705,
      "怆": 1706,
      "怎": 1707,
      "怏": 1708,
      "怒": 1709,
      "怔": 1710,
      "怕": 1711,
      "怖": 1712,
      "怙": 1713,
      "怛": 1714,
      "怜": 1715,
      "思": 1716,
      "怠": 1717,
      "怡": 1718,
      "急": 1719,
      "怦": 1720,
      "性": 1721,
      "怨": 1722,
      "怩": 1723,
      "怪": 1724,
      "怫": 1725,
      "怯": 1726,
      "怵": 1727,
      "总": 1728,
      "怼": 1729,
      "怿": 1730,
      "恁": 1731,
      "恂": 1732,
      "恃": 1733,
      "恋": 1734,
      "恍": 1735,
      "恐": 1736,
      "恒": 1737,
      "恕": 1738,
      "恙": 1739,
      "恚": 1740,
      "恢": 1741,
      "恣": 1742,
      "恤": 1743,
      "恨": 1744,
      "恩": 1745,
      "恪": 1746,
      "恫": 1747,
      "恬": 1748,
      "恭": 1749,
      "息": 1750,
      "恰": 1751,
      "恳": 1752,
      "恶": 1753,
      "恸": 1754,
      "恺": 1755,
      "恻": 1756,
      "恼": 1757,
      "恿": 1758,
      "悄": 1759,
      "悅": 1760,
      "悉": 1761,
      "悌": 1762,
      "悍": 1763,
      "悒": 1764,
      "悔": 1765,
      "悖": 1766,
      "悚": 1767,
      "悛": 1768,
      "悝": 1769,
      "悟": 1770,
      "悠": 1771,
      "患": 1772,
      "悦": 1773,
      "您": 1774,
      "悬": 1775,
      "悭": 1776,
      "悯": 1777,
      "悱": 1778,
      "悲": 1779,
      "悴": 1780,
      "悸": 1781,
      "悻": 1782,
      "悼": 1783,
      "悽": 1784,
      "情": 1785,
      "惆": 1786,
      "惇": 1787,
      "惊": 1788,
      "惋": 1789,
      "惑": 1790,
      "惕": 1791,
      "惘": 1792,
      "惚": 1793,
      "惜": 1794,
      "惟": 1795,
      "惠": 1796,
      "惦": 1797,
      "惧": 1798,
      "惨": 1799,
      "惩": 1800,
      "惫": 1801,
      "惬": 1802,
      "惭": 1803,
      "惮": 1804,
      "惯": 1805,
      "惰": 1806,
      "惲": 1807,
      "想": 1808,
      "惴": 1809,
      "惶": 1810,
      "惹": 1811,
      "惺": 1812,
      "愀": 1813,
      "愁": 1814,
      "愆": 1815,
      "愈": 1816,
      "愉": 1817,
      "愍": 1818,
      "愎": 1819,
      "意": 1820,
      "愕": 1821,
      "愚": 1822,
      "感": 1823,
      "愠": 1824,
      "愣": 1825,
      "愤": 1826,
      "愧": 1827,
      "愫": 1828,
      "愿": 1829,
      "慈": 1830,
      "慌": 1831,
      "慎": 1832,
      "慑": 1833,
      "慕": 1834,
      "慢": 1835,
      "慧": 1836,
      "慨": 1837,
      "慰": 1838,
      "慵": 1839,
      "慷": 1840,
      "憋": 1841,
      "憎": 1842,
      "憔": 1843,
      "憝": 1844,
      "憧": 1845,
      "憨": 1846,
      "憩": 1847,
      "憬": 1848,
      "憾": 1849,
      "懂": 1850,
      "懈": 1851,
      "應": 1852,
      "懊": 1853,
      "懋": 1854,
      "懑": 1855,
      "懒": 1856,
      "懔": 1857,
      "懦": 1858,
      "懵": 1859,
      "懿": 1860,
      "戆": 1861,
      "戈": 1862,
      "戊": 1863,
      "戋": 1864,
      "戌": 1865,
      "戍": 1866,
      "戎": 1867,
      "戏": 1868,
      "成": 1869,
      "我": 1870,
      "戒": 1871,
      "戕": 1872,
      "或": 1873,
      "战": 1874,
      "戚": 1875,
      "戛": 1876,
      "戟": 1877,
      "戢": 1878,
      "截": 1879,
      "戮": 1880,
      "戯": 1881,
      "戳": 1882,
      "戴": 1883,
      "户": 1884,
      "戾": 1885,
      "房": 1886,
      "所": 1887,
      "扁": 1888,
      "扇": 1889,
      "扈": 1890,
      "扉": 1891,
      "手": 1892,
      "才": 1893,
      "扎": 1894,
      "扑": 1895,
      "扒": 1896,
      "打": 1897,
      "扔": 1898,
      "托": 1899,
      "扛": 1900,
      "扞": 1901,
      "扣": 1902,
      "执": 1903,
      "扩": 1904,
      "扪": 1905,
      "扫": 1906,
      "扬": 1907,
      "扭": 1908,
      "扮": 1909,
      "扯": 1910,
      "扰": 1911,
      "扳": 1912,
      "扶": 1913,
      "批": 1914,
      "扼": 1915,
      "找": 1916,
      "承": 1917,
      "技": 1918,
      "抄": 1919,
      "抉": 1920,
      "把": 1921,
      "抑": 1922,
      "抒": 1923,
      "抓": 1924,
      "投": 1925,
      "抖": 1926,
      "抗": 1927,
      "折": 1928,
      "抚": 1929,
      "抛": 1930,
      "抟": 1931,
      "抡": 1932,
      "抢": 1933,
      "护": 1934,
      "报": 1935,
      "披": 1936,
      "抬": 1937,
      "抱": 1938,
      "抵": 1939,
      "抹": 1940,
      "抻": 1941,
      "押": 1942,
      "抽": 1943,
      "抿": 1944,
      "拂": 1945,
      "拄": 1946,
      "担": 1947,
      "拆": 1948,
      "拇": 1949,
      "拈": 1950,
      "拉": 1951,
      "拊": 1952,
      "拌": 1953,
      "拍": 1954,
      "拐": 1955,
      "拒": 1956,
      "拓": 1957,
      "拔": 1958,
      "拖": 1959,
      "拗": 1960,
      "拘": 1961,
      "拙": 1962,
      "拚": 1963,
      "招": 1964,
      "拜": 1965,
      "拟": 1966,
      "拢": 1967,
      "拣": 1968,
      "拥": 1969,
      "拦": 1970,
      "拧": 1971,
      "拨": 1972,
      "择": 1973,
      "拫": 1974,
      "括": 1975,
      "拭": 1976,
      "拯": 1977,
      "拱": 1978,
      "拳": 1979,
      "拴": 1980,
      "拶": 1981,
      "拷": 1982,
      "拼": 1983,
      "拽": 1984,
      "拾": 1985,
      "拿": 1986,
      "持": 1987,
      "挂": 1988,
      "指": 1989,
      "按": 1990,
      "挎": 1991,
      "挑": 1992,
      "挖": 1993,
      "挚": 1994,
      "挛": 1995,
      "挞": 1996,
      "挟": 1997,
      "挠": 1998,
      "挡": 1999,
      "挢": 2000,
      "挣": 2001,
      "挤": 2002,
      "挥": 2003,
      "挨": 2004,
      "挪": 2005,
      "挫": 2006,
      "振": 2007,
      "挲": 2008,
      "挹": 2009,
      "挺": 2010,
      "挽": 2011,
      "挾": 2012,
      "挿": 2013,
      "捂": 2014,
      "捅": 2015,
      "捆": 2016,
      "捉": 2017,
      "捋": 2018,
      "捍": 2019,
      "捎": 2020,
      "捏": 2021,
      "捐": 2022,
      "捕": 2023,
      "捞": 2024,
      "损": 2025,
      "捡": 2026,
      "换": 2027,
      "捣": 2028,
      "捤": 2029,
      "捧": 2030,
      "捨": 2031,
      "捫": 2032,
      "捭": 2033,
      "据": 2034,
      "捱": 2035,
      "捶": 2036,
      "捷": 2037,
      "捺": 2038,
      "捻": 2039,
      "捽": 2040,
      "掀": 2041,
      "掂": 2042,
      "掇": 2043,
      "授": 2044,
      "掉": 2045,
      "掊": 2046,
      "掌": 2047,
      "掏": 2048,
      "掐": 2049,
      "排": 2050,
      "掖": 2051,
      "掘": 2052,
      "掠": 2053,
      "探": 2054,
      "掣": 2055,
      "接": 2056,
      "控": 2057,
      "推": 2058,
      "掩": 2059,
      "措": 2060,
      "掬": 2061,
      "掮": 2062,
      "掰": 2063,
      "掳": 2064,
      "掴": 2065,
      "掷": 2066,
      "掸": 2067,
      "掺": 2068,
      "掼": 2069,
      "揄": 2070,
      "揆": 2071,
      "揉": 2072,
      "揍": 2073,
      "揎": 2074,
      "描": 2075,
      "提": 2076,
      "插": 2077,
      "揖": 2078,
      "換": 2079,
      "握": 2080,
      "揣": 2081,
      "揩": 2082,
      "揪": 2083,
      "揭": 2084,
      "揲": 2085,
      "援": 2086,
      "揶": 2087,
      "揸": 2088,
      "揽": 2089,
      "揿": 2090,
      "搀": 2091,
      "搁": 2092,
      "搂": 2093,
      "搅": 2094,
      "搏": 2095,
      "搐": 2096,
      "搓": 2097,
      "搔": 2098,
      "搜": 2099,
      "搞": 2100,
      "搠": 2101,
      "搢": 2102,
      "搥": 2103,
      "搦": 2104,
      "搧": 2105,
      "搪": 2106,
      "搬": 2107,
      "搭": 2108,
      "搴": 2109,
      "携": 2110,
      "搽": 2111,
      "搿": 2112,
      "摄": 2113,
      "摅": 2114,
      "摆": 2115,
      "摇": 2116,
      "摊": 2117,
      "摒": 2118,
      "摔": 2119,
      "摘": 2120,
      "摧": 2121,
      "摩": 2122,
      "摰": 2123,
      "摸": 2124,
      "摹": 2125,
      "撂": 2126,
      "撄": 2127,
      "撅": 2128,
      "撇": 2129,
      "撑": 2130,
      "撒": 2131,
      "撕": 2132,
      "撖": 2133,
      "撗": 2134,
      "撙": 2135,
      "撞": 2136,
      "撤": 2137,
      "撩": 2138,
      "撬": 2139,
      "播": 2140,
      "撮": 2141,
      "撰": 2142,
      "撵": 2143,
      "撺": 2144,
      "撼": 2145,
      "擀": 2146,
      "擁": 2147,
      "擂": 2148,
      "擅": 2149,
      "操": 2150,
      "擎": 2151,
      "擒": 2152,
      "擔": 2153,
      "擘": 2154,
      "據": 2155,
      "擞": 2156,
      "擠": 2157,
      "擤": 2158,
      "擦": 2159,
      "攀": 2160,
      "攉": 2161,
      "攒": 2162,
      "攘": 2163,
      "攞": 2164,
      "攫": 2165,
      "支": 2166,
      "收": 2167,
      "攸": 2168,
      "改": 2169,
      "攻": 2170,
      "放": 2171,
      "政": 2172,
      "敁": 2173,
      "故": 2174,
      "效": 2175,
      "敉": 2176,
      "敌": 2177,
      "敎": 2178,
      "敏": 2179,
      "救": 2180,
      "敕": 2181,
      "敖": 2182,
      "教": 2183,
      "敛": 2184,
      "敝": 2185,
      "敞": 2186,
      "敢": 2187,
      "散": 2188,
      "敦": 2189,
      "敬": 2190,
      "数": 2191,
      "敲": 2192,
      "整": 2193,
      "敷": 2194,
      "文": 2195,
      "斋": 2196,
      "斌": 2197,
      "斐": 2198,
      "斑": 2199,
      "斓": 2200,
      "斗": 2201,
      "料": 2202,
      "斛": 2203,
      "斜": 2204,
      "斟": 2205,
      "斡": 2206,
      "斤": 2207,
      "斥": 2208,
      "斧": 2209,
      "斩": 2210,
      "斫": 2211,
      "断": 2212,
      "斯": 2213,
      "新": 2214,
      "方": 2215,
      "於": 2216,
      "施": 2217,
      "旁": 2218,
      "旃": 2219,
      "旄": 2220,
      "旅": 2221,
      "旋": 2222,
      "旌": 2223,
      "旎": 2224,
      "族": 2225,
      "旒": 2226,
      "旖": 2227,
      "旗": 2228,
      "无": 2229,
      "旡": 2230,
      "既": 2231,
      "旣": 2232,
      "日": 2233,
      "旦": 2234,
      "旧": 2235,
      "旨": 2236,
      "早": 2237,
      "旬": 2238,
      "旭": 2239,
      "旰": 2240,
      "旱": 2241,
      "旲": 2242,
      "旳": 2243,
      "时": 2244,
      "旷": 2245,
      "旺": 2246,
      "昂": 2247,
      "昃": 2248,
      "昆": 2249,
      "昇": 2250,
      "昊": 2251,
      "昌": 2252,
      "明": 2253,
      "昏": 2254,
      "易": 2255,
      "昔": 2256,
      "昕": 2257,
      "昙": 2258,
      "星": 2259,
      "映": 2260,
      "春": 2261,
      "昧": 2262,
      "昨": 2263,
      "昭": 2264,
      "是": 2265,
      "昴": 2266,
      "昵": 2267,
      "昼": 2268,
      "昽": 2269,
      "显": 2270,
      "晁": 2271,
      "晃": 2272,
      "晋": 2273,
      "晌": 2274,
      "晏": 2275,
      "晒": 2276,
      "晓": 2277,
      "晕": 2278,
      "晖": 2279,
      "晗": 2280,
      "晚": 2281,
      "晞": 2282,
      "晟": 2283,
      "晡": 2284,
      "晢": 2285,
      "晤": 2286,
      "晦": 2287,
      "晨": 2288,
      "普": 2289,
      "景": 2290,
      "晰": 2291,
      "晴": 2292,
      "晶": 2293,
      "智": 2294,
      "晾": 2295,
      "暂": 2296,
      "暄": 2297,
      "暇": 2298,
      "暈": 2299,
      "暌": 2300,
      "暍": 2301,
      "暐": 2302,
      "暑": 2303,
      "暖": 2304,
      "暗": 2305,
      "暧": 2306,
      "暨": 2307,
      "暮": 2308,
      "暴": 2309,
      "暹": 2310,
      "暾": 2311,
      "曙": 2312,
      "曜": 2313,
      "曝": 2314,
      "曦": 2315,
      "曰": 2316,
      "曲": 2317,
      "曳": 2318,
      "更": 2319,
      "書": 2320,
      "曹": 2321,
      "曼": 2322,
      "曾": 2323,
      "替": 2324,
      "最": 2325,
      "會": 2326,
      "月": 2327,
      "有": 2328,
      "朋": 2329,
      "服": 2330,
      "朔": 2331,
      "朕": 2332,
      "朗": 2333,
      "望": 2334,
      "朝": 2335,
      "期": 2336,
      "朦": 2337,
      "木": 2338,
      "未": 2339,
      "末": 2340,
      "本": 2341,
      "札": 2342,
      "朮": 2343,
      "术": 2344,
      "朱": 2345,
      "朴": 2346,
      "朵": 2347,
      "机": 2348,
      "朽": 2349,
      "杀": 2350,
      "杂": 2351,
      "权": 2352,
      "杆": 2353,
      "杉": 2354,
      "李": 2355,
      "杏": 2356,
      "材": 2357,
      "村": 2358,
      "杓": 2359,
      "杖": 2360,
      "杜": 2361,
      "杞": 2362,
      "束": 2363,
      "杠": 2364,
      "条": 2365,
      "来": 2366,
      "杨": 2367,
      "杭": 2368,
      "杯": 2369,
      "杰": 2370,
      "東": 2371,
      "杲": 2372,
      "杳": 2373,
      "杵": 2374,
      "杷": 2375,
      "杼": 2376,
      "松": 2377,
      "板": 2378,
      "极": 2379,
      "构": 2380,
      "枇": 2381,
      "枉": 2382,
      "析": 2383,
      "枕": 2384,
      "林": 2385,
      "枘": 2386,
      "枚": 2387,
      "果": 2388,
      "枝": 2389,
      "枢": 2390,
      "枣": 2391,
      "枪": 2392,
      "枫": 2393,
      "枭": 2394,
      "枯": 2395,
      "枰": 2396,
      "枳": 2397,
      "架": 2398,
      "枷": 2399,
      "柄": 2400,
      "柏": 2401,
      "某": 2402,
      "染": 2403,
      "柔": 2404,
      "柘": 2405,
      "柙": 2406,
      "柚": 2407,
      "柜": 2408,
      "柝": 2409,
      "柠": 2410,
      "柢": 2411,
      "查": 2412,
      "柩": 2413,
      "柬": 2414,
      "柭": 2415,
      "柯": 2416,
      "柰": 2417,
      "柱": 2418,
      "柳": 2419,
      "柴": 2420,
      "査": 2421,
      "柽": 2422,
      "柿": 2423,
      "栀": 2424,
      "栅": 2425,
      "标": 2426,
      "栈": 2427,
      "栉": 2428,
      "栋": 2429,
      "栏": 2430,
      "树": 2431,
      "栖": 2432,
      "栗": 2433,
      "校": 2434,
      "栩": 2435,
      "株": 2436,
      "栲": 2437,
      "栴": 2438,
      "样": 2439,
      "核": 2440,
      "根": 2441,
      "栺": 2442,
      "格": 2443,
      "栽": 2444,
      "栾": 2445,
      "桀": 2446,
      "桁": 2447,
      "桂": 2448,
      "桃": 2449,
      "桅": 2450,
      "框": 2451,
      "案": 2452,
      "桉": 2453,
      "桌": 2454,
      "桐": 2455,
      "桑": 2456,
      "桓": 2457,
      "桔": 2458,
      "桕": 2459,
      "桠": 2460,
      "桢": 2461,
      "档": 2462,
      "桥": 2463,
      "桦": 2464,
      "桧": 2465,
      "桨": 2466,
      "桩": 2467,
      "桶": 2468,
      "梁": 2469,
      "梃": 2470,
      "梅": 2471,
      "梆": 2472,
      "梓": 2473,
      "梗": 2474,
      "梢": 2475,
      "梦": 2476,
      "梧": 2477,
      "梨": 2478,
      "梭": 2479,
      "梯": 2480,
      "械": 2481,
      "梳": 2482,
      "梵": 2483,
      "检": 2484,
      "棂": 2485,
      "棄": 2486,
      "棉": 2487,
      "棊": 2488,
      "棋": 2489,
      "棍": 2490,
      "棒": 2491,
      "棕": 2492,
      "棘": 2493,
      "棚": 2494,
      "棠": 2495,
      "棣": 2496,
      "森": 2497,
      "棱": 2498,
      "棵": 2499,
      "棹": 2500,
      "棺": 2501,
      "椅": 2502,
      "植": 2503,
      "椎": 2504,
      "椒": 2505,
      "椟": 2506,
      "椭": 2507,
      "椰": 2508,
      "椽": 2509,
      "椿": 2510,
      "楔": 2511,
      "楚": 2512,
      "楞": 2513,
      "楠": 2514,
      "楣": 2515,
      "楫": 2516,
      "業": 2517,
      "楷": 2518,
      "楸": 2519,
      "楹": 2520,
      "楼": 2521,
      "概": 2522,
      "榄": 2523,
      "榆": 2524,
      "榈": 2525,
      "榕": 2526,
      "榜": 2527,
      "榨": 2528,
      "榫": 2529,
      "榭": 2530,
      "榴": 2531,
      "榷": 2532,
      "榻": 2533,
      "槁": 2534,
      "槃": 2535,
      "槊": 2536,
      "槌": 2537,
      "槎": 2538,
      "槐": 2539,
      "槛": 2540,
      "槜": 2541,
      "槽": 2542,
      "槿": 2543,
      "樊": 2544,
      "樑": 2545,
      "樘": 2546,
      "標": 2547,
      "樟": 2548,
      "模": 2549,
      "横": 2550,
      "樯": 2551,
      "樱": 2552,
      "樵": 2553,
      "樽": 2554,
      "橄": 2555,
      "橇": 2556,
      "橐": 2557,
      "橘": 2558,
      "橙": 2559,
      "橛": 2560,
      "橡": 2561,
      "橥": 2562,
      "橫": 2563,
      "橱": 2564,
      "橹": 2565,
      "檀": 2566,
      "檄": 2567,
      "檎": 2568,
      "檐": 2569,
      "檬": 2570,
      "權": 2571,
      "欠": 2572,
      "次": 2573,
      "欢": 2574,
      "欣": 2575,
      "欤": 2576,
      "欧": 2577,
      "欲": 2578,
      "欸": 2579,
      "欹": 2580,
      "欺": 2581,
      "款": 2582,
      "歃": 2583,
      "歇": 2584,
      "歉": 2585,
      "歌": 2586,
      "歡": 2587,
      "止": 2588,
      "正": 2589,
      "此": 2590,
      "步": 2591,
      "武": 2592,
      "歧": 2593,
      "歪": 2594,
      "歲": 2595,
      "歹": 2596,
      "死": 2597,
      "歼": 2598,
      "殁": 2599,
      "殂": 2600,
      "殃": 2601,
      "殄": 2602,
      "殆": 2603,
      "殇": 2604,
      "殉": 2605,
      "殊": 2606,
      "残": 2607,
      "殍": 2608,
      "殒": 2609,
      "殓": 2610,
      "殖": 2611,
      "殚": 2612,
      "殡": 2613,
      "殴": 2614,
      "段": 2615,
      "殷": 2616,
      "殿": 2617,
      "毁": 2618,
      "毅": 2619,
      "毋": 2620,
      "母": 2621,
      "毎": 2622,
      "每": 2623,
      "毒": 2624,
      "毓": 2625,
      "比": 2626,
      "毕": 2627,
      "毗": 2628,
      "毙": 2629,
      "毛": 2630,
      "毡": 2631,
      "毫": 2632,
      "毯": 2633,
      "毵": 2634,
      "氅": 2635,
      "氏": 2636,
      "氐": 2637,
      "民": 2638,
      "氓": 2639,
      "气": 2640,
      "氛": 2641,
      "氤": 2642,
      "氲": 2643,
      "氳": 2644,
      "水": 2645,
      "永": 2646,
      "氺": 2647,
      "汁": 2648,
      "求": 2649,
      "汄": 2650,
      "汆": 2651,
      "汇": 2652,
      "汉": 2653,
      "汊": 2654,
      "汐": 2655,
      "汕": 2656,
      "汗": 2657,
      "汛": 2658,
      "汝": 2659,
      "汞": 2660,
      "江": 2661,
      "池": 2662,
      "污": 2663,
      "汤": 2664,
      "汨": 2665,
      "汩": 2666,
      "汪": 2667,
      "汴": 2668,
      "汸": 2669,
      "汹": 2670,
      "汽": 2671,
      "汾": 2672,
      "沁": 2673,
      "沂": 2674,
      "沃": 2675,
      "沅": 2676,
      "沈": 2677,
      "沉": 2678,
      "沌": 2679,
      "沐": 2680,
      "沓": 2681,
      "沔": 2682,
      "沖": 2683,
      "沙": 2684,
      "沛": 2685,
      "沟": 2686,
      "没": 2687,
      "沥": 2688,
      "沦": 2689,
      "沧": 2690,
      "沪": 2691,
      "沫": 2692,
      "沬": 2693,
      "沮": 2694,
      "沱": 2695,
      "河": 2696,
      "沸": 2697,
      "油": 2698,
      "治": 2699,
      "沼": 2700,
      "沽": 2701,
      "沾": 2702,
      "沿": 2703,
      "泄": 2704,
      "泅": 2705,
      "泉": 2706,
      "泊": 2707,
      "泌": 2708,
      "泓": 2709,
      "法": 2710,
      "泗": 2711,
      "泚": 2712,
      "泛": 2713,
      "泞": 2714,
      "泠": 2715,
      "泡": 2716,
      "波": 2717,
      "泣": 2718,
      "泥": 2719,
      "注": 2720,
      "泪": 2721,
      "泫": 2722,
      "泮": 2723,
      "泯": 2724,
      "泰": 2725,
      "泳": 2726,
      "泸": 2727,
      "泻": 2728,
      "泼": 2729,
      "泽": 2730,
      "泾": 2731,
      "洁": 2732,
      "洋": 2733,
      "洎": 2734,
      "洒": 2735,
      "洗": 2736,
      "洛": 2737,
      "洞": 2738,
      "津": 2739,
      "洪": 2740,
      "洱": 2741,
      "洲": 2742,
      "洵": 2743,
      "活": 2744,
      "洼": 2745,
      "洽": 2746,
      "派": 2747,
      "流": 2748,
      "浃": 2749,
      "浅": 2750,
      "浆": 2751,
      "浇": 2752,
      "浊": 2753,
      "测": 2754,
      "济": 2755,
      "浑": 2756,
      "浒": 2757,
      "浓": 2758,
      "浔": 2759,
      "浙": 2760,
      "浚": 2761,
      "浜": 2762,
      "浞": 2763,
      "浡": 2764,
      "浣": 2765,
      "浦": 2766,
      "浩": 2767,
      "浪": 2768,
      "浮": 2769,
      "浴": 2770,
      "海": 2771,
      "浸": 2772,
      "涂": 2773,
      "涅": 2774,
      "消": 2775,
      "涉": 2776,
      "涌": 2777,
      "涎": 2778,
      "涓": 2779,
      "涔": 2780,
      "涕": 2781,
      "涛": 2782,
      "涟": 2783,
      "涡": 2784,
      "涣": 2785,
      "涤": 2786,
      "润": 2787,
      "涧": 2788,
      "涨": 2789,
      "涩": 2790,
      "涮": 2791,
      "涯": 2792,
      "液": 2793,
      "涵": 2794,
      "涸": 2795,
      "涿": 2796,
      "淅": 2797,
      "淆": 2798,
      "淇": 2799,
      "淋": 2800,
      "淌": 2801,
      "淑": 2802,
      "淖": 2803,
      "淘": 2804,
      "淙": 2805,
      "淚": 2806,
      "淝": 2807,
      "淞": 2808,
      "淡": 2809,
      "淤": 2810,
      "淩": 2811,
      "淫": 2812,
      "淬": 2813,
      "淮": 2814,
      "深": 2815,
      "淳": 2816,
      "混": 2817,
      "淹": 2818,
      "添": 2819,
      "淼": 2820,
      "清": 2821,
      "渊": 2822,
      "渌": 2823,
      "渍": 2824,
      "渎": 2825,
      "渐": 2826,
      "渔": 2827,
      "渖": 2828,
      "渗": 2829,
      "渚": 2830,
      "渝": 2831,
      "渟": 2832,
      "渠": 2833,
      "渡": 2834,
      "渣": 2835,
      "渤": 2836,
      "渥": 2837,
      "温": 2838,
      "渭": 2839,
      "港": 2840,
      "渲": 2841,
      "渴": 2842,
      "游": 2843,
      "渺": 2844,
      "渾": 2845,
      "湃": 2846,
      "湍": 2847,
      "湎": 2848,
      "湖": 2849,
      "湘": 2850,
      "湛": 2851,
      "湮": 2852,
      "湲": 2853,
      "湾": 2854,
      "湿": 2855,
      "溃": 2856,
      "溅": 2857,
      "溆": 2858,
      "溉": 2859,
      "源": 2860,
      "準": 2861,
      "溜": 2862,
      "溟": 2863,
      "溢": 2864,
      "溥": 2865,
      "溧": 2866,
      "溪": 2867,
      "溯": 2868,
      "溴": 2869,
      "溶": 2870,
      "溺": 2871,
      "滁": 2872,
      "滂": 2873,
      "滇": 2874,
      "滋": 2875,
      "滑": 2876,
      "滓": 2877,
      "滔": 2878,
      "滕": 2879,
      "滚": 2880,
      "滞": 2881,
      "满": 2882,
      "滥": 2883,
      "滦": 2884,
      "滨": 2885,
      "滩": 2886,
      "滴": 2887,
      "漂": 2888,
      "漆": 2889,
      "漉": 2890,
      "漏": 2891,
      "漓": 2892,
      "演": 2893,
      "漕": 2894,
      "漠": 2895,
      "漤": 2896,
      "漩": 2897,
      "漪": 2898,
      "漫": 2899,
      "漱": 2900,
      "漳": 2901,
      "漾": 2902,
      "潇": 2903,
      "潍": 2904,
      "潘": 2905,
      "潜": 2906,
      "潞": 2907,
      "潢": 2908,
      "潦": 2909,
      "潭": 2910,
      "潮": 2911,
      "潰": 2912,
      "潸": 2913,
      "潺": 2914,
      "潼": 2915,
      "澄": 2916,
      "澈": 2917,
      "澍": 2918,
      "澎": 2919,
      "澜": 2920,
      "澡": 2921,
      "澳": 2922,
      "澶": 2923,
      "澹": 2924,
      "激": 2925,
      "濂": 2926,
      "濒": 2927,
      "濛": 2928,
      "濟": 2929,
      "濠": 2930,
      "濡": 2931,
      "濩": 2932,
      "濬": 2933,
      "濯": 2934,
      "瀑": 2935,
      "瀚": 2936,
      "瀛": 2937,
      "瀠": 2938,
      "灌": 2939,
      "灏": 2940,
      "灘": 2941,
      "火": 2942,
      "灭": 2943,
      "灯": 2944,
      "灰": 2945,
      "灵": 2946,
      "灶": 2947,
      "灸": 2948,
      "灼": 2949,
      "災": 2950,
      "灾": 2951,
      "灿": 2952,
      "炀": 2953,
      "炁": 2954,
      "炅": 2955,
      "炆": 2956,
      "炉": 2957,
      "炊": 2958,
      "炎": 2959,
      "炒": 2960,
      "炕": 2961,
      "炖": 2962,
      "炙": 2963,
      "炫": 2964,
      "炬": 2965,
      "炭": 2966,
      "炮": 2967,
      "炯": 2968,
      "炳": 2969,
      "炷": 2970,
      "炸": 2971,
      "点": 2972,
      "炼": 2973,
      "炽": 2974,
      "烁": 2975,
      "烂": 2976,
      "烈": 2977,
      "烘": 2978,
      "烙": 2979,
      "烛": 2980,
      "烜": 2981,
      "烟": 2982,
      "烤": 2983,
      "烦": 2984,
      "烧": 2985,
      "烨": 2986,
      "烩": 2987,
      "烫": 2988,
      "烬": 2989,
      "热": 2990,
      "烹": 2991,
      "烽": 2992,
      "焉": 2993,
      "焊": 2994,
      "焐": 2995,
      "焕": 2996,
      "焘": 2997,
      "焙": 2998,
      "焚": 2999,
      "焜": 3000,
      "焦": 3001,
      "焰": 3002,
      "然": 3003,
      "煅": 3004,
      "煊": 3005,
      "煌": 3006,
      "煎": 3007,
      "煜": 3008,
      "煞": 3009,
      "煤": 3010,
      "煦": 3011,
      "照": 3012,
      "煨": 3013,
      "煮": 3014,
      "煽": 3015,
      "熄": 3016,
      "熊": 3017,
      "熏": 3018,
      "熔": 3019,
      "熙": 3020,
      "熟": 3021,
      "熠": 3022,
      "熨": 3023,
      "熬": 3024,
      "熹": 3025,
      "燃": 3026,
      "燈": 3027,
      "燊": 3028,
      "燎": 3029,
      "燕": 3030,
      "燥": 3031,
      "燧": 3032,
      "燮": 3033,
      "爆": 3034,
      "爨": 3035,
      "爪": 3036,
      "爬": 3037,
      "爭": 3038,
      "爰": 3039,
      "爱": 3040,
      "爵": 3041,
      "父": 3042,
      "爷": 3043,
      "爸": 3044,
      "爹": 3045,
      "爽": 3046,
      "爿": 3047,
      "牀": 3048,
      "片": 3049,
      "版": 3050,
      "牌": 3051,
      "牒": 3052,
      "牖": 3053,
      "牙": 3054,
      "牛": 3055,
      "牟": 3056,
      "牡": 3057,
      "牢": 3058,
      "牧": 3059,
      "物": 3060,
      "牯": 3061,
      "牲": 3062,
      "牴": 3063,
      "牵": 3064,
      "特": 3065,
      "牺": 3066,
      "犀": 3067,
      "犁": 3068,
      "犄": 3069,
      "犊": 3070,
      "犍": 3071,
      "犒": 3072,
      "犟": 3073,
      "犬": 3074,
      "犯": 3075,
      "犴": 3076,
      "犵": 3077,
      "状": 3078,
      "犷": 3079,
      "犹": 3080,
      "狂": 3081,
      "狄": 3082,
      "狈": 3083,
      "狍": 3084,
      "狐": 3085,
      "狗": 3086,
      "狙": 3087,
      "狞": 3088,
      "狠": 3089,
      "狡": 3090,
      "独": 3091,
      "狭": 3092,
      "狮": 3093,
      "狯": 3094,
      "狰": 3095,
      "狱": 3096,
      "狲": 3097,
      "狳": 3098,
      "狴": 3099,
      "狷": 3100,
      "狸": 3101,
      "狺": 3102,
      "狼": 3103,
      "猄": 3104,
      "猎": 3105,
      "猕": 3106,
      "猖": 3107,
      "猗": 3108,
      "猛": 3109,
      "猜": 3110,
      "猝": 3111,
      "猡": 3112,
      "猢": 3113,
      "猥": 3114,
      "猩": 3115,
      "猪": 3116,
      "猫": 3117,
      "猬": 3118,
      "献": 3119,
      "猱": 3120,
      "猴": 3121,
      "猷": 3122,
      "猾": 3123,
      "猿": 3124,
      "獍": 3125,
      "獏": 3126,
      "獐": 3127,
      "獒": 3128,
      "獗": 3129,
      "獠": 3130,
      "獬": 3131,
      "獾": 3132,
      "玄": 3133,
      "率": 3134,
      "玉": 3135,
      "王": 3136,
      "玎": 3137,
      "玑": 3138,
      "玛": 3139,
      "玟": 3140,
      "玠": 3141,
      "玡": 3142,
      "玩": 3143,
      "玫": 3144,
      "环": 3145,
      "现": 3146,
      "玲": 3147,
      "玳": 3148,
      "玷": 3149,
      "玺": 3150,
      "玻": 3151,
      "珀": 3152,
      "珂": 3153,
      "珅": 3154,
      "珈": 3155,
      "珊": 3156,
      "珍": 3157,
      "珑": 3158,
      "珓": 3159,
      "珙": 3160,
      "珠": 3161,
      "珣": 3162,
      "珩": 3163,
      "珪": 3164,
      "班": 3165,
      "珮": 3166,
      "珰": 3167,
      "珲": 3168,
      "琀": 3169,
      "球": 3170,
      "琅": 3171,
      "理": 3172,
      "琇": 3173,
      "琉": 3174,
      "琏": 3175,
      "琐": 3176,
      "琢": 3177,
      "琤": 3178,
      "琥": 3179,
      "琦": 3180,
      "琪": 3181,
      "琮": 3182,
      "琳": 3183,
      "琴": 3184,
      "琵": 3185,
      "琶": 3186,
      "琼": 3187,
      "瑁": 3188,
      "瑕": 3189,
      "瑗": 3190,
      "瑙": 3191,
      "瑚": 3192,
      "瑛": 3193,
      "瑜": 3194,
      "瑞": 3195,
      "瑟": 3196,
      "瑮": 3197,
      "瑯": 3198,
      "瑰": 3199,
      "瑶": 3200,
      "瑷": 3201,
      "璀": 3202,
      "璃": 3203,
      "璇": 3204,
      "璈": 3205,
      "璉": 3206,
      "璋": 3207,
      "璜": 3208,
      "璞": 3209,
      "璟": 3210,
      "璠": 3211,
      "璧": 3212,
      "璨": 3213,
      "瓒": 3214,
      "瓖": 3215,
      "瓜": 3216,
      "瓢": 3217,
      "瓣": 3218,
      "瓤": 3219,
      "瓦": 3220,
      "瓮": 3221,
      "瓯": 3222,
      "瓶": 3223,
      "瓷": 3224,
      "甄": 3225,
      "甑": 3226,
      "甘": 3227,
      "甚": 3228,
      "甜": 3229,
      "生": 3230,
      "甥": 3231,
      "用": 3232,
      "甩": 3233,
      "甫": 3234,
      "甬": 3235,
      "甭": 3236,
      "田": 3237,
      "由": 3238,
      "甲": 3239,
      "申": 3240,
      "甴": 3241,
      "电": 3242,
      "甶": 3243,
      "男": 3244,
      "甸": 3245,
      "町": 3246,
      "画": 3247,
      "畀": 3248,
      "畅": 3249,
      "畋": 3250,
      "界": 3251,
      "畏": 3252,
      "畔": 3253,
      "留": 3254,
      "畚": 3255,
      "畛": 3256,
      "畜": 3257,
      "畠": 3258,
      "畤": 3259,
      "略": 3260,
      "畦": 3261,
      "番": 3262,
      "異": 3263,
      "畲": 3264,
      "畴": 3265,
      "畸": 3266,
      "畿": 3267,
      "疆": 3268,
      "疏": 3269,
      "疑": 3270,
      "疔": 3271,
      "疗": 3272,
      "疙": 3273,
      "疚": 3274,
      "疟": 3275,
      "疤": 3276,
      "疫": 3277,
      "疮": 3278,
      "疯": 3279,
      "疲": 3280,
      "疴": 3281,
      "疵": 3282,
      "疸": 3283,
      "疹": 3284,
      "疼": 3285,
      "疽": 3286,
      "疾": 3287,
      "病": 3288,
      "症": 3289,
      "痉": 3290,
      "痊": 3291,
      "痍": 3292,
      "痒": 3293,
      "痕": 3294,
      "痖": 3295,
      "痘": 3296,
      "痛": 3297,
      "痞": 3298,
      "痢": 3299,
      "痣": 3300,
      "痤": 3301,
      "痨": 3302,
      "痪": 3303,
      "痫": 3304,
      "痰": 3305,
      "痴": 3306,
      "痹": 3307,
      "痼": 3308,
      "痾": 3309,
      "瘀": 3310,
      "瘁": 3311,
      "瘅": 3312,
      "瘈": 3313,
      "瘐": 3314,
      "瘟": 3315,
      "瘠": 3316,
      "瘢": 3317,
      "瘤": 3318,
      "瘦": 3319,
      "瘩": 3320,
      "瘪": 3321,
      "瘫": 3322,
      "瘳": 3323,
      "瘴": 3324,
      "瘸": 3325,
      "瘼": 3326,
      "瘾": 3327,
      "癌": 3328,
      "癒": 3329,
      "癖": 3330,
      "癞": 3331,
      "癫": 3332,
      "癮": 3333,
      "癯": 3334,
      "癱": 3335,
      "癸": 3336,
      "登": 3337,
      "白": 3338,
      "百": 3339,
      "皁": 3340,
      "皂": 3341,
      "的": 3342,
      "皆": 3343,
      "皇": 3344,
      "皈": 3345,
      "皋": 3346,
      "皎": 3347,
      "皑": 3348,
      "皓": 3349,
      "皖": 3350,
      "皙": 3351,
      "皝": 3352,
      "皮": 3353,
      "皱": 3354,
      "皴": 3355,
      "皿": 3356,
      "盂": 3357,
      "盅": 3358,
      "盆": 3359,
      "盈": 3360,
      "益": 3361,
      "盎": 3362,
      "盏": 3363,
      "盐": 3364,
      "监": 3365,
      "盒": 3366,
      "盔": 3367,
      "盖": 3368,
      "盗": 3369,
      "盘": 3370,
      "盛": 3371,
      "盟": 3372,
      "盥": 3373,
      "盪": 3374,
      "目": 3375,
      "盯": 3376,
      "盲": 3377,
      "直": 3378,
      "相": 3379,
      "盹": 3380,
      "盼": 3381,
      "盾": 3382,
      "省": 3383,
      "眄": 3384,
      "眇": 3385,
      "眈": 3386,
      "眉": 3387,
      "看": 3388,
      "真": 3389,
      "眠": 3390,
      "眦": 3391,
      "眨": 3392,
      "眩": 3393,
      "眬": 3394,
      "眯": 3395,
      "眶": 3396,
      "眷": 3397,
      "眸": 3398,
      "眺": 3399,
      "眼": 3400,
      "着": 3401,
      "睁": 3402,
      "睇": 3403,
      "睐": 3404,
      "睑": 3405,
      "睛": 3406,
      "睡": 3407,
      "督": 3408,
      "睥": 3409,
      "睦": 3410,
      "睨": 3411,
      "睫": 3412,
      "睬": 3413,
      "睱": 3414,
      "睸": 3415,
      "睹": 3416,
      "睺": 3417,
      "睽": 3418,
      "睾": 3419,
      "睿": 3420,
      "瞄": 3421,
      "瞅": 3422,
      "瞋": 3423,
      "瞌": 3424,
      "瞎": 3425,
      "瞑": 3426,
      "瞒": 3427,
      "瞟": 3428,
      "瞠": 3429,
      "瞥": 3430,
      "瞧": 3431,
      "瞩": 3432,
      "瞪": 3433,
      "瞬": 3434,
      "瞭": 3435,
      "瞰": 3436,
      "瞳": 3437,
      "瞻": 3438,
      "瞽": 3439,
      "瞿": 3440,
      "矇": 3441,
      "矍": 3442,
      "矛": 3443,
      "矜": 3444,
      "矢": 3445,
      "矣": 3446,
      "知": 3447,
      "矩": 3448,
      "矫": 3449,
      "短": 3450,
      "矮": 3451,
      "石": 3452,
      "矶": 3453,
      "矾": 3454,
      "矿": 3455,
      "码": 3456,
      "砂": 3457,
      "砌": 3458,
      "砍": 3459,
      "砑": 3460,
      "砒": 3461,
      "研": 3462,
      "砖": 3463,
      "砚": 3464,
      "砟": 3465,
      "砥": 3466,
      "砧": 3467,
      "砭": 3468,
      "砰": 3469,
      "破": 3470,
      "砸": 3471,
      "砺": 3472,
      "砾": 3473,
      "础": 3474,
      "硃": 3475,
      "硊": 3476,
      "硎": 3477,
      "硒": 3478,
      "硕": 3479,
      "硝": 3480,
      "硫": 3481,
      "硬": 3482,
      "确": 3483,
      "碇": 3484,
      "碉": 3485,
      "碌": 3486,
      "碍": 3487,
      "碎": 3488,
      "碑": 3489,
      "碗": 3490,
      "碜": 3491,
      "碟": 3492,
      "碣": 3493,
      "碧": 3494,
      "碰": 3495,
      "碲": 3496,
      "碴": 3497,
      "碾": 3498,
      "磁": 3499,
      "磅": 3500,
      "磊": 3501,
      "磋": 3502,
      "磐": 3503,
      "磔": 3504,
      "磕": 3505,
      "磨": 3506,
      "磬": 3507,
      "磷": 3508,
      "磺": 3509,
      "磻": 3510,
      "礁": 3511,
      "礴": 3512,
      "示": 3513,
      "礼": 3514,
      "礽": 3515,
      "社": 3516,
      "祀": 3517,
      "祁": 3518,
      "祅": 3519,
      "祈": 3520,
      "祉": 3521,
      "祐": 3522,
      "祖": 3523,
      "祗": 3524,
      "祚": 3525,
      "祛": 3526,
      "祜": 3527,
      "祝": 3528,
      "神": 3529,
      "祟": 3530,
      "祠": 3531,
      "祥": 3532,
      "祧": 3533,
      "票": 3534,
      "祭": 3535,
      "祯": 3536,
      "祷": 3537,
      "祸": 3538,
      "禀": 3539,
      "禁": 3540,
      "禄": 3541,
      "禅": 3542,
      "福": 3543,
      "禔": 3544,
      "禛": 3545,
      "禧": 3546,
      "禩": 3547,
      "禳": 3548,
      "禹": 3549,
      "离": 3550,
      "禽": 3551,
      "禾": 3552,
      "禿": 3553,
      "秀": 3554,
      "私": 3555,
      "秃": 3556,
      "秆": 3557,
      "秉": 3558,
      "秋": 3559,
      "种": 3560,
      "秏": 3561,
      "科": 3562,
      "秒": 3563,
      "秕": 3564,
      "秘": 3565,
      "租": 3566,
      "秣": 3567,
      "秤": 3568,
      "秦": 3569,
      "秧": 3570,
      "秩": 3571,
      "积": 3572,
      "称": 3573,
      "移": 3574,
      "秽": 3575,
      "秾": 3576,
      "稀": 3577,
      "稃": 3578,
      "程": 3579,
      "稍": 3580,
      "税": 3581,
      "稔": 3582,
      "稗": 3583,
      "稚": 3584,
      "稠": 3585,
      "稣": 3586,
      "稳": 3587,
      "稷": 3588,
      "稻": 3589,
      "稼": 3590,
      "稽": 3591,
      "稿": 3592,
      "穆": 3593,
      "穗": 3594,
      "穠": 3595,
      "穴": 3596,
      "究": 3597,
      "穷": 3598,
      "穹": 3599,
      "空": 3600,
      "穿": 3601,
      "突": 3602,
      "窃": 3603,
      "窄": 3604,
      "窈": 3605,
      "窍": 3606,
      "窑": 3607,
      "窒": 3608,
      "窕": 3609,
      "窖": 3610,
      "窗": 3611,
      "窘": 3612,
      "窜": 3613,
      "窝": 3614,
      "窟": 3615,
      "窠": 3616,
      "窣": 3617,
      "窥": 3618,
      "窦": 3619,
      "窬": 3620,
      "窭": 3621,
      "窳": 3622,
      "窸": 3623,
      "窻": 3624,
      "窿": 3625,
      "立": 3626,
      "竒": 3627,
      "竖": 3628,
      "站": 3629,
      "竞": 3630,
      "竟": 3631,
      "章": 3632,
      "竣": 3633,
      "童": 3634,
      "竦": 3635,
      "竭": 3636,
      "端": 3637,
      "竹": 3638,
      "竺": 3639,
      "竽": 3640,
      "竿": 3641,
      "笃": 3642,
      "笄": 3643,
      "笆": 3644,
      "笈": 3645,
      "笋": 3646,
      "笏": 3647,
      "笑": 3648,
      "笔": 3649,
      "笙": 3650,
      "笛": 3651,
      "笞": 3652,
      "笠": 3653,
      "笥": 3654,
      "符": 3655,
      "笨": 3656,
      "笫": 3657,
      "第": 3658,
      "笮": 3659,
      "笳": 3660,
      "笺": 3661,
      "笼": 3662,
      "筅": 3663,
      "等": 3664,
      "筋": 3665,
      "筌": 3666,
      "筏": 3667,
      "筐": 3668,
      "筑": 3669,
      "筒": 3670,
      "答": 3671,
      "策": 3672,
      "筛": 3673,
      "筝": 3674,
      "筠": 3675,
      "筮": 3676,
      "筲": 3677,
      "筵": 3678,
      "筷": 3679,
      "筹": 3680,
      "签": 3681,
      "简": 3682,
      "箍": 3683,
      "箓": 3684,
      "箕": 3685,
      "算": 3686,
      "箜": 3687,
      "箝": 3688,
      "管": 3689,
      "箧": 3690,
      "箩": 3691,
      "箪": 3692,
      "箫": 3693,
      "箬": 3694,
      "箭": 3695,
      "箱": 3696,
      "箴": 3697,
      "箸": 3698,
      "篁": 3699,
      "篆": 3700,
      "篇": 3701,
      "篌": 3702,
      "篑": 3703,
      "篓": 3704,
      "篙": 3705,
      "篡": 3706,
      "篥": 3707,
      "篦": 3708,
      "篮": 3709,
      "篱": 3710,
      "篷": 3711,
      "篼": 3712,
      "篾": 3713,
      "簇": 3714,
      "簌": 3715,
      "簕": 3716,
      "簦": 3717,
      "簧": 3718,
      "簪": 3719,
      "簸": 3720,
      "簿": 3721,
      "籁": 3722,
      "籍": 3723,
      "籣": 3724,
      "籩": 3725,
      "米": 3726,
      "籴": 3727,
      "类": 3728,
      "粉": 3729,
      "粒": 3730,
      "粗": 3731,
      "粘": 3732,
      "粝": 3733,
      "粟": 3734,
      "粤": 3735,
      "粥": 3736,
      "粪": 3737,
      "粮": 3738,
      "粱": 3739,
      "粲": 3740,
      "粳": 3741,
      "粹": 3742,
      "粽": 3743,
      "精": 3744,
      "糅": 3745,
      "糊": 3746,
      "糕": 3747,
      "糖": 3748,
      "糙": 3749,
      "糜": 3750,
      "糟": 3751,
      "糠": 3752,
      "糯": 3753,
      "系": 3754,
      "約": 3755,
      "紊": 3756,
      "素": 3757,
      "索": 3758,
      "紧": 3759,
      "紫": 3760,
      "累": 3761,
      "細": 3762,
      "絮": 3763,
      "綜": 3764,
      "綦": 3765,
      "網": 3766,
      "緒": 3767,
      "緙": 3768,
      "締": 3769,
      "縠": 3770,
      "縣": 3771,
      "縻": 3772,
      "繁": 3773,
      "繇": 3774,
      "纂": 3775,
      "纓": 3776,
      "纔": 3777,
      "纖": 3778,
      "纛": 3779,
      "纟": 3780,
      "纠": 3781,
      "纡": 3782,
      "红": 3783,
      "纣": 3784,
      "纤": 3785,
      "纥": 3786,
      "约": 3787,
      "级": 3788,
      "纨": 3789,
      "纪": 3790,
      "纬": 3791,
      "纭": 3792,
      "纯": 3793,
      "纱": 3794,
      "纲": 3795,
      "纳": 3796,
      "纵": 3797,
      "纶": 3798,
      "纷": 3799,
      "纸": 3800,
      "纹": 3801,
      "纺": 3802,
      "纽": 3803,
      "线": 3804,
      "绁": 3805,
      "练": 3806,
      "组": 3807,
      "绅": 3808,
      "细": 3809,
      "织": 3810,
      "终": 3811,
      "绉": 3812,
      "绊": 3813,
      "绌": 3814,
      "绍": 3815,
      "绎": 3816,
      "经": 3817,
      "绐": 3818,
      "绑": 3819,
      "绒": 3820,
      "结": 3821,
      "绔": 3822,
      "绕": 3823,
      "绘": 3824,
      "给": 3825,
      "绚": 3826,
      "绛": 3827,
      "络": 3828,
      "绝": 3829,
      "绞": 3830,
      "统": 3831,
      "绡": 3832,
      "绢": 3833,
      "绣": 3834,
      "绥": 3835,
      "绦": 3836,
      "继": 3837,
      "绩": 3838,
      "绪": 3839,
      "绫": 3840,
      "续": 3841,
      "绮": 3842,
      "绯": 3843,
      "绰": 3844,
      "绳": 3845,
      "维": 3846,
      "绵": 3847,
      "绷": 3848,
      "绸": 3849,
      "绺": 3850,
      "绻": 3851,
      "综": 3852,
      "绽": 3853,
      "绾": 3854,
      "绿": 3855,
      "缀": 3856,
      "缁": 3857,
      "缄": 3858,
      "缅": 3859,
      "缆": 3860,
      "缈": 3861,
      "缉": 3862,
      "缎": 3863,
      "缒": 3864,
      "缓": 3865,
      "缔": 3866,
      "缕": 3867,
      "编": 3868,
      "缘": 3869,
      "缙": 3870,
      "缚": 3871,
      "缛": 3872,
      "缜": 3873,
      "缝": 3874,
      "缟": 3875,
      "缠": 3876,
      "缡": 3877,
      "缢": 3878,
      "缣": 3879,
      "缤": 3880,
      "缥": 3881,
      "缦": 3882,
      "缧": 3883,
      "缨": 3884,
      "缩": 3885,
      "缪": 3886,
      "缫": 3887,
      "缭": 3888,
      "缮": 3889,
      "缰": 3890,
      "缱": 3891,
      "缴": 3892,
      "缶": 3893,
      "缸": 3894,
      "缺": 3895,
      "缽": 3896,
      "罄": 3897,
      "罍": 3898,
      "罐": 3899,
      "网": 3900,
      "罔": 3901,
      "罕": 3902,
      "罗": 3903,
      "罘": 3904,
      "罚": 3905,
      "罡": 3906,
      "罢": 3907,
      "罣": 3908,
      "罩": 3909,
      "罪": 3910,
      "置": 3911,
      "罱": 3912,
      "署": 3913,
      "罴": 3914,
      "罹": 3915,
      "罾": 3916,
      "羁": 3917,
      "羊": 3918,
      "羌": 3919,
      "美": 3920,
      "羔": 3921,
      "羚": 3922,
      "羝": 3923,
      "羞": 3924,
      "羡": 3925,
      "群": 3926,
      "羯": 3927,
      "羲": 3928,
      "羸": 3929,
      "羹": 3930,
      "羽": 3931,
      "翁": 3932,
      "翅": 3933,
      "翊": 3934,
      "翌": 3935,
      "翎": 3936,
      "翔": 3937,
      "翕": 3938,
      "翘": 3939,
      "翟": 3940,
      "翠": 3941,
      "翡": 3942,
      "翦": 3943,
      "翩": 3944,
      "翰": 3945,
      "翱": 3946,
      "翳": 3947,
      "翻": 3948,
      "翼": 3949,
      "耀": 3950,
      "老": 3951,
      "考": 3952,
      "耄": 3953,
      "者": 3954,
      "耆": 3955,
      "耋": 3956,
      "而": 3957,
      "耍": 3958,
      "耐": 3959,
      "耕": 3960,
      "耗": 3961,
      "耘": 3962,
      "耙": 3963,
      "耦": 3964,
      "耨": 3965,
      "耳": 3966,
      "耶": 3967,
      "耸": 3968,
      "耻": 3969,
      "耽": 3970,
      "耿": 3971,
      "聂": 3972,
      "聆": 3973,
      "聊": 3974,
      "聋": 3975,
      "职": 3976,
      "聒": 3977,
      "联": 3978,
      "聘": 3979,
      "聚": 3980,
      "聩": 3981,
      "聪": 3982,
      "聯": 3983,
      "聰": 3984,
      "聱": 3985,
      "職": 3986,
      "聿": 3987,
      "肀": 3988,
      "肃": 3989,
      "肄": 3990,
      "肆": 3991,
      "肇": 3992,
      "肉": 3993,
      "肋": 3994,
      "肌": 3995,
      "肓": 3996,
      "肖": 3997,
      "肘": 3998,
      "肚": 3999,
      "肛": 4000,
      "肝": 4001,
      "肠": 4002,
      "股": 4003,
      "肢": 4004,
      "肤": 4005,
      "肥": 4006,
      "肩": 4007,
      "肫": 4008,
      "肮": 4009,
      "肯": 4010,
      "肱": 4011,
      "育": 4012,
      "肴": 4013,
      "肷": 4014,
      "肺": 4015,
      "肾": 4016,
      "肿": 4017,
      "胀": 4018,
      "胁": 4019,
      "胂": 4020,
      "胃": 4021,
      "胄": 4022,
      "胆": 4023,
      "背": 4024,
      "胎": 4025,
      "胖": 4026,
      "胚": 4027,
      "胛": 4028,
      "胜": 4029,
      "胞": 4030,
      "胡": 4031,
      "胤": 4032,
      "胥": 4033,
      "胦": 4034,
      "胧": 4035,
      "胨": 4036,
      "胪": 4037,
      "胫": 4038,
      "胭": 4039,
      "胯": 4040,
      "胱": 4041,
      "胳": 4042,
      "胴": 4043,
      "胶": 4044,
      "胸": 4045,
      "能": 4046,
      "脂": 4047,
      "脆": 4048,
      "脉": 4049,
      "脊": 4050,
      "脍": 4051,
      "脏": 4052,
      "脐": 4053,
      "脑": 4054,
      "脓": 4055,
      "脔": 4056,
      "脖": 4057,
      "脘": 4058,
      "脚": 4059,
      "脯": 4060,
      "脱": 4061,
      "脲": 4062,
      "脶": 4063,
      "脸": 4064,
      "脾": 4065,
      "腆": 4066,
      "腈": 4067,
      "腊": 4068,
      "腋": 4069,
      "腌": 4070,
      "腐": 4071,
      "腑": 4072,
      "腔": 4073,
      "腕": 4074,
      "腥": 4075,
      "腮": 4076,
      "腰": 4077,
      "腴": 4078,
      "腹": 4079,
      "腻": 4080,
      "腼": 4081,
      "腾": 4082,
      "腿": 4083,
      "膀": 4084,
      "膂": 4085,
      "膊": 4086,
      "膏": 4087,
      "膑": 4088,
      "膘": 4089,
      "膛": 4090,
      "膜": 4091,
      "膝": 4092,
      "膨": 4093,
      "膩": 4094,
      "膳": 4095,
      "膺": 4096,
      "膻": 4097,
      "臀": 4098,
      "臂": 4099,
      "臃": 4100,
      "臆": 4101,
      "臊": 4102,
      "臍": 4103,
      "臏": 4104,
      "臑": 4105,
      "臜": 4106,
      "臝": 4107,
      "臣": 4108,
      "臧": 4109,
      "自": 4110,
      "臬": 4111,
      "臭": 4112,
      "至": 4113,
      "致": 4114,
      "臻": 4115,
      "臼": 4116,
      "臾": 4117,
      "舀": 4118,
      "舁": 4119,
      "舂": 4120,
      "舅": 4121,
      "舆": 4122,
      "與": 4123,
      "舉": 4124,
      "舌": 4125,
      "舍": 4126,
      "舐": 4127,
      "舒": 4128,
      "舔": 4129,
      "舛": 4130,
      "舜": 4131,
      "舞": 4132,
      "舟": 4133,
      "舢": 4134,
      "舨": 4135,
      "航": 4136,
      "舫": 4137,
      "般": 4138,
      "舰": 4139,
      "舱": 4140,
      "舵": 4141,
      "舶": 4142,
      "舷": 4143,
      "舸": 4144,
      "船": 4145,
      "艄": 4146,
      "艇": 4147,
      "艘": 4148,
      "艟": 4149,
      "艨": 4150,
      "艮": 4151,
      "良": 4152,
      "艰": 4153,
      "色": 4154,
      "艳": 4155,
      "艺": 4156,
      "艽": 4157,
      "艾": 4158,
      "艿": 4159,
      "节": 4160,
      "芄": 4161,
      "芊": 4162,
      "芍": 4163,
      "芎": 4164,
      "芒": 4165,
      "芙": 4166,
      "芜": 4167,
      "芝": 4168,
      "芟": 4169,
      "芥": 4170,
      "芦": 4171,
      "芪": 4172,
      "芬": 4173,
      "芭": 4174,
      "芯": 4175,
      "花": 4176,
      "芳": 4177,
      "芷": 4178,
      "芹": 4179,
      "芽": 4180,
      "苄": 4181,
      "苇": 4182,
      "苌": 4183,
      "苍": 4184,
      "苏": 4185,
      "苑": 4186,
      "苒": 4187,
      "苓": 4188,
      "苔": 4189,
      "苕": 4190,
      "苗": 4191,
      "苛": 4192,
      "苜": 4193,
      "苞": 4194,
      "苟": 4195,
      "苢": 4196,
      "若": 4197,
      "苦": 4198,
      "苫": 4199,
      "英": 4200,
      "苹": 4201,
      "苻": 4202,
      "茁": 4203,
      "茂": 4204,
      "范": 4205,
      "茄": 4206,
      "茅": 4207,
      "茉": 4208,
      "茎": 4209,
      "茕": 4210,
      "茗": 4211,
      "茛": 4212,
      "茜": 4213,
      "茧": 4214,
      "茨": 4215,
      "茫": 4216,
      "茭": 4217,
      "茯": 4218,
      "茱": 4219,
      "茵": 4220,
      "茶": 4221,
      "茸": 4222,
      "茹": 4223,
      "荀": 4224,
      "荃": 4225,
      "荆": 4226,
      "荇": 4227,
      "草": 4228,
      "荊": 4229,
      "荏": 4230,
      "荐": 4231,
      "荑": 4232,
      "荒": 4233,
      "荔": 4234,
      "荚": 4235,
      "荜": 4236,
      "荠": 4237,
      "荡": 4238,
      "荣": 4239,
      "荤": 4240,
      "荥": 4241,
      "荦": 4242,
      "荧": 4243,
      "荪": 4244,
      "荫": 4245,
      "荮": 4246,
      "药": 4247,
      "荷": 4248,
      "荼": 4249,
      "荽": 4250,
      "莅": 4251,
      "莆": 4252,
      "莉": 4253,
      "莎": 4254,
      "莒": 4255,
      "莓": 4256,
      "莞": 4257,
      "莠": 4258,
      "莫": 4259,
      "莱": 4260,
      "莲": 4261,
      "莳": 4262,
      "获": 4263,
      "莹": 4264,
      "莺": 4265,
      "莼": 4266,
      "莽": 4267,
      "菁": 4268,
      "菅": 4269,
      "菇": 4270,
      "菊": 4271,
      "菌": 4272,
      "菏": 4273,
      "菜": 4274,
      "菠": 4275,
      "菡": 4276,
      "菩": 4277,
      "華": 4278,
      "菱": 4279,
      "菲": 4280,
      "菽": 4281,
      "萃": 4282,
      "萄": 4283,
      "萆": 4284,
      "萌": 4285,
      "萍": 4286,
      "萎": 4287,
      "萏": 4288,
      "萑": 4289,
      "萝": 4290,
      "萣": 4291,
      "萤": 4292,
      "营": 4293,
      "萦": 4294,
      "萧": 4295,
      "萨": 4296,
      "萷": 4297,
      "萼": 4298,
      "落": 4299,
      "葆": 4300,
      "著": 4301,
      "葛": 4302,
      "葡": 4303,
      "董": 4304,
      "葫": 4305,
      "葬": 4306,
      "葭": 4307,
      "葱": 4308,
      "葳": 4309,
      "葵": 4310,
      "葶": 4311,
      "葸": 4312,
      "蒂": 4313,
      "蒋": 4314,
      "蒗": 4315,
      "蒙": 4316,
      "蒜": 4317,
      "蒲": 4318,
      "蒸": 4319,
      "蒹": 4320,
      "蒺": 4321,
      "蒿": 4322,
      "蓄": 4323,
      "蓉": 4324,
      "蓑": 4325,
      "蓓": 4326,
      "蓝": 4327,
      "蓟": 4328,
      "蓦": 4329,
      "蓬": 4330,
      "蓰": 4331,
      "蓼": 4332,
      "蔑": 4333,
      "蔓": 4334,
      "蔗": 4335,
      "蔚": 4336,
      "蔡": 4337,
      "蔬": 4338,
      "蔷": 4339,
      "蔺": 4340,
      "蔼": 4341,
      "蔽": 4342,
      "蕃": 4343,
      "蕉": 4344,
      "蕊": 4345,
      "蕖": 4346,
      "蕤": 4347,
      "蕲": 4348,
      "蕴": 4349,
      "蕻": 4350,
      "蕾": 4351,
      "薄": 4352,
      "薅": 4353,
      "薇": 4354,
      "薛": 4355,
      "薨": 4356,
      "薪": 4357,
      "薮": 4358,
      "薯": 4359,
      "薰": 4360,
      "藉": 4361,
      "藏": 4362,
      "藐": 4363,
      "藓": 4364,
      "藕": 4365,
      "藜": 4366,
      "藝": 4367,
      "藤": 4368,
      "藩": 4369,
      "藻": 4370,
      "蘅": 4371,
      "蘑": 4372,
      "蘸": 4373,
      "虎": 4374,
      "虏": 4375,
      "虐": 4376,
      "虑": 4377,
      "虔": 4378,
      "虚": 4379,
      "虞": 4380,
      "虡": 4381,
      "虫": 4382,
      "虬": 4383,
      "虮": 4384,
      "虱": 4385,
      "虹": 4386,
      "虽": 4387,
      "虾": 4388,
      "蚀": 4389,
      "蚁": 4390,
      "蚂": 4391,
      "蚊": 4392,
      "蚋": 4393,
      "蚌": 4394,
      "蚓": 4395,
      "蚕": 4396,
      "蚝": 4397,
      "蚣": 4398,
      "蚤": 4399,
      "蚩": 4400,
      "蚪": 4401,
      "蚯": 4402,
      "蚱": 4403,
      "蛆": 4404,
      "蛇": 4405,
      "蛊": 4406,
      "蛋": 4407,
      "蛎": 4408,
      "蛔": 4409,
      "蛙": 4410,
      "蛛": 4411,
      "蛟": 4412,
      "蛤": 4413,
      "蛩": 4414,
      "蛭": 4415,
      "蛮": 4416,
      "蛰": 4417,
      "蛾": 4418,
      "蜀": 4419,
      "蜂": 4420,
      "蜃": 4421,
      "蜇": 4422,
      "蜈": 4423,
      "蜍": 4424,
      "蜒": 4425,
      "蜓": 4426,
      "蜗": 4427,
      "蜘": 4428,
      "蜚": 4429,
      "蜜": 4430,
      "蜞": 4431,
      "蜡": 4432,
      "蜢": 4433,
      "蜥": 4434,
      "蜩": 4435,
      "蜮": 4436,
      "蜷": 4437,
      "蜻": 4438,
      "蜾": 4439,
      "蜿": 4440,
      "蝇": 4441,
      "蝉": 4442,
      "蝌": 4443,
      "蝎": 4444,
      "蝗": 4445,
      "蝙": 4446,
      "蝠": 4447,
      "蝪": 4448,
      "蝮": 4449,
      "蝴": 4450,
      "蝶": 4451,
      "蝼": 4452,
      "螂": 4453,
      "螃": 4454,
      "螅": 4455,
      "融": 4456,
      "螓": 4457,
      "螟": 4458,
      "螫": 4459,
      "螯": 4460,
      "螳": 4461,
      "螺": 4462,
      "蟀": 4463,
      "蟆": 4464,
      "蟋": 4465,
      "蟒": 4466,
      "蟠": 4467,
      "蟹": 4468,
      "蟾": 4469,
      "蠕": 4470,
      "蠖": 4471,
      "蠡": 4472,
      "蠢": 4473,
      "蠲": 4474,
      "血": 4475,
      "衅": 4476,
      "行": 4477,
      "衍": 4478,
      "衔": 4479,
      "街": 4480,
      "衙": 4481,
      "衛": 4482,
      "衡": 4483,
      "衢": 4484,
      "衣": 4485,
      "补": 4486,
      "表": 4487,
      "衫": 4488,
      "衬": 4489,
      "衮": 4490,
      "衰": 4491,
      "衲": 4492,
      "衷": 4493,
      "衽": 4494,
      "衾": 4495,
      "衿": 4496,
      "袁": 4497,
      "袂": 4498,
      "袄": 4499,
      "袅": 4500,
      "袈": 4501,
      "袋": 4502,
      "袍": 4503,
      "袒": 4504,
      "袖": 4505,
      "袜": 4506,
      "袢": 4507,
      "袤": 4508,
      "被": 4509,
      "袭": 4510,
      "袱": 4511,
      "袴": 4512,
      "袷": 4513,
      "袼": 4514,
      "裁": 4515,
      "裂": 4516,
      "装": 4517,
      "裆": 4518,
      "裉": 4519,
      "裏": 4520,
      "裔": 4521,
      "裕": 4522,
      "裘": 4523,
      "裙": 4524,
      "裟": 4525,
      "裣": 4526,
      "裤": 4527,
      "裨": 4528,
      "裰": 4529,
      "裱": 4530,
      "裳": 4531,
      "裴": 4532,
      "裸": 4533,
      "裹": 4534,
      "裾": 4535,
      "褂": 4536,
      "褆": 4537,
      "褊": 4538,
      "褎": 4539,
      "褐": 4540,
      "褒": 4541,
      "褓": 4542,
      "褚": 4543,
      "褛": 4544,
      "褡": 4545,
      "褥": 4546,
      "褪": 4547,
      "褴": 4548,
      "褶": 4549,
      "襁": 4550,
      "襄": 4551,
      "襟": 4552,
      "襤": 4553,
      "襬": 4554,
      "西": 4555,
      "要": 4556,
      "覃": 4557,
      "覆": 4558,
      "見": 4559,
      "覦": 4560,
      "见": 4561,
      "观": 4562,
      "规": 4563,
      "觅": 4564,
      "视": 4565,
      "览": 4566,
      "觉": 4567,
      "觊": 4568,
      "觌": 4569,
      "觎": 4570,
      "觏": 4571,
      "觐": 4572,
      "觑": 4573,
      "角": 4574,
      "觔": 4575,
      "觚": 4576,
      "觜": 4577,
      "觞": 4578,
      "解": 4579,
      "觥": 4580,
      "触": 4581,
      "言": 4582,
      "訇": 4583,
      "詈": 4584,
      "詹": 4585,
      "誉": 4586,
      "誓": 4587,
      "警": 4588,
      "譬": 4589,
      "计": 4590,
      "订": 4591,
      "讣": 4592,
      "认": 4593,
      "讥": 4594,
      "讦": 4595,
      "讧": 4596,
      "讨": 4597,
      "让": 4598,
      "讪": 4599,
      "训": 4600,
      "议": 4601,
      "讯": 4602,
      "记": 4603,
      "讲": 4604,
      "讳": 4605,
      "讴": 4606,
      "讵": 4607,
      "讶": 4608,
      "讷": 4609,
      "许": 4610,
      "讹": 4611,
      "论": 4612,
      "讼": 4613,
      "讽": 4614,
      "设": 4615,
      "访": 4616,
      "诀": 4617,
      "证": 4618,
      "诂": 4619,
      "诃": 4620,
      "评": 4621,
      "诅": 4622,
      "识": 4623,
      "诈": 4624,
      "诉": 4625,
      "诊": 4626,
      "诋": 4627,
      "诌": 4628,
      "词": 4629,
      "诏": 4630,
      "译": 4631,
      "诓": 4632,
      "诔": 4633,
      "试": 4634,
      "诗": 4635,
      "诘": 4636,
      "诙": 4637,
      "诚": 4638,
      "诛": 4639,
      "话": 4640,
      "诞": 4641,
      "诡": 4642,
      "询": 4643,
      "诣": 4644,
      "诤": 4645,
      "该": 4646,
      "详": 4647,
      "诧": 4648,
      "诨": 4649,
      "诫": 4650,
      "诬": 4651,
      "语": 4652,
      "诮": 4653,
      "误": 4654,
      "诰": 4655,
      "诱": 4656,
      "诲": 4657,
      "诳": 4658,
      "说": 4659,
      "诵": 4660,
      "请": 4661,
      "诸": 4662,
      "诺": 4663,
      "读": 4664,
      "诼": 4665,
      "诽": 4666,
      "课": 4667,
      "诿": 4668,
      "谀": 4669,
      "谁": 4670,
      "调": 4671,
      "谄": 4672,
      "谅": 4673,
      "谆": 4674,
      "谈": 4675,
      "谊": 4676,
      "谋": 4677,
      "谍": 4678,
      "谎": 4679,
      "谏": 4680,
      "谐": 4681,
      "谑": 4682,
      "谒": 4683,
      "谓": 4684,
      "谕": 4685,
      "谖": 4686,
      "谗": 4687,
      "谘": 4688,
      "谙": 4689,
      "谚": 4690,
      "谛": 4691,
      "谜": 4692,
      "谢": 4693,
      "谣": 4694,
      "谤": 4695,
      "谥": 4696,
      "谦": 4697,
      "谧": 4698,
      "谨": 4699,
      "谩": 4700,
      "谪": 4701,
      "谬": 4702,
      "谭": 4703,
      "谮": 4704,
      "谱": 4705,
      "谲": 4706,
      "谴": 4707,
      "谶": 4708,
      "谷": 4709,
      "谿": 4710,
      "豁": 4711,
      "豆": 4712,
      "豉": 4713,
      "豌": 4714,
      "豕": 4715,
      "象": 4716,
      "豢": 4717,
      "豪": 4718,
      "豫": 4719,
      "豳": 4720,
      "豸": 4721,
      "豹": 4722,
      "豺": 4723,
      "貂": 4724,
      "貉": 4725,
      "貌": 4726,
      "貧": 4727,
      "貽": 4728,
      "賍": 4729,
      "賬": 4730,
      "賺": 4731,
      "贈": 4732,
      "贝": 4733,
      "贞": 4734,
      "负": 4735,
      "贡": 4736,
      "财": 4737,
      "责": 4738,
      "贤": 4739,
      "败": 4740,
      "账": 4741,
      "货": 4742,
      "质": 4743,
      "贩": 4744,
      "贪": 4745,
      "贫": 4746,
      "贬": 4747,
      "购": 4748,
      "贮": 4749,
      "贯": 4750,
      "贰": 4751,
      "贱": 4752,
      "贲": 4753,
      "贴": 4754,
      "贵": 4755,
      "贶": 4756,
      "贷": 4757,
      "贸": 4758,
      "费": 4759,
      "贺": 4760,
      "贻": 4761,
      "贼": 4762,
      "贽": 4763,
      "贾": 4764,
      "贿": 4765,
      "赀": 4766,
      "赁": 4767,
      "赂": 4768,
      "赃": 4769,
      "资": 4770,
      "赅": 4771,
      "赈": 4772,
      "赉": 4773,
      "赊": 4774,
      "赋": 4775,
      "赌": 4776,
      "赍": 4777,
      "赎": 4778,
      "赏": 4779,
      "赐": 4780,
      "赔": 4781,
      "赖": 4782,
      "赘": 4783,
      "赚": 4784,
      "赛": 4785,
      "赝": 4786,
      "赞": 4787,
      "赠": 4788,
      "赢": 4789,
      "赣": 4790,
      "赤": 4791,
      "赦": 4792,
      "赧": 4793,
      "赫": 4794,
      "赭": 4795,
      "走": 4796,
      "赳": 4797,
      "赴": 4798,
      "赵": 4799,
      "赶": 4800,
      "起": 4801,
      "趁": 4802,
      "趄": 4803,
      "超": 4804,
      "越": 4805,
      "趋": 4806,
      "趑": 4807,
      "趟": 4808,
      "趣": 4809,
      "趱": 4810,
      "足": 4811,
      "趴": 4812,
      "趵": 4813,
      "趺": 4814,
      "趾": 4815,
      "跂": 4816,
      "跃": 4817,
      "跄": 4818,
      "跇": 4819,
      "跋": 4820,
      "跌": 4821,
      "跎": 4822,
      "跑": 4823,
      "跖": 4824,
      "跗": 4825,
      "跚": 4826,
      "跛": 4827,
      "距": 4828,
      "跟": 4829,
      "跤": 4830,
      "跨": 4831,
      "跪": 4832,
      "路": 4833,
      "跳": 4834,
      "践": 4835,
      "跶": 4836,
      "跷": 4837,
      "跸": 4838,
      "跹": 4839,
      "跺": 4840,
      "跻": 4841,
      "踅": 4842,
      "踉": 4843,
      "踊": 4844,
      "踌": 4845,
      "踏": 4846,
      "踐": 4847,
      "踝": 4848,
      "踞": 4849,
      "踟": 4850,
      "踢": 4851,
      "踩": 4852,
      "踪": 4853,
      "踬": 4854,
      "踭": 4855,
      "踯": 4856,
      "踱": 4857,
      "踵": 4858,
      "踹": 4859,
      "踼": 4860,
      "踽": 4861,
      "蹁": 4862,
      "蹂": 4863,
      "蹄": 4864,
      "蹇": 4865,
      "蹈": 4866,
      "蹉": 4867,
      "蹊": 4868,
      "蹋": 4869,
      "蹑": 4870,
      "蹒": 4871,
      "蹓": 4872,
      "蹙": 4873,
      "蹚": 4874,
      "蹦": 4875,
      "蹧": 4876,
      "蹩": 4877,
      "蹬": 4878,
      "蹭": 4879,
      "蹰": 4880,
      "蹲": 4881,
      "蹴": 4882,
      "蹶": 4883,
      "蹺": 4884,
      "蹻": 4885,
      "蹿": 4886,
      "躁": 4887,
      "躅": 4888,
      "躇": 4889,
      "躏": 4890,
      "躐": 4891,
      "躝": 4892,
      "身": 4893,
      "躬": 4894,
      "躯": 4895,
      "躲": 4896,
      "躺": 4897,
      "輪": 4898,
      "车": 4899,
      "轧": 4900,
      "轨": 4901,
      "轩": 4902,
      "轫": 4903,
      "转": 4904,
      "轮": 4905,
      "软": 4906,
      "轰": 4907,
      "轲": 4908,
      "轳": 4909,
      "轴": 4910,
      "轶": 4911,
      "轸": 4912,
      "轻": 4913,
      "轼": 4914,
      "载": 4915,
      "轾": 4916,
      "轿": 4917,
      "较": 4918,
      "辄": 4919,
      "辅": 4920,
      "辆": 4921,
      "辇": 4922,
      "辈": 4923,
      "辉": 4924,
      "辍": 4925,
      "辎": 4926,
      "辏": 4927,
      "辐": 4928,
      "辑": 4929,
      "输": 4930,
      "辔": 4931,
      "辕": 4932,
      "辖": 4933,
      "辗": 4934,
      "辘": 4935,
      "辙": 4936,
      "辚": 4937,
      "辛": 4938,
      "辜": 4939,
      "辞": 4940,
      "辟": 4941,
      "辣": 4942,
      "辦": 4943,
      "辨": 4944,
      "辩": 4945,
      "辫": 4946,
      "辰": 4947,
      "辱": 4948,
      "边": 4949,
      "辽": 4950,
      "达": 4951,
      "迁": 4952,
      "迂": 4953,
      "迄": 4954,
      "迅": 4955,
      "过": 4956,
      "迈": 4957,
      "迎": 4958,
      "运": 4959,
      "近": 4960,
      "迓": 4961,
      "返": 4962,
      "迕": 4963,
      "迗": 4964,
      "还": 4965,
      "这": 4966,
      "进": 4967,
      "远": 4968,
      "违": 4969,
      "连": 4970,
      "迟": 4971,
      "迢": 4972,
      "迤": 4973,
      "迥": 4974,
      "迦": 4975,
      "迨": 4976,
      "迩": 4977,
      "迪": 4978,
      "迫": 4979,
      "迭": 4980,
      "迮": 4981,
      "述": 4982,
      "迳": 4983,
      "迴": 4984,
      "迷": 4985,
      "迸": 4986,
      "迹": 4987,
      "追": 4988,
      "退": 4989,
      "送": 4990,
      "适": 4991,
      "逃": 4992,
      "逄": 4993,
      "逅": 4994,
      "逆": 4995,
      "选": 4996,
      "逊": 4997,
      "逋": 4998,
      "逍": 4999,
      "透": 5000,
      "逐": 5001,
      "逑": 5002,
      "递": 5003,
      "途": 5004,
      "逖": 5005,
      "逗": 5006,
      "通": 5007,
      "逛": 5008,
      "逝": 5009,
      "逞": 5010,
      "速": 5011,
      "造": 5012,
      "逡": 5013,
      "逢": 5014,
      "逦": 5015,
      "逭": 5016,
      "逮": 5017,
      "週": 5018,
      "進": 5019,
      "逵": 5020,
      "逸": 5021,
      "逻": 5022,
      "逼": 5023,
      "逾": 5024,
      "遁": 5025,
      "遂": 5026,
      "遄": 5027,
      "遇": 5028,
      "遍": 5029,
      "遏": 5030,
      "遐": 5031,
      "遑": 5032,
      "遒": 5033,
      "道": 5034,
      "遗": 5035,
      "遘": 5036,
      "遛": 5037,
      "遢": 5038,
      "遣": 5039,
      "遥": 5040,
      "遨": 5041,
      "遭": 5042,
      "遮": 5043,
      "遵": 5044,
      "遽": 5045,
      "避": 5046,
      "邀": 5047,
      "邂": 5048,
      "邃": 5049,
      "邈": 5050,
      "邋": 5051,
      "邑": 5052,
      "邓": 5053,
      "邕": 5054,
      "邙": 5055,
      "邝": 5056,
      "邢": 5057,
      "那": 5058,
      "邦": 5059,
      "邪": 5060,
      "邮": 5061,
      "邯": 5062,
      "邱": 5063,
      "邵": 5064,
      "邸": 5065,
      "邺": 5066,
      "邻": 5067,
      "郁": 5068,
      "郄": 5069,
      "郅": 5070,
      "郊": 5071,
      "郎": 5072,
      "郑": 5073,
      "郝": 5074,
      "郞": 5075,
      "郡": 5076,
      "郢": 5077,
      "郧": 5078,
      "部": 5079,
      "郭": 5080,
      "郸": 5081,
      "都": 5082,
      "郾": 5083,
      "鄂": 5084,
      "鄙": 5085,
      "鄜": 5086,
      "鄱": 5087,
      "酉": 5088,
      "酊": 5089,
      "酋": 5090,
      "酌": 5091,
      "配": 5092,
      "酒": 5093,
      "酖": 5094,
      "酗": 5095,
      "酡": 5096,
      "酢": 5097,
      "酣": 5098,
      "酤": 5099,
      "酥": 5100,
      "酩": 5101,
      "酪": 5102,
      "酬": 5103,
      "酱": 5104,
      "酲": 5105,
      "酵": 5106,
      "酷": 5107,
      "酸": 5108,
      "酹": 5109,
      "酿": 5110,
      "醇": 5111,
      "醉": 5112,
      "醋": 5113,
      "醍": 5114,
      "醐": 5115,
      "醒": 5116,
      "醪": 5117,
      "醮": 5118,
      "醺": 5119,
      "釆": 5120,
      "采": 5121,
      "释": 5122,
      "釋": 5123,
      "里": 5124,
      "重": 5125,
      "野": 5126,
      "量": 5127,
      "金": 5128,
      "釓": 5129,
      "釜": 5130,
      "鉴": 5131,
      "銀": 5132,
      "銮": 5133,
      "鋪": 5134,
      "錄": 5135,
      "錯": 5136,
      "鏖": 5137,
      "鏹": 5138,
      "鑑": 5139,
      "鑨": 5140,
      "针": 5141,
      "钉": 5142,
      "钌": 5143,
      "钏": 5144,
      "钓": 5145,
      "钗": 5146,
      "钝": 5147,
      "钞": 5148,
      "钟": 5149,
      "钢": 5150,
      "钤": 5151,
      "钥": 5152,
      "钦": 5153,
      "钧": 5154,
      "钩": 5155,
      "钮": 5156,
      "钯": 5157,
      "钰": 5158,
      "钱": 5159,
      "钲": 5160,
      "钳": 5161,
      "钵": 5162,
      "钹": 5163,
      "钺": 5164,
      "钻": 5165,
      "钽": 5166,
      "钾": 5167,
      "钿": 5168,
      "铁": 5169,
      "铃": 5170,
      "铄": 5171,
      "铅": 5172,
      "铊": 5173,
      "铋": 5174,
      "铎": 5175,
      "铐": 5176,
      "铓": 5177,
      "铖": 5178,
      "铗": 5179,
      "铙": 5180,
      "铛": 5181,
      "铜": 5182,
      "铠": 5183,
      "铡": 5184,
      "铢": 5185,
      "铣": 5186,
      "铤": 5187,
      "铨": 5188,
      "铩": 5189,
      "铭": 5190,
      "铮": 5191,
      "铰": 5192,
      "铲": 5193,
      "铳": 5194,
      "铵": 5195,
      "银": 5196,
      "铸": 5197,
      "铺": 5198,
      "链": 5199,
      "铿": 5200,
      "销": 5201,
      "锁": 5202,
      "锄": 5203,
      "锅": 5204,
      "锈": 5205,
      "锉": 5206,
      "锊": 5207,
      "锋": 5208,
      "锏": 5209,
      "锐": 5210,
      "锒": 5211,
      "锗": 5212,
      "错": 5213,
      "锚": 5214,
      "锜": 5215,
      "锞": 5216,
      "锡": 5217,
      "锢": 5218,
      "锣": 5219,
      "锤": 5220,
      "锥": 5221,
      "锦": 5222,
      "锭": 5223,
      "键": 5224,
      "锯": 5225,
      "锱": 5226,
      "锲": 5227,
      "锵": 5228,
      "锹": 5229,
      "锻": 5230,
      "镀": 5231,
      "镂": 5232,
      "镅": 5233,
      "镇": 5234,
      "镊": 5235,
      "镌": 5236,
      "镔": 5237,
      "镕": 5238,
      "镖": 5239,
      "镗": 5240,
      "镛": 5241,
      "镜": 5242,
      "镞": 5243,
      "镠": 5244,
      "镣": 5245,
      "镪": 5246,
      "镫": 5247,
      "镬": 5248,
      "镭": 5249,
      "镯": 5250,
      "镰": 5251,
      "镲": 5252,
      "镳": 5253,
      "镶": 5254,
      "长": 5255,
      "間": 5256,
      "门": 5257,
      "闩": 5258,
      "闪": 5259,
      "闭": 5260,
      "问": 5261,
      "闯": 5262,
      "闰": 5263,
      "闱": 5264,
      "闲": 5265,
      "闳": 5266,
      "间": 5267,
      "闵": 5268,
      "闶": 5269,
      "闷": 5270,
      "闸": 5271,
      "闹": 5272,
      "闺": 5273,
      "闻": 5274,
      "闼": 5275,
      "闽": 5276,
      "闾": 5277,
      "阀": 5278,
      "阁": 5279,
      "阂": 5280,
      "阃": 5281,
      "阄": 5282,
      "阅": 5283,
      "阆": 5284,
      "阇": 5285,
      "阉": 5286,
      "阊": 5287,
      "阋": 5288,
      "阍": 5289,
      "阎": 5290,
      "阏": 5291,
      "阐": 5292,
      "阑": 5293,
      "阒": 5294,
      "阓": 5295,
      "阔": 5296,
      "阕": 5297,
      "阖": 5298,
      "阗": 5299,
      "阙": 5300,
      "阛": 5301,
      "阜": 5302,
      "队": 5303,
      "阪": 5304,
      "阮": 5305,
      "阱": 5306,
      "防": 5307,
      "阳": 5308,
      "阴": 5309,
      "阵": 5310,
      "阶": 5311,
      "阻": 5312,
      "阽": 5313,
      "阿": 5314,
      "陀": 5315,
      "陂": 5316,
      "附": 5317,
      "际": 5318,
      "陆": 5319,
      "陇": 5320,
      "陈": 5321,
      "陋": 5322,
      "陌": 5323,
      "降": 5324,
      "限": 5325,
      "陕": 5326,
      "陚": 5327,
      "陛": 5328,
      "陟": 5329,
      "陡": 5330,
      "院": 5331,
      "除": 5332,
      "陨": 5333,
      "险": 5334,
      "陪": 5335,
      "陲": 5336,
      "陵": 5337,
      "陶": 5338,
      "陷": 5339,
      "陸": 5340,
      "隅": 5341,
      "隆": 5342,
      "隋": 5343,
      "隍": 5344,
      "随": 5345,
      "隐": 5346,
      "隔": 5347,
      "隗": 5348,
      "隘": 5349,
      "隙": 5350,
      "障": 5351,
      "隧": 5352,
      "隰": 5353,
      "隶": 5354,
      "隼": 5355,
      "隽": 5356,
      "难": 5357,
      "雀": 5358,
      "雁": 5359,
      "雄": 5360,
      "雅": 5361,
      "集": 5362,
      "雇": 5363,
      "雉": 5364,
      "雌": 5365,
      "雍": 5366,
      "雎": 5367,
      "雏": 5368,
      "雕": 5369,
      "雜": 5370,
      "雠": 5371,
      "雨": 5372,
      "雩": 5373,
      "雪": 5374,
      "雰": 5375,
      "雳": 5376,
      "零": 5377,
      "雷": 5378,
      "雹": 5379,
      "雾": 5380,
      "需": 5381,
      "霁": 5382,
      "霄": 5383,
      "霆": 5384,
      "震": 5385,
      "霉": 5386,
      "霍": 5387,
      "霎": 5388,
      "霏": 5389,
      "霑": 5390,
      "霓": 5391,
      "霖": 5392,
      "霜": 5393,
      "霞": 5394,
      "霨": 5395,
      "霭": 5396,
      "露": 5397,
      "霸": 5398,
      "霹": 5399,
      "靂": 5400,
      "青": 5401,
      "靓": 5402,
      "靖": 5403,
      "静": 5404,
      "靛": 5405,
      "非": 5406,
      "靠": 5407,
      "靡": 5408,
      "面": 5409,
      "靥": 5410,
      "革": 5411,
      "靴": 5412,
      "靶": 5413,
      "靼": 5414,
      "鞋": 5415,
      "鞍": 5416,
      "鞑": 5417,
      "鞘": 5418,
      "鞟": 5419,
      "鞠": 5420,
      "鞭": 5421,
      "鞮": 5422,
      "鞯": 5423,
      "韦": 5424,
      "韧": 5425,
      "韩": 5426,
      "韬": 5427,
      "韭": 5428,
      "音": 5429,
      "韵": 5430,
      "韶": 5431,
      "頁": 5432,
      "頦": 5433,
      "頫": 5434,
      "頰": 5435,
      "類": 5436,
      "页": 5437,
      "顶": 5438,
      "顷": 5439,
      "顸": 5440,
      "项": 5441,
      "顺": 5442,
      "须": 5443,
      "顽": 5444,
      "顾": 5445,
      "顿": 5446,
      "颁": 5447,
      "颂": 5448,
      "颃": 5449,
      "预": 5450,
      "颅": 5451,
      "领": 5452,
      "颇": 5453,
      "颈": 5454,
      "颉": 5455,
      "颊": 5456,
      "颍": 5457,
      "颏": 5458,
      "颐": 5459,
      "频": 5460,
      "颓": 5461,
      "颔": 5462,
      "颖": 5463,
      "颗": 5464,
      "题": 5465,
      "颚": 5466,
      "颛": 5467,
      "颜": 5468,
      "额": 5469,
      "颟": 5470,
      "颠": 5471,
      "颡": 5472,
      "颤": 5473,
      "颦": 5474,
      "颧": 5475,
      "风": 5476,
      "飏": 5477,
      "飒": 5478,
      "飓": 5479,
      "飕": 5480,
      "飘": 5481,
      "飙": 5482,
      "飚": 5483,
      "飞": 5484,
      "食": 5485,
      "飧": 5486,
      "飨": 5487,
      "餍": 5488,
      "餐": 5489,
      "餘": 5490,
      "餮": 5491,
      "餺": 5492,
      "饕": 5493,
      "饥": 5494,
      "饧": 5495,
      "饨": 5496,
      "饪": 5497,
      "饬": 5498,
      "饭": 5499,
      "饮": 5500,
      "饯": 5501,
      "饰": 5502,
      "饱": 5503,
      "饲": 5504,
      "饴": 5505,
      "饵": 5506,
      "饶": 5507,
      "饷": 5508,
      "饺": 5509,
      "饼": 5510,
      "饿": 5511,
      "馀": 5512,
      "馁": 5513,
      "馄": 5514,
      "馅": 5515,
      "馆": 5516,
      "馈": 5517,
      "馋": 5518,
      "馍": 5519,
      "馏": 5520,
      "馐": 5521,
      "馒": 5522,
      "馔": 5523,
      "首": 5524,
      "馗": 5525,
      "香": 5526,
      "馥": 5527,
      "馨": 5528,
      "駿": 5529,
      "騃": 5530,
      "騎": 5531,
      "騑": 5532,
      "驊": 5533,
      "驚": 5534,
      "马": 5535,
      "驭": 5536,
      "驮": 5537,
      "驯": 5538,
      "驰": 5539,
      "驱": 5540,
      "驳": 5541,
      "驴": 5542,
      "驶": 5543,
      "驷": 5544,
      "驸": 5545,
      "驹": 5546,
      "驺": 5547,
      "驻": 5548,
      "驼": 5549,
      "驽": 5550,
      "驾": 5551,
      "驿": 5552,
      "骀": 5553,
      "骁": 5554,
      "骂": 5555,
      "骄": 5556,
      "骅": 5557,
      "骆": 5558,
      "骇": 5559,
      "骈": 5560,
      "骊": 5561,
      "骋": 5562,
      "验": 5563,
      "骎": 5564,
      "骏": 5565,
      "骐": 5566,
      "骑": 5567,
      "骒": 5568,
      "骓": 5569,
      "骗": 5570,
      "骘": 5571,
      "骚": 5572,
      "骛": 5573,
      "骜": 5574,
      "骝": 5575,
      "骞": 5576,
      "骠": 5577,
      "骡": 5578,
      "骢": 5579,
      "骤": 5580,
      "骥": 5581,
      "骧": 5582,
      "骨": 5583,
      "骯": 5584,
      "骰": 5585,
      "骱": 5586,
      "骷": 5587,
      "骸": 5588,
      "骼": 5589,
      "髀": 5590,
      "髅": 5591,
      "髓": 5592,
      "高": 5593,
      "髭": 5594,
      "髯": 5595,
      "髻": 5596,
      "鬃": 5597,
      "鬈": 5598,
      "鬓": 5599,
      "鬟": 5600,
      "鬣": 5601,
      "鬼": 5602,
      "魁": 5603,
      "魂": 5604,
      "魄": 5605,
      "魅": 5606,
      "魇": 5607,
      "魈": 5608,
      "魉": 5609,
      "魍": 5610,
      "魏": 5611,
      "魑": 5612,
      "魔": 5613,
      "魚": 5614,
      "魯": 5615,
      "鱼": 5616,
      "鲁": 5617,
      "鲈": 5618,
      "鲍": 5619,
      "鲎": 5620,
      "鲛": 5621,
      "鲜": 5622,
      "鲞": 5623,
      "鲠": 5624,
      "鲤": 5625,
      "鲨": 5626,
      "鲮": 5627,
      "鲲": 5628,
      "鲸": 5629,
      "鳃": 5630,
      "鳄": 5631,
      "鳅": 5632,
      "鳌": 5633,
      "鳍": 5634,
      "鳐": 5635,
      "鳔": 5636,
      "鳖": 5637,
      "鳝": 5638,
      "鳞": 5639,
      "鳩": 5640,
      "鶴": 5641,
      "鸟": 5642,
      "鸠": 5643,
      "鸡": 5644,
      "鸢": 5645,
      "鸣": 5646,
      "鸥": 5647,
      "鸦": 5648,
      "鸨": 5649,
      "鸩": 5650,
      "鸪": 5651,
      "鸫": 5652,
      "鸭": 5653,
      "鸯": 5654,
      "鸱": 5655,
      "鸳": 5656,
      "鸶": 5657,
      "鸷": 5658,
      "鸽": 5659,
      "鸾": 5660,
      "鸿": 5661,
      "鹁": 5662,
      "鹂": 5663,
      "鹃": 5664,
      "鹄": 5665,
      "鹅": 5666,
      "鹉": 5667,
      "鹊": 5668,
      "鹌": 5669,
      "鹏": 5670,
      "鹑": 5671,
      "鹗": 5672,
      "鹘": 5673,
      "鹜": 5674,
      "鹞": 5675,
      "鹡": 5676,
      "鹤": 5677,
      "鹦": 5678,
      "鹧": 5679,
      "鹩": 5680,
      "鹪": 5681,
      "鹫": 5682,
      "鹬": 5683,
      "鹰": 5684,
      "鹵": 5685,
      "鹿": 5686,
      "麂": 5687,
      "麇": 5688,
      "麋": 5689,
      "麒": 5690,
      "麓": 5691,
      "麖": 5692,
      "麝": 5693,
      "麟": 5694,
      "麦": 5695,
      "麵": 5696,
      "麻": 5697,
      "麾": 5698,
      "黃": 5699,
      "黄": 5700,
      "黈": 5701,
      "黎": 5702,
      "黏": 5703,
      "黑": 5704,
      "黔": 5705,
      "默": 5706,
      "黛": 5707,
      "黜": 5708,
      "黝": 5709,
      "黠": 5710,
      "黨": 5711,
      "黯": 5712,
      "黼": 5713,
      "鼋": 5714,
      "鼎": 5715,
      "鼓": 5716,
      "鼙": 5717,
      "鼠": 5718,
      "鼹": 5719,
      "鼻": 5720,
      "鼾": 5721,
      "齊": 5722,
      "齐": 5723,
      "齡": 5724,
      "齿": 5725,
      "龂": 5726,
      "龃": 5727,
      "龄": 5728,
      "龉": 5729,
      "龊": 5730,
      "龌": 5731,
      "龐": 5732,
      "龙": 5733,
      "龚": 5734,
      "龛": 5735,
      "龟": 5736,
      "﹒": 5737,
      "！": 5738,
      "（": 5739,
      "）": 5740,
      "＋": 5741,
      "，": 5742,
      "－": 5743,
      "：": 5744,
      "；": 5745,
      "？": 5746,
      "～": 5747,
      "什么": 5748,
      "说道": 5749,
      "了一": 5750,
      "自己": 5751,
      "小宝": 5752,
      "韦小宝": 5753,
      "也不": 5754,
      "一个": 5755,
      "笑道": 5756,
      "不是": 5757,
      "咱们": 5758,
      "武功": 5759,
      "令狐": 5760,
      "郭靖": 5761,
      "不知": 5762,
      "这一": 5763,
      "师父": 5764,
      "杨过": 5765,
      "一声": 5766,
      "心中": 5767,
      "令狐冲": 5768,
      "他们": 5769,
      "听得": 5770,
      "出来": 5771,
      "心想": 5772,
      "叫道": 5773,
      "无忌": 5774,
      "黄蓉": 5775,
      "兄弟": 5776,
      "两人": 5777,
      "张无忌": 5778,
      "我们": 5779,
      "如此": 5780,
      "姑娘": 5781,
      "如何": 5782,
      "弟子": 5783,
      "二人": 5784,
      "突然": 5785,
      "声道": 5786,
      "不过": 5787,
      "知道": 5788,
      "众人": 5789,
      "不能": 5790,
      "之中": 5791,
      "到了": 5792,
      "只见": 5793,
      "你们": 5794,
      "原来": 5795,
      "不敢": 5796,
      "怎么": 5797,
      "段誉": 5798,
      "不住": 5799,
      "的一声": 5800,
      "不得": 5801,
      "这里": 5802,
      "这时": 5803,
      "承志": 5804,
      "见他": 5805,
      "起来": 5806,
      "便是": 5807,
      "不可": 5808,
      "身上": 5809,
      "胡斐": 5810,
      "身子": 5811,
      "都是": 5812,
      "这么": 5813,
      "脸上": 5814,
      "问道": 5815,
      "倘若": 5816,
      "见到": 5817,
      "今日": 5818,
      "之间": 5819,
      "之后": 5820,
      "一人": 5821,
      "夫人": 5822,
      "了他": 5823,
      "功夫": 5824,
      "跟着": 5825,
      "少林": 5826,
      "天下": 5827,
      "可是": 5828,
      "左手": 5829,
      "出去": 5830,
      "伸手": 5831,
      "大哥": 5832,
      "两个": 5833,
      "袁承志": 5834,
      "这些": 5835,
      "有人": 5836,
      "爹爹": 5837,
      "当真": 5838,
      "说话": 5839,
      "之下": 5840,
      "的一": 5841,
      "三人": 5842,
      "是一": 5843,
      "喝道": 5844,
      "教主": 5845,
      "登时": 5846,
      "那人": 5847,
      "正是": 5848,
      "性命": 5849,
      "还是": 5850,
      "韦小宝道": 5851,
      "龙女": 5852,
      "长剑": 5853,
      "一笑": 5854,
      "小龙女": 5855,
      "只是": 5856,
      "大师": 5857,
      "有什么": 5858,
      "过去": 5859,
      "人家": 5860,
      "这个": 5861,
      "了几": 5862,
      "双手": 5863,
      "在地": 5864,
      "声音": 5865,
      "说着": 5866,
      "不到": 5867,
      "自然": 5868,
      "你的": 5869,
      "右手": 5870,
      "欧阳": 5871,
      "下来": 5872,
      "点头": 5873,
      "句话": 5874,
      "山派": 5875,
      "不会": 5876,
      "我的": 5877,
      "手中": 5878,
      "陈家": 5879,
      "英雄": 5880,
      "有一": 5881,
      "陈家洛": 5882,
      "剑法": 5883,
      "帮主": 5884,
      "就是": 5885,
      "住了": 5886,
      "不由": 5887,
      "他的": 5888,
      "你这": 5889,
      "难道": 5890,
      "只怕": 5891,
      "皇帝": 5892,
      "哈哈": 5893,
      "在他": 5894,
      "江湖": 5895,
      "你说": 5896,
      "上一": 5897,
      "女子": 5898,
      "这位": 5899,
      "过来": 5900,
      "哪里": 5901,
      "死了": 5902,
      "也是": 5903,
      "杀了": 5904,
      "皇上": 5905,
      "当下": 5906,
      "公子": 5907,
      "轻轻": 5908,
      "在一": 5909,
      "眼见": 5910,
      "公主": 5911,
      "也没": 5912,
      "内力": 5913,
      "心下": 5914,
      "慕容": 5915,
      "萧峰": 5916,
      "对方": 5917,
      "出手": 5918,
      "忽然": 5919,
      "上了": 5920,
      "一般": 5921,
      "给他": 5922,
      "和尚": 5923,
      "人的": 5924,
      "掌门": 5925,
      "那是": 5926,
      "厉害": 5927,
      "武林": 5928,
      "破天": 5929,
      "中的": 5930,
      "石破天": 5931,
      "先生": 5932,
      "婆婆": 5933,
      "微微": 5934,
      "地道": 5935,
      "不由得": 5936,
      "的是": 5937,
      "明白": 5938,
      "本来": 5939,
      "身来": 5940,
      "说不": 5941,
      "想到": 5942,
      "过了": 5943,
      "这是": 5944,
      "此时": 5945,
      "听到": 5946,
      "之时": 5947,
      "兵刃": 5948,
      "大叫": 5949,
      "这般": 5950,
      "不禁": 5951,
      "当即": 5952,
      "这样": 5953,
      "下去": 5954,
      "敌人": 5955,
      "上的": 5956,
      "摇头": 5957,
      "十分": 5958,
      "这小": 5959,
      "虚竹": 5960,
      "一时": 5961,
      "朋友": 5962,
      "是我": 5963,
      "那老": 5964,
      "大家": 5965,
      "的大": 5966,
      "是个": 5967,
      "只听得": 5968,
      "一阵": 5969,
      "是谁": 5970,
      "口气": 5971,
      "孩子": 5972,
      "不见": 5973,
      "这才": 5974,
      "少女": 5975,
      "了出来": 5976,
      "将他": 5977,
      "似乎": 5978,
      "之人": 5979,
      "十余": 5980,
      "胸口": 5981,
      "少年": 5982,
      "站起": 5983,
      "走到": 5984,
      "在下": 5985,
      "师兄": 5986,
      "虽然": 5987,
      "为什么": 5988,
      "长老": 5989,
      "就算": 5990,
      "蒙古": 5991,
      "许多": 5992,
      "第一": 5993,
      "心道": 5994,
      "欧阳锋": 5995,
      "两位": 5996,
      "这等": 5997,
      "在这里": 5998,
      "之事": 5999,
      "的人": 6000,
      "全身": 6001,
      "出一": 6002,
      "果然": 6003,
      "汉子": 6004,
      "后来": 6005,
      "想起": 6006,
      "狄云": 6007,
      "一惊": 6008,
      "不及": 6009,
      "低声道": 6010,
      "我不": 6011,
      "给我": 6012,
      "在地下": 6013,
      "当年": 6014,
      "只要": 6015,
      "这几": 6016,
      "不错": 6017,
      "给你": 6018,
      "大笑": 6019,
      "之极": 6020,
      "前辈": 6021,
      "他一": 6022,
      "却是": 6023,
      "丐帮": 6024,
      "太后": 6025,
      "年纪": 6026,
      "大声": 6027,
      "动手": 6028,
      "来到": 6029,
      "更加": 6030,
      "高手": 6031,
      "不肯": 6032,
      "穴道": 6033,
      "听他": 6034,
      "说得": 6035,
      "大喜": 6036,
      "七公": 6037,
      "此刻": 6038,
      "女儿": 6039,
      "为了": 6040,
      "上来": 6041,
      "甚是": 6042,
      "慢慢": 6043,
      "儿子": 6044,
      "了个": 6045,
      "只得": 6046,
      "向他": 6047,
      "这人": 6048,
      "你是": 6049,
      "立时": 6050,
      "赵敏": 6051,
      "康熙": 6052,
      "不好": 6053,
      "同时": 6054,
      "国师": 6055,
      "去了": 6056,
      "便即": 6057,
      "只觉": 6058,
      "只有": 6059,
      "没有": 6060,
      "转身": 6061,
      "不起": 6062,
      "伯通": 6063,
      "洪七公": 6064,
      "来的": 6065,
      "周伯通": 6066,
      "适才": 6067,
      "十八": 6068,
      "数十": 6069,
      "一招": 6070,
      "见她": 6071,
      "道人": 6072,
      "乔峰": 6073,
      "说了": 6074,
      "的手": 6075,
      "件事": 6076,
      "他是": 6077,
      "我一": 6078,
      "着一": 6079,
      "上前": 6080,
      "片刻": 6081,
      "在这": 6082,
      "那么": 6083,
      "不了": 6084,
      "四人": 6085,
      "因此": 6086,
      "我是": 6087,
      "怒道": 6088,
      "早已": 6089,
      "谢逊": 6090,
      "师弟": 6091,
      "师太": 6092,
      "了起来": 6093,
      "始终": 6094,
      "不群": 6095,
      "瞧瞧": 6096,
      "忽听得": 6097,
      "只听": 6098,
      "第二": 6099,
      "岳不群": 6100,
      "又道": 6101,
      "夫妇": 6102,
      "师妹": 6103,
      "抓住": 6104,
      "侍卫": 6105,
      "你不": 6106,
      "翠山": 6107,
      "黄药": 6108,
      "一齐": 6109,
      "说到": 6110,
      "黄药师": 6111,
      "否则": 6112,
      "父亲": 6113,
      "阿紫": 6114,
      "之上": 6115,
      "张翠山": 6116,
      "旁人": 6117,
      "盈盈": 6118,
      "跟我": 6119,
      "是不是": 6120,
      "不成": 6121,
      "之外": 6122,
      "怎地": 6123,
      "之意": 6124,
      "脸色": 6125,
      "银子": 6126,
      "到底": 6127,
      "之声": 6128,
      "少林寺": 6129,
      "郭襄": 6130,
      "三个": 6131,
      "的话": 6132,
      "神色": 6133,
      "其实": 6134,
      "得很": 6135,
      "回来": 6136,
      "师哥": 6137,
      "阿朱": 6138,
      "怎样": 6139,
      "派的": 6140,
      "哥哥": 6141,
      "武当": 6142,
      "师叔": 6143,
      "跟你": 6144,
      "放在": 6145,
      "立即": 6146,
      "一名": 6147,
      "半点": 6148,
      "眼前": 6149,
      "此人": 6150,
      "各人": 6151,
      "妈妈": 6152,
      "随即": 6153,
      "人人": 6154,
      "但见": 6155,
      "不动": 6156,
      "了这": 6157,
      "于是": 6158,
      "却又": 6159,
      "还有": 6160,
      "居然": 6161,
      "莫愁": 6162,
      "缓缓": 6163,
      "李莫愁": 6164,
      "终于": 6165,
      "大的": 6166,
      "了一声": 6167,
      "两名": 6168,
      "丈夫": 6169,
      "身后": 6170,
      "不出": 6171,
      "不少": 6172,
      "哪知": 6173,
      "暗暗": 6174,
      "王爷": 6175,
      "清楚": 6176,
      "进来": 6177,
      "丝毫": 6178,
      "难以": 6179,
      "不同": 6180,
      "大人": 6181,
      "老人家": 6182,
      "的小": 6183,
      "内功": 6184,
      "吴三": 6185,
      "头来": 6186,
      "并不": 6187,
      "群雄": 6188,
      "了一会": 6189,
      "吴三桂": 6190,
      "言语": 6191,
      "不用": 6192,
      "点了": 6193,
      "见过": 6194,
      "东西": 6195,
      "有的": 6196,
      "那少女": 6197,
      "眼睛": 6198,
      "却也": 6199,
      "青青": 6200,
      "平之": 6201,
      "了我": 6202,
      "满脸": 6203,
      "好了": 6204,
      "是什么": 6205,
      "之前": 6206,
      "手指": 6207,
      "吩咐": 6208,
      "肩头": 6209,
      "语嫣": 6210,
      "徐天": 6211,
      "你一": 6212,
      "的事": 6213,
      "哈哈大笑": 6214,
      "灵珊": 6215,
      "之处": 6216,
      "出了": 6217,
      "七八": 6218,
      "跟他": 6219,
      "此事": 6220,
      "未必": 6221,
      "欢喜": 6222,
      "走了": 6223,
      "实在": 6224,
      "大伙": 6225,
      "林平之": 6226,
      "江湖上": 6227,
      "定是": 6228,
      "岳灵珊": 6229,
      "令狐冲道": 6230,
      "多半": 6231,
      "王语嫣": 6232,
      "提起": 6233,
      "各位": 6234,
      "芷若": 6235,
      "完颜": 6236,
      "几个": 6237,
      "身边": 6238,
      "忍不住": 6239,
      "叫做": 6240,
      "脚步": 6241,
      "鲜血": 6242,
      "上去": 6243,
      "之际": 6244,
      "说什么": 6245,
      "只道": 6246,
      "口中": 6247,
      "有些": 6248,
      "要是": 6249,
      "手下": 6250,
      "慕容复": 6251,
      "一动": 6252,
      "大侠": 6253,
      "奇怪": 6254,
      "子的": 6255,
      "手臂": 6256,
      "了得": 6257,
      "回头": 6258,
      "见了": 6259,
      "身旁": 6260,
      "模样": 6261,
      "站在": 6262,
      "答应": 6263,
      "声响": 6264,
      "便在": 6265,
      "全真": 6266,
      "突然间": 6267,
      "不再": 6268,
      "那个": 6269,
      "一直": 6270,
      "郭芙": 6271,
      "站起身来": 6272,
      "一条": 6273,
      "大事": 6274,
      "瞧着": 6275,
      "了口气": 6276,
      "太监": 6277,
      "开了": 6278,
      "转头": 6279,
      "一怔": 6280,
      "其中": 6281,
      "年来": 6282,
      "处机": 6283,
      "明教": 6284,
      "手掌": 6285,
      "正要": 6286,
      "丘处机": 6287,
      "成了": 6288,
      "怎能": 6289,
      "啊哟": 6290,
      "暗器": 6291,
      "叫我": 6292,
      "当时": 6293,
      "二十": 6294,
      "又是": 6295,
      "齐声": 6296,
      "名字": 6297,
      "已然": 6298,
      "地下": 6299,
      "微笑道": 6300,
      "坐在": 6301,
      "好好": 6302,
      "寻思": 6303,
      "大伙儿": 6304,
      "孩儿": 6305,
      "三十": 6306,
      "真的": 6307,
      "远远": 6308,
      "现下": 6309,
      "自是": 6310,
      "小子": 6311,
      "段正": 6312,
      "背上": 6313,
      "一面": 6314,
      "可惜": 6315,
      "再也": 6316,
      "再说": 6317,
      "却不": 6318,
      "以为": 6319,
      "何况": 6320,
      "听了": 6321,
      "你要": 6322,
      "姊姊": 6323,
      "裘千": 6324,
      "周芷若": 6325,
      "干什么": 6326,
      "下了": 6327,
      "刚才": 6328,
      "受伤": 6329,
      "半晌": 6330,
      "不多": 6331,
      "将军": 6332,
      "中了": 6333,
      "我也": 6334,
      "的武功": 6335,
      "那时": 6336,
      "天地": 6337,
      "便要": 6338,
      "古怪": 6339,
      "很好": 6340,
      "母亲": 6341,
      "一会": 6342,
      "真是": 6343,
      "又有": 6344,
      "了一眼": 6345,
      "不如": 6346,
      "头上": 6347,
      "只不过": 6348,
      "回去": 6349,
      "程灵": 6350,
      "不免": 6351,
      "身前": 6352,
      "须得": 6353,
      "法子": 6354,
      "老子": 6355,
      "是你": 6356,
      "微微一笑": 6357,
      "程灵素": 6358,
      "段正淳": 6359,
      "看来": 6360,
      "召重": 6361,
      "向前": 6362,
      "武林中": 6363,
      "老爷": 6364,
      "老者": 6365,
      "这么一": 6366,
      "我要": 6367,
      "而出": 6368,
      "张召重": 6369,
      "觉得": 6370,
      "一路": 6371,
      "总是": 6372,
      "了两": 6373,
      "大声道": 6374,
      "头顶": 6375,
      "不要": 6376,
      "掌力": 6377,
      "得罪": 6378,
      "面前": 6379,
      "我这": 6380,
      "大有": 6381,
      "报仇": 6382,
      "知他": 6383,
      "摇头道": 6384,
      "华山": 6385,
      "多谢": 6386,
      "进去": 6387,
      "何必": 6388,
      "婉清": 6389,
      "木婉清": 6390,
      "好生": 6391,
      "打得": 6392,
      "着他": 6393,
      "了你": 6394,
      "倒也": 6395,
      "吃了一": 6396,
      "十二": 6397,
      "大汉": 6398,
      "黄蓉道": 6399,
      "不料": 6400,
      "无不": 6401,
      "田伯": 6402,
      "大理": 6403,
      "纷纷": 6404,
      "和他": 6405,
      "多少": 6406,
      "容易": 6407,
      "招数": 6408,
      "不相": 6409,
      "急忙": 6410,
      "是以": 6411,
      "了下来": 6412,
      "仪琳": 6413,
      "武学": 6414,
      "怀中": 6415,
      "给人": 6416,
      "江南": 6417,
      "一步": 6418,
      "头陀": 6419,
      "好汉": 6420,
      "指点": 6421,
      "那女": 6422,
      "下的": 6423,
      "这次": 6424,
      "叹了口气": 6425,
      "时辰": 6426,
      "这件事": 6427,
      "听说": 6428,
      "背后": 6429,
      "取出": 6430,
      "向后": 6431,
      "手腕": 6432,
      "田伯光": 6433,
      "吓得": 6434,
      "阿珂": 6435,
      "答允": 6436,
      "回到": 6437,
      "在她": 6438,
      "我去": 6439,
      "华山派": 6440,
      "四个": 6441,
      "双儿": 6442,
      "不知道": 6443,
      "地方": 6444,
      "转过": 6445,
      "自己的": 6446,
      "是他": 6447,
      "小心": 6448,
      "我可": 6449,
      "骂道": 6450,
      "舵主": 6451,
      "掌门人": 6452,
      "料想": 6453,
      "有个": 6454,
      "忙道": 6455,
      "无法": 6456,
      "也不敢": 6457,
      "了出去": 6458,
      "得多": 6459,
      "在一起": 6460,
      "向来": 6461,
      "小人": 6462,
      "群豪": 6463,
      "一刀": 6464,
      "渐渐": 6465,
      "而去": 6466,
      "隐隐": 6467,
      "躬身": 6468,
      "徐天宏": 6469,
      "师伯": 6470,
      "无双": 6471,
      "那姓": 6472,
      "心中一": 6473,
      "一只": 6474,
      "不愿": 6475,
      "方丈": 6476,
      "道长": 6477,
      "的声音": 6478,
      "这一招": 6479,
      "衣衫": 6480,
      "无人": 6481,
      "冷笑道": 6482,
      "背心": 6483,
      "一定": 6484,
      "又想": 6485,
      "沉吟": 6486,
      "青桐": 6487,
      "郭靖道": 6488,
      "也已": 6489,
      "本事": 6490,
      "不在": 6491,
      "了一个": 6492,
      "一起": 6493,
      "兀自": 6494,
      "老公": 6495,
      "个个": 6496,
      "耶律": 6497,
      "霍青桐": 6498,
      "不对": 6499,
      "房中": 6500,
      "叫他": 6501,
      "暗中": 6502,
      "桃花": 6503,
      "百姓": 6504,
      "不必": 6505,
      "对付": 6506,
      "大惊": 6507,
      "从来": 6508,
      "香主": 6509,
      "这一下": 6510,
      "点了点头": 6511,
      "低声": 6512,
      "小小": 6513,
      "满了": 6514,
      "吃了一惊": 6515,
      "我说": 6516,
      "我爹爹": 6517,
      "望着": 6518,
      "这两": 6519,
      "爷爷": 6520,
      "你去": 6521,
      "得到": 6522,
      "杀人": 6523,
      "这小子": 6524,
      "生怕": 6525,
      "佩服": 6526,
      "妹子": 6527,
      "来了": 6528,
      "就此": 6529,
      "第三": 6530,
      "那些": 6531,
      "不论": 6532,
      "走进": 6533,
      "只好": 6534,
      "门外": 6535,
      "喜欢": 6536,
      "并无": 6537,
      "良久": 6538,
      "一片": 6539,
      "功力": 6540,
      "大怒": 6541,
      "心头": 6542,
      "日后": 6543,
      "罗刹": 6544,
      "一位": 6545,
      "他说": 6546,
      "张三": 6547,
      "是啊": 6548,
      "重伤": 6549,
      "她的": 6550,
      "得了": 6551,
      "得紧": 6552,
      "相救": 6553,
      "魔教": 6554,
      "我就": 6555,
      "确是": 6556,
      "便道": 6557,
      "只须": 6558,
      "官兵": 6559,
      "也不知": 6560,
      "可以": 6561,
      "除了": 6562,
      "他在": 6563,
      "分别": 6564,
      "说不定": 6565,
      "北京": 6566,
      "左右": 6567,
      "我师父": 6568,
      "来越": 6569,
      "神情": 6570,
      "中原": 6571,
      "胡说": 6572,
      "入了": 6573,
      "手里": 6574,
      "当然": 6575,
      "桌上": 6576,
      "放心": 6577,
      "越来越": 6578,
      "单刀": 6579,
      "四下": 6580,
      "晚辈": 6581,
      "最后": 6582,
      "正在": 6583,
      "感激": 6584,
      "也不能": 6585,
      "欧阳克": 6586,
      "的好": 6587,
      "磕头": 6588,
      "轻功": 6589,
      "石清": 6590,
      "重重": 6591,
      "张无忌道": 6592,
      "时候": 6593,
      "冷冷": 6594,
      "一个人": 6595,
      "一张": 6596,
      "乾隆": 6597,
      "请你": 6598,
      "说不出": 6599,
      "义父": 6600,
      "当日": 6601,
      "文泰": 6602,
      "腰间": 6603,
      "已经": 6604,
      "显是": 6605,
      "那也": 6606,
      "那就": 6607,
      "一点": 6608,
      "王府": 6609,
      "鞑子": 6610,
      "决不": 6611,
      "双掌": 6612,
      "干吗": 6613,
      "还不": 6614,
      "叹道": 6615,
      "生死": 6616,
      "露出": 6617,
      "杨过道": 6618,
      "了过去": 6619,
      "纵身": 6620,
      "将她": 6621,
      "一掌": 6622,
      "对手": 6623,
      "反而": 6624,
      "解药": 6625,
      "鸠摩": 6626,
      "奴才": 6627,
      "小姐": 6628,
      "童姥": 6629,
      "给她": 6630,
      "鸠摩智": 6631,
      "男子": 6632,
      "那日": 6633,
      "前来": 6634,
      "所在": 6635,
      "先前": 6636,
      "理会": 6637,
      "为人": 6638,
      "但他": 6639,
      "世上": 6640,
      "让他": 6641,
      "何以": 6642,
      "余鱼": 6643,
      "异常": 6644,
      "镇恶": 6645,
      "心里": 6646,
      "尽数": 6647,
      "左掌": 6648,
      "竟是": 6649,
      "骆冰": 6650,
      "点头道": 6651,
      "文泰来": 6652,
      "一把": 6653,
      "并非": 6654,
      "走出": 6655,
      "匕首": 6656,
      "用力": 6657,
      "余鱼同": 6658,
      "主意": 6659,
      "柯镇恶": 6660,
      "嘿嘿": 6661,
      "神功": 6662,
      "大吃": 6663,
      "跃起": 6664,
      "伸出": 6665,
      "起了": 6666,
      "闪避": 6667,
      "决计": 6668,
      "在此": 6669,
      "素素": 6670,
      "前面": 6671,
      "比武": 6672,
      "是好": 6673,
      "一眼": 6674,
      "以后": 6675,
      "然道": 6676,
      "便如": 6677,
      "在我": 6678,
      "老大": 6679,
      "叫你": 6680,
      "还没": 6681,
      "少林派": 6682,
      "丁不": 6683,
      "姑姑": 6684,
      "其余": 6685,
      "而来": 6686,
      "受了": 6687,
      "一句": 6688,
      "害怕": 6689,
      "我便": 6690,
      "走近": 6691,
      "为难": 6692,
      "双目": 6693,
      "接过": 6694,
      "空中": 6695,
      "恒山派": 6696,
      "无比": 6697,
      "这番": 6698,
      "若不是": 6699,
      "劲力": 6700,
      "殷素素": 6701,
      "中间": 6702,
      "师姊": 6703,
      "父母": 6704,
      "相助": 6705,
      "一见": 6706,
      "周绮": 6707,
      "苗人": 6708,
      "我行": 6709,
      "万万": 6710,
      "错了": 6711,
      "一股": 6712,
      "不去": 6713,
      "指着": 6714,
      "全无": 6715,
      "又惊": 6716,
      "红花": 6717,
      "终究": 6718,
      "南海": 6719,
      "有何": 6720,
      "眼光": 6721,
      "一块": 6722,
      "后面": 6723,
      "寻常": 6724,
      "得他": 6725,
      "生平": 6726,
      "陆无双": 6727,
      "两银子": 6728,
      "老婆": 6729,
      "杨逍": 6730,
      "衣服": 6731,
      "那老者": 6732,
      "其时": 6733,
      "总舵主": 6734,
      "天地会": 6735,
      "大吃一惊": 6736,
      "人物": 6737,
      "大为": 6738,
      "白衣": 6739,
      "这几句话": 6740,
      "吃了": 6741,
      "聪明": 6742,
      "这句话": 6743,
      "之色": 6744,
      "奶奶": 6745,
      "我和": 6746,
      "说的": 6747,
      "五岳": 6748,
      "说是": 6749,
      "意思": 6750,
      "目光": 6751,
      "不许": 6752,
      "悄悄": 6753,
      "海老公": 6754,
      "的道": 6755,
      "做了": 6756,
      "奇道": 6757,
      "害死": 6758,
      "是否": 6759,
      "那小": 6760,
      "有了": 6761,
      "说到这里": 6762,
      "峨嵋": 6763,
      "显然": 6764,
      "清兵": 6765,
      "你也": 6766,
      "定要": 6767,
      "任我行": 6768,
      "你可": 6769,
      "半山": 6770,
      "霎时": 6771,
      "东方": 6772,
      "发出": 6773,
      "向问": 6774,
      "向问天": 6775,
      "契丹": 6776,
      "对他": 6777,
      "得意": 6778,
      "明明": 6779,
      "超风": 6780,
      "却已": 6781,
      "客气": 6782,
      "早就": 6783,
      "经书": 6784,
      "菲青": 6785,
      "陆菲青": 6786,
      "八道": 6787,
      "公公": 6788,
      "到他": 6789,
      "想不到": 6790,
      "担心": 6791,
      "说来": 6792,
      "一剑": 6793,
      "家伙": 6794,
      "这老": 6795,
      "无礼": 6796,
      "游坦": 6797,
      "苗人凤": 6798,
      "沅芷": 6799,
      "说过": 6800,
      "我在": 6801,
      "一听": 6802,
      "了三": 6803,
      "相公": 6804,
      "中国": 6805,
      "手上": 6806,
      "游坦之": 6807,
      "是在": 6808,
      "梅超风": 6809,
      "要紧": 6810,
      "下山": 6811,
      "主人": 6812,
      "众位": 6813,
      "脑袋": 6814,
      "那可": 6815,
      "身形": 6816,
      "年轻": 6817,
      "怎会": 6818,
      "一灯": 6819,
      "听她": 6820,
      "李沅芷": 6821,
      "汉人": 6822,
      "一下": 6823,
      "实是": 6824,
      "罢了": 6825,
      "又惊又": 6826,
      "也都": 6827,
      "你别": 6828,
      "地里": 6829,
      "大厅": 6830,
      "尚未": 6831,
      "志敬": 6832,
      "庄主": 6833,
      "有点": 6834,
      "规矩": 6835,
      "也就": 6836,
      "氏兄弟": 6837,
      "你瞧": 6838,
      "赵半山": 6839,
      "不久": 6840,
      "五人": 6841,
      "只盼": 6842,
      "才是": 6843,
      "然不": 6844,
      "胡说八道": 6845,
      "对我": 6846,
      "赵志敬": 6847,
      "之心": 6848,
      "也好": 6849,
      "小弟": 6850,
      "待得": 6851,
      "甚为": 6852,
      "而已": 6853,
      "下手": 6854,
      "喇嘛": 6855,
      "等人": 6856,
      "连连": 6857,
      "属下": 6858,
      "什么事": 6859,
      "不上": 6860,
      "也不会": 6861,
      "段誉道": 6862,
      "从此": 6863,
      "冷禅": 6864,
      "左冷禅": 6865,
      "镖局": 6866,
      "青城": 6867,
      "红花会": 6868,
      "武艺": 6869,
      "真气": 6870,
      "鳌拜": 6871,
      "桃花岛": 6872,
      "春秋": 6873,
      "杨康": 6874,
      "将来": 6875,
      "鳄神": 6876,
      "陈家洛道": 6877,
      "胡子": 6878,
      "这许多": 6879,
      "不多时": 6880,
      "南海鳄神": 6881,
      "克塽": 6882,
      "妈的": 6883,
      "本门": 6884,
      "公孙": 6885,
      "再来": 6886,
      "回答": 6887,
      "生气": 6888,
      "真经": 6889,
      "之力": 6890,
      "从未": 6891,
      "毒手": 6892,
      "一样": 6893,
      "之情": 6894,
      "住他": 6895,
      "妻子": 6896,
      "血刀": 6897,
      "四名": 6898,
      "看得": 6899,
      "更是": 6900,
      "干净": 6901,
      "的了": 6902,
      "近南": 6903,
      "门下": 6904,
      "三位": 6905,
      "糊涂": 6906,
      "而行": 6907,
      "郑克塽": 6908,
      "一生": 6909,
      "头发": 6910,
      "若不": 6911,
      "下马": 6912,
      "陈近南": 6913,
      "伤了": 6914,
      "哼了一声": 6915,
      "行礼": 6916,
      "想来": 6917,
      "抵挡": 6918,
      "文秀": 6919,
      "不定": 6920,
      "刀法": 6921,
      "永远": 6922,
      "伯伯": 6923,
      "逃走": 6924,
      "钟灵": 6925,
      "要杀": 6926,
      "了半": 6927,
      "紫衣": 6928,
      "低头": 6929,
      "此处": 6930,
      "那里": 6931,
      "别人": 6932,
      "千万": 6933,
      "奔到": 6934,
      "武士": 6935,
      "动弹": 6936,
      "叫化": 6937,
      "都已": 6938,
      "客店": 6939,
      "数百": 6940,
      "镖头": 6941,
      "门口": 6942,
      "张三丰": 6943,
      "老头": 6944,
      "丁春秋": 6945,
      "到处": 6946,
      "剑尖": 6947,
      "到得": 6948,
      "十年": 6949,
      "微笑": 6950,
      "相貌": 6951,
      "这些人": 6952,
      "跟你说": 6953,
      "了下去": 6954,
      "拔出": 6955,
      "举起": 6956,
      "丁珰": 6957,
      "不便": 6958,
      "剑谱": 6959,
      "竟然": 6960,
      "若非": 6961,
      "裘千仞": 6962,
      "万剑": 6963,
      "中人": 6964,
      "剑招": 6965,
      "喝酒": 6966,
      "大师哥": 6967,
      "最好": 6968,
      "然后": 6969,
      "接着": 6970,
      "然而": 6971,
      "力气": 6972,
      "嘻嘻": 6973,
      "李文秀": 6974,
      "正自": 6975,
      "一言": 6976,
      "师娘": 6977,
      "自行": 6978,
      "突然之间": 6979,
      "脾气": 6980,
      "定然": 6981,
      "小师妹": 6982,
      "身材": 6983,
      "一口": 6984,
      "包不同": 6985,
      "右掌": 6986,
      "的情": 6987,
      "袁紫衣": 6988,
      "险些": 6989,
      "颇有": 6990,
      "一指": 6991,
      "光明": 6992,
      "回过": 6993,
      "避开": 6994,
      "只因": 6995,
      "向西": 6996,
      "均想": 6997,
      "大半": 6998,
      "得知": 6999,
      "眼中": 7000,
      "颇为": 7001,
      "好笑": 7002,
      "将我": 7003,
      "我来": 7004,
      "施展": 7005,
      "毫不": 7006,
      "顷刻": 7007,
      "号令": 7008,
      "和我": 7009,
      "喜道": 7010,
      "灭绝": 7011,
      "言道": 7012,
      "心念": 7013,
      "记得": 7014,
      "不但": 7015,
      "两步": 7016,
      "是了": 7017,
      "行事": 7018,
      "冷冷地道": 7019,
      "不明": 7020,
      "书生": 7021,
      "伤心": 7022,
      "瞧得": 7023,
      "精神": 7024,
      "这一次": 7025,
      "也有": 7026,
      "全是": 7027,
      "阁下": 7028,
      "手足": 7029,
      "光闪": 7030,
      "抱着": 7031,
      "解开": 7032,
      "颤声道": 7033,
      "不大": 7034,
      "另有": 7035,
      "白万剑": 7036,
      "而起": 7037,
      "高兴": 7038,
      "僧人": 7039,
      "着实": 7040,
      "要我": 7041,
      "水笙": 7042,
      "郡主": 7043,
      "在一旁": 7044,
      "不着": 7045,
      "了她": 7046,
      "便有": 7047,
      "十多": 7048,
      "既然": 7049,
      "相见": 7050,
      "一团": 7051,
      "你又": 7052,
      "岂知": 7053,
      "幸好": 7054,
      "无可": 7055,
      "未免": 7056,
      "呼吸": 7057,
      "脚下": 7058,
      "该当": 7059,
      "了一阵": 7060,
      "不自": 7061,
      "山洞": 7062,
      "说起": 7063,
      "豪杰": 7064,
      "二娘": 7065,
      "日子": 7066,
      "西夏": 7067,
      "不怕": 7068,
      "他老人家": 7069,
      "仙道": 7070,
      "打开": 7071,
      "故意": 7072,
      "星宿": 7073,
      "派人": 7074,
      "似是": 7075,
      "惊呼": 7076,
      "一件": 7077,
      "外面": 7078,
      "大爷": 7079,
      "何处": 7080,
      "你就": 7081,
      "此后": 7082,
      "大汗": 7083,
      "高强": 7084,
      "倒在地": 7085,
      "相距": 7086,
      "到来": 7087,
      "将这": 7088,
      "放下": 7089,
      "方怡": 7090,
      "远处": 7091,
      "右臂": 7092,
      "识得": 7093,
      "出口": 7094,
      "尼姑": 7095,
      "一一": 7096,
      "他二人": 7097,
      "显得": 7098,
      "金蛇": 7099,
      "英雄好汉": 7100,
      "灭绝师太": 7101,
      "不答": 7102,
      "女人": 7103,
      "岂能": 7104,
      "明知": 7105,
      "是不": 7106,
      "一红": 7107,
      "忘了": 7108,
      "心意": 7109,
      "快快": 7110,
      "方证": 7111,
      "的功夫": 7112,
      "原来是": 7113,
      "别说": 7114,
      "双臂": 7115,
      "率领": 7116,
      "遇到": 7117,
      "金轮": 7118,
      "你怎么": 7119,
      "俯身": 7120,
      "大了": 7121,
      "夫妻": 7122,
      "望去": 7123,
      "体内": 7124,
      "圈子": 7125,
      "在旁": 7126,
      "坐下": 7127,
      "声说道": 7128,
      "输了": 7129,
      "不知如何": 7130,
      "不绝": 7131,
      "也要": 7132,
      "凝神": 7133,
      "声中": 7134,
      "岛主": 7135,
      "怀里": 7136,
      "擒拿": 7137,
      "桃谷": 7138,
      "一切": 7139,
      "所以": 7140,
      "一番": 7141,
      "乃是": 7142,
      "双眼": 7143,
      "宝刀": 7144,
      "诧异": 7145,
      "金花": 7146,
      "啪的一声": 7147,
      "宫女": 7148,
      "快步": 7149,
      "用意": 7150,
      "这话": 7151,
      "那少年": 7152,
      "仲英": 7153,
      "周仲英": 7154,
      "那女子": 7155,
      "香香": 7156,
      "没法": 7157,
      "转念": 7158,
      "不懂": 7159,
      "袁承志道": 7160,
      "茅十八": 7161,
      "没人": 7162,
      "衣袖": 7163,
      "香香公主": 7164,
      "一根": 7165,
      "他妈的": 7166,
      "又是一": 7167,
      "来啦": 7168,
      "两只": 7169,
      "亲兵": 7170,
      "你师父": 7171,
      "六人": 7172,
      "情势": 7173,
      "不说": 7174,
      "奔出": 7175,
      "过了一会": 7176,
      "完颜洪": 7177,
      "半分": 7178,
      "双方": 7179,
      "已有": 7180,
      "恭敬": 7181,
      "相斗": 7182,
      "莲舟": 7183,
      "认得": 7184,
      "小可": 7185,
      "徒儿": 7186,
      "疑心": 7187,
      "至于": 7188,
      "决不能": 7189,
      "在大": 7190,
      "戚芳": 7191,
      "更无": 7192,
      "那便": 7193,
      "随手": 7194,
      "大大": 7195,
      "有时": 7196,
      "蓉儿": 7197,
      "一场": 7198,
      "些什么": 7199,
      "双足": 7200,
      "好手": 7201,
      "左臂": 7202,
      "手法": 7203,
      "高明": 7204,
      "几句": 7205,
      "向她": 7206,
      "也不是": 7207,
      "春花": 7208,
      "马上": 7209,
      "不觉": 7210,
      "不足": 7211,
      "伤口": 7212,
      "应道": 7213,
      "而死": 7214,
      "面目": 7215,
      "去找": 7216,
      "俞莲舟": 7217,
      "反手": 7218,
      "的名": 7219,
      "一百": 7220,
      "令人": 7221,
      "道士": 7222,
      "你想": 7223,
      "发觉": 7224,
      "拾起": 7225,
      "敌手": 7226,
      "洪教主": 7227,
      "上山": 7228,
      "掌法": 7229,
      "沧海": 7230,
      "美貌": 7231,
      "这可": 7232,
      "不断": 7233,
      "便已": 7234,
      "小昭": 7235,
      "待我": 7236,
      "今晚": 7237,
      "尽皆": 7238,
      "石壁": 7239,
      "非同": 7240,
      "武当派": 7241,
      "了去": 7242,
      "余沧海": 7243,
      "向外": 7244,
      "必定": 7245,
      "时分": 7246,
      "真正": 7247,
      "交给": 7248,
      "休息": 7249,
      "家的": 7250,
      "这就": 7251,
      "丛中": 7252,
      "亲自": 7253,
      "卫士": 7254,
      "岳夫人": 7255,
      "我又": 7256,
      "纵马": 7257,
      "谷主": 7258,
      "运气": 7259,
      "阿碧": 7260,
      "冷笑": 7261,
      "变化": 7262,
      "找到": 7263,
      "传来": 7264,
      "但觉": 7265,
      "全然": 7266,
      "待要": 7267,
      "忽地": 7268,
      "断了": 7269,
      "是要": 7270,
      "沐剑": 7271,
      "高僧": 7272,
      "后心": 7273,
      "忽见": 7274,
      "欺侮": 7275,
      "不想": 7276,
      "不理": 7277,
      "几步": 7278,
      "破绽": 7279,
      "绿萼": 7280,
      "身穿": 7281,
      "便将": 7282,
      "初时": 7283,
      "已将": 7284,
      "并肩": 7285,
      "延庆": 7286,
      "摇了": 7287,
      "淡淡": 7288,
      "纵然": 7289,
      "只见他": 7290,
      "乌龟": 7291,
      "你再": 7292,
      "在自己": 7293,
      "落地": 7294,
      "顽童": 7295,
      "三哥": 7296,
      "又问": 7297,
      "站着": 7298,
      "见识": 7299,
      "万里": 7300,
      "十六": 7301,
      "瞧去": 7302,
      "雪山派": 7303,
      "马春花": 7304,
      "山上": 7305,
      "师兄弟": 7306,
      "犹如": 7307,
      "中有": 7308,
      "之地": 7309,
      "比之": 7310,
      "点点头": 7311,
      "跪下": 7312,
      "丁典": 7313,
      "不败": 7314,
      "韦小宝笑道": 7315,
      "轻轻一": 7316,
      "尸身": 7317,
      "已给": 7318,
      "盟主": 7319,
      "你在": 7320,
      "保定": 7321,
      "太过": 7322,
      "得好": 7323,
      "我想": 7324,
      "留下": 7325,
      "好人": 7326,
      "朱聪": 7327,
      "正好": 7328,
      "眉头": 7329,
      "真人": 7330,
      "莫非": 7331,
      "重阳": 7332,
      "陡然": 7333,
      "毕竟": 7334,
      "的那": 7335,
      "中年": 7336,
      "你快": 7337,
      "这么说": 7338,
      "大门": 7339,
      "竟会": 7340,
      "子道": 7341,
      "清清楚": 7342,
      "身法": 7343,
      "清清楚楚": 7344,
      "便宜": 7345,
      "力道": 7346,
      "屋顶": 7347,
      "心上": 7348,
      "拱手": 7349,
      "祖师": 7350,
      "话来": 7351,
      "跟随": 7352,
      "道理": 7353,
      "一日": 7354,
      "丫头": 7355,
      "岛上": 7356,
      "接连": 7357,
      "疼痛": 7358,
      "老太": 7359,
      "何等": 7360,
      "凶险": 7361,
      "念头": 7362,
      "完颜洪烈": 7363,
      "上下": 7364,
      "呼呼": 7365,
      "大丈夫": 7366,
      "瑛姑": 7367,
      "这种": 7368,
      "上马": 7369,
      "个人": 7370,
      "她们": 7371,
      "昆仑": 7372,
      "走去": 7373,
      "这两个": 7374,
      "但听得": 7375,
      "凌厉": 7376,
      "大名": 7377,
      "此言": 7378,
      "直到": 7379,
      "震山": 7380,
      "哈哈一笑": 7381,
      "你爹爹": 7382,
      "宫中": 7383,
      "经过": 7384,
      "九阴": 7385,
      "另一个": 7386,
      "心神": 7387,
      "数丈": 7388,
      "无数": 7389,
      "砰的一声": 7390,
      "程英": 7391,
      "人之": 7392,
      "你还": 7393,
      "带着": 7394,
      "三招": 7395,
      "必是": 7396,
      "要他": 7397,
      "全真教": 7398,
      "非同小可": 7399,
      "为他": 7400,
      "冲虚": 7401,
      "林中": 7402,
      "身受": 7403,
      "连声": 7404,
      "一柄": 7405,
      "了过来": 7406,
      "危急": 7407,
      "投降": 7408,
      "拿起": 7409,
      "次日": 7410,
      "设法": 7411,
      "伤势": 7412,
      "拉着": 7413,
      "没什么": 7414,
      "那女郎": 7415,
      "金花婆婆": 7416,
      "不信": 7417,
      "从前": 7418,
      "心惊": 7419,
      "恩师": 7420,
      "桂子": 7421,
      "相交": 7422,
      "神龙": 7423,
      "身在": 7424,
      "保定帝": 7425,
      "不死": 7426,
      "不语": 7427,
      "再加": 7428,
      "却不知": 7429,
      "忽听": 7430,
      "烟客": 7431,
      "谢烟客": 7432,
      "过得": 7433,
      "知道了": 7434,
      "当真是": 7435,
      "一口气": 7436,
      "十五": 7437,
      "岂不": 7438,
      "恶人": 7439,
      "无尘": 7440,
      "一晃": 7441,
      "二哥": 7442,
      "固然": 7443,
      "推开": 7444,
      "脱身": 7445,
      "走吧": 7446,
      "辟邪": 7447,
      "大石": 7448,
      "念慈": 7449,
      "总管": 7450,
      "服侍": 7451,
      "穆念慈": 7452,
      "铁木": 7453,
      "一会儿": 7454,
      "云南": 7455,
      "我瞧": 7456,
      "自成": 7457,
      "一行": 7458,
      "声大": 7459,
      "抬头": 7460,
      "毒药": 7461,
      "火把": 7462,
      "不出来": 7463,
      "取出一": 7464,
      "施主": 7465,
      "赶到": 7466,
      "顺手": 7467,
      "转头向": 7468,
      "又有什么": 7469,
      "委实": 7470,
      "福康": 7471,
      "便在此时": 7472,
      "一句话": 7473,
      "剧痛": 7474,
      "家人": 7475,
      "屠龙": 7476,
      "霍都": 7477,
      "福康安": 7478,
      "朝廷": 7479,
      "杀我": 7480,
      "自当": 7481,
      "老爷子": 7482,
      "丁不四": 7483,
      "万震山": 7484,
      "不下": 7485,
      "了不起": 7486,
      "以及": 7487,
      "使出": 7488,
      "短剑": 7489,
      "妙极": 7490,
      "床上": 7491,
      "昨晚": 7492,
      "望了一眼": 7493,
      "而且": 7494,
      "不易": 7495,
      "全力": 7496,
      "当当": 7497,
      "神雕": 7498,
      "虽是": 7499,
      "躲在": 7500,
      "那边": 7501,
      "门户": 7502,
      "白衣尼": 7503,
      "摇了摇头": 7504,
      "奈何": 7505,
      "察看": 7506,
      "小腹": 7507,
      "左足": 7508,
      "必有": 7509,
      "闵柔": 7510,
      "阿绣": 7511,
      "一来": 7512,
      "与他": 7513,
      "从怀中": 7514,
      "口道": 7515,
      "阿九": 7516,
      "这一掌": 7517,
      "不停": 7518,
      "传授": 7519,
      "哪有": 7520,
      "我没": 7521,
      "抢上": 7522,
      "见那": 7523,
      "追赶": 7524,
      "七人": 7525,
      "却也不": 7526,
      "待会": 7527,
      "朗声道": 7528,
      "自知": 7529,
      "从来没": 7530,
      "剧毒": 7531,
      "四字": 7532,
      "本领": 7533,
      "通红": 7534,
      "君子": 7535,
      "得住": 7536,
      "牢牢": 7537,
      "退开": 7538,
      "裘千尺": 7539,
      "她是": 7540,
      "岂不是": 7541,
      "性子": 7542,
      "打了": 7543,
      "本派": 7544,
      "男女": 7545,
      "白马": 7546,
      "马夫人": 7547,
      "了几下": 7548,
      "商量": 7549,
      "尚有": 7550,
      "桃谷六": 7551,
      "一座": 7552,
      "去吧": 7553,
      "发作": 7554,
      "老衲": 7555,
      "自幼": 7556,
      "胡斐道": 7557,
      "并未": 7558,
      "旁观": 7559,
      "绝技": 7560,
      "过不多时": 7561,
      "黑白": 7562,
      "伸手去": 7563,
      "不识": 7564,
      "以致": 7565,
      "你如": 7566,
      "兵器": 7567,
      "当世": 7568,
      "离开": 7569,
      "而上": 7570,
      "出来的": 7571,
      "东方不败": 7572,
      "便可": 7573,
      "小僧": 7574,
      "小桂子": 7575,
      "开来": 7576,
      "无声": 7577,
      "身手": 7578,
      "动弹不得": 7579,
      "不小": 7580,
      "不来": 7581,
      "之法": 7582,
      "侧身": 7583,
      "向左": 7584,
      "天南": 7585,
      "年前": 7586,
      "恒山": 7587,
      "眼下": 7588,
      "襄阳": 7589,
      "要去": 7590,
      "也无": 7591,
      "事情": 7592,
      "打死": 7593,
      "招式": 7594,
      "一看": 7595,
      "出声": 7596,
      "而下": 7597,
      "路上": 7598,
      "也不用": 7599,
      "那人道": 7600,
      "数日": 7601,
      "没了": 7602,
      "眼泪": 7603,
      "出神": 7604,
      "匹马": 7605,
      "定了": 7606,
      "自在": 7607,
      "还能": 7608,
      "金轮国师": 7609,
      "抱拳": 7610,
      "救人": 7611,
      "着了": 7612,
      "老前辈": 7613,
      "见到了": 7614,
      "众弟子": 7615,
      "你自己": 7616,
      "古墓": 7617,
      "坐着": 7618,
      "摔倒": 7619,
      "说完": 7620,
      "另外": 7621,
      "在你": 7622,
      "老人": 7623,
      "讯息": 7624,
      "一次": 7625,
      "今天": 7626,
      "军官": 7627,
      "原是": 7628,
      "手脚": 7629,
      "里的": 7630,
      "飞出": 7631,
      "外人": 7632,
      "嵩山派": 7633,
      "狠狠": 7634,
      "那婆婆": 7635,
      "出言": 7636,
      "挣扎": 7637,
      "月光": 7638,
      "有如": 7639,
      "梁子": 7640,
      "物事": 7641,
      "跃出": 7642,
      "回过头来": 7643,
      "铁木真": 7644,
      "桃谷六仙": 7645,
      "中所": 7646,
      "嵩山": 7647,
      "得上": 7648,
      "微一": 7649,
      "扬州": 7650,
      "抬起": 7651,
      "有余": 7652,
      "李自成": 7653,
      "腿上": 7654,
      "完颜康": 7655,
      "两声": 7656,
      "之言": 7657,
      "半空": 7658,
      "大王": 7659,
      "小兄弟": 7660,
      "梨亭": 7661,
      "看时": 7662,
      "竟没": 7663,
      "要你": 7664,
      "伤人": 7665,
      "呆了": 7666,
      "抱住": 7667,
      "晚上": 7668,
      "跟她": 7669,
      "免得": 7670,
      "叫声": 7671,
      "坐骑": 7672,
      "对你": 7673,
      "平时": 7674,
      "归农": 7675,
      "拳脚": 7676,
      "施琅": 7677,
      "难过": 7678,
      "刺客": 7679,
      "拳法": 7680,
      "有几": 7681,
      "正中": 7682,
      "段延庆": 7683,
      "老顽童": 7684,
      "脱手": 7685,
      "送了": 7686,
      "下面": 7687,
      "台湾": 7688,
      "殷梨亭": 7689,
      "一个个": 7690,
      "四十": 7691,
      "韦香主": 7692,
      "黄金": 7693,
      "的一响": 7694,
      "使的": 7695,
      "剑术": 7696,
      "父子": 7697,
      "落下": 7698,
      "青年": 7699,
      "个时辰": 7700,
      "便向": 7701,
      "姓名": 7702,
      "娘子": 7703,
      "怎生": 7704,
      "洞中": 7705,
      "过儿": 7706,
      "亲眼": 7707,
      "大功": 7708,
      "寺中": 7709,
      "本教": 7710,
      "行走": 7711,
      "见这": 7712,
      "了一顿": 7713,
      "不自禁": 7714,
      "大大的": 7715,
      "应熊": 7716,
      "无力": 7717,
      "迅捷": 7718,
      "进了": 7719,
      "铁手": 7720,
      "一挥": 7721,
      "半夜": 7722,
      "带了": 7723,
      "往他": 7724,
      "朗声说道": 7725,
      "杀他": 7726,
      "男人": 7727,
      "黑衣": 7728,
      "万圭": 7729,
      "假装": 7730,
      "呆呆": 7731,
      "我也不": 7732,
      "有所": 7733,
      "高人": 7734,
      "他又": 7735,
      "厅上": 7736,
      "可不能": 7737,
      "吴应熊": 7738,
      "深厚": 7739,
      "眼色": 7740,
      "青书": 7741,
      "令狐师兄": 7742,
      "一呆": 7743,
      "修习": 7744,
      "哪一个": 7745,
      "在山": 7746,
      "的弟子": 7747,
      "蓦地里": 7748,
      "转眼": 7749,
      "那位": 7750,
      "之内": 7751,
      "互相": 7752,
      "但见他": 7753,
      "双腿": 7754,
      "史婆婆": 7755,
      "在后": 7756,
      "天色": 7757,
      "太极": 7758,
      "将下来": 7759,
      "当先": 7760,
      "潇湘": 7761,
      "风声": 7762,
      "刀剑": 7763,
      "各自": 7764,
      "喀喇": 7765,
      "城中": 7766,
      "将那": 7767,
      "来得": 7768,
      "极为": 7769,
      "请教": 7770,
      "谁都": 7771,
      "了些": 7772,
      "何铁手": 7773,
      "孙仲": 7774,
      "紧紧": 7775,
      "语气": 7776,
      "公孙止": 7777,
      "不管": 7778,
      "五个": 7779,
      "只想": 7780,
      "尽是": 7781,
      "徒弟": 7782,
      "料到": 7783,
      "要害": 7784,
      "骰子": 7785,
      "倒也不": 7786,
      "决不会": 7787,
      "容貌": 7788,
      "总算": 7789,
      "转过身来": 7790,
      "在哪里": 7791,
      "小郡主": 7792,
      "急道": 7793,
      "教众": 7794,
      "着她": 7795,
      "五岳剑": 7796,
      "上乘": 7797,
      "可不是": 7798,
      "周颠": 7799,
      "奸贼": 7800,
      "平西": 7801,
      "极是": 7802,
      "种种": 7803,
      "练功": 7804,
      "胡一刀": 7805,
      "若是": 7806,
      "又惊又喜": 7807,
      "但想": 7808,
      "使得": 7809,
      "反正": 7810,
      "向东": 7811,
      "对她": 7812,
      "我有": 7813,
      "房门": 7814,
      "才好": 7815,
      "抓住了": 7816,
      "来历": 7817,
      "温方": 7818,
      "的所在": 7819,
      "面子": 7820,
      "鼻子": 7821,
      "说不出的": 7822,
      "沐剑屏": 7823,
      "三字": 7824,
      "吉思": 7825,
      "向我": 7826,
      "啪啪": 7827,
      "四周": 7828,
      "毒物": 7829,
      "狼狈": 7830,
      "吉思汗": 7831,
      "一顿": 7832,
      "之道": 7833,
      "于他": 7834,
      "你既": 7835,
      "几乎": 7836,
      "叫人": 7837,
      "叫什么": 7838,
      "大胆": 7839,
      "展开": 7840,
      "成吉思汗": 7841,
      "谷中": 7842,
      "不敢再": 7843,
      "去向": 7844,
      "和她": 7845,
      "大臣": 7846,
      "平平": 7847,
      "放开": 7848,
      "段公子": 7849,
      "田归农": 7850,
      "的模样": 7851,
      "造反": 7852,
      "长的": 7853,
      "耶律齐": 7854,
      "九阴真经": 7855,
      "两条": 7856,
      "乌老大": 7857,
      "仍是": 7858,
      "六怪": 7859,
      "好处": 7860,
      "打架": 7861,
      "拍手": 7862,
      "消息": 7863,
      "那大汉": 7864,
      "二来": 7865,
      "岱岩": 7866,
      "惭愧": 7867,
      "武官": 7868,
      "胡青": 7869,
      "不该": 7870,
      "中一": 7871,
      "便能": 7872,
      "保护": 7873,
      "冠英": 7874,
      "呼叫": 7875,
      "打狗": 7876,
      "数招": 7877,
      "无耻": 7878,
      "表哥": 7879,
      "诡计": 7880,
      "跃上": 7881,
      "软鞭": 7882,
      "过的": 7883,
      "迟疑": 7884,
      "马蹄": 7885,
      "怎么办": 7886,
      "开口": 7887,
      "开眼": 7888,
      "心知": 7889,
      "每一": 7890,
      "踏步": 7891,
      "心念一动": 7892,
      "中毒": 7893,
      "另一": 7894,
      "娃娃": 7895,
      "拂尘": 7896,
      "绳索": 7897,
      "苏普": 7898,
      "小龙女道": 7899,
      "得罪了": 7900,
      "哪一": 7901,
      "往往": 7902,
      "志丙": 7903,
      "暗想": 7904,
      "泪水": 7905,
      "舌头": 7906,
      "菩萨": 7907,
      "倒退": 7908,
      "内劲": 7909,
      "几下": 7910,
      "出门": 7911,
      "千秋": 7912,
      "成为": 7913,
      "拉住": 7914,
      "肚子": 7915,
      "胡青牛": 7916,
      "三名": 7917,
      "不服": 7918,
      "之命": 7919,
      "傻姑": 7920,
      "凝视": 7921,
      "几名": 7922,
      "变色": 7923,
      "定逸": 7924,
      "甄志丙": 7925,
      "窗外": 7926,
      "范遥": 7927,
      "落在": 7928,
      "连虎": 7929,
      "难得": 7930,
      "义气": 7931,
      "回人": 7932,
      "大宋": 7933,
      "宋青书": 7934,
      "对准": 7935,
      "玉女": 7936,
      "的老": 7937,
      "铁链": 7938,
      "之一": 7939,
      "你来": 7940,
      "刘正": 7941,
      "前后": 7942,
      "彭连虎": 7943,
      "恭恭敬": 7944,
      "扶起": 7945,
      "海中": 7946,
      "放在心上": 7947,
      "刘正风": 7948,
      "恭恭敬敬": 7949,
      "不平": 7950,
      "不行": 7951,
      "同门": 7952,
      "听见": 7953,
      "四哥": 7954,
      "惊道": 7955,
      "暗自": 7956,
      "请问": 7957,
      "还礼": 7958,
      "金银": 7959,
      "陆冠英": 7960,
      "一对": 7961,
      "仔细": 7962,
      "你有": 7963,
      "俞岱岩": 7964,
      "外号": 7965,
      "师徒": 7966,
      "恼怒": 7967,
      "挺剑": 7968,
      "火光": 7969,
      "秘密": 7970,
      "的一声响": 7971,
      "石破天道": 7972,
      "青城派": 7973,
      "今后": 7974,
      "宝树": 7975,
      "招架": 7976,
      "有趣": 7977,
      "相会": 7978,
      "不顾": 7979,
      "也未必": 7980,
      "余人": 7981,
      "向北": 7982,
      "处一": 7983,
      "怒气": 7984,
      "思索": 7985,
      "死的": 7986,
      "王夫人": 7987,
      "而至": 7988,
      "让我": 7989,
      "骑马": 7990,
      "万分": 7991,
      "听着": 7992,
      "没想到": 7993,
      "筋斗": 7994,
      "联手": 7995,
      "遇上": 7996,
      "额头": 7997,
      "上官": 7998,
      "了吧": 7999,
      "却见": 8000,
      "无所": 8001,
      "木桑": 8002,
      "相对": 8003,
      "诸般": 8004,
      "也不过": 8005,
      "一人道": 8006,
      "就是了": 8007,
      "二十余": 8008,
      "你了": 8009,
      "偏偏": 8010,
      "又怎": 8011,
      "四位": 8012,
      "已是": 8013,
      "罗汉": 8014,
      "赶来": 8015,
      "都说": 8016,
      "峨嵋派": 8017,
      "了的": 8018,
      "如果": 8019,
      "得一": 8020,
      "焦急": 8021,
      "起身来": 8022,
      "马钰": 8023,
      "自然是": 8024,
      "出现": 8025,
      "厉声道": 8026,
      "名叫": 8027,
      "已久": 8028,
      "已在": 8029,
      "翻身": 8030,
      "跃开": 8031,
      "他见": 8032,
      "倒是": 8033,
      "内息": 8034,
      "呼喝": 8035,
      "既是": 8036,
      "神态": 8037,
      "笔翁": 8038,
      "云中": 8039,
      "亲王": 8040,
      "双剑": 8041,
      "咳嗽": 8042,
      "的心": 8043,
      "经脉": 8044,
      "还在": 8045,
      "还要": 8046,
      "领教": 8047,
      "风波": 8048,
      "徐天川": 8049,
      "五十": 8050,
      "他武功": 8051,
      "你怎": 8052,
      "就要": 8053,
      "树枝": 8054,
      "武三": 8055,
      "海石": 8056,
      "这事": 8057,
      "不算": 8058,
      "他心中": 8059,
      "便走": 8060,
      "先行": 8061,
      "喝彩": 8062,
      "好啦": 8063,
      "好不好": 8064,
      "威力": 8065,
      "婴儿": 8066,
      "对自己": 8067,
      "杨铁": 8068,
      "痛得": 8069,
      "知是": 8070,
      "如何能": 8071,
      "打狗棒": 8072,
      "之物": 8073,
      "八卦": 8074,
      "势必": 8075,
      "商议": 8076,
      "嗤嗤": 8077,
      "大会": 8078,
      "将出来": 8079,
      "底下": 8080,
      "摇晃": 8081,
      "满洲": 8082,
      "相互": 8083,
      "胖头陀": 8084,
      "逍遥": 8085,
      "韦一笑": 8086,
      "他虽": 8087,
      "以免": 8088,
      "想要": 8089,
      "看到": 8090,
      "衣襟": 8091,
      "贝海石": 8092,
      "高声": 8093,
      "不发": 8094,
      "人多": 8095,
      "仍然": 8096,
      "天鹰": 8097,
      "小姑娘": 8098,
      "明天": 8099,
      "明日": 8100,
      "逼得": 8101,
      "的人物": 8102,
      "写着": 8103,
      "凤天南": 8104,
      "到哪里": 8105,
      "太冲": 8106,
      "安排": 8107,
      "故事": 8108,
      "教的": 8109,
      "柔声道": 8110,
      "继续": 8111,
      "花铁": 8112,
      "之士": 8113,
      "人道": 8114,
      "何太冲": 8115,
      "变成": 8116,
      "向那": 8117,
      "好啊": 8118,
      "热闹": 8119,
      "竹棒": 8120,
      "笑容": 8121,
      "糟糕": 8122,
      "也没什么": 8123,
      "奶奶的": 8124,
      "吃饭": 8125,
      "竟不": 8126,
      "耳边": 8127,
      "霎时之间": 8128,
      "仰天": 8129,
      "大树": 8130,
      "就在": 8131,
      "想是": 8132,
      "拖雷": 8133,
      "还道": 8134,
      "也必": 8135,
      "了么": 8136,
      "便想": 8137,
      "几时": 8138,
      "向着": 8139,
      "尸体": 8140,
      "支持": 8141,
      "无论": 8142,
      "法门": 8143,
      "若有": 8144,
      "落入": 8145,
      "酒杯": 8146,
      "里面": 8147,
      "霎时间": 8148,
      "也真": 8149,
      "乱跳": 8150,
      "决意": 8151,
      "右足": 8152,
      "宁可": 8153,
      "对不起": 8154,
      "我再": 8155,
      "立刻": 8156,
      "走向": 8157,
      "道上": 8158,
      "醒转": 8159,
      "虚竹道": 8160,
      "武三通": 8161,
      "他要": 8162,
      "徐铮": 8163,
      "忍耐": 8164,
      "救命": 8165,
      "老叫化": 8166,
      "震南": 8167,
      "这一剑": 8168,
      "这时候": 8169,
      "大声叫道": 8170,
      "潇湘子": 8171,
      "不像": 8172,
      "叔叔": 8173,
      "各处": 8174,
      "好极": 8175,
      "家里": 8176,
      "打个": 8177,
      "无穷": 8178,
      "本已": 8179,
      "林震南": 8180,
      "铁掌": 8181,
      "靖哥哥": 8182,
      "什么都": 8183,
      "屠龙刀": 8184,
      "不做": 8185,
      "为师": 8186,
      "危险": 8187,
      "又不是": 8188,
      "大骂": 8189,
      "小二": 8190,
      "成昆": 8191,
      "抱起": 8192,
      "救了": 8193,
      "素来": 8194,
      "颈中": 8195,
      "这一来": 8196,
      "人人都": 8197,
      "不打": 8198,
      "圣火": 8199,
      "在江湖上": 8200,
      "宫里": 8201,
      "得过": 8202,
      "意料": 8203,
      "成功": 8204,
      "暗算": 8205,
      "沉沉": 8206,
      "精妙": 8207,
      "西域": 8208,
      "这姓": 8209,
      "长乐": 8210,
      "闻到": 8211,
      "龙门": 8212,
      "便去": 8213,
      "左肩": 8214,
      "或许": 8215,
      "洪夫人": 8216,
      "胡闹": 8217,
      "重大": 8218,
      "花铁干": 8219,
      "不忍": 8220,
      "不明白": 8221,
      "之所": 8222,
      "对头": 8223,
      "干系": 8224,
      "晃动": 8225,
      "续道": 8226,
      "蛛儿": 8227,
      "说不得": 8228,
      "那一": 8229,
      "无论如何": 8230,
      "不尽": 8231,
      "不悔": 8232,
      "之辈": 8233,
      "几次": 8234,
      "圆圆": 8235,
      "感到": 8236,
      "我只": 8237,
      "我不是": 8238,
      "挥出": 8239,
      "晓芙": 8240,
      "王子": 8241,
      "走上": 8242,
      "他们的": 8243,
      "一拍": 8244,
      "之势": 8245,
      "仇人": 8246,
      "再好": 8247,
      "声势": 8248,
      "奔去": 8249,
      "王处一": 8250,
      "难当": 8251,
      "在这儿": 8252,
      "三分": 8253,
      "两字": 8254,
      "书房": 8255,
      "判官": 8256,
      "到后来": 8257,
      "十四": 8258,
      "玄慈": 8259,
      "碰到": 8260,
      "脸颊": 8261,
      "身份": 8262,
      "随着": 8263,
      "了几个": 8264,
      "身受重伤": 8265,
      "下一": 8266,
      "不意": 8267,
      "你没": 8268,
      "咽喉": 8269,
      "德诺": 8270,
      "极大": 8271,
      "让她": 8272,
      "五岳剑派": 8273,
      "人影": 8274,
      "他不": 8275,
      "刺去": 8276,
      "剑柄": 8277,
      "勉强": 8278,
      "包袱": 8279,
      "大夫": 8280,
      "好意": 8281,
      "宛儿": 8282,
      "死在": 8283,
      "温青": 8284,
      "站立": 8285,
      "问你": 8286,
      "只见她": 8287,
      "梁子翁": 8288,
      "长乐帮": 8289,
      "使者": 8290,
      "修为": 8291,
      "半截": 8292,
      "喃喃": 8293,
      "屋中": 8294,
      "手持": 8295,
      "拿了": 8296,
      "玄难": 8297,
      "皇爷": 8298,
      "算是": 8299,
      "自称": 8300,
      "运劲": 8301,
      "那汉子": 8302,
      "了一步": 8303,
      "四下里": 8304,
      "一颗": 8305,
      "之位": 8306,
      "伏在": 8307,
      "众兄弟": 8308,
      "修文": 8309,
      "动静": 8310,
      "北方": 8311,
      "发抖": 8312,
      "吓了一": 8313,
      "山峰": 8314,
      "救我": 8315,
      "格格": 8316,
      "知她": 8317,
      "耳中": 8318,
      "说我": 8319,
      "云中鹤": 8320,
      "一家": 8321,
      "以前": 8322,
      "但这": 8323,
      "可怜": 8324,
      "哑巴": 8325,
      "已极": 8326,
      "着地": 8327,
      "笑嘻嘻": 8328,
      "门派": 8329,
      "脸上一红": 8330,
      "不妨": 8331,
      "他想": 8332,
      "发现": 8333,
      "只剩": 8334,
      "向上": 8335,
      "在空中": 8336,
      "奋力": 8337,
      "忙问": 8338,
      "时刻": 8339,
      "王剑": 8340,
      "纵声": 8341,
      "绝情": 8342,
      "迎面": 8343,
      "退出": 8344,
      "片刻间": 8345,
      "劳德诺": 8346,
      "匆匆": 8347,
      "无异": 8348,
      "有意": 8349,
      "有此": 8350,
      "王八": 8351,
      "的名字": 8352,
      "胖子": 8353,
      "这两人": 8354,
      "不休": 8355,
      "便了": 8356,
      "入内": 8357,
      "凌波": 8358,
      "商宝": 8359,
      "围攻": 8360,
      "坏人": 8361,
      "多年": 8362,
      "多隆": 8363,
      "天石": 8364,
      "很是": 8365,
      "急奔": 8366,
      "我先": 8367,
      "手执": 8368,
      "方能": 8369,
      "着的": 8370,
      "瞧他": 8371,
      "胜海": 8372,
      "通天": 8373,
      "上面": 8374,
      "交情": 8375,
      "你先": 8376,
      "八九": 8377,
      "曹云": 8378,
      "武修文": 8379,
      "空手": 8380,
      "那书生": 8381,
      "额图": 8382,
      "武功高强": 8383,
      "抬起头来": 8384,
      "你好": 8385,
      "你我": 8386,
      "千里": 8387,
      "司马": 8388,
      "婊子": 8389,
      "巴天石": 8390,
      "当地": 8391,
      "早知": 8392,
      "王姑娘": 8393,
      "索额图": 8394,
      "练成": 8395,
      "试试": 8396,
      "这孩子": 8397,
      "送到": 8398,
      "门人": 8399,
      "慕容公子": 8400,
      "商宝震": 8401,
      "中土": 8402,
      "也只": 8403,
      "二百": 8404,
      "又要": 8405,
      "哪一位": 8406,
      "有脚": 8407,
      "沉重": 8408,
      "生的": 8409,
      "禅师": 8410,
      "纪晓芙": 8411,
      "远桥": 8412,
      "隔了": 8413,
      "面相": 8414,
      "黑暗中": 8415,
      "不能再": 8416,
      "得多了": 8417,
      "不作": 8418,
      "几天": 8419,
      "却没": 8420,
      "司徒": 8421,
      "同去": 8422,
      "快去": 8423,
      "掷出": 8424,
      "放了": 8425,
      "耳朵": 8426,
      "这条": 8427,
      "问起": 8428,
      "一瞥": 8429,
      "不安": 8430,
      "之余": 8431,
      "之至": 8432,
      "交集": 8433,
      "冤枉": 8434,
      "办事": 8435,
      "卑职": 8436,
      "取胜": 8437,
      "尼摩": 8438,
      "店小二": 8439,
      "心砚": 8440,
      "杀的": 8441,
      "洪胜海": 8442,
      "皱眉": 8443,
      "算得": 8444,
      "胆子": 8445,
      "足道": 8446,
      "迅速": 8447,
      "金标": 8448,
      "不相同": 8449,
      "一拳": 8450,
      "之旁": 8451,
      "喝了": 8452,
      "回家": 8453,
      "声息": 8454,
      "客人": 8455,
      "岩石": 8456,
      "待他": 8457,
      "甚多": 8458,
      "看了": 8459,
      "真相": 8460,
      "眼珠": 8461,
      "耳光": 8462,
      "金面": 8463,
      "顾金标": 8464,
      "韦小宝心想": 8465,
      "一出": 8466,
      "个字": 8467,
      "众侍卫": 8468,
      "咱俩": 8469,
      "大军": 8470,
      "室中": 8471,
      "尸首": 8472,
      "暂且": 8473,
      "若兰": 8474,
      "走得": 8475,
      "门的": 8476,
      "鲁有脚": 8477,
      "一身": 8478,
      "九阳": 8479,
      "他知": 8480,
      "使劲": 8481,
      "小妹": 8482,
      "手势": 8483,
      "抢到": 8484,
      "文字": 8485,
      "根手指": 8486,
      "的言语": 8487,
      "秋水": 8488,
      "细细": 8489,
      "给他们": 8490,
      "这三": 8491,
      "什么人": 8492,
      "数十年": 8493,
      "杨铁心": 8494,
      "圣火令": 8495,
      "吓了一跳": 8496,
      "尼摩星": 8497,
      "卫春": 8498,
      "圆真": 8499,
      "好吧": 8500,
      "宋远桥": 8501,
      "岁年纪": 8502,
      "恶贼": 8503,
      "杀死": 8504,
      "红马": 8505,
      "辈子": 8506,
      "钢杖": 8507,
      "闯王": 8508,
      "飞身": 8509,
      "大叫一声": 8510,
      "这番话": 8511,
      "不妙": 8512,
      "不开": 8513,
      "不戒": 8514,
      "以来": 8515,
      "但若": 8516,
      "到这里": 8517,
      "卑鄙": 8518,
      "威风": 8519,
      "招呼": 8520,
      "犹似": 8521,
      "而前": 8522,
      "苗若兰": 8523,
      "说他": 8524,
      "避过": 8525,
      "骇然": 8526,
      "高峰": 8527,
      "了一口": 8528,
      "上一步": 8529,
      "立时便": 8530,
      "丝毫不": 8531,
      "头颈": 8532,
      "害死了": 8533,
      "岁的": 8534,
      "提防": 8535,
      "方位": 8536,
      "是何": 8537,
      "眼里": 8538,
      "葫芦": 8539,
      "说要": 8540,
      "还手": 8541,
      "康熙道": 8542,
      "大理国": 8543,
      "顷刻间": 8544,
      "卫春华": 8545,
      "万仇": 8546,
      "乖乖": 8547,
      "出招": 8548,
      "十几": 8549,
      "好的": 8550,
      "心事": 8551,
      "快走": 8552,
      "本想": 8553,
      "迷糊": 8554,
      "青竹": 8555,
      "片刻之间": 8556,
      "也得": 8557,
      "商老太": 8558,
      "大喝": 8559,
      "太阳": 8560,
      "威名": 8561,
      "子柳": 8562,
      "打扮": 8563,
      "泄漏": 8564,
      "皇后": 8565,
      "跟他们": 8566,
      "长叹": 8567,
      "长袍": 8568,
      "且慢": 8569,
      "之徒": 8570,
      "十三": 8571,
      "安慰": 8572,
      "小船": 8573,
      "快活": 8574,
      "忽道": 8575,
      "把他": 8576,
      "拼命": 8577,
      "插入": 8578,
      "洪基": 8579,
      "温柔": 8580,
      "盼望": 8581,
      "美人": 8582,
      "而过": 8583,
      "鹿杖": 8584,
      "众人都": 8585,
      "丁不三": 8586,
      "一些": 8587,
      "一闪": 8588,
      "不轻": 8589,
      "于我": 8590,
      "人来": 8591,
      "便似": 8592,
      "华筝": 8593,
      "合台": 8594,
      "大踏步": 8595,
      "将你": 8596,
      "无意": 8597,
      "气息": 8598,
      "瞧了一眼": 8599,
      "破了": 8600,
      "船头": 8601,
      "起身": 8602,
      "钟万仇": 8603,
      "食指": 8604,
      "见到他": 8605,
      "意料之外": 8606,
      "丹臣": 8607,
      "你为什么": 8608,
      "可就": 8609,
      "叶二娘": 8610,
      "帮众": 8611,
      "惊惶": 8612,
      "才知": 8613,
      "掠过": 8614,
      "朱子柳": 8615,
      "横扫": 8616,
      "沐王府": 8617,
      "深深": 8618,
      "瞧在": 8619,
      "第四": 8620,
      "苦头": 8621,
      "语音": 8622,
      "赞道": 8623,
      "都有": 8624,
      "天下第一": 8625,
      "了几句": 8626,
      "上前去": 8627,
      "不胜": 8628,
      "你便": 8629,
      "冷汗": 8630,
      "所未": 8631,
      "拿着": 8632,
      "波斯": 8633,
      "谁也不": 8634,
      "金刚": 8635,
      "但她": 8636,
      "寨主": 8637,
      "抓起": 8638,
      "点儿": 8639,
      "飘飘": 8640,
      "多半是": 8641,
      "天鹰教": 8642,
      "曹云奇": 8643,
      "克西": 8644,
      "向下": 8645,
      "大是": 8646,
      "少侠": 8647,
      "并没": 8648,
      "找寻": 8649,
      "无量": 8650,
      "朱丹臣": 8651,
      "死人": 8652,
      "神剑": 8653,
      "老祖": 8654,
      "了他的": 8655,
      "抓住他": 8656,
      "岳灵珊道": 8657,
      "不等": 8658,
      "从他": 8659,
      "仪和": 8660,
      "出于": 8661,
      "只可惜": 8662,
      "四大": 8663,
      "尹克西": 8664,
      "张口": 8665,
      "瞧见": 8666,
      "绝无": 8667,
      "老三": 8668,
      "观看": 8669,
      "贫道": 8670,
      "金刀": 8671,
      "师父的": 8672,
      "五行": 8673,
      "其后": 8674,
      "可别": 8675,
      "回身": 8676,
      "壁上": 8677,
      "妇人": 8678,
      "尴尬": 8679,
      "怔怔": 8680,
      "猛地": 8681,
      "老实": 8682,
      "蜡烛": 8683,
      "询问": 8684,
      "顿了一顿": 8685,
      "蒙古兵": 8686,
      "一震": 8687,
      "不听": 8688,
      "不通": 8689,
      "乡下": 8690,
      "冯锡": 8691,
      "好朋友": 8692,
      "屁股": 8693,
      "得出": 8694,
      "打听": 8695,
      "跟前": 8696,
      "轻响": 8697,
      "这日": 8698,
      "风波恶": 8699,
      "冯锡范": 8700,
      "一大": 8701,
      "一带": 8702,
      "刷刷": 8703,
      "功劳": 8704,
      "左腿": 8705,
      "平安": 8706,
      "本帮": 8707,
      "老师": 8708,
      "莫大": 8709,
      "走开": 8710,
      "这场": 8711,
      "鹿杖客": 8712,
      "一想": 8713,
      "下落": 8714,
      "倒了": 8715,
      "出家": 8716,
      "坏了": 8717,
      "好看": 8718,
      "将过来": 8719,
      "少妇": 8720,
      "心情": 8721,
      "打了个": 8722,
      "来来": 8723,
      "每人": 8724,
      "澄观": 8725,
      "怎么会": 8726,
      "偷袭": 8727,
      "嘴里": 8728,
      "好在": 8729,
      "当晚": 8730,
      "我跟": 8731,
      "拚命": 8732,
      "来不及": 8733,
      "梅剑": 8734,
      "武氏兄弟": 8735,
      "留情": 8736,
      "答话": 8737,
      "一手": 8738,
      "一雷": 8739,
      "丹田": 8740,
      "丹青": 8741,
      "人众": 8742,
      "侠义": 8743,
      "便欲": 8744,
      "合力": 8745,
      "天正": 8746,
      "女郎": 8747,
      "情景": 8748,
      "那天": 8749,
      "铁杖": 8750,
      "那老僧": 8751,
      "那老妇": 8752,
      "十余丈": 8753,
      "你老人家": 8754,
      "停步": 8755,
      "先后": 8756,
      "大出": 8757,
      "大车": 8758,
      "无敌": 8759,
      "毙命": 8760,
      "用心": 8761,
      "胸前": 8762,
      "过招": 8763,
      "面面相": 8764,
      "黄蓉笑道": 8765,
      "阿紫道": 8766,
      "干净净": 8767,
      "平西王": 8768,
      "面面相觑": 8769,
      "不堪": 8770,
      "依言": 8771,
      "加害": 8772,
      "咬牙": 8773,
      "学武": 8774,
      "成一团": 8775,
      "拜见": 8776,
      "松树": 8777,
      "滕一雷": 8778,
      "美丽": 8779,
      "长发": 8780,
      "少林僧": 8781,
      "又在": 8782,
      "又已": 8783,
      "姊夫": 8784,
      "宝剑": 8785,
      "干干净净": 8786,
      "忌惮": 8787,
      "惊叫": 8788,
      "暗叫": 8789,
      "死不": 8790,
      "殷天正": 8791,
      "用的": 8792,
      "相信": 8793,
      "真有": 8794,
      "般的": 8795,
      "脚步声响": 8796,
      "一世": 8797,
      "一双": 8798,
      "一天": 8799,
      "不清": 8800,
      "六位": 8801,
      "友谅": 8802,
      "小莹": 8803,
      "强盗": 8804,
      "惜弱": 8805,
      "李秋水": 8806,
      "毒蛇": 8807,
      "竟有": 8808,
      "船上": 8809,
      "了一条": 8810,
      "一个大": 8811,
      "举手": 8812,
      "他自": 8813,
      "你倒": 8814,
      "六七": 8815,
      "几声": 8816,
      "哥儿": 8817,
      "好像": 8818,
      "姓大名": 8819,
      "欢呼": 8820,
      "每日": 8821,
      "觉远": 8822,
      "诸人": 8823,
      "辛苦": 8824,
      "追来": 8825,
      "郎君": 8826,
      "韩小莹": 8827,
      "为我": 8828,
      "乘马": 8829,
      "事先": 8830,
      "他也": 8831,
      "你做": 8832,
      "共有": 8833,
      "包惜弱": 8834,
      "又将": 8835,
      "大变": 8836,
      "定会": 8837,
      "张望": 8838,
      "所授": 8839,
      "正德": 8840,
      "竭力": 8841,
      "红了": 8842,
      "这门": 8843,
      "陈友谅": 8844,
      "侄儿": 8845,
      "再去": 8846,
      "又说": 8847,
      "声色": 8848,
      "慈悲": 8849,
      "我已": 8850,
      "我才": 8851,
      "既已": 8852,
      "火焰": 8853,
      "牙齿": 8854,
      "皇宫": 8855,
      "稍有": 8856,
      "结交": 8857,
      "要多": 8858,
      "踉跄": 8859,
      "问他": 8860,
      "面上": 8861,
      "身上的": 8862,
      "从小": 8863,
      "可说": 8864,
      "呛啷": 8865,
      "均是": 8866,
      "孙婆婆": 8867,
      "察觉": 8868,
      "成亲": 8869,
      "现今": 8870,
      "禀报": 8871,
      "立身": 8872,
      "苗大侠": 8873,
      "陆大有": 8874,
      "一个小": 8875,
      "过了良久": 8876,
      "满脸通红": 8877,
      "了上来": 8878,
      "令他": 8879,
      "包裹": 8880,
      "吆喝": 8881,
      "名的": 8882,
      "大奇": 8883,
      "姑苏": 8884,
      "当的一声": 8885,
      "得我": 8886,
      "心思": 8887,
      "心肠": 8888,
      "提到": 8889,
      "握住": 8890,
      "放入": 8891,
      "生了": 8892,
      "离去": 8893,
      "老天": 8894,
      "踌躇": 8895,
      "这中间": 8896,
      "高高": 8897,
      "金面佛": 8898,
      "一脚": 8899,
      "三百": 8900,
      "便知": 8901,
      "倾听": 8902,
      "军士": 8903,
      "叫了": 8904,
      "学会": 8905,
      "指挥": 8906,
      "挥刀": 8907,
      "掌心": 8908,
      "教训": 8909,
      "最多": 8910,
      "狠辣": 8911,
      "禀告": 8912,
      "笑话": 8913,
      "自尽": 8914,
      "这少年": 8915,
      "一行人": 8916,
      "一枚": 8917,
      "一派": 8918,
      "了进去": 8919,
      "五六": 8920,
      "劲风": 8921,
      "合十": 8922,
      "大呼": 8923,
      "天山": 8924,
      "子中": 8925,
      "官府": 8926,
      "定静": 8927,
      "小王爷": 8928,
      "我跟你": 8929,
      "比我": 8930,
      "生性": 8931,
      "的脸": 8932,
      "章进": 8933,
      "等到": 8934,
      "胆敢": 8935,
      "若无": 8936,
      "钟兆": 8937,
      "顶上": 8938,
      "首领": 8939,
      "黄老": 8940,
      "不敢当": 8941,
      "天下英雄": 8942,
      "那是什么": 8943,
      "黑白子": 8944,
      "之计": 8945,
      "侧头": 8946,
      "团团": 8947,
      "宝贝": 8948,
      "怦怦": 8949,
      "拔剑": 8950,
      "杨不悔": 8951,
      "泰山": 8952,
      "等一": 8953,
      "苏菲": 8954,
      "见我": 8955,
      "话说": 8956,
      "赵钱": 8957,
      "还有什么": 8958,
      "遇春": 8959,
      "都要": 8960,
      "金国": 8961,
      "魔头": 8962,
      "了一大": 8963,
      "跟我说": 8964,
      "一路上": 8965,
      "一灯大师": 8966,
      "苏菲亚": 8967,
      "之理": 8968,
      "任何": 8969,
      "你到": 8970,
      "倚天": 8971,
      "别的": 8972,
      "半天": 8973,
      "取过": 8974,
      "可没": 8975,
      "可真": 8976,
      "左首": 8977,
      "师门": 8978,
      "老夫": 8979,
      "胸膛": 8980,
      "逝世": 8981,
      "酸麻": 8982,
      "降龙": 8983,
      "飞刀": 8984,
      "不得了": 8985,
      "那女童": 8986,
      "说不出话来": 8987,
      "一扬": 8988,
      "二位": 8989,
      "二字": 8990,
      "出力": 8991,
      "十九": 8992,
      "大帅": 8993,
      "太师父": 8994,
      "好玩": 8995,
      "布袋": 8996,
      "才道": 8997,
      "把我": 8998,
      "朱长": 8999,
      "杯酒": 9000,
      "畜生": 9001,
      "相似": 9002,
      "空智": 9003,
      "轻易": 9004,
      "远了": 9005,
      "退后": 9006,
      "遇上了": 9007,
      "萧峰道": 9008,
      "赵钱孙": 9009,
      "地瞧着": 9010,
      "崆峒": 9011,
      "已知": 9012,
      "常遇春": 9013,
      "我看": 9014,
      "打量": 9015,
      "提督": 9016,
      "揭开": 9017,
      "杀你": 9018,
      "较量": 9019,
      "都在": 9020,
      "金针": 9021,
      "陪着": 9022,
      "朱长龄": 9023,
      "三步": 9024,
      "五台": 9025,
      "人马": 9026,
      "原本": 9027,
      "又何必": 9028,
      "嗤的一声": 9029,
      "强敌": 9030,
      "忠心": 9031,
      "我知道": 9032,
      "挥动": 9033,
      "数里": 9034,
      "晕了过去": 9035,
      "样子": 9036,
      "毫无": 9037,
      "江山": 9038,
      "沙通天": 9039,
      "没半点": 9040,
      "流水": 9041,
      "百川": 9042,
      "的遗": 9043,
      "祖千秋": 9044,
      "终身": 9045,
      "胜败": 9046,
      "那也不": 9047,
      "飞舞": 9048,
      "也没有": 9049,
      "阿朱道": 9050,
      "那少女道": 9051,
      "心中一凛": 9052,
      "沉吟道": 9053,
      "有点儿": 9054,
      "老头子": 9055,
      "不中": 9056,
      "五指": 9057,
      "吐露": 9058,
      "在手": 9059,
      "收拾": 9060,
      "西北": 9061,
      "那道人": 9062,
      "不知他": 9063,
      "原来如此": 9064,
      "赵敏道": 9065,
      "耶律洪基": 9066,
      "亲热": 9067,
      "他为": 9068,
      "半空中": 9069,
      "又再": 9070,
      "处处": 9071,
      "失了": 9072,
      "尽管": 9073,
      "未曾": 9074,
      "杂种": 9075,
      "灵鹫": 9076,
      "瞧出": 9077,
      "笑吟": 9078,
      "肌肤": 9079,
      "舒服": 9080,
      "陈正德": 9081,
      "飞起": 9082,
      "黄衫": 9083,
      "一个女子": 9084,
      "一道": 9085,
      "上所": 9086,
      "人心": 9087,
      "便不": 9088,
      "充满了": 9089,
      "动了": 9090,
      "吴立身": 9091,
      "告辞": 9092,
      "头脑": 9093,
      "怪不得": 9094,
      "教我": 9095,
      "是非": 9096,
      "皇太后": 9097,
      "神仙": 9098,
      "索性": 9099,
      "这路": 9100,
      "契丹人": 9101,
      "临安": 9102,
      "倏地": 9103,
      "关心": 9104,
      "去的": 9105,
      "反击": 9106,
      "可得": 9107,
      "右腿": 9108,
      "哭道": 9109,
      "奔驰": 9110,
      "拇指": 9111,
      "旁边": 9112,
      "日月": 9113,
      "神通": 9114,
      "群丐": 9115,
      "老兄": 9116,
      "而是": 9117,
      "胜于": 9118,
      "闪电": 9119,
      "闵子": 9120,
      "盈盈道": 9121,
      "光闪动": 9122,
      "笑吟吟": 9123,
      "了不少": 9124,
      "全神": 9125,
      "她在": 9126,
      "很多": 9127,
      "折断": 9128,
      "教你": 9129,
      "桌子": 9130,
      "的剑法": 9131,
      "的尸身": 9132,
      "眼望": 9133,
      "谈论": 9134,
      "随便": 9135,
      "随口": 9136,
      "自然而": 9137,
      "皇帝的": 9138,
      "五岳派": 9139,
      "临死": 9140,
      "傍晚": 9141,
      "叫她": 9142,
      "叫苦": 9143,
      "多端": 9144,
      "多说": 9145,
      "姊妹": 9146,
      "宝驹": 9147,
      "我自然": 9148,
      "无一": 9149,
      "秘笈": 9150,
      "让你": 9151,
      "长大": 9152,
      "韩宝驹": 9153,
      "龙使": 9154,
      "黄老邪": 9155,
      "一舟": 9156,
      "两截": 9157,
      "人清": 9158,
      "大小": 9159,
      "得着": 9160,
      "手段": 9161,
      "打他": 9162,
      "有异": 9163,
      "模一样": 9164,
      "犯了": 9165,
      "端端": 9166,
      "绝顶": 9167,
      "缓步": 9168,
      "跪倒": 9169,
      "辛树": 9170,
      "银针": 9171,
      "长须": 9172,
      "心中却": 9173,
      "周伯通道": 9174,
      "恭恭敬敬地": 9175,
      "下令": 9176,
      "刘一舟": 9177,
      "女弟子": 9178,
      "山东": 9179,
      "开去": 9180,
      "我如": 9181,
      "接住": 9182,
      "清凉": 9183,
      "笑了": 9184,
      "约莫": 9185,
      "胜过": 9186,
      "藏在": 9187,
      "还不是": 9188,
      "通海": 9189,
      "道路": 9190,
      "都给": 9191,
      "七十二": 9192,
      "上风": 9193,
      "侯通海": 9194,
      "做声": 9195,
      "前去": 9196,
      "又向": 9197,
      "又见": 9198,
      "将自己": 9199,
      "山道": 9200,
      "归辛树": 9201,
      "恐怕": 9202,
      "抵御": 9203,
      "明儿": 9204,
      "木高峰": 9205,
      "杀得": 9206,
      "村女": 9207,
      "椅子": 9208,
      "祖宗": 9209,
      "而后": 9210,
      "达尔": 9211,
      "那也是": 9212,
      "都大": 9213,
      "闪身": 9214,
      "陈圆圆": 9215,
      "洪七公道": 9216,
      "十八掌": 9217,
      "自然而然": 9218,
      "出掌": 9219,
      "变成了": 9220,
      "可怖": 9221,
      "吴之": 9222,
      "地来": 9223,
      "太多": 9224,
      "对面": 9225,
      "御前": 9226,
      "慈恩": 9227,
      "打败": 9228,
      "本是": 9229,
      "毒性": 9230,
      "移动": 9231,
      "邓百川": 9232,
      "部属": 9233,
      "都统": 9234,
      "哪里还": 9235,
      "不相识": 9236,
      "血刀僧": 9237,
      "他和": 9238,
      "十倍": 9239,
      "吴六": 9240,
      "喉头": 9241,
      "大小姐": 9242,
      "奔跑": 9243,
      "威震": 9244,
      "总兵": 9245,
      "恶斗": 9246,
      "所学": 9247,
      "折磨": 9248,
      "曾听": 9249,
      "服了": 9250,
      "给了": 9251,
      "老僧": 9252,
      "自身": 9253,
      "跟在": 9254,
      "进攻": 9255,
      "钢刀": 9256,
      "震得": 9257,
      "面门": 9258,
      "什么地方": 9259,
      "了一下": 9260,
      "丹青生": 9261,
      "达尔巴": 9262,
      "刀子": 9263,
      "化解": 9264,
      "又来": 9265,
      "叫嚷": 9266,
      "学得": 9267,
      "松溪": 9268,
      "白自在": 9269,
      "老儿": 9270,
      "背影": 9271,
      "胡乱": 9272,
      "迎接": 9273,
      "镇南": 9274,
      "马行": 9275,
      "那时候": 9276,
      "下泪": 9277,
      "不妥": 9278,
      "主地": 9279,
      "人所": 9280,
      "何足道": 9281,
      "你若": 9282,
      "八名": 9283,
      "右肩": 9284,
      "各派": 9285,
      "哈合台": 9286,
      "嘴巴": 9287,
      "头去": 9288,
      "归二娘": 9289,
      "打我": 9290,
      "按住": 9291,
      "数步": 9292,
      "星河": 9293,
      "石中": 9294,
      "稀奇": 9295,
      "空闻": 9296,
      "等三人": 9297,
      "要想": 9298,
      "那样": 9299,
      "隐瞒": 9300,
      "忍耐不住": 9301,
      "与郭靖": 9302,
      "偷偷": 9303,
      "六脉": 9304,
      "双脚": 9305,
      "向南": 9306,
      "四肢": 9307,
      "大法": 9308,
      "徐长老": 9309,
      "怪异": 9310,
      "愤怒": 9311,
      "报答": 9312,
      "抽出": 9313,
      "来势": 9314,
      "极高": 9315,
      "树上": 9316,
      "治伤": 9317,
      "相识": 9318,
      "行刺": 9319,
      "表妹": 9320,
      "见面": 9321,
      "钱老": 9322,
      "阴毒": 9323,
      "一个是": 9324,
      "武功虽": 9325,
      "慕容博": 9326,
      "答应了": 9327,
      "一沉": 9328,
      "义兄": 9329,
      "亲手": 9330,
      "他已": 9331,
      "内心": 9332,
      "只能": 9333,
      "各有": 9334,
      "屋子": 9335,
      "开心": 9336,
      "恍然": 9337,
      "打死了": 9338,
      "数次": 9339,
      "有谁": 9340,
      "本就": 9341,
      "点穴": 9342,
      "猛听得": 9343,
      "珠宝": 9344,
      "的朋友": 9345,
      "瞎子": 9346,
      "穆人清": 9347,
      "纵横": 9348,
      "老是": 9349,
      "脖子": 9350,
      "达摩": 9351,
      "这位姑娘": 9352,
      "果然是": 9353,
      "徐天宏道": 9354,
      "吴之荣": 9355,
      "一头": 9356,
      "一翁": 9357,
      "之手": 9358,
      "便请": 9359,
      "刺出": 9360,
      "开门": 9361,
      "气得": 9362,
      "水中": 9363,
      "玄贞": 9364,
      "要将": 9365,
      "踪迹": 9366,
      "酒楼": 9367,
      "海老公道": 9368,
      "不致": 9369,
      "不解": 9370,
      "不让": 9371,
      "但如": 9372,
      "崔秋": 9373,
      "惊人": 9374,
      "殿下": 9375,
      "洋洋": 9376,
      "玩笑": 9377,
      "的女子": 9378,
      "苏星河": 9379,
      "跃下": 9380,
      "这件": 9381,
      "你不用": 9382,
      "定静师太": 9383,
      "一千": 9384,
      "危难": 9385,
      "和你": 9386,
      "大和尚": 9387,
      "天上": 9388,
      "崇祯": 9389,
      "张松溪": 9390,
      "忽必": 9391,
      "的神色": 9392,
      "群弟子": 9393,
      "见你": 9394,
      "这招": 9395,
      "这部": 9396,
      "雪山": 9397,
      "明白了": 9398,
      "始终没": 9399,
      "了一会儿": 9400,
      "三十六": 9401,
      "他既": 9402,
      "余下": 9403,
      "兵马": 9404,
      "小孩": 9405,
      "就会": 9406,
      "帮手": 9407,
      "怕他": 9408,
      "我若": 9409,
      "戒律": 9410,
      "挡在": 9411,
      "椅上": 9412,
      "正想": 9413,
      "淋漓": 9414,
      "猛力": 9415,
      "留神": 9416,
      "眼见他": 9417,
      "红药": 9418,
      "这对": 9419,
      "那知": 9420,
      "长矛": 9421,
      "闭目": 9422,
      "龙头": 9423,
      "程灵素道": 9424,
      "星宿派": 9425,
      "王八蛋": 9426,
      "下泪来": 9427,
      "忽必烈": 9428,
      "一早": 9429,
      "人了": 9430,
      "决无": 9431,
      "师侄": 9432,
      "张教主": 9433,
      "惕守": 9434,
      "我了": 9435,
      "打去": 9436,
      "斜身": 9437,
      "有理": 9438,
      "机关": 9439,
      "杨大哥": 9440,
      "生生": 9441,
      "石上": 9442,
      "西华": 9443,
      "途中": 9444,
      "马匹": 9445,
      "什么东西": 9446,
      "再加上": 9447,
      "马行空": 9448,
      "不幸": 9449,
      "之气": 9450,
      "何红药": 9451,
      "便会": 9452,
      "厉声": 9453,
      "只消": 9454,
      "可不": 9455,
      "君宝": 9456,
      "多大": 9457,
      "大官": 9458,
      "影子": 9459,
      "的性命": 9460,
      "突觉": 9461,
      "自来": 9462,
      "费要多": 9463,
      "进房": 9464,
      "镇上": 9465,
      "阿曼": 9466,
      "武功了得": 9467,
      "大师兄": 9468,
      "一颗心": 9469,
      "费要多罗": 9470,
      "一击": 9471,
      "不利": 9472,
      "从中": 9473,
      "八人": 9474,
      "打中": 9475,
      "找不到": 9476,
      "挥掌": 9477,
      "有关": 9478,
      "桃根": 9479,
      "汤沛": 9480,
      "烦恼": 9481,
      "疾驰": 9482,
      "知觉": 9483,
      "等等": 9484,
      "阴阳": 9485,
      "除非": 9486,
      "你这小": 9487,
      "蒙古人": 9488,
      "躬身道": 9489,
      "罗刹国": 9490,
      "去见": 9491,
      "双膝": 9492,
      "号称": 9493,
      "向自己": 9494,
      "听来": 9495,
      "呻吟": 9496,
      "子弟": 9497,
      "存心": 9498,
      "小玄": 9499,
      "岳先生": 9500,
      "康亲王": 9501,
      "我姓": 9502,
      "扶着": 9503,
      "挥手": 9504,
      "樊一翁": 9505,
      "殷离": 9506,
      "礼物": 9507,
      "苦苦": 9508,
      "这套": 9509,
      "也不肯": 9510,
      "厉害的": 9511,
      "过了好": 9512,
      "完颜萍": 9513,
      "全真派": 9514,
      "伸指": 9515,
      "使剑": 9516,
      "侠客": 9517,
      "假的": 9518,
      "发足": 9519,
      "女孩": 9520,
      "小的": 9521,
      "尽力": 9522,
      "我给你": 9523,
      "挡架": 9524,
      "掌柜": 9525,
      "掷去": 9526,
      "斜眼": 9527,
      "气恼": 9528,
      "爸爸": 9529,
      "瘦头陀": 9530,
      "睁开眼": 9531,
      "练得": 9532,
      "肌肉": 9533,
      "药王": 9534,
      "行动": 9535,
      "衡山": 9536,
      "贤弟": 9537,
      "青袍": 9538,
      "高举": 9539,
      "慕容氏": 9540,
      "这样的": 9541,
      "到底是": 9542,
      "不动声色": 9543,
      "六脉神剑": 9544,
      "为你": 9545,
      "二老": 9546,
      "周姑娘": 9547,
      "大仇": 9548,
      "妹妹": 9549,
      "巧妙": 9550,
      "张康": 9551,
      "当场": 9552,
      "情急": 9553,
      "我自己": 9554,
      "所见": 9555,
      "打在": 9556,
      "桃枝": 9557,
      "着脸": 9558,
      "砰砰": 9559,
      "老英雄": 9560,
      "良机": 9561,
      "贱人": 9562,
      "门中": 9563,
      "阳指": 9564,
      "不知去向": 9565,
      "江湖上的": 9566,
      "你说什么": 9567,
      "世间": 9568,
      "他身子": 9569,
      "再行": 9570,
      "向右": 9571,
      "告知": 9572,
      "定闲": 9573,
      "就只": 9574,
      "无用": 9575,
      "甚高": 9576,
      "细看": 9577,
      "老毒物": 9578,
      "这叫做": 9579,
      "铁胆": 9580,
      "问我": 9581,
      "饮酒": 9582,
      "这一日": 9583,
      "令狐冲笑道": 9584,
      "谢逊道": 9585,
      "金蛇郎君": 9586,
      "闵子华": 9587,
      "御前侍卫": 9588,
      "一跃": 9589,
      "两下": 9590,
      "人都": 9591,
      "他自己": 9592,
      "内伤": 9593,
      "又去": 9594,
      "嘱咐": 9595,
      "好事": 9596,
      "山下": 9597,
      "抛下": 9598,
      "玉真": 9599,
      "矮子": 9600,
      "耳听得": 9601,
      "自从": 9602,
      "自语": 9603,
      "迷迷糊": 9604,
      "风际": 9605,
      "手中长剑": 9606,
      "不由自": 9607,
      "迷迷糊糊": 9608,
      "不敌": 9609,
      "两枚": 9610,
      "举刀": 9611,
      "乾坤": 9612,
      "了吗": 9613,
      "他性命": 9614,
      "再无": 9615,
      "向你": 9616,
      "喜色": 9617,
      "城里": 9618,
      "将过去": 9619,
      "已无": 9620,
      "愕然": 9621,
      "挂念": 9622,
      "敏君": 9623,
      "时时": 9624,
      "看去": 9625,
      "站定": 9626,
      "若要": 9627,
      "该死": 9628,
      "躺在": 9629,
      "还请": 9630,
      "不见了": 9631,
      "方证大师": 9632,
      "不自禁地": 9633,
      "石中玉": 9634,
      "之术": 9635,
      "也是一": 9636,
      "亲生": 9637,
      "何惕守": 9638,
      "倒转": 9639,
      "出其": 9640,
      "却仍": 9641,
      "好心": 9642,
      "小慧": 9643,
      "岂有": 9644,
      "救你": 9645,
      "晕去": 9646,
      "来去": 9647,
      "桑结": 9648,
      "每次": 9649,
      "滋味": 9650,
      "点燃": 9651,
      "然一笑": 9652,
      "的铁": 9653,
      "纠缠": 9654,
      "经文": 9655,
      "西毒": 9656,
      "陆高": 9657,
      "顺着": 9658,
      "鹤笔翁": 9659,
      "辟邪剑法": 9660,
      "倚天剑": 9661,
      "丁敏君": 9662,
      "上门": 9663,
      "也会": 9664,
      "依稀": 9665,
      "北斗": 9666,
      "占了": 9667,
      "发颤": 9668,
      "媳妇": 9669,
      "洞口": 9670,
      "的内力": 9671,
      "瞎了": 9672,
      "神气": 9673,
      "群盗": 9674,
      "自有": 9675,
      "色的": 9676,
      "这么一来": 9677,
      "打狗棒法": 9678,
      "一副": 9679,
      "一揖": 9680,
      "三年": 9681,
      "不加": 9682,
      "不耐": 9683,
      "也非": 9684,
      "听到了": 9685,
      "大海": 9686,
      "杀害": 9687,
      "热气": 9688,
      "百余": 9689,
      "金兵": 9690,
      "钦佩": 9691,
      "铮铮": 9692,
      "阴谋": 9693,
      "在他身上": 9694,
      "武林中的": 9695,
      "星宿老": 9696,
      "声大哭": 9697,
      "上有": 9698,
      "下次": 9699,
      "不远": 9700,
      "也难": 9701,
      "但在": 9702,
      "但随即": 9703,
      "使个": 9704,
      "去啦": 9705,
      "反贼": 9706,
      "四面": 9707,
      "大不相同": 9708,
      "山坡": 9709,
      "张君宝": 9710,
      "擒住": 9711,
      "有多少": 9712,
      "置之": 9713,
      "而不": 9714,
      "那马": 9715,
      "随后": 9716,
      "住了她": 9717,
      "一时之间": 9718,
      "无可奈何": 9719,
      "睁开眼来": 9720,
      "与黄蓉": 9721,
      "乘机": 9722,
      "任教主": 9723,
      "先师": 9724,
      "再也不": 9725,
      "剑刃": 9726,
      "却哪里": 9727,
      "吴坎": 9728,
      "呜呜": 9729,
      "奇了": 9730,
      "奔来": 9731,
      "总镖头": 9732,
      "情深": 9733,
      "手来": 9734,
      "照顾": 9735,
      "紧急": 9736,
      "练武": 9737,
      "聚会": 9738,
      "那村女": 9739,
      "酸软": 9740,
      "颤动": 9741,
      "风流": 9742,
      "岳不群道": 9743,
      "了半天": 9744,
      "辟邪剑谱": 9745,
      "一半": 9746,
      "三爷": 9747,
      "下毒": 9748,
      "不已": 9749,
      "临头": 9750,
      "了上去": 9751,
      "仗义": 9752,
      "作为": 9753,
      "便来": 9754,
      "几位": 9755,
      "到这": 9756,
      "呼的一声": 9757,
      "在意": 9758,
      "太子": 9759,
      "失手": 9760,
      "好奇": 9761,
      "心经": 9762,
      "打不过": 9763,
      "拆解": 9764,
      "拍出": 9765,
      "挥剑": 9766,
      "放手": 9767,
      "杀了他": 9768,
      "毒辣": 9769,
      "石子": 9770,
      "称赞": 9771,
      "竟尔": 9772,
      "笑声": 9773,
      "请他": 9774,
      "钦差": 9775,
      "防备": 9776,
      "黑暗": 9777,
      "不是我": 9778,
      "如何是好": 9779,
      "可是他": 9780,
      "张翠山道": 9781,
      "判官笔": 9782,
      "人丛中": 9783,
      "令尊": 9784,
      "全冠": 9785,
      "剑锋": 9786,
      "又不": 9787,
      "可要": 9788,
      "司空": 9789,
      "多了": 9790,
      "大都": 9791,
      "富贵": 9792,
      "情花": 9793,
      "抢着": 9794,
      "摇手": 9795,
      "放声大哭": 9796,
      "时日": 9797,
      "杀手": 9798,
      "柄长剑": 9799,
      "桂公公": 9800,
      "火烧": 9801,
      "白振": 9802,
      "程青竹": 9803,
      "等候": 9804,
      "良心": 9805,
      "杀了我": 9806,
      "莫大先生": 9807,
      "全冠清": 9808,
      "万两银子": 9809,
      "不容": 9810,
      "了口": 9811,
      "使力": 9812,
      "凤凰": 9813,
      "周身": 9814,
      "城外": 9815,
      "山谷": 9816,
      "怀疑": 9817,
      "所谓": 9818,
      "招招": 9819,
      "料不到": 9820,
      "留在": 9821,
      "维扬": 9822,
      "讲究": 9823,
      "队长": 9824,
      "了几声": 9825,
      "郭襄道": 9826,
      "一言不发": 9827,
      "老天爷": 9828,
      "一事": 9829,
      "不弱": 9830,
      "他将": 9831,
      "卓伦": 9832,
      "变招": 9833,
      "在内": 9834,
      "墙上": 9835,
      "心法": 9836,
      "房里": 9837,
      "木卓伦": 9838,
      "机密": 9839,
      "梦中": 9840,
      "照料": 9841,
      "玄冥": 9842,
      "王重阳": 9843,
      "甚好": 9844,
      "痛快": 9845,
      "神医": 9846,
      "而言": 9847,
      "谁也": 9848,
      "韦大人": 9849,
      "黯然": 9850,
      "月光下": 9851,
      "孙仲君": 9852,
      "叫什么名字": 9853,
      "吴六奇": 9854,
      "崔秋山": 9855,
      "不凡": 9856,
      "不起来": 9857,
      "了开去": 9858,
      "你却": 9859,
      "双颊": 9860,
      "在前": 9861,
      "大将": 9862,
      "学过": 9863,
      "尊师": 9864,
      "左边": 9865,
      "志平": 9866,
      "怒之下": 9867,
      "打仗": 9868,
      "打你": 9869,
      "无事": 9870,
      "毒针": 9871,
      "渔网": 9872,
      "的长剑": 9873,
      "真心": 9874,
      "老先生": 9875,
      "读书": 9876,
      "赢了": 9877,
      "公子爷": 9878,
      "明明是": 9879,
      "只剩下": 9880,
      "皱眉道": 9881,
      "五台山": 9882,
      "灵鹫宫": 9883,
      "一到": 9884,
      "一推": 9885,
      "为她": 9886,
      "你知道": 9887,
      "全没": 9888,
      "六个": 9889,
      "关东": 9890,
      "十天": 9891,
      "又过": 9892,
      "同道": 9893,
      "庙中": 9894,
      "急速": 9895,
      "恭喜": 9896,
      "打到": 9897,
      "拿去": 9898,
      "无色": 9899,
      "深谷": 9900,
      "满是": 9901,
      "短刀": 9902,
      "破口": 9903,
      "突见": 9904,
      "背脊": 9905,
      "苏鲁": 9906,
      "误会": 9907,
      "脚步声": 9908,
      "不要脸": 9909,
      "风际中": 9910,
      "出其不意": 9911,
      "苏鲁克": 9912,
      "一模一样": 9913,
      "三僧": 9914,
      "不够": 9915,
      "了来": 9916,
      "他对": 9917,
      "住口": 9918,
      "地图": 9919,
      "大哭": 9920,
      "好说": 9921,
      "必须": 9922,
      "恨恨": 9923,
      "抚摸": 9924,
      "混乱": 9925,
      "的汉子": 9926,
      "话声": 9927,
      "赶去": 9928,
      "越快": 9929,
      "逃出": 9930,
      "武功的": 9931,
      "两个人": 9932,
      "林平之道": 9933,
      "小玄子": 9934,
      "七个": 9935,
      "丈许": 9936,
      "了自己": 9937,
      "再过": 9938,
      "军中": 9939,
      "又没": 9940,
      "可秀": 9941,
      "在天": 9942,
      "尹志平": 9943,
      "懂得": 9944,
      "或是": 9945,
      "探头": 9946,
      "昔日": 9947,
      "李可秀": 9948,
      "火折": 9949,
      "猴儿": 9950,
      "船舱": 9951,
      "花园": 9952,
      "蓦地": 9953,
      "让他们": 9954,
      "这女子": 9955,
      "远去": 9956,
      "镖师": 9957,
      "长气": 9958,
      "雪地": 9959,
      "也没有了": 9960,
      "受了伤": 9961,
      "王剑英": 9962,
      "陆高轩": 9963,
      "一向": 9964,
      "九难": 9965,
      "他这": 9966,
      "传的": 9967,
      "你把": 9968,
      "公冶": 9969,
      "写的": 9970,
      "决非": 9971,
      "几十": 9972,
      "十来": 9973,
      "呵呵": 9974,
      "回事": 9975,
      "均已": 9976,
      "天天": 9977,
      "失望": 9978,
      "她说": 9979,
      "小皇帝": 9980,
      "惊喜": 9981,
      "惊讶": 9982,
      "我叫": 9983,
      "我家": 9984,
      "我还": 9985,
      "提气": 9986,
      "数千": 9987,
      "无伦": 9988,
      "无辜": 9989,
      "望见": 9990,
      "死于": 9991,
      "殿上": 9992,
      "玉蜂": 9993,
      "白寒": 9994,
      "的穴道": 9995,
      "穿过": 9996,
      "老和尚": 9997,
      "老婊子": 9998,
      "胸中": 9999,
      "角上": 10000,
      "阻拦": 10001,
      "伸掌": 10002,
      "你武功": 10003,
      "使用": 10004,
      "半句": 10005,
      "半个时辰": 10006,
      "只听他": 10007,
      "女婿": 10008,
      "好得很": 10009,
      "好端端": 10010,
      "定神": 10011,
      "平常": 10012,
      "归于": 10013,
      "怒火": 10014,
      "怒目": 10015,
      "我妈": 10016,
      "斗得": 10017,
      "机会": 10018,
      "每一招": 10019,
      "比试": 10020,
      "脱险": 10021,
      "萨克": 10022,
      "赵姑娘": 10023,
      "起伏": 10024,
      "这天": 10025,
      "那不是": 10026,
      "陈禹": 10027,
      "下来的": 10028,
      "你这般": 10029,
      "的情景": 10030,
      "梅剑和": 10031,
      "一拉": 10032,
      "不忘": 10033,
      "不提": 10034,
      "之类": 10035,
      "伤害": 10036,
      "但听": 10037,
      "做个": 10038,
      "兵将": 10039,
      "击出": 10040,
      "却无": 10041,
      "参见": 10042,
      "喝问": 10043,
      "图形": 10044,
      "在外": 10045,
      "在桌上": 10046,
      "大明": 10047,
      "封信": 10048,
      "尊驾": 10049,
      "小孩子": 10050,
      "少爷": 10051,
      "居士": 10052,
      "推出": 10053,
      "本寺": 10054,
      "树林": 10055,
      "求你": 10056,
      "活着": 10057,
      "烛火": 10058,
      "王维扬": 10059,
      "百岁": 10060,
      "称呼": 10061,
      "竟似": 10062,
      "脸有": 10063,
      "行了": 10064,
      "袁士": 10065,
      "越好": 10066,
      "阵法": 10067,
      "非但": 10068,
      "骂我": 10069,
      "骗人": 10070,
      "黄钟": 10071,
      "不知是": 10072,
      "心中一动": 10073,
      "为什么要": 10074,
      "否则的话": 10075,
      "顷刻之间": 10076,
      "两头": 10077,
      "伯母": 10078,
      "关外": 10079,
      "冲出": 10080,
      "单是": 10081,
      "安危": 10082,
      "引见": 10083,
      "恶僧": 10084,
      "我做": 10085,
      "教中": 10086,
      "李四": 10087,
      "死后": 10088,
      "盘膝": 10089,
      "解释": 10090,
      "趁机": 10091,
      "辽东": 10092,
      "道姑": 10093,
      "黑夜": 10094,
      "躬身行礼": 10095,
      "大厅上": 10096,
      "千万不可": 10097,
      "一碗": 10098,
      "你跟": 10099,
      "便往": 10100,
      "元璋": 10101,
      "光佐": 10102,
      "关头": 10103,
      "击落": 10104,
      "可有": 10105,
      "图谋": 10106,
      "在那": 10107,
      "少了": 10108,
      "干了": 10109,
      "得有": 10110,
      "我却": 10111,
      "所有": 10112,
      "拿来": 10113,
      "杭州": 10114,
      "瑶迦": 10115,
      "程瑶迦": 10116,
      "穿了": 10117,
      "立足": 10118,
      "红棉": 10119,
      "老弟": 10120,
      "而立": 10121,
      "计较": 10122,
      "认输": 10123,
      "说出": 10124,
      "这大": 10125,
      "原来他": 10126,
      "想到此处": 10127,
      "吓得魂": 10128,
      "转过头来": 10129,
      "血刀老祖": 10130,
      "下马来": 10131,
      "陡然间": 10132,
      "都大锦": 10133,
      "黄钟公": 10134,
      "一凛": 10135,
      "一死": 10136,
      "七怪": 10137,
      "三弟": 10138,
      "之仇": 10139,
      "于此": 10140,
      "五毒": 10141,
      "从所未": 10142,
      "他却": 10143,
      "伸出手": 10144,
      "全都": 10145,
      "千百": 10146,
      "厅中": 10147,
      "去瞧瞧": 10148,
      "只一": 10149,
      "只感": 10150,
      "围住": 10151,
      "在手中": 10152,
      "大通": 10153,
      "如风": 10154,
      "岂非": 10155,
      "布置": 10156,
      "得她": 10157,
      "悬崖": 10158,
      "情形": 10159,
      "日夜": 10160,
      "朝唐": 10161,
      "未能": 10162,
      "朱元璋": 10163,
      "死去": 10164,
      "死得": 10165,
      "段氏": 10166,
      "猜想": 10167,
      "禅杖": 10168,
      "管家": 10169,
      "蹄声": 10170,
      "郝大通": 10171,
      "马姑娘": 10172,
      "少林派的": 10173,
      "大家都": 10174,
      "哥儿俩": 10175,
      "会有": 10176,
      "伯父": 10177,
      "公礼": 10178,
      "凝目": 10179,
      "吃惊": 10180,
      "均有": 10181,
      "太也": 10182,
      "妓院": 10183,
      "家中": 10184,
      "年的": 10185,
      "张五": 10186,
      "我倒": 10187,
      "折扇": 10188,
      "插口道": 10189,
      "朱九": 10190,
      "潇洒": 10191,
      "焦公礼": 10192,
      "理他": 10193,
      "相顾": 10194,
      "眉僧": 10195,
      "称是": 10196,
      "竟也": 10197,
      "第一个": 10198,
      "经历": 10199,
      "美女": 10200,
      "贯注": 10201,
      "走来": 10202,
      "那便是": 10203,
      "魁梧": 10204,
      "麻光佐": 10205,
      "了这许多": 10206,
      "之名": 10207,
      "住手": 10208,
      "你啦": 10209,
      "参与": 10210,
      "发了": 10211,
      "叫作": 10212,
      "叫了出来": 10213,
      "吐蕃": 10214,
      "启禀": 10215,
      "大清": 10216,
      "天德": 10217,
      "好歹": 10218,
      "学了": 10219,
      "少说": 10220,
      "平日": 10221,
      "张朝唐": 10222,
      "得你": 10223,
      "得起": 10224,
      "快说": 10225,
      "所说": 10226,
      "方始": 10227,
      "沙天": 10228,
      "牛肉": 10229,
      "现身": 10230,
      "笑着": 10231,
      "而同": 10232,
      "舍不得": 10233,
      "药丸": 10234,
      "袁相公": 10235,
      "要穴": 10236,
      "身去": 10237,
      "长笑": 10238,
      "骑兵": 10239,
      "的是什么": 10240,
      "听到这里": 10241,
      "十余人": 10242,
      "又惊又怒": 10243,
      "上身": 10244,
      "佛门": 10245,
      "关明": 10246,
      "击中": 10247,
      "只说": 10248,
      "因为": 10249,
      "堂中": 10250,
      "墙壁": 10251,
      "她一": 10252,
      "常言道": 10253,
      "应付": 10254,
      "得胜": 10255,
      "护送": 10256,
      "挡住": 10257,
      "无仇": 10258,
      "此番": 10259,
      "法儿": 10260,
      "直至": 10261,
      "胡言": 10262,
      "薛神医": 10263,
      "跌倒": 10264,
      "这不是": 10265,
      "青衣": 10266,
      "什么的": 10267,
      "我们的": 10268,
      "可是我": 10269,
      "一遍": 10270,
      "丁丁": 10271,
      "丈余": 10272,
      "与人": 10273,
      "他便": 10274,
      "任由": 10275,
      "冒充": 10276,
      "凌霄": 10277,
      "剑士": 10278,
      "口音": 10279,
      "多时辰": 10280,
      "大队": 10281,
      "如山": 10282,
      "如飞": 10283,
      "师祖": 10284,
      "弯腰": 10285,
      "扑上": 10286,
      "无奈": 10287,
      "洪凌波": 10288,
      "溜溜": 10289,
      "狮王": 10290,
      "相干": 10291,
      "福建": 10292,
      "练到": 10293,
      "老道": 10294,
      "辽国": 10295,
      "那瘦": 10296,
      "钟夫人": 10297,
      "长刀": 10298,
      "了一遍": 10299,
      "两人都": 10300,
      "怎么样": 10301,
      "过了头": 10302,
      "不相干": 10303,
      "玉真子": 10304,
      "一举": 10305,
      "不放": 10306,
      "东边": 10307,
      "农夫": 10308,
      "叫了起来": 10309,
      "可爱": 10310,
      "哲别": 10311,
      "大感": 10312,
      "大祸": 10313,
      "大雨": 10314,
      "就没": 10315,
      "带头": 10316,
      "张开": 10317,
      "当作": 10318,
      "情由": 10319,
      "找到了": 10320,
      "每天": 10321,
      "比剑": 10322,
      "焦宛儿": 10323,
      "着我": 10324,
      "着一个": 10325,
      "石头": 10326,
      "称为": 10327,
      "纵跃": 10328,
      "自杀": 10329,
      "西首": 10330,
      "要来": 10331,
      "计策": 10332,
      "让人": 10333,
      "记挂": 10334,
      "身畔": 10335,
      "心想这": 10336,
      "这位是": 10337,
      "丐帮帮主": 10338,
      "那日在": 10339,
      "侠客岛": 10340,
      "关明梅": 10341,
      "一年": 10342,
      "七子": 10343,
      "之功": 10344,
      "书信": 10345,
      "从没": 10346,
      "伸舌头": 10347,
      "再看": 10348,
      "冲儿": 10349,
      "却不是": 10350,
      "双双": 10351,
      "变幻": 10352,
      "周铁": 10353,
      "哭了出来": 10354,
      "哽咽": 10355,
      "啰唆": 10356,
      "声名": 10357,
      "大乱": 10358,
      "大德": 10359,
      "学艺": 10360,
      "府中": 10361,
      "得手": 10362,
      "惊奇": 10363,
      "拆了": 10364,
      "有甚": 10365,
      "极少": 10366,
      "树干": 10367,
      "泰山派": 10368,
      "清脆": 10369,
      "渔人": 10370,
      "空隙": 10371,
      "等都": 10372,
      "苦练": 10373,
      "跟人": 10374,
      "那两个": 10375,
      "男子汉": 10376,
      "的名头": 10377,
      "怦怦乱跳": 10378,
      "沙天广": 10379,
      "一心": 10380,
      "乔帮主": 10381,
      "你和": 10382,
      "公差": 10383,
      "可比": 10384,
      "圆性": 10385,
      "大炮": 10386,
      "大腿": 10387,
      "大英雄": 10388,
      "尊姓大名": 10389,
      "左脚": 10390,
      "干人": 10391,
      "弥陀": 10392,
      "径自": 10393,
      "才能": 10394,
      "拉扯": 10395,
      "换了": 10396,
      "李岩": 10397,
      "桃实": 10398,
      "模糊": 10399,
      "活了": 10400,
      "的两": 10401,
      "相遇": 10402,
      "破解": 10403,
      "约而同": 10404,
      "而坐": 10405,
      "虽有": 10406,
      "议论": 10407,
      "谁也不敢": 10408,
      "铁盒": 10409,
      "铜牌": 10410,
      "颤抖": 10411,
      "驸马": 10412,
      "骆驼": 10413,
      "自己人": 10414,
      "令狐公子": 10415,
      "英雄豪杰": 10416,
      "袁士霄": 10417,
      "一分": 10418,
      "一字": 10419,
      "不分": 10420,
      "不虚": 10421,
      "乘势": 10422,
      "乞丐": 10423,
      "二师哥": 10424,
      "从窗": 10425,
      "全仗": 10426,
      "八方": 10427,
      "几招": 10428,
      "刚好": 10429,
      "双雕": 10430,
      "吃的": 10431,
      "嘴角": 10432,
      "天竺": 10433,
      "差不多": 10434,
      "当今": 10435,
      "我跟你说": 10436,
      "所能": 10437,
      "敦儒": 10438,
      "智光": 10439,
      "束手": 10440,
      "满头": 10441,
      "胜了": 10442,
      "茫然": 10443,
      "血色": 10444,
      "见杨过": 10445,
      "身分": 10446,
      "轻身": 10447,
      "附近": 10448,
      "难保": 10449,
      "难受": 10450,
      "雪白": 10451,
      "也不知道": 10452,
      "见到她": 10453,
      "丐帮的": 10454,
      "数十丈": 10455,
      "的小子": 10456,
      "钟兆文": 10457,
      "周铁鹪": 10458,
      "一共": 10459,
      "不转": 10460,
      "个儿": 10461,
      "为妻": 10462,
      "也罢": 10463,
      "今儿": 10464,
      "双刀": 10465,
      "吃过": 10466,
      "和那": 10467,
      "嘴唇": 10468,
      "坐倒": 10469,
      "大急": 10470,
      "心愿": 10471,
      "忽觉": 10472,
      "情意": 10473,
      "想必": 10474,
      "我不知道": 10475,
      "挪移": 10476,
      "掌风": 10477,
      "桃干": 10478,
      "正待": 10479,
      "没能": 10480,
      "满腔": 10481,
      "独孤": 10482,
      "相差": 10483,
      "见怪": 10484,
      "赶路": 10485,
      "这家伙": 10486,
      "那晚": 10487,
      "郑重": 10488,
      "陛下": 10489,
      "只见那": 10490,
      "此言一出": 10491,
      "从怀中取出": 10492,
      "一间": 10493,
      "击去": 10494,
      "南方": 10495,
      "地步": 10496,
      "士中": 10497,
      "女的": 10498,
      "就不": 10499,
      "当是": 10500,
      "微感": 10501,
      "护住": 10502,
      "时的": 10503,
      "森森": 10504,
      "灯笼": 10505,
      "热血": 10506,
      "神僧": 10507,
      "竟如此": 10508,
      "筷子": 10509,
      "而为": 10510,
      "而入": 10511,
      "腹中": 10512,
      "起疑": 10513,
      "这二人": 10514,
      "马鞭": 10515,
      "也不必": 10516,
      "不过是": 10517,
      "身子一": 10518,
      "第一次": 10519,
      "数十名": 10520,
      "擒拿手": 10521,
      "孙仲寿": 10522,
      "不耐烦": 10523,
      "不离": 10524,
      "两旁": 10525,
      "你不是": 10526,
      "其意": 10527,
      "分手": 10528,
      "变故": 10529,
      "和气": 10530,
      "四五": 10531,
      "坐了": 10532,
      "对着": 10533,
      "将信": 10534,
      "尚在": 10535,
      "形貌": 10536,
      "心动": 10537,
      "惨白": 10538,
      "想法子": 10539,
      "执法": 10540,
      "掌教": 10541,
      "教他": 10542,
      "无踪": 10543,
      "独自": 10544,
      "的女儿": 10545,
      "等我": 10546,
      "素知": 10547,
      "脸露": 10548,
      "莫名": 10549,
      "越想": 10550,
      "这批": 10551,
      "连环": 10552,
      "部经书": 10553,
      "飞奔": 10554,
      "黄真": 10555,
      "兄弟的": 10556,
      "的大事": 10557,
      "王语嫣道": 10558,
      "罗刹兵": 10559,
      "那也罢了": 10560,
      "长叹一声": 10561,
      "不约而同": 10562,
      "主持": 10563,
      "也可": 10564,
      "你听": 10565,
      "几句话": 10566,
      "取了": 10567,
      "哪知道": 10568,
      "喜悦": 10569,
      "回归": 10570,
      "大驾": 10571,
      "天门": 10572,
      "将上来": 10573,
      "得干干净净": 10574,
      "抓去": 10575,
      "接口道": 10576,
      "敬重": 10577,
      "玩意": 10578,
      "白发": 10579,
      "的金": 10580,
      "的高手": 10581,
      "石室": 10582,
      "神智": 10583,
      "自会": 10584,
      "计老人": 10585,
      "这边": 10586,
      "这三人": 10587,
      "送给": 10588,
      "金发": 10589,
      "顾不得": 10590,
      "黄河": 10591,
      "青青道": 10592,
      "木婉清道": 10593,
      "神龙教": 10594,
      "神雕侠": 10595,
      "降龙十八掌": 10596,
      "镇南王": 10597,
      "一处": 10598,
      "一株": 10599,
      "两次": 10600,
      "也能": 10601,
      "人数": 10602,
      "余地": 10603,
      "傻蛋": 10604,
      "凌空": 10605,
      "只待": 10606,
      "吃亏": 10607,
      "多有": 10608,
      "大举": 10609,
      "奥妙": 10610,
      "如是": 10611,
      "忘记": 10612,
      "成名": 10613,
      "所知": 10614,
      "无恙": 10615,
      "气愤": 10616,
      "的一个": 10617,
      "的儿子": 10618,
      "真好": 10619,
      "瞪视": 10620,
      "石庄主": 10621,
      "秦红棉": 10622,
      "素不相识": 10623,
      "结义": 10624,
      "袖手": 10625,
      "说笑": 10626,
      "诸位": 10627,
      "豹子": 10628,
      "进宫": 10629,
      "都道": 10630,
      "阿弥陀": 10631,
      "香气": 10632,
      "咱们就": 10633,
      "过了半晌": 10634,
      "朱九真": 10635,
      "两块": 10636,
      "了两个": 10637,
      "你是谁": 10638,
      "侥幸": 10639,
      "全金发": 10640,
      "凶手": 10641,
      "刀柄": 10642,
      "去看": 10643,
      "另一人道": 10644,
      "叫好": 10645,
      "后颈": 10646,
      "地上": 10647,
      "小太监": 10648,
      "常人": 10649,
      "张真人": 10650,
      "当胸": 10651,
      "打紧": 10652,
      "拳打": 10653,
      "无影": 10654,
      "此外": 10655,
      "武敦儒": 10656,
      "段天德": 10657,
      "河南": 10658,
      "玉龙": 10659,
      "疗伤": 10660,
      "的招数": 10661,
      "眼看": 10662,
      "着急": 10663,
      "脚上": 10664,
      "艰难": 10665,
      "虽不": 10666,
      "轻声道": 10667,
      "了一只": 10668,
      "十余招": 10669,
      "手下留情": 10670,
      "十二章": 10671,
      "阿弥陀佛": 10672,
      "三下": 10673,
      "三四": 10674,
      "上天": 10675,
      "个明白": 10676,
      "了好": 10677,
      "以一": 10678,
      "以防": 10679,
      "住她": 10680,
      "作响": 10681,
      "侍候": 10682,
      "兄长": 10683,
      "再打": 10684,
      "又怎能": 10685,
      "向天": 10686,
      "哼哼": 10687,
      "喘气": 10688,
      "头儿": 10689,
      "寂静": 10690,
      "带同": 10691,
      "帮会": 10692,
      "恰好": 10693,
      "我心中": 10694,
      "我二人": 10695,
      "攻击": 10696,
      "散人": 10697,
      "数人": 10698,
      "有气": 10699,
      "未毕": 10700,
      "死尸": 10701,
      "理睬": 10702,
      "甚至": 10703,
      "的少年": 10704,
      "空心": 10705,
      "脸如": 10706,
      "自言": 10707,
      "范蠡": 10708,
      "蝴蝶": 10709,
      "谁也没": 10710,
      "阮士中": 10711,
      "隐居": 10712,
      "骨头": 10713,
      "这小姑娘": 10714,
      "三天": 10715,
      "个大": 10716,
      "为何": 10717,
      "于你": 10718,
      "他去": 10719,
      "他这一": 10720,
      "住了他": 10721,
      "健雄": 10722,
      "兆和": 10723,
      "克制": 10724,
      "原因": 10725,
      "发掌": 10726,
      "嘉兴": 10727,
      "女孩儿": 10728,
      "如意": 10729,
      "子里": 10730,
      "恨不得": 10731,
      "慷慨": 10732,
      "我在这里": 10733,
      "所使": 10734,
      "抢过": 10735,
      "撕下": 10736,
      "数寸": 10737,
      "数尺": 10738,
      "澄光": 10739,
      "独斗": 10740,
      "相比": 10741,
      "瞧你": 10742,
      "答道": 10743,
      "胡大哥": 10744,
      "说了出来": 10745,
      "踏上": 10746,
      "身世": 10747,
      "阎基": 10748,
      "露出一": 10749,
      "非烟": 10750,
      "顺势": 10751,
      "咱们的": 10752,
      "大声喝道": 10753,
      "暗暗叫苦": 10754,
      "拱手道": 10755,
      "支持不住": 10756,
      "上人": 10757,
      "世镜": 10758,
      "你放心": 10759,
      "保佑": 10760,
      "刀枪": 10761,
      "却听得": 10762,
      "可见": 10763,
      "呐喊": 10764,
      "命在": 10765,
      "大恩": 10766,
      "守在": 10767,
      "屋里": 10768,
      "当头": 10769,
      "影踪": 10770,
      "得快": 10771,
      "怜惜": 10772,
      "我早": 10773,
      "挡格": 10774,
      "是她": 10775,
      "曲非烟": 10776,
      "有心": 10777,
      "沉思": 10778,
      "清晨": 10779,
      "相同": 10780,
      "童兆和": 10781,
      "至少": 10782,
      "莫怪": 10783,
      "虽在": 10784,
      "行径": 10785,
      "躺在地下": 10786,
      "那倒": 10787,
      "这些日子": 10788,
      "了几步": 10789,
      "太后道": 10790,
      "又有何": 10791,
      "老头儿": 10792,
      "使个眼色": 10793,
      "白寒枫": 10794,
      "一杯": 10795,
      "七侠": 10796,
      "以此": 10797,
      "传出": 10798,
      "医治": 10799,
      "南京": 10800,
      "去做": 10801,
      "又叫": 10802,
      "发射": 10803,
      "受人": 10804,
      "另一名": 10805,
      "只求": 10806,
      "国姓": 10807,
      "坐起": 10808,
      "外公": 10809,
      "大义": 10810,
      "大力": 10811,
      "大发": 10812,
      "大将军": 10813,
      "失色": 10814,
      "害我": 10815,
      "寒气": 10816,
      "已到": 10817,
      "已自": 10818,
      "帮中": 10819,
      "得远了": 10820,
      "我把": 10821,
      "我妈妈": 10822,
      "挡开": 10823,
      "捉拿": 10824,
      "有难": 10825,
      "棺材": 10826,
      "正经": 10827,
      "殿中": 10828,
      "烛光": 10829,
      "玫瑰": 10830,
      "琢磨": 10831,
      "痛楚": 10832,
      "的掌力": 10833,
      "盘旋": 10834,
      "相隔": 10835,
      "真要": 10836,
      "空见": 10837,
      "竟将": 10838,
      "苦头陀": 10839,
      "跟我们": 10840,
      "连叫": 10841,
      "郭伯伯": 10842,
      "醒来": 10843,
      "飞扬": 10844,
      "骗我": 10845,
      "你这小子": 10846,
      "微微一": 10847,
      "武当山": 10848,
      "华山派的": 10849,
      "生死符": 10850,
      "久仰": 10851,
      "也想": 10852,
      "了进来": 10853,
      "从头": 10854,
      "借力": 10855,
      "到她": 10856,
      "刺入": 10857,
      "双侠": 10858,
      "叫得": 10859,
      "嗡嗡": 10860,
      "均觉": 10861,
      "坏事": 10862,
      "处穴道": 10863,
      "奉命": 10864,
      "好容易": 10865,
      "婆娘": 10866,
      "子穆": 10867,
      "宝象": 10868,
      "对答": 10869,
      "小贼": 10870,
      "平生": 10871,
      "彦超": 10872,
      "往地下": 10873,
      "成的": 10874,
      "拳头": 10875,
      "提着": 10876,
      "摇摇头": 10877,
      "更有": 10878,
      "林师弟": 10879,
      "欲待": 10880,
      "正色": 10881,
      "泄露": 10882,
      "甚喜": 10883,
      "的师父": 10884,
      "省悟": 10885,
      "知晓": 10886,
      "粉碎": 10887,
      "逃命": 10888,
      "钻入": 10889,
      "闲事": 10890,
      "陆庄主": 10891,
      "难免": 10892,
      "面颊": 10893,
      "风清": 10894,
      "少林寺中": 10895,
      "张康年": 10896,
      "他不得": 10897,
      "你给我": 10898,
      "倒地": 10899,
      "兆惠": 10900,
      "分明": 10901,
      "剑鞘": 10902,
      "十七": 10903,
      "叹息": 10904,
      "嗓子": 10905,
      "孟健雄": 10906,
      "害人": 10907,
      "少室": 10908,
      "幸亏": 10909,
      "我听": 10910,
      "我本来": 10911,
      "料理": 10912,
      "本书": 10913,
      "极快": 10914,
      "流血": 10915,
      "深仇": 10916,
      "清军": 10917,
      "的姑娘": 10918,
      "见是": 10919,
      "讨好": 10920,
      "跌落": 10921,
      "那大": 10922,
      "黄眉僧": 10923,
      "齐声道": 10924,
      "这些年来": 10925,
      "说着向": 10926,
      "有一位": 10927,
      "得很了": 10928,
      "放在桌上": 10929,
      "哪知他": 10930,
      "仪琳道": 10931,
      "小小年纪": 10932,
      "从未见过": 10933,
      "旁观众人": 10934,
      "送了性命": 10935,
      "玉女心经": 10936,
      "轻身功夫": 10937,
      "越想越": 10938,
      "自言自语": 10939,
      "上写": 10940,
      "不杀": 10941,
      "不然": 10942,
      "与杨过": 10943,
      "作势": 10944,
      "侍剑": 10945,
      "依着": 10946,
      "勒马": 10947,
      "却在": 10948,
      "叫他们": 10949,
      "向郭靖": 10950,
      "命丧": 10951,
      "在半空": 10952,
      "声叫道": 10953,
      "孤身": 10954,
      "完了": 10955,
      "峰上": 10956,
      "店伴": 10957,
      "我怎": 10958,
      "戒备": 10959,
      "抖动": 10960,
      "文武": 10961,
      "更增": 10962,
      "来找": 10963,
      "深入": 10964,
      "白世镜": 10965,
      "的法门": 10966,
      "睡觉": 10967,
      "稳稳": 10968,
      "箫声": 10969,
      "舍命": 10970,
      "说的是": 10971,
      "飞天": 10972,
      "高彦超": 10973,
      "麻烦": 10974,
      "只见一个": 10975,
      "原来这": 10976,
      "再也忍耐不住": 10977,
      "这两句话": 10978,
      "向问天道": 10979,
      "光明顶": 10980,
      "光闪闪": 10981,
      "马蹄声响": 10982,
      "公冶乾": 10983,
      "一刻": 10984,
      "三声": 10985,
      "也就是了": 10986,
      "仪清": 10987,
      "但我": 10988,
      "但见她": 10989,
      "像是": 10990,
      "兄妹": 10991,
      "决不是": 10992,
      "出家人": 10993,
      "后悔": 10994,
      "大骇": 10995,
      "希仁": 10996,
      "弟兄": 10997,
      "恶鬼": 10998,
      "数年": 10999,
      "数月": 11000,
      "武师": 11001,
      "睡着了": 11002,
      "脸现": 11003,
      "自刎": 11004,
      "荒山": 11005,
      "让开": 11006,
      "转动": 11007,
      "还得": 11008,
      "鬼鬼": 11009,
      "心中大喜": 11010,
      "脸色大变": 11011,
      "丘处机道": 11012,
      "一响": 11013,
      "上冲": 11014,
      "不迟": 11015,
      "世子": 11016,
      "你叫我": 11017,
      "做什么": 11018,
      "八个": 11019,
      "其妙": 11020,
      "南山": 11021,
      "却要": 11022,
      "口诀": 11023,
      "大悟": 11024,
      "如电": 11025,
      "尽心": 11026,
      "扑去": 11027,
      "断剑": 11028,
      "无名": 11029,
      "暗道": 11030,
      "灵智": 11031,
      "狗杂种": 11032,
      "狠毒": 11033,
      "琵琶": 11034,
      "甘心": 11035,
      "男孩": 11036,
      "眼眶": 11037,
      "等他": 11038,
      "结果": 11039,
      "绿竹": 11040,
      "聚贤": 11041,
      "胁下": 11042,
      "见得": 11043,
      "说些什么": 11044,
      "跳起身来": 11045,
      "身处": 11046,
      "近年来": 11047,
      "靖儿": 11048,
      "骁骑": 11049,
      "高深": 11050,
      "鸳鸯": 11051,
      "数十人": 11052,
      "乔峰道": 11053,
      "大喝一声": 11054,
      "全神贯注": 11055,
      "司空玄": 11056,
      "不似": 11057,
      "不透": 11058,
      "不清楚": 11059,
      "严密": 11060,
      "为之": 11061,
      "乘风": 11062,
      "亲近": 11063,
      "今而后": 11064,
      "他奶奶的": 11065,
      "则是": 11066,
      "十七八": 11067,
      "圣旨": 11068,
      "姿式": 11069,
      "尺许": 11070,
      "带领": 11071,
      "惊惧": 11072,
      "惶急": 11073,
      "手一": 11074,
      "拉开": 11075,
      "星竹": 11076,
      "昨天": 11077,
      "有事": 11078,
      "来人": 11079,
      "果见": 11080,
      "活命": 11081,
      "深湛": 11082,
      "渊源": 11083,
      "的身子": 11084,
      "的都是": 11085,
      "相抗": 11086,
      "石帮主": 11087,
      "第五": 11088,
      "簌簌": 11089,
      "精明": 11090,
      "要待": 11091,
      "越远": 11092,
      "过人": 11093,
      "造诣": 11094,
      "那姑娘": 11095,
      "颜色": 11096,
      "马头": 11097,
      "鲁莽": 11098,
      "黑影": 11099,
      "这一刀": 11100,
      "年纪虽": 11101,
      "实在太": 11102,
      "一步步": 11103,
      "黑暗之中": 11104,
      "一转": 11105,
      "三次": 11106,
      "丧命": 11107,
      "中指": 11108,
      "于人": 11109,
      "仗着": 11110,
      "以便": 11111,
      "你已": 11112,
      "做事": 11113,
      "决不敢": 11114,
      "南希仁": 11115,
      "去救": 11116,
      "号角": 11117,
      "噗的一声": 11118,
      "围在": 11119,
      "声谷": 11120,
      "大漠": 11121,
      "大弟子": 11122,
      "就如": 11123,
      "左子穆": 11124,
      "平素": 11125,
      "总之": 11126,
      "惨呼": 11127,
      "戚长发": 11128,
      "所说的": 11129,
      "把握": 11130,
      "摸到": 11131,
      "望一眼": 11132,
      "洛阳": 11133,
      "父女": 11134,
      "爹娘": 11135,
      "狂奔": 11136,
      "的么": 11137,
      "的花": 11138,
      "的说话": 11139,
      "睁眼": 11140,
      "示意": 11141,
      "竟敢": 11142,
      "竟能": 11143,
      "箭射": 11144,
      "练剑": 11145,
      "缩回": 11146,
      "罕见": 11147,
      "老贼": 11148,
      "老乌龟": 11149,
      "耽搁": 11150,
      "追上": 11151,
      "郑公子": 11152,
      "阮星竹": 11153,
      "须当": 11154,
      "鹰爪": 11155,
      "自己性命": 11156,
      "如此说": 11157,
      "说话之间": 11158,
      "双手一": 11159,
      "忽然间": 11160,
      "客店中": 11161,
      "祖师爷": 11162,
      "半夜里": 11163,
      "不作声": 11164,
      "定闲师太": 11165,
      "骁骑营": 11166,
      "万人": 11167,
      "不舍": 11168,
      "会儿": 11169,
      "伸臂": 11170,
      "你干什么": 11171,
      "关怀": 11172,
      "几年": 11173,
      "半边": 11174,
      "又给": 11175,
      "双眉": 11176,
      "名头": 11177,
      "和夫人": 11178,
      "城头": 11179,
      "堂堂": 11180,
      "大敌": 11181,
      "寂寞": 11182,
      "尔丹": 11183,
      "店中": 11184,
      "当儿": 11185,
      "惊异": 11186,
      "抗拒": 11187,
      "拦阻": 11188,
      "插在": 11189,
      "斯科": 11190,
      "昨日": 11191,
      "极重": 11192,
      "沙漠": 11193,
      "的长": 11194,
      "的本事": 11195,
      "看清楚": 11196,
      "碗酒": 11197,
      "茫茫": 11198,
      "莫斯科": 11199,
      "葛尔丹": 11200,
      "观主": 11201,
      "言达": 11202,
      "认出": 11203,
      "银票": 11204,
      "阻止": 11205,
      "陈总舵主": 11206,
      "昆仑派": 11207,
      "司马林": 11208,
      "叫了声": 11209,
      "风清扬": 11210,
      "鬼鬼祟": 11211,
      "一辈子": 11212,
      "三娘": 11213,
      "不二": 11214,
      "与小龙女": 11215,
      "两根": 11216,
      "中慧": 11217,
      "为两截": 11218,
      "你奶奶的": 11219,
      "全家": 11220,
      "勾结": 11221,
      "却给": 11222,
      "口边": 11223,
      "可笑": 11224,
      "同行": 11225,
      "名门": 11226,
      "向内": 11227,
      "均知": 11228,
      "多了一": 11229,
      "够了": 11230,
      "大元": 11231,
      "大起": 11232,
      "天龙": 11233,
      "威猛": 11234,
      "官员": 11235,
      "尤其": 11236,
      "就可": 11237,
      "常常": 11238,
      "忍住": 11239,
      "快来": 11240,
      "念及": 11241,
      "方向": 11242,
      "无情": 11243,
      "昏迷": 11244,
      "浑厚": 11245,
      "深重": 11246,
      "满清": 11247,
      "滴滴": 11248,
[...]
